#version: 0.2
Ġ d
Ġ e
Ġ a
r a
Ġ p
Ġ c
Ġd e
Ġ s
q u
n t
o s
Ġ m
e r
d o
a s
Ġ n
a r
Ġ qu
Ġ o
i s
Ġc o
Ġ t
e s
Ã £
i n
u m
Ã£ o
o r
Ġqu e
i a
Ġ f
â Ģ
âĢ Ķ
Ġ v
t a
r e
o u
Ġs e
Ġ um
Ġe s
a n
l e
d a
l a
e n
e nt
v a
Ġco m
h a
Ã ¡
a ra
r o
Ã §
s e
Ġ b
t o
Ã ©
a l
Ġ E
d e
Ġ âĢĶ
i m
e m
Ġd o
e l
Ġp ara
i c
e i
Ġn Ã£o
Ġe m
g u
h o
r i
Ġ l
Ġn o
an do
Ġd a
Ġ A
Ġum a
ent e
a m
Ã ª
c o
Ġ g
o c
Ġn a
t e
s o
e c
Ġ S
. .
Ġp or
Ġm a
Ã ³
Ã Ń
Ġes t
o n
o l
Ġs u
Ġc a
Ġa s
i l
i r
in ha
ta va
Ġ re
Ġe le
Ġ N
Ġ os
Ġ C
Ġ P
Ġ M
Ġ D
Ġo u
Ġa l
Ġ O
u s
ra n
a do
Ġd is
Ġm e
Ġ r
Ġ Ã
Ġm as
o m
v e
l h
p o
i da
g o
qu e
Ġ T
d os
nt e
u n
Ġd i
Ġes tava
Ġe ra
Ġde s
oc Ãª
Ġco n
Ġe n
Ġ j
Ġs a
Ġ B
m ente
c a
Ġma is
m a
Ġcom o
Ã§ Ã£o
i do
Ġp o
Ġf a
Ġ Ã©
Ã§ a
Ġp er
Ġa t
Ġf o
Ġp ar
Ġ in
s a
Ġdis se
a i
d i
Ġm u
Ġp e
nt o
u l
Ġa c
i v
.. .
Ġ V
Ġ R
Ġe u
Ġt er
i u
c i
Ġe nt
Ġ J
ra m
h e
Ġa p
Ġv ocÃª
Ġp r
e z
Ġ le
Ġt inha
g a
Ġe la
Ã© m
i t
ra s
o b
v ia
Ġo lh
d as
m o
Ġ H
b e
en s
i to
is a
Ġ F
g ar
ĠN Ã£o
Ġ is
ent o
Ġv er
Ġe x
Ġp ro
Ġt em
Ġs er
Ġa o
Ġm es
r ia
Ġsu a
Ġco nt
es se
l es
Ġ h
u r
ĠÃ ł
Ġes p
Ġ la
u ra
Ġt o
en do
Ġa n
Ġ i
Ġis so
Ġse u
i ra
Ġd os
Ġ ho
Ġqu ando
ic a
r es
Ġse m
m e
r os
Ġou t
Ġfa z
v el
Ġ L
d er
c e
Ġa r
Ġ ha
Ġ G
Ġco r
Ġest Ã¡
l o
Ġv ez
a t
ĠE le
im a
Ġp re
Ġr es
el o
Ġa b
t ar
Q u
Ġs ob
um a
Ġfo i
v er
nt es
c ia
a nto
Ġdi z
Ġp as
Ġat Ã©
ĠE s
t ou
i x
ida de
Ġpar ec
e u
n do
Ġm o
i z
i e
Ġas s
po is
Ġp a
Ġf ic
Ġse nt
Ġc ar
i o
t as
d ia
Ġse gu
i g
t os
ei ra
Ã º
Ġco isa
ei ro
Ã§ o
Ġha via
im p
Ġc as
ĠD e
Ġv ol
Ġmu ito
in da
Ã¡ s
Ġf or
in do
co nt
Ġ Qu
Ġes c
Ġb em
Ġmes mo
Ġl u
Ġc am
in a
Ġc er
Ġm en
m b
go ra
ri o
Ġal g
Ġn os
Ġd as
Ġl Ã¡
p a
nt a
Ġsob re
ĠE u
ra r
h or
i ta
p e
va m
Ã µ
Ġqu er
r u
ar o
is t
u do
in ho
Ãµ es
v o
ia m
Ġcom e
Ġc h
Ġv o
Ġt r
Ġp es
Ġp ens
Ġ U
Ġde pois
Ġt am
Ġc he
se gu
Ġsa b
Ġa inda
ai x
Ġa m
Ġs Ã³
Ġm or
j a
in h
Ãª n
Ġa qu
Ġolh os
Ġp elo
ve z
Ġt ra
Ã ´
Ġ ra
Ġca be
al vez
Ġc ha
Ġm Ã£
Ġtem po
a c
n de
ĠM as
ĠV ocÃª
Ġho m
as e
ei to
b Ã©m
que le
Ġp ou
Ġde le
Ġp ra
Ġla do
Ġcom p
ic o
Ġcabe Ã§a
t er
Ġper gu
Ġ I
n a
Ġi nt
os to
b o
r ou
ĠS e
i or
ran do
Ġpas s
Ġf al
Ġt e
v i
Ġd ia
Ġa gora
u a
Ġres p
Ġ imp
Ġcon segu
h ar
ei o
Ġm an
ara m
Ġtam bÃ©m
Ġde ix
do r
Ġv ai
iv esse
Ġv i
Ġcome Ã§
Ġ (
que la
Ã ¢
Ġme u
ĠE la
Ġ ir
p re
n o
Ġfaz er
ar ia
Ġdo is
qu er
am os
da de
Ġm Ã£o
ĠÃ º
t i
c h
ĠÃ ī
Ġe les
Ġcas a
Ġj Ã¡
Ġpe la
nt ou
Ġo nde
es s
ra da
Ġqu ase
i te
Ġm inha
ĠA l
oc a
am ente
Ġv el
Ã³ s
g ou
Ġ "
Ġdi re
Ġa ntes
Ġ W
l ha
Ġp u
ra do
z a
en as
Ġt udo
Ġj o
Ġse us
Ġpo der
or r
Ġpor ta
g e
Ġes ta
Ġf re
Ġt Ã£o
a da
Ġn e
il l
Ġg ri
d ar
un do
Ġpou co
ĠP or
Ġp os
g em
d es
m os
Ġass im
gu Ã©m
p er
Ġg ran
Ġqu al
Ġpo de
h os
Ġvol ta
f er
Ġvo z
Ġmen os
Ġout ro
Ġpr im
Ġna da
aix o
ac k
t or
Ġent re
Ġd u
Ġt or
es t
Ġf il
as se
e ra
ÃŃ vel
Ġl he
c ul
Ġfo ra
Ġdiz er
Ġse n
Ġt i
f or
Ġb o
g ra
Ġp en
c u
Ġhom em
- -
Ãª s
r y
ta nte
Ġpes so
ar ec
b er
s t
ta mente
os se
in al
Ġt alvez
Ġestava m
Ġ ro
Ġs ol
Ġalg um
Ġde la
Ġv is
Ġ Ã¡
Ġn as
Ġn em
Ġpre c
Ġan os
cont ec
ent a
in u
l as
qu anto
Ġpor que
Ġr osto
Ãªn cia
e la
ĠC om
un ca
ĠO s
Ġs o
Ġm ar
Ġa contec
in g
n e
Ġf osse
Ġ 1
re m
de u
Ġparec ia
Ġfre nte
Ġen cont
i go
is as
Ġou v
Ġs om
Ġalg uma
Ġlu gar
f ic
Ġpr Ã³
Ġg aro
lh er
Ġm el
Ġap enas
Ġex p
Ġent Ã£o
Ġno vo
Ġest ar
Ġc al
an d
co n
Ġre p
h as
c os
Ġc l
Ġver dade
Ġ K
E le
Ġo b
h ec
ĠmÃ£ os
Ġaqu i
Ġcor re
Ġle va
ta do
Ġto dos
c ho
ir ou
Ġt en
ri u
ĠJ ack
Ġout ra
en h
Ã§ Ãµes
t Ã¡
Ã¢ n
Ġl on
Ġm eio
Ġs ido
Ġt om
Ġm om
Ġco isas
Ã§ as
Ġno ite
ĠE nt
Ġm al
Ġpar te
a is
ĠE ra
i os
is o
Ġco l
Ġc u
im o
Ġle mb
Ġf ez
in o
el as
Ġt ent
Ġmel hor
ra va
ent os
Ġb a
es ta
os t
Ġmu lher
Ġen quanto
Ġpo dia
Ġvez es
Ġa f
Ġp Ã©
Ġn unca
k e
Ġd or
Ġv a
Ġcon s
Ġb ar
Ġt ivesse
Ġe r
ci on
Ġal i
Ġera m
Ġsab ia
bo ra
r Ã¡s
Ġsem pre
Ġgran de
gu e
Ġ us
Ġv iu
ri os
Ġde nt
u t
Ġint er
Ġb om
Ġc in
di o
Ġsu b
Ġp ai
v or
Ġm im
Ġresp on
Ġdu as
Ġpergu ntou
b a
Ġin s
ĠJ o
t ura
Ġmom ento
Ġdent ro
d y
n s
b al
ĠA s
g ado
Ġn um
di e
Ġpe qu
ĠP e
ĠU m
p h
Ġ gu
il o
d u
os a
Ġb an
ĠA n
Ġt ran
Ġem bora
l t
Ã¡ rio
Ġfic ar
s Ã£o
Ġin c
Ġfic ou
Ġc ara
Ġsa be
Ġqual quer
Ġcha m
ĠN o
al mente
iv o
Ġb ra
Ġsu as
Ġat rÃ¡s
ĠP o
Ġc ria
Ġdis so
Ġn enh
Ġpoder ia
ĠcomeÃ§ ou
Ġc ima
Ġtr Ãªs
Ġs on
Ġesc u
b ra
c ar
an Ã§
am ento
Ġlu z
Ġj u
Ġm undo
ĠÃł s
is ta
i ro
ĠÃº lt
te za
ĠmÃ£ e
ĠE d
Ġde u
gu a
Ġse i
Ġma ior
p os
c or
Ġb e
ĠQu ando
ĠB ill
ci o
Ġtra bal
Ġtinha m
Ġolh ou
Ġqu anto
Ġa quele
Ġpens ou
Ġle v
Ã§ os
Ġv ida
ent es
im ento
Ġac ha
Ġpequ en
Ġto do
c ha
i b
ta ndo
Ġt ar
Ġh Ã¡
Ġp ol
l ar
Ġca b
Ġsu r
Ġl o
h ou
Ġ un
e t
j o
ĠprÃ³ p
a p
a va
Ġque m
Ġes sa
Ġa ca
Ġr u
Ġd ar
Ġf ec
la v
Ġb al
Ġb oca
re di
Ġolh ar
Ġpesso as
Ġvel ho
i ga
c er
de ira
Ã¡ vel
a d
ĠI s
l u
Ġcer teza
vel mente
ta l
Ġl iv
Ġqu ar
Ġs or
ĠDe us
ĠEnt Ã£o
c as
ma is
Ġg ente
Ġfor ma
Ġf u
Ġpr es
Ġc an
ĠN a
Ġde les
Ġs i
ia l
el os
Ġs al
Ġcar ro
ra v
j e
Ġh ist
ÃŃ n
ar d
r in
t h
Ġesp e
n y
Ġs an
Ġa nt
ĠE m
so n
Ġquer ia
Ġtr Ã¡s
r im
Ġn uma
lh e
E la
Ã³ ria
t ic
Ġb ol
m as
Ġb ran
Ġal go
Ġt a
Ġpa lav
Ġcont ra
nt ar
s as
Ġs im
o i
Ġc idade
an a
Ġs Ã£o
os o
Ġho ra
ra Ã§Ã£o
Ġa quela
i d
Ġ --
Ġf un
al ph
Ġes qu
er o
Ġv ou
Ġsab er
Ġs orr
Ġca da
nt as
Ġest ivesse
i p
ĠU ma
j u
m an
i f
t es
Ġser ia
el es
to n
Ġg os
Ġde mais
Ġf im
Ġes se
Ġn Ã³s
Ġter ia
m in
p res
Ġf ica
l os
Ġaca b
Ġal guÃ©m
es te
Ġno me
Ġg ar
inh as
Ġac redi
v em
Ġtar de
i on
f a
Ġa v
Ġs r
Ġac ho
Ġto da
Ġimp or
Ġest ou
m el
Ġest ran
r is
ĠC o
ĠH a
Ġ ima
Ġm er
ĠD a
i dos
Ġpe d
en d
Ġdire Ã§Ã£o
l y
ĠT alvez
p or
t ros
ic k
Ġte le
h Ã£
ĠA cho
l ho
ĠÃº n
gu ns
Ġc i
Ġb at
Ġfil ho
Ġa os
iv er
nt os
Ġc ho
Ġg ra
ĠEd die
Ġper to
Ġ ia
Ġfal ar
in guÃ©m
Ġme do
ĠIs so
Ġ im
ĠCom o
i va
Ġcon hec
Ġf i
ri as
Ġb as
ri r
Ġb ri
Ġsen hor
Ġpas sa
Ġcl aro
de ia
ca da
Ġper ce
ĠM ar
Ġf inal
Ġout ros
ĠâĢĶ ,
g ando
Ġv ia
Ġno va
h n
ĠS a
Ġolh ando
Ġo lha
ĠR ic
n da
Ġpos s
ha do
Ġtor n
en ry
) ,
Ġsu s
v ida
Ġa d
Ġhom ens
at ro
Ġcam inho
m p
us a
Ġprim eiro
ĠR alph
N Ã£o
qu i
Ġch Ã£o
ĠS Ã³
b aixo
Ġprec isa
Ġes co
Ġcon f
Ġmu it
ura nte
Ġa g
Ġal to
ĠT o
pa z
Ġest Ã£o
t Ã³
on e
Ġprim eira
as s
Ġf iz
Ġen f
t u
p ar
Ġj an
Ġat rav
Ġcria n
va velmente
c il
ira r
Ġfaz endo
Ġo mb
em os
es sa
re i
Ġtran s
Ġt ro
e d
ĠA gora
Ġgaro to
t ro
Ġc Ã©
Ġrespon deu
Ġgri tou
l ic
Ġesc ri
Ġcer to
Ã¢n cia
Ġr Ã¡
Ġsan gue
ĠQu e
i as
Ġpro f
Ġb aixo
t ra
Ġest rada
Ġa ju
Ġex a
er v
p ara
z e
Ġd Ãº
er ia
c ado
in e
Ġes te
Ġver mel
Ġcor po
Ġsa la
Ġsa ÃŃ
co b
ĠH enry
Ġs ou
Ġcont inu
ĠF oi
Ġdor m
Ġ Ã³
Ġal guns
Ġt anto
l or
Ġnenh um
d Ã£o
ve is
Ġpa p
Ġp Ã¡
Ġr ou
Ġpens ar
ĠJo hn
ri g
f e
Ġa po
t Ã£o
Ġm Ã¡
Ġpar e
Ã© s
Ġhist Ã³ria
Ġob s
ei ros
Ġc ur
is se
Ġmes ma
g re
em ente
Ġs imp
ĠÃ¡ gua
u d
Ġt ri
Ġto das
Ġb on
Ġb aix
Ġfo ram
i de
do u
ĠEs tava
Ġap ro
Ġp is
Ġi deia
l an
Ġima g
Ġqu atro
Ġti po
v is
ta m
ĠEs tÃ¡
z inha
ĠB e
ĠDe pois
Ġde via
Ġes quer
Ġlo go
Ġfor Ã§a
Ġer gu
la do
Ġac or
Ġsorr iso
l i
b le
en de
Ġman hÃ£
Ġbo a
Ġcont a
ĠE les
. âĢĶ
Ġan o
v en
Ġp Ã´
ĠHa via
g an
Ġna quele
f ÃŃ
ĠO u
Ġtele f
Ġm ente
da do
Ġab er
Ġqu is
Ġpass ou
Ãª m
l in
ĠG e
Ġcol oc
Ġa u
Ġca ix
Ġvol tar
Ġem p
Ġh ou
" ,
Ġo r
se i
le n
Ġr ua
Ġpo is
Ġten ho
i ar
Ġrep ente
d esse
n as
ĠT om
Ġc e
le i
ĠD an
Ġsa ir
Ġm inu
E u
Ġbra Ã§o
Ġn inguÃ©m
Ġgu ar
Ġquar to
Ġfal ou
Ġche gar
Ġcin co
Ġ1 9
ĠM a
ĠM or
Ġten ha
Ġf er
Ġf eito
Ġpu x
al ha
b ro
Ġparec e
v ol
s os
Ġl ou
Ġm ost
g as
ĠS im
ra l
Ġmes a
Ġm il
ĠL e
ga da
Ġap er
Ġde z
Ġtrabal ho
m es
ĠC ar
res sÃ£o
i ente
Ġca ÃŃ
Ġpro ble
Ġpass ar
r er
Ġne g
Ġun s
Ġter r
Ġmo do
ado r
ig os
Ġsimp les
Ġ 2
an Ã§a
Ġa ÃŃ
Ġcha ma
oc u
l l
Ġa z
Ġdi as
Ġcam a
Ġc ent
Ġprec is
ir ia
M as
i Ã§Ã£o
en deu
ĠvocÃª s
Ġam ar
ap arec
Ġv irou
os tas
Ġre almente
ĠT er
Ġre c
Ġcon ver
Ġpu desse
Ġt oc
inh os
en der
cul o
en ho
Ġap ar
Ġna quela
Ġp ul
or re
ĠGe or
Ġdes c
d ro
in as
Ġj eito
Ġvol tou
ĠC on
Ġp la
Ġlon ge
Ġd urante
Ġpro vavelmente
i la
Ġaqu ilo
im os
ÃŃ cia
Ġbas tante
gu ei
t ico
qu ei
ve ra
Ġte ve
vi d
Ġn or
ĠR e
Ġbe b
Ġfor te
Ġv ira
ĠS r
c ou
il ha
le y
ĠC h
ĠpÃ© s
di u
Ġdes de
Ġ z
Ġre ce
Ġde dos
ĠA r
Ġal Ã©m
Ġsegu i
ÃŃ s
t y
b u
Ġv Ã¡
Ġfaz ia
" .
t ei
Ġpr in
z ia
Ġv e
Ġl i
Ġco raÃ§Ã£o
or n
Ġsa iu
Ġse ja
e ta
Ġdeix ar
Ġp elos
Ġpen sa
Ġpe gou
Ãº m
har d
ĠE n
Ġan dar
Ġpalav ras
f ei
Ġdes aparec
Ġsent iu
Ġpre ocu
a u
Ġl ar
ĠB ar
Ġesqu ec
Ġnova mente
Ġpo nto
ci p
inh eiro
m ou
d ido
Ġar re
ĠP er
ci e
Ġab riu
D e
a dos
ran Ã§a
Ġdes cob
Ġt rem
c k
Ġde ve
Ġsu j
Ġter ra
ĠrÃ¡ p
Ġca p
Ġconsegu ia
os ta
Ġh orr
ĠH o
Ã´ n
v as
Ġfa vor
ĠGeor ge
Ġcomp le
Ġouv ir
ĠR o
Ġcab elo
te u
Ġpos so
Ġapro x
Ġme us
Ġv ento
Ġc ru
Ġar ma
ul ar
Ġac ima
Ġf ra
Ġquer o
Ġsu fic
Ġap arec
l ia
Ġqu Ãª
Ġir m
b i
Ġch eiro
g os
m it
Ġc ostas
Ġcon c
Ġma nt
ĠT udo
g er
c ura
Ġca iu
Ġalgum as
ĠD o
Ġesc re
Ġou vi
Ġs Ã©
Ġpor Ã©m
an o
Ġdi fer
Ġf undo
s ur
Ġpar t
Ġv Ã£o
i Ã£o
ic os
ol and
ĠdÃº vida
ĠP arec
d ura
t ivo
ĠV amos
Ġar ran
ri e
r vor
t re
Ġen or
ĠEs tou
Ġbra Ã§os
h ando
ta da
ĠcÃ© u
Ġde r
Ġfa la
in s
re n
Ġter min
Ġnenh uma
z inho
Ġre al
tÃ³ rio
Ġjan ela
cul os
Ġfa to
p as
ent ou
en Ã§Ã£o
Ġhavia m
ĠT inha
ĠH ar
Ãº s
d ando
ĠJ a
Ġpol ic
ĠÃºlt ima
on es
Ġpe da
Ġen c
Ġn u
Ġdiz ia
Ġf am
be u
Ġg an
it ar
Ġche gou
Ġv Ãª
tar ia
Ġacontec eu
Ġam igo
Ġpequen o
Ġj a
Ġsen sa
l ica
Ġp al
Ġho ras
g ia
m ar
ĠprÃ³ x
Ġde se
res c
i das
ol ly
Ġaf as
el iz
Ġvis to
s es
Ġ ri
Ġpesso a
Ġl ig
Ġpens ando
Ġes ca
Ġpergu nta
Ġin f
Ġe las
Ġconsegu iu
Ġman eira
Ġesp ec
x e
Ġpar ou
ĠC la
ĠT em
ĠC har
Ġesp era
Ġminu tos
s ar
ce u
or es
ĠV ou
Ġesquer da
Ġout ras
Ġfec ha
Ġca va
anÃ§ ou
ĠprÃ³p rio
Ġcu ida
Ġre la
Ġch u
Ġsent ir
Ġpap el
Ġpe gar
Ġfal ando
Ġdes a
ĠP ara
ĠBill y
ĠL o
Ġme ia
Ġcas o
Ġcam inh
Ġco ber
Ġdes l
Ġre l
g io
Ġparec eu
ĠÃºn ica
Ġacha va
Ġsegu ndo
me tros
Ġv amos
is so
Ġexa tamente
Ġh um
Ġins tante
re u
ro n
Ġmaior ia
t Ã©
ci as
Ġb rin
Ġmor to
Ġmen ino
t ica
Ġcal Ã§a
x a
R A
Ġi d
el ho
Ġpara r
ĠS eu
Ġdiz endo
ĠR a
ĠD E
Ġqu il
Ġcar re
r Ã¡
Ġt re
Ġf ar
ĠM c
Ġpare de
Ġdeix ou
ĠB ob
ĠS am
Ġre g
ĠB o
Ġsu per
Ġfica va
it u
Ġre f
un da
Ġesp a
) .
ĠÃ¡ rvor
Ġouv iu
Ġqu ad
ĠN e
Ġs il
Ġda qu
Ġn ar
ĠE l
Ġcaix a
ĠM e
in ua
Ġ ras
Ġju nto
Ã§ ou
Ġg al
ĠS u
ga va
ĠF a
O s
ĠD es
ti va
en da
ent emente
ĠB em
Ġtelef one
Ġposs ÃŃvel
Ġsufic iente
Ġent rar
ver ia
Ġsent ia
Ġpequen a
es ar
ĠPo de
Ġtent ando
du z
Ġ Y
ĠRic hard
Ġp elas
ĠP ro
ĠÃ© p
ig n
nt ando
Ġda quele
Ġse is
l aro
era l
ĠprÃ³p ria
ĠP ar
Ġco zinha
Ġem baixo
ĠlÃ¡ b
Ġdire ita
ia do
Ġd inheiro
Ġgran des
st ru
Ġso f
E nt
Ġliv ro
Ġca c
if ica
Ġp i
in os
ic e
Ġcer ta
ent ar
c ando
Ġap a
en dia
Ġa gu
tava m
Ġm Ã©
Ġche g
Ġmor te
Ġcont ar
Ġleva ntou
ĠR oland
u la
l ie
iv os
Ġm ent
Ġproble ma
Ġvel ha
ĠI n
b re
ida mente
ÃŃ do
. "
ĠC as
c es
Ġe l
Ġf lor
Ġsensa Ã§Ã£o
Ġest re
Ġd Ã¡
Ġmo tor
t r
Ġa le
i ou
Ġemp ur
Ġpalav ra
ĠÃ©p oca
Ġa co
Ġlon go
ĠS te
Ġp ior
Ġca deira
Ġfo go
Ġa gar
am ais
Ġcac hor
d en
iz a
Ãªn cio
er ry
Ġcorre dor
i ram
Ġv est
ĠJ Ã¡
ĠA h
co m
Ġcrian Ã§as
Ġsegui nte
Ġt al
Ġsus p
Ġbri lha
ta dos
v il
Ġsent ado
Ġfa lei
Qu ando
Ġde ci
Ġass us
Ġfun cion
Ġf ol
ĠN or
Ġfo to
Ġparec iam
r m
Ġcorre ndo
Ġmer da
Ġdes t
ĠS ua
Ġbran co
Ġse ndo
x o
Ġv eio
E s
P or
Ġmuit os
Ġpass ado
v ido
Ġper nas
nt ei
ĠB en
Ġsem ana
ĠÃºlt imo
Ġg o
ta n
Ġp lan
le iro
Ġdis t
ĠÃ Ģ
Ġg ru
Ġdia nte
ĠM o
Ġho je
Ġde ntes
v esse
Ġf ei
ĠM u
ĠAn dy
i fic
Ã§ ado
Ġque b
Ġn Ãºm
res s
Ġpro v
Ġomb ros
en Ã§a
Ġcont inua
Ġsor riu
z er
ĠF ran
Ġb or
Ġencont rar
b ado
ÃŃ amos
Ġis to
Ġjo vem
ĠA p
Ġaqu eles
ĠPor que
b ri
Ġg a
os s
Ġbol so
Ġque nte
Ã¡ ria
oc al
b ar
Ġsur pres
Ġca ir
Ġexp ressÃ£o
ĠM eu
lar es
x er
Ġomb ro
nta de
de i
E R
Ġsimples mente
ĠrÃ¡p ido
n os
er to
ec ess
Ġd Ã³
Ġc ost
Ġsil Ãªncio
Ġatrav Ã©s
O S
Ġb ura
n ie
Ġmo v
Ġt esta
Ġres to
h eiro
Ġm on
Ġvo ntade
Ġfinal mente
it ou
Ġp eito
ri dÃ£o
Ġaz ul
d ida
e ram
for ma
Ġj amais
Ġconsegu ir
ĠJ im
Ġda quela
h ei
c y
Ġesp Ã©
Ġva z
Ġcome Ã§a
h ie
d ic
Ġmuit as
v os
Ġsom b
Ġf e
Ġl imp
Ġne le
t el
tam ento
en er
Ġcom igo
Ġver de
t ur
ir os
Ġre cu
in ar
Ġra z
c he
Ġenor me
Ġes cada
ĠA inda
em p
Ã³ r
Ġra p
Ġresp osta
Ġmu ita
ĠB la
con hec
ĠÃºn ico
i ke
o ra
el l
Ġca usa
Ġre t
ĠcomeÃ§ ar
Ġlev ar
Ġat enÃ§Ã£o
l and
vam os
ix o
ĠlÃ¡b ios
er va
Ġaprox im
ob o
Ã¢ m
Ġcam isa
Ġra paz
Ġdire ito
ĠDan ny
Ġprin cip
ĠS em
ou is
at os
Ġquil Ã´
oc k
Ġcon cor
Ġ il
Ġt Ãªm
Ġent rou
Ġdi fÃŃ
Ġsegu ida
m y
Ġle ve
Ġn isso
Ġsa co
p on
Ġab ri
Ġam or
Ġson ho
Ġdes sa
Ġsus sur
Ġdi rig
c la
Ġnar iz
ul ho
Ġescu ro
Ġvermel ho
Ġa mb
Ã© r
Ġescu ridÃ£o
Ġpo nta
Ġre v
Ġped ra
Ġguar da
Ġnos sa
Ġa ta
C om
ve u
t is
Ġpes co
ĠG ard
Ġt ira
Ġv inha
Ġver Ã£o
an s
Ġcrian Ã§a
em a
Ġpol ÃŃcia
ĠC laro
nt an
Ġda va
' s
b il
ri do
Ġlev ou
Ġs ign
Ġca paz
re a
el hos
Ġf ir
ĠFran k
Ġp un
Ġac hou
ida des
Ġba teu
Ġ u
Ġam igos
f eito
ĠM ais
ĠespÃ© cie
ÃŃ veis
Ġprecisa va
Ġb oc
Ġcont ro
Ġpesco Ã§o
Ġde las
Ent Ã£o
Ġb er
Ġex t
Ġo lho
f Ã©
ĠF re
s im
t s
Ġme ta
c ido
la da
Ġme tros
ria n
v io
ra ram
ul o
Ġobs erv
Ġacredi tar
Ġin v
g ens
Ġs um
qu es
ĠJ ones
on a
Ġvi nte
ur ou
Ġesta cion
Ġpe le
N o
Ġes con
Ġergu eu
Ġla te
Ġcham ado
Ġv en
ci os
ia da
Ġf eliz
it os
Ġfu g
ĠJa ke
Ġus ando
ĠQu em
Ġn ecess
Ġsuj eito
ras se
u ro
Ġle n
Ã£ e
Ġap esar
Ġtorn ou
Ġpara do
ha m
Ġesp osa
Ġesta do
Ġ 3
Ġin do
g Ã£o
is te
Ġb us
ina Ã§Ã£o
o o
Ġal ta
Ġl inha
Ġlemb rar
Ġex ce
E N
l ou
A s
c ara
Ġl ocal
Ġgaro ta
Ġex ist
Ġcom er
ÃŃ lia
Ġpolic ial
c re
f o
Ġestran ho
ĠdifÃŃ cil
p ado
am entos
Ġespe rando
A R
Ġvi dro
Ġprec iso
Ġterr ÃŃvel
Ġab aixo
nt ado
e dia
ĠN Ã³s
Ġm Ãºs
nt amente
j ar
in ado
Ġatrav ess
v ens
ĠRic hie
Ġexp lo
ent iu
Ġdorm ir
Ġc ir
ĠC a
c Ã£o
Ġc r
Ġc ul
Ġtent ou
Ġa gra
Ġdes se
d Ã¡
Ġl iga
Ġes sas
le t
en a
ĠM ike
Ġt irou
Ġv endo
O R
S e
Ġdes ta
Ġne ve
Ġcachor ro
Ġcer ca
Ġhou ve
v an
ĠPe ter
ĠT enho
Ġmor rer
ĠJo e
Ġnos so
Ġban co
ĠnÃºm ero
Ġv ir
Ġfa ntas
Ġass ass
ra dos
Ġde baixo
Ġcin z
ve ja
ic as
Ġal tura
Ġent anto
J ack
ĠD on
ro do
ÃŃ a
Ġter c
Ġto tal
Ġest u
Ġm ol
N a
ÃŃ cio
eira mente
Ġr os
Ġmulher es
Ġestran ha
Ġru im
0 0
Ġperce beu
Ġs in
orr is
lh ou
Ġpis to
b ol
Ġfu i
ĠChar lie
ĠN em
Ġsegu nda
Ġti ve
Ġouv ido
Ġdi ver
ac h
Ġtom ar
Ġmeta de
Ġa dia
ĠG ar
g al
es mo
an ce
tas se
Ġa do
Ġb re
i ve
Ġs ra
ia is
Ġl im
Ġca fÃ©
d ir
Ġs inal
Ġre pe
ĠquilÃ´ metros
Ġt irar
ĠCla y
ĠV er
v ar
Ġbran ca
Ġest aria
Ġar ras
Ġacontec er
ĠC he
g rim
Ã¡ rios
ĠL ouis
Ġnor te
ÃŃ t
nt er
Ġliv ros
Ġci gar
Ġch eio
Ġim edia
Ġf rio
Ġsor te
l io
Ġtent ar
Ġbura co
Ġtrans for
Ġesco la
Ġt Ã¡
ĠAl an
Ã ī
ita l
it as
Ġinc lin
Ġcontinu ou
Ġm inhas
Ġin fer
Ãº b
Ġpens amento
ĠN ada
Ġen cos
b ie
el ha
Ġmu rm
Ġgar ga
ĠD ei
us an
en o
Ġban heiro
ĠdÃ³ lares
w en
Ġpen sei
f ia
Ġf Ã¡
asse m
Ġgar ra
er ic
da va
ĠQu er
m on
im entos
Ġbaix a
g h
Ġcomp re
Ġg ara
Ġ -
ra das
or d
Ġpro cura
Ġresp eito
grim as
Ġpr Ã©
Ġesc orre
Ġs it
Ġsur g
Ġf ran
Ġsent indo
Ġcl ar
Ġgarga nta
ha d
ĠA o
Ġper man
en sa
U m
Ġda qui
p ec
Ġgri to
Ġv indo
ĠE x
b r
ĠJones y
m al
Ġfil ha
Ġma deira
Ġser Ã¡
Ġpode m
Ġacab ou
ĠV ai
ĠF rodo
m or
Ġsom bra
Ġcoloc ou
Ġcuida do
ch u
Ġf uma
ei ras
Ġde pres
Ġrel Ã³
Ġm ist
ĠP re
Ġent rada
Ġne la
e x
Ġre un
ĠT am
ol o
is Ã£o
Ġre dor
ĠEs ta
i que
ĠmÃ© d
Ġas so
Ġca nto
um e
Ã§ ar
Ġsent ido
Ġjo elhos
Ġson o
Ġfam ÃŃlia
Ġ riu
ÃŃ r
i rem
ĠSe us
E S
um o
Ġquis er
Ġpas so
ĠAl g
ĠÃ¡rvor es
e le
Ġus ar
ĠNo va
an da
Ġtor no
ur t
p Ã©
Ġcons igo
an as
Ġsit ua
Ġpro te
d re
t il
ic ou
Ã ĥ
ri ga
Ġraz Ã£o
co mo
a y
ĠD u
Ġass u
ĠH om
t ido
Ġhou vesse
Ġha ver
Ġi dio
Ġdist Ã¢ncia
Ġmal di
Ġer rado
Ġo este
Ġn erv
ta ram
ec a
cia l
Ġespec ial
Ġde do
Ġsegu rando
na h
est Ã£o
Ġg ol
Ġde veria
Ġpro p
Ġb ei
mp an
Ġcer veja
os so
Ġab a
am Ã£e
Ġdi to
an ho
Ġconver sa
Ġirm Ã£o
Ġper fei
g n
Ġdes en
ĠmÃ¡ qu
t imo
Ġsu l
ÃŃ p
Ġfun dos
Ġmen or
Ġconsegu e
ĠrelÃ³ gio
Ġpre t
Ġci nt
la dos
Ġmo tivo
er s
ĠDa vid
Ġm em
Ġo p
ra vam
Ġ ur
qu ilo
ĠpÃ¡ l
um b
ĠlÃ¡ grimas
es so
lh as
ber t
ĠD erry
Ġat ing
r Ã£o
I N
in ou
ec eu
ĠS er
Ã³ rias
Ġe qu
Ġcomp an
ĠParec ia
Ġap os
f re
Ġap Ã³s
ĠM esmo
Ġcab elos
Ġde c
ou ve
le ta
le ira
ĠH olly
ĠH al
Ġso zinho
Ġirm Ã£
Ġno t
de m
Ġaju da
ent ado
ĠpÃ´ s
os e
ĠL a
Ġche ia
Ġpen dura
t en
er ior
Ġe v
Ġant erior
Ġes ses
Ġcons ide
usan nah
Ġen s
la nte
A S
so lu
Ġde va
Ġde gra
am p
Ġcha ve
ĠK e
ĠC or
pa da
Ġimpor ta
Ġcent ro
V ocÃª
Ġo n
Ġpar tic
pe ra
ĠJohn ny
Ġescri tÃ³rio
Ġc la
Ġhorr or
g on
j ou
ĠP a
Ġpeda Ã§o
ĠGard ener
us Ã£o
h an
Ġv ara
Ġfil hos
Ġpor ra
Ġen g
id ente
a vam
Ġc re
Ġma tar
Ġsa cu
Ġal c
Ġpr ess
ĠU n
Ġo fer
ĠA tÃ©
Ġjo go
A D
enta va
Ġcomple tamente
ĠH Ã¡
Ġvis ta
anÃ§ ando
Ġb ic
ĠcomeÃ§ aram
Ġcon ven
er ta
ĠP elo
Ġcar ne
Ġpass ando
Ġex per
Ġpre para
om e
Ġcam po
Ġmor ta
Ġd ando
Ġcu rios
Ãĥ O
Ġv al
d endo
Ġdes per
Ġab ra
Ġfic ando
Ġdepres sa
Ġan dando
Ġfec hou
Ġcru z
Ġg or
Ġaber ta
es ti
Ġg ela
Ã© ia
ci ente
Ġra iva
is mo
A N
Ġg eral
Ġar m
Ġespe rar
Ġde f
Ġen vol
Ġir ia
Ġd ou
Ġsign ifica
ita do
Ġmar ido
a das
Ġl ÃŃn
ĠEs sa
Ġacontec endo
Ġaco mpan
ĠM el
ĠB a
ta Ã§Ã£o
Ġum as
i re
Ġb eira
Q U
is s
Ġquer er
Ġcor rer
E m
ĠB u
Ġluz es
Ġca pa
Ġre tor
Ġencont rou
Ġcon stru
anÃ§ ar
Ġau to
Ġp l
ĠC al
v in
os p
es to
Ġpre to
is e
ia ndo
Ġes for
Ġcar ros
Ġcham ar
Ġa vi
Ġde p
Ġco b
Ġle ntamente
ra mente
Ġab rir
ra ria
Ġmor reu
Ġbal anÃ§ou
Ġaqu elas
Ġ 4
ta nto
Ġsen ho
Ġh or
Ġdeix ando
Ġsitua Ã§Ã£o
Ġassu nto
Ã¡s tico
ĠTam bÃ©m
Ġesta mos
Ġm ara
Ġinter ro
ĠCo nt
Ġ x
Ġb ase
p ou
Ġent ender
v ou
Ġ ido
ĠN unca
Ġdeva gar
r inho
Ġo ito
Ġco lo
an g
Ġre co
ĠAl Ã©m
Ġen fer
ur os
ina da
Ġg as
ĠR ob
Ġgos tava
ĠD en
Ġimpor tante
Ġn esse
iz ado
E M
er ra
Ġab ando
Ġmal u
ĠÃĢ s
Ġcontinua va
Ġse te
en di
Ġac resc
ta dor
ĠPe te
Ġex am
Ġparec er
ib lio
Ġv em
Ġac ei
Ġvel hos
Ġtra se
j ando
Ġrap idamente
Ġre conhec
Ġbeb Ãª
k er
Ġvis Ã£o
Ġpux ou
iblio te
Ġf aria
Ġlo ja
Ġc el
Ġtem os
Ġap res
Ġpor tas
Ġcont ou
ira Ã§Ã£o
Ġv ig
ĠQu ero
Ġtam anho
Ġtem p
Ġla dos
Ġab solu
o k
Ġt ur
Ġco le
Ġsent ou
ĠÃ¡ rea
d Ã¡vel
Ġv iv
Ġrepe t
Ġjan elas
h er
do res
ri da
iz ar
u al
t le
Ġsa i
Ġpa usa
Ġaju dar
Ġpa is
c ri
Ġgru po
it es
Ġ idade
ĠP en
ĠT had
Ġchu va
Ġfuma Ã§a
Ġdes con
g g
Ġsorr indo
Ġespera va
b ia
Ġsa tis
Ġgaro tos
Ġest iver
Ġmo ntan
Ġbat er
ĠNe w
Ġmes es
ĠB rian
per o
Ġsurpres a
U ma
t em
Ġser vi
m ento
Ġen co
ĠG ran
ĠlÃŃn gua
Ġqu estÃ£o
t ie
n dos
Ġl er
is co
Ġbo la
Ġpra te
Ġju ntos
Ġpe ga
Ġc resc
Ġv ivo
Ġd ro
Ġres ol
Ġso p
Ġd im
Ġen gra
Ġdifer ente
Ġil um
Ġpergu ntar
t ri
Ġtr ou
ĠfÃ¡ cil
ta ra
Ġfic aram
Ġdaqu eles
Ġqu a
Ġo cor
Ġf l
ill y
p Ã£o
Ġacab ar
ĠMu ito
ĠG ra
Ġg osto
Ġfor m
m Ã©
Ġqu i
orn al
Ġaf inal
Ġcel ular
E ra
E les
Ġa ma
Ġus ava
Ġid Ã©ia
ĠBob bi
Ġqu ais
Ġvia gem
ĠS usannah
and y
Ġn essa
it Ã£o
Ġa me
es pe
Ġass ist
Ġlon ga
T O
Ġo cu
ĠL Ã¡
Ġsub ir
Ġgri tando
ram os
ĠL obo
Ġbar ulho
Ġcal or
Ġvaz io
Ġc us
Ġpro cu
Ġterr or
Ġpou cos
osp ital
Ġfosse m
Ġescre ver
Ġrou pas
ĠLo is
iver s
Ġboc hec
ĠA m
Ġre cor
Ġhist Ã³rias
Ġc Ã¡
Ã© is
Ġcar ta
Ġent er
Ġcont as
Ġja ntar
Ġo cas
ec er
Ġdisse ra
Ġp Ã¡s
Ġdes p
Ġex cla
Ġfre qu
Ġinc l
or k
Ġsu p
Ġdes sas
Ġmen sa
Ġgri tar
l f
ĠW il
Ġparec endo
ĠrÃ¡ dio
Ġimedia tamente
u b
Ġco ra
Ġl este
Ġespa Ã§o
ĠT im
ĠÃºlt imos
Ġass entiu
Ġexp lic
Ġan im
Ġmor re
Ġsi len
Ġesquer do
Ġdescob rir
Ġhorr ÃŃvel
Ġprincip al
Ġem pre
Ġsomb ras
ch as
Ġj ornal
Ġimp ressÃ£o
tu ras
ĠBo w
ĠmÃ¡qu ina
di os
Ġcigar ro
f i
Ġg em
Ġbar riga
Ġeste ja
Ġson hos
ĠDa ve
Ġmov imento
Ġbre ve
is tas
ĠS ei
ĠM inha
tic amente
I S
Ġn Ã©
Ġc res
Ġte to
Ġsol tou
ĠprÃ³x imo
j am
ia n
Ġce do
Ġlemb rava
d ente
i rando
st itu
ĠG a
Ġpassa va
ec e
Ġolha da
Ã¡ veis
lh os
ĠTo dos
ĠFre d
ĠmÃºs ica
T E
Ġsa indo
A l
Ãªn cias
ĠTer ra
ina va
Ġpens amentos
is sÃ£o
Ġen ca
Ġfic ado
Ġbat endo
Ġinter ior
Ġmant er
ĠAs sim
ĠmÃ©d ico
b esse
Ġpergu ntas
ra ra
Ġobs erva
ĠY ork
Ġidio ta
Ã§ ando
Ġche fe
t inha
ver no
Ġam an
Ġjo gou
Ġco po
i vera
um p
ĠC in
Ãº n
ĠcomeÃ§ ando
an der
Ġcorre u
s ado
Ġima gem
Ġpla ca
a de
ĠmÃ¡ x
Ġneg Ã³
Ġaper tou
Ġr isa
ĠB om
Ġcho rar
Ġquis esse
Ġdest ru
irem an
ec ido
ita ndo
r us
Ġ rir
il idade
Ġdis tante
Ġla go
ĠL em
Ġmor tos
j ei
Ġper na
Ġcar t
Ġdegra us
ĠMar y
b ou
ĠO h
Ġdi g
ens Ã£o
ĠcÃ© re
Ġcost uma
ĠBla ze
va do
ĠPo is
Ġsenho ra
b b
al i
Ġp at
m Ã¡
ĠM er
Ġper der
ĠG u
h ia
Ġmotor ista
oc idade
h es
ĠO bri
Ġolha va
ibliote ca
ess ie
Ġcontinu ar
j os
ĠC ol
ĠEs se
tura l
Ġ 5
la va
im as
ul as
Ġpass os
ei as
ĠD or
Ġesp er
Ġcha pÃ©
Ġprof unda
Ġsegu ndos
Ã³ l
ĠB ro
ez a
Ġmo nte
vis Ã£o
Ġdim inu
Ġcom ida
Ġb lo
Ġsur pre
ra ty
Ġin d
Ġob ri
Ġbol sa
Ġavi Ã£o
Ġg ros
ci Ãªncia
an os
Ġin ÃŃcio
le x
Ã© rio
Ġma chu
Ã¢n ico
ĠvÃ¡ rias
ĠO nde
ĠSe gu
Ġgarra fa
Ġmara vil
Ġa dor
ha va
ĠVocÃª s
l er
ĠJ am
Ġsegu rou
Ġpesso al
ll ie
Ġh es
ĠpÃ¡ g
R O
z es
Ġper mit
Ġac har
Ġli gar
ĠS en
end endo
Ġcaminh Ã£o
Ġ rio
Ġc Ã¢
Ġsa p
Ġreal idade
Ġneg ro
Ġj or
ĠAl ice
Ġtri nta
b us
f ica
il ar
ĠB ra
Ãº rin
A gora
Ġc ÃŃr
ĠA quele
ec ei
Ġi gu
b or
ĠMa ine
Ġestacion amento
Ġm in
Ġfil me
ĠBe a
v es
d d
Ġen ch
li nt
Ġflor esta
Ġb Ãª
Ġfi quei
Ġconcor dou
ga dos
Ġvest ido
Ġse x
ĠcÃ©re bro
Ġche gando
Ġouv indo
Ġgos taria
Ġbri lho
c el
Ġa mo
Ġper dido
Ġa um
ĠA t
if e
ĠV i
Ġpr os
Ġext rem
Ġme x
T A
ĠT V
Ġat ra
Ġinter essa
r um
Ġt endo
an e
Ġg iga
Ġsem anas
ĠprÃ© dio
ĠG re
Ġpreocu pa
Ġlate ral
Ġex emp
Ġtem pos
Ġque im
Ġan ima
Ġsegu ranÃ§a
E n
ver ly
Ġpes o
Ġvermel ha
Ġproble mas
Ġest ivera
Ġbar ra
ĠQu al
da mente
Ġan da
Ġta nta
ĠcaÃŃ do
d inha
Ġdis p
ĠpÃ´ r
Ġtotal mente
f os
Ġfic aria
Ġpode mos
ĠÃ³ culos
Ġder ru
F oi
Ġche ga
ĠTer ry
j ado
ra nte
Ġpergu ntei
ĠA c
Ġp ei
Ġarm Ã¡rio
ĠC am
Ġpu ta
Ġleva ntar
cion al
ĠT h
O N
ĠS ra
ĠprÃ³x ima
n Ã£o
Ġdis s
Ġpo vo
Ã³s ito
Ġf ria
Ġsegu ir
Ġda do
ĠV ic
Ġpisto leiro
ÃŃp io
Ġtoc ar
Ġo re
Ġconsegu i
Ġvel ocidade
Ġlou co
Ġpart ir
Ġid ent
ĠC ha
Ġpodia m
Ġchama va
Ġc em
Ġc Ã£o
Ġg esto
ĠBar bie
ĠÃ¡rvor e
Ġcontro le
ta ntes
ic amente
gu lar
ĠM orris
u z
ĠM at
Ġsent i
Ġexcla mou
I s
Ġm un
Ġh ospital
i Ãµes
Ġap re
Ġtivesse m
c un
h il
Ġsussur rou
ĠR ock
Ġimp oss
Ġdeix ado
Ġtemp esta
Ġpos sa
as o
ĠmÃ¡x imo
g alha
Ġa re
ha da
Ġpequen os
Ġam p
qu inho
ĠA bra
Ġsou be
ĠchapÃ© u
E d
j as
Ġcam inha
ĠPre c
Ġfaz Ãª
Ġgri tos
Ġservi Ã§o
ĠP osso
Ġcome Ã§o
Ġinclin ou
H a
Ġvis ita
Ġliv re
h Ã£o
Ġl Ã¢m
Ġre a
Ġap an
Ġexp los
ĠEn quanto
u da
tÃ¡ vel
Ġped ras
Ġescri to
Ġdorm indo
Ġflor es
g Ã¡
k y
Ġp ia
t inho
tor es
t t
Ġ 6
ĠS ent
ĠN enh
ĠÃ ´
Ġcon se
Ġac hei
Ġt Ãªn
Ġpare des
Ġno ve
ca va
Ġlu a
Ġir ri
f f
ĠEnt re
Ġsub iu
l ando
Ġal u
Ġesp al
Ġreg ist
Ġna tural
Ġespe ranÃ§a
w n
Ġse cre
ĠP at
Ġtoc ou
Ġcul pa
Ġvara nda
Ġlemb ro
Ġpres o
ga nte
Ġla nter
Ġti ro
ĠÃ´ n
i quei
ĠAl i
Ġacontec ido
por t
Ġsu or
Ġen gan
Ġaprox ima
s se
Ġsou besse
ĠvÃ¡ rios
anda lf
Ġ 7
Ġcom un
for me
Ġj us
es ter
ĠÃ ģ
Ġcap itÃ£o
Ġpl Ã¡stico
es us
Ġmurm urou
m ado
Ġouvi dos
ĠParec e
ent ando
ĠN inguÃ©m
Ġpoder iam
Ġale g
ent al
Ġdes cer
it y
tic os
Ġpap ai
Ġapo ntou
Ġarre ga
b ara
ib us
Ġarre p
Ġele va
Ġab aix
Ġtom ou
ĠJ e
Ġho tel
ĠN os
ip p
en ha
Ġnu vens
P e
Ġj ul
Ã³ g
Ġjo gar
Ġcan sa
p is
ĠB ig
ĠV Ã¡
Ġcham ou
Ġprocu rando
Ġpolic iais
b os
le za
ÃŃ culo
Ġan s
c ente
Ġba ta
in ze
Ġdes co
Ġant igo
Ġprin c
au nt
ĠS ou
ĠS tan
ĠJ u
Ġlugar es
Ġdes ceu
Ġper tur
ĠSte ve
Ġg rava
ol d
ĠH e
Ġam eric
Ġob je
ĠSer Ã¡
ĠM an
ios o
Ġcent ÃŃ
Ġsap atos
? âĢĶ
ria m
Ġpes ade
ĠpÃ´ de
Ġl hes
Ġfa Ã§a
Ġac er
Ġser v
Ġla m
Ġconhec ia
Ġprecis ar
De pois
ĠSen hor
Ġin forma
vel o
Ġcur va
Ġperfei tamente
ĠS tre
Ġpr isÃ£o
Ġassus tado
qu enta
Ġpensa va
Ġque bra
Ġre i
Ġgra ma
ĠE S
Ġma ca
Ġfol has
ĠC erto
ĠV ol
Ġare ia
ÃŃ b
ĠR us
v endo
Ġmu l
y n
Ġdes cul
ĠR ei
c ida
ĠQu anto
Ġint eiro
con s
el ig
Ġal mo
Ġfo tos
Ġch ance
D O
ĠN ick
ĠC u
Ġr indo
Ġdes ses
Ġpara da
Ġaz u
Ġfala va
f as
qu eles
Ġent ende
der ia
Ġva le
end ido
Ġfiz eram
Ġpen a
Ġgara gem
ĠT ra
Ġva zia
Ġad m
R alph
c amente
l Ã¡
ma go
Ġesc ura
Ġtra z
ti dÃ£o
ĠcÃ¢ me
Ġcon v
Ġlig ou
Ha via
da dos
ri bu
Ġaman hÃ£
Ġal ar
Ã§a da
ĠG aunt
Ġfer ro
Ã³ p
dei ras
Ġd ura
ĠJ un
Ġpartic ular
Ġa Ã§o
ma g
ie dade
Ġvoz es
pe te
m er
Ġdeix a
ĠMc C
Ġtrou xe
O M
Ġt oca
ĠP ol
Ġmer gu
ÃŃs s
Ġprinc ÃŃpio
e e
Ġl ÃŃ
ĠS tar
me tro
Ġenf iou
ĠRichard s
Ġterc eiro
ĠG andalf
u ÃŃ
Ġd iria
Ġse gre
di Ã§Ã£o
ĠJ esus
ĠÃ´n ibus
Ġdo b
ĠB ur
Ġpas se
Ġint eiramente
Ġbus ca
Ã³ is
Ġtrabal har
Ġant iga
Ġperce ber
Ġfl ut
Ġimposs ÃŃvel
c endo
Ġp ica
Ġf res
Ġv irar
Ã© tr
ĠO ut
Ġquer endo
Ġn este
Ġb il
Ġte la
Ġagar rou
ent as
ĠS al
Ġpeda Ã§os
ÃŃ vio
Ġtempesta de
b y
Ġest Ãº
Ġpa gar
ĠBe verly
f eira
Ġt io
Ġin qu
ĠAn g
Ġchama da
ĠsÃ© rio
ĠcomeÃ§a va
g aram
ĠH u
ces so
Ġestre las
ach el
Ġl ixo
lh es
ut h
ion al
ĠPro vavelmente
Ġagra de
t ras
Ġz umb
Ġde te
le nto
Ġtor na
Ġre mo
ĠF al
Ġlemb ra
Ġru ÃŃdo
ĠO lhou
Ġdis para
Ġdi fic
est es
Ġapar Ãªncia
ĠHo w
Ġ Z
Ġdi ga
ĠÃ ¢
Ġpro nto
Ġdaqu elas
i dar
ĠB re
ĠEs t
I A
Ġf ix
ĠGar raty
Ġex tra
Ġcheg aram
ri to
Ġen ro
Ġf lu
Ġcorre nte
Ġquar enta
Ġj e
Ġpa z
ĠMor t
Ġfir me
Ġcomp rar
Ġcal Ã§as
Ġabando n
Ġmaravil hos
Ġm Ãªs
iv as
ĠH ouve
Ġleva do
Ġacab ado
Ġnor mal
Ġfecha da
Ġfi gu
Ġcava lo
Ġpor tÃ£o
Ġpe diu
Ġv ie
Ġter m
ÃŃ o
Ġal ÃŃvio
Ġj ard
ĠJ essie
ĠÃ³ timo
ta das
Ġma u
Ġpro je
Ġfiz era
Ġaber to
n d
Ġamb os
Ġc ump
ĠW al
Ġd r
ra dor
ĠE ram
Ġador m
c ur
Ġlemb rou
ĠCas tle
Ġma Ã§
Ġla ta
d Ãªncia
Ã ģ
oc ou
Ġen car
Ġsuper fÃŃ
Ġbrilha nte
Ġje ans
Ġse co
Ġma tou
Ġca indo
Ġpra zer
gre ja
Ġou via
en e
Ġto po
Ġcin za
Ġtermin ar
Is so
f ar
ĠC ur
ita Ã§Ã£o
Ġresp iraÃ§Ã£o
Ġminu to
Ġmost rar
Ġb l
Ġprof un
Ġm amÃ£e
Ġdire to
Ġacredi tava
Ġpro me
Ġres ul
Ġche gado
Ġrespon der
Ġcan sado
Ġc ri
ĠA ch
Ed die
s ou
Ġexce to
Ġpros segu
to no
ba le
Ġpequ enas
c al
u i
Ġsu por
Ġdes pe
Ġfu rios
Ġafas tou
Ġame a
r ic
Ġbal cÃ£o
Ġcoloc ar
Ġ 9
ĠS i
ja va
Ġav is
Ġci nto
J o
Ġins ist
Ã´ mago
Ġata que
ro m
ando u
Ġsegu iu
Ġcol ina
Ġmensa gem
ĠA quela
ĠA qui
il iar
lh ando
Ġcin quenta
ĠcalÃ§a da
Ġterc eira
Ġca us
ĠT ed
Ġac idente
ĠW ill
Ġcara s
Ġaparec eu
v ie
en dy
Ġcont or
n er
Ġs Ã¡
Ġin dic
Ġtele visÃ£o
Ġ ran
Ġd ali
Ġbo tÃ£o
Ġ1 5
Ġ iam
Ġdo min
Ġp ilha
Ġmen cion
Ġro do
Ã ĩ
Ġter re
nta va
Ġcan o
ĠAlg um
l ico
ĠA b
ĠV al
t ivos
Ġde ter
Ġqu inze
Ġmar ca
Ġc hor
Ġest Ã´mago
Ġint elig
ĠAn der
Ġadia nte
Ġesfor Ã§o
Ġcom b
Ġpre fer
Ġaf ir
ĠPe dro
Ġde vem
Ġnos sos
ru p
Ġgu erra
Ġsurpres o
on y
Ġsent ada
Ġbran cos
g ro
Ġdifer enÃ§a
ĠcentÃŃ metros
ĠM al
Ġdu p
la c
en so
Ġme dida
di dos
Ġpra ia
Ġint eira
Ġfiz esse
Ġga to
ĠT re
Ã´ s
Ġman cha
Ġped ir
Ġpassa gem
ĠSa be
Ġb ara
Ã´ m
Ġvi ram
Ġsub indo
ĠE las
Ġsegu ro
Ġmen ina
ide z
ĠObri gado
Ġcom um
on de
Ġconsegu isse
ĠsÃ© rie
Ġmu d
Ġcar rinho
ig as
ĠTo dd
bil idade
Ġt u
Ġt iver
ĠE i
Ġenco lh
Ġmo e
Ġ 8
Ġest ra
Ġou ro
ĠHom em
ĠF o
i qu
Ġdis cu
ing ton
Ġimpor tava
Ġacor do
ific ar
i Ãªncia
ĠmÃ¡ g
b ur
t io
Ġpres ente
Ġimag in
Ġno ites
Ġfa ca
Ġper ÃŃo
Ġrou pa
Ġesp alha
lo w
ĠB er
Ġin ic
ĠL iz
Ġestivesse m
Ġconc ent
ĠsuperfÃŃ cie
R ic
Ġper ten
inal mente
Ġro das
Ġdesaparec eu
Ġdesl iz
ĠpÃ¡l ido
Ġprof ess
Ġprincip almente
Ġm Ã¡s
se mos
ĠA cha
ĠCar ter
Ġmon st
ig h
ita mente
Ġm i
Ġf ur
ĠD ar
ran ja
ĠR ose
Ġobserv ando
Ġpor Ã£o
Ġlou cura
ĠGran de
Ġ QU
Ġde vo
ha mos
nta da
Ġinter esse
Ġp osto
ĠD isse
Ġper deu
Ġbo as
Ġse nte
us s
Ġdesc an
Ã į
Ġm oc
Ġest endeu
Ã¢ ne
Ġb ur
Ġper ig
Ġar mas
Ġba la
Ġo f
Ġ2 0
ĠE mb
Ġre vel
Ġcor da
Ġcas as
Ġir re
ol ina
Ġme tal
Ġfec har
g no
Ġse quer
Ġper s
ĠL u
Ġpos iÃ§Ã£o
ra g
Ġfaz iam
Ġvi va
Ġcria tura
ĠR achel
Ġgar galha
ĠtÃªn is
Ġcuida dos
f al
gra ma
Ġeng ol
as c
ĠS Ã£o
Ġap ren
Ġra to
Ġpass aram
Ġreg iÃ£o
vil le
Ġliga Ã§Ã£o
R E
Ġp Ã¢nico
Ġverdade iro
Ġre ver
Ġcal ma
Ġmontan has
ĠBra d
Ġcart eira
A M
Ġm ic
Ġf um
Ġvo lante
Ġel Ã©tr
t elo
Ġc rim
Ã³ vel
ĠV e
ĠcÃŃr culo
Ġazu is
ĠP hil
Ġdiz em
Ġconsegu iria
Com o
ÃŃ cias
Ġmu dar
Ġg ram
Ġha b
Ġtr Ãªm
ĠcomeÃ§ ado
Ġimag inar
Ġdesl ig
ĠStar k
r Ãªs
Ġt es
Ġv it
ÃŃ da
Ġcam bale
Ġde i
ĠestÃ¡ vamos
ima vera
z o
os os
Ġba te
Ġbe ber
ĠDa le
t ch
t land
ra is
le iros
Ġsem elha
Ġtam pa
Ġleva va
Ġamar ela
Ġ xer
Ġe di
Ġc ela
Ġv iver
ĠAl guÃ©m
Ġinqu ie
Ġf ita
Ã¡ vamos
Ġdes car
ti ve
Ġsu ger
ĠP ens
go th
Ġencont ro
du al
Ġcho que
Ġin verno
Ġdeix e
Ġdescob riu
nt em
Ġm andou
p le
Ġtelef on
ĠCas a
Ġmo Ã§a
ĠpÃ¡ tio
D a
Ġimpor t
ise bol
Ġanim al
g ido
Ġjo gado
Ġenor mes
Ġapa vo
C o
Ġ '
Ġbon s
Ġinterro mp
U L
ĠH ol
ina is
Ġimp ress
ĠAl guns
ĠsaÃŃ ram
Ġfoto gra
ĠJ er
cul ar
oo d
Ġtr iste
Ġque ixo
Ġb os
Ġro n
ing s
Ġinfer no
os as
Ġr is
Ġfa cil
Ġtermin ou
Ġlanter na
Ġpo Ã§o
Ġfal ta
Ġsof Ã¡
ĠC lint
Ġpo nte
he te
Ġfaz em
Ġcer tamente
ĠprÃ³p rios
er gia
Ġg ent
ĠL ila
Ġne gra
im e
om os
Ġin di
Ġsobre v
tÃ³ rios
Ġasso mb
P o
Ġ X
Ġcostuma va
Ġdeix ava
Ġcho rando
Ġretor n
ĠcÃ¢me ra
r indo
ĠEs te
Ġva ga
Ġplan e
Ġm ÃŃn
Ġconver sar
Ġmalu co
y er
Ġbe isebol
Ġ ul
ĠO i
ita da
Ġsab em
Ġpra ticamente
ĠW ireman
Ġpret endia
Ġco uro
Ġex iste
Ġpu de
k a
ĠP olly
un ha
Ġdes ma
Ġpo ntos
Ġcam is
na da
ĠHar ry
ĠP u
Ġacredi to
Ġdifer entes
ĠnegÃ³ cio
Ġf ut
ran Ã§as
Ġesqu is
Ġprop rie
Ġdific ul
Ġf io
Ġsua ve
Ġsab endo
ĠW endy
Ġempur rou
ĠB ru
Ġin como
Ġex ib
Ġres ta
Ġpu der
Ġencont rado
osto n
ĠCo isa
ĠbÃª bado
T o
al d
ri l
Ġquer ida
ĠIs to
Ġposs ib
Ã³l ver
Ġesp elho
Ġcomp u
Ġbeb ida
Ġp Ãºb
Ġv om
ĠQu ase
Ġbom b
Ġsub stitu
Ġde ta
Ġf asc
lh ei
r gu
il ho
ĠAlg uma
Ġv iz
Ġsor ri
f inal
t ta
ÃŃ m
que ta
Ġnot ÃŃcia
E L
l um
Ġsent ar
ĠI r
Ġconhec ido
re to
se m
el d
ne y
Ġad vo
Ġpal ma
Ġnot ÃŃcias
A L
Ġs oc
la Ã§Ã£o
Ġb ru
ĠB oston
ca das
co la
Ġgra Ã§a
Ġrev Ã³lver
s h
ei os
Ġparec ido
Ġtri lha
Ġarrega lados
Ġes to
ass ou
Ġref let
Ġqueb rado
Ã£ os
Ġl an
ec ia
ĠR uth
Ġpro duz
Ġamar elo
Ġesquec er
Ġrela Ã§Ã£o
Ġimport Ã¢ncia
r imento
ĠP ra
Ġcol oca
R I
b ul
Ġlig eiramente
ĠPen sei
Ġsilen ci
! "
er g
ĠS eria
Ġvo ando
Ġgos ta
Ġfug ir
Ġtrase iro
Ġde mo
Ġmer cado
gu eira
ol os
iz ada
Ġmelhor es
Ġrece ber
t Ãµes
Ġos sos
Ġou tono
Ġde ver
Ġ1 2
ĠPo p
Ġa la
ar e
Ġca bo
Ġi greja
Ġar ro
Ġs ar
le gar
va da
ĠD ia
Ġter iam
dia m
Ġfi la
Ġconc lu
Ġprocura r
t ina
Ġf ios
Ġcham as
ĠdÃº zia
Ġapar tamento
Ġcom ecei
ĠA ntes
Ġdes pre
sa va
Ġex ter
vi das
Ġsurg iu
Ġfran z
Ġs ess
os amente
la gg
ĠsaÃŃ do
Ġnecess idade
Ġgol pe
A n
ver n
end ente
ĠperÃŃo do
nt on
Ġle tras
Ġdesa gra
Ġaproxim ou
Ġesca par
Ġpun ho
urt z
Ġs Ãºb
le o
vo a
Ġche gava
Ġdia bo
Ġfol ha
Ġt el
ĠT Ãºrin
Ġpr imavera
Ġman dar
Ġor dem
Ġassass ina
ĠM ill
ĠO l
ĠT a
iz o
ĠDe an
ĠRus ty
iv el
Ġ1 1
Ġpul so
g um
Ġcont emp
Ġto que
Ġpre n
Ġquad ro
Ġres ist
Ġesc uros
Ġfi que
Ġsuper ior
m ando
Ġ .
as t
en os
gu as
Ġl in
at ura
Ġcomp rim
Ġxer ife
? "
Ġsol u
z ar
Ġse l
ĠD ud
un a
Ġin g
ĠK en
Ġmist ura
. )
D an
Ġa j
Ġo fic
Ġco to
Ġcar tas
ĠÃº m
ĠPer cy
c l
ir d
Ġen xer
Ġimp ed
Ġprof undo
Ġplan o
Ġprov Ã¡vel
C A
g es
Ġp an
ĠJ ul
Ġcu idar
Ġale gre
Ġb iblioteca
res pon
Ġad mit
Ġau tor
Ġse para
Ġac aso
Ġinc Ãªn
h Ãµes
Ġque ima
ÃŃ st
ul to
ĠL au
Ġpu b
b ido
t ir
Ġp s
ga Ã§Ã£o
vem ente
Ġop in
D A
h h
nt al
Ġv an
ha dos
Ġper de
Ġar co
orr er
Ġprim eiros
Ġenc ara
Ġde t
par ou
Ġgal pÃ£o
Ġengra Ã§ado
Ġbochec has
Ġp iso
Ã£ es
Ġf Ã©
ri velmente
ĠT e
Ġtrem endo
Ġfam iliar
Ġpica pe
t eiro
Ġde mon
Ġpres a
Ġbaix inho
fÃŃ cio
Ã Ĭ
Ġde m
Ġes fre
da m
ent ei
ĠS o
ĠV o
Ġcar tÃ£o
Ġsegu rava
Ġimp ul
Ġagra dÃ¡vel
Ġacresc entou
Ġexemp lo
am o
Ġacontec e
sar os
Ġv as
Ã¡ tico
ix a
Ġcober to
Ã©r ci
Ġev itar
Ġcora gem
Ġanima is
Ġpro c
Ġpra ta
ĠsaÃŃ da
Ġconver s
ĠDo is
Ġcint ura
ĠO wen
Ġdes te
Ġtom ando
anÃ§a va
Ġdesc endo
ent u
Ġem pres
Ġno ta
Ġpro va
Ġrec us
Ġsin ist
Ġpesade lo
ĠStre et
Ġdo ce
Ġca nt
Ġcon duz
ĠAnder son
ic idade
Ġan dou
Ġlemb ranÃ§a
Ġbrin que
Ġgas olina
S Ã³
b un
w s
Ġ he
le nte
ic ha
Ã³ i
Ġpen et
Ġ19 6
ĠMc G
ĠAp enas
Ġmem Ã³ria
Ġnos sas
Ġcasa co
Ġro man
Ġli ber
t in
en nie
Ġsu f
Ġobserv ou
Ġcla ra
Ġdesco ber
Ġterre no
T I
Ġl anÃ§ou
ĠF icou
ter n
Ġvolta ndo
Ġinc r
Ġde vol
Ġpo bre
Ġtor re
Ġun i
iva mente
l on
Ġat ira
Ġins ta
Ġsel va
Ġab re
Ġbal anÃ§ando
p ro
Ġp ec
Ġf ro
ĠP rim
ĠR es
Ġvi d
Ġcober ta
Ġenfer m
Ġ ...
Ġafas tar
d indo
or ia
ĠO r
ĠT ony
Ġpe Ã§a
it s
Ġtorn ar
Ġdescob ri
ĠmÃ¡s cara
Ġcamis eta
Ġt Ãª
ga das
Ġha veria
Ġsi nto
ÃŃn hamos
ĠLe e
Ġesquec ido
Ġexplos Ã£o
Ġp ri
Ġv ar
Ġno mes
ĠT rÃªs
Ġpo nt
di ts
Ġencont rava
Ġrapaz es
p s
ĠJ an
Ã´ mo
Ġaleg ria
ĠV iu
Ġrep ent
Ġrespon di
ar t
Ġat er
Ġi gno
Ġlev ando
Ġros tos
ĠS ta
Ġcal c
Ġesqu ina
tiva mente
ĠD ick
Ġ1 0
Ġmul tidÃ£o
p Ã§Ã£o
Ġc ento
is ion
Ġco ch
Ã§ am
Ġcur to
i er
r b
Ġde lica
la ram
Ġta pete
Ġconf usÃ£o
Ġabsolu tamente
i entes
Ġpo eira
Ġcru za
Ġel fos
Ġfei ta
Ã Ģ
Ġd Ã©
Ġo ri
B illy
L e
S im
Ġt est
ri es
ĠC ity
Ġal im
Ġen ergia
Ġpar que
Ġin for
at iva
Ġmar gem
Ġaparec er
Ġde b
Ġo fe
Ġb u
Ġre ve
Ġla ranja
w e
Ġdes espe
ra gÃ£o
Ġv io
Ġr umo
Ġpo legar
Ġper f
Ġfic ara
Ġson s
Ġacor dar
x as
Ġma to
Ġin de
nde u
Ġescon der
ĠS ho
ado res
Ġmar cas
Ġre lu
ran ha
har es
ĠD iz
Ġver sÃ£o
Ġpes ado
ĠpÃ¡s saros
Ġigu al
ĠAch ei
u bro
Ġde itado
Ġf Ãº
ent ro
Ã¡ gua
ĠS ara
ivel mente
p an
Ġa jo
da da
de la
Ġem it
ĠRa dar
ĠSu as
g amente
t ter
ent ada
Ã¡ tica
Ġh ip
Ġar qu
Ġdu ro
ĠSa die
Ġrepet iu
l ph
v Ã´
Ġfa le
tic as
Ġce leiro
Ġber rou
lou qu
Ġempre go
Ġs and
Ġb ro
Ġjo elho
Ġfil mes
Ġconta to
Ġg elo
Ġva por
ĠNenh um
ĠÃ¢ n
Ġf Ã´
re za
Ġse ca
Ġser em
pe e
Ġcaix as
v ei
Ġca der
Ġmas sa
Ġdes conhec
Ġter ras
Ġcor te
Ġti vera
ĠRo ger
Ġmaldi to
ĠPa ul
fi eld
Ã¡ rias
Ġdo ente
Ġno tas
Ġg en
Ġpe guei
at h
Ġass um
Ġra io
Ġfica vam
ĠLo go
Ġe feito
ĠP as
Ġso zinha
de z
Ġle it
ĠF lagg
Ġparec em
Ġfa ce
Ġnu vem
Ġrecu pe
Ġcir cun
x ou
ĠÃ ĵ
Ġdesaparec ido
Ġlen Ã§
Ġqua nt
Ġimpress ion
Ġ ÃŃn
Ġcons ciÃªncia
Ġbrin ca
En quanto
Ġjard im
ĠO ra
be th
Ġtra il
Ġgaro tas
Ġopin iÃ£o
v Ã£o
Ġdis pos
Ġpre ta
ja da
Ġjo vens
Ġfrequ Ãªncia
Ġexplic ar
ĠpÃ¡g ina
D o
Ġpa in
ĠrÃ¡p ida
pou co
Ġre do
Ġele tr
Ġh er
Ġho bb
Ġpes ada
Ġbar ba
ĠPo dia
ĠNa tal
ta que
il has
Ġcompan hia
? ,
c idade
Ġtar e
Ġbon ita
ĠMor gan
Ġenfer ru
Ġocor reu
uss ander
E st
i nt
t te
ĠA final
ec u
Ġest rem
ĠT orre
ĠF or
Ġint ens
Ġrep res
cha do
Ġsignifica va
d isse
Ġt ru
Ġf esta
Ġb r
Ġdiz iam
Ġpass ara
Ġvel has
ĠSem pre
Ġsegre do
Ġcor pos
ne te
Ġatravess ar
ĠJe an
Ġd Ãª
Ġdo m
ca dos
Ġrespon de
Ġdese jo
Ġbic ic
ĠCin za
ĠEmb ora
O L
Ġo ntem
Ġdes erto
ti fic
port un
c entes
Ġent ra
Ġpro grama
Ġbaix ou
Ġor gu
P ara
Ġs ho
Ġvolta ram
Ġtrabal hando
Ġimag inaÃ§Ã£o
ĠA quilo
Ġent endeu
Ġab sur
Ġrep u
Ġaca ba
Ġestran hos
Ġvermel hos
Ġenc he
ÃŃt ulo
Ġnerv oso
ĠDud dits
a nte
k ins
Ġg ira
Ġg era
Ġpra to
ing er
cob s
Ġdeci diu
Ġfir m
ĠJun ior
f one
w ay
Ġde ra
oc ar
Ġas pec
Ġr osa
ĠT ad
Ġsob ran
Ġfic am
Ġdeix Ã¡
for d
Ġbon ito
Ġrisa da
Ġflut u
Ġp ista
er os
ĠS E
ĠD O
ĠD al
Ġen louqu
ĠK urtz
ke y
I L
Ġm os
ia va
ĠE llie
Ġcor ria
Qu e
ja nte
ĠDon na
Ġinfer ior
ĠincÃªn dio
Ġco ro
ĠS ol
Ġmen inos
Ġau la
Ġapar entemente
ĠChar les
Ġdep Ã³sito
Ġdro ga
H ouve
g ara
Ġp alha
Ġdes enho
Ġle gal
Ġpa vor
Ġcar eta
Ã¢n cias
Ġtro pe
c am
Ġho n
Ġexa us
Ġa de
Ġr ia
Ġin im
ĠF iquei
Ġfic asse
Ġtom ado
Ġre mÃ©
un cia
Ġdes ist
Ġper segu
Ġcab ine
ĠLe va
Ġgan har
Ġgiga ntes
w yer
Ġdo lor
Ġno v
ĠA ce
ĠS andy
no ite
fa nt
Ġbon Ã©
Ġrecu ou
Ġobri gado
Ġmonst ro
es a
Ġcu jo
Ġpol tro
Ġconhec e
Ġequ il
Ã©rci to
r Ãµes
Ġb ela
Ġal iv
T alvez
Ġen velo
Ġsa ia
enta Ã§Ã£o
Ġpassa g
Ġp in
Ġo portun
Ġdo c
ÃŃ dos
ĠT he
ĠB ran
ĠW est
Ġsub itamente
c aram
ch os
ĠCom e
Ġt ido
em as
on s
Ġfa cul
Ġat or
Ġconf ir
Ġbor da
Ġga ve
qu il
Ġm ec
Ġqu ie
Ġin vis
ĠJ ud
Ġverdade ira
Ġ19 5
Ġequ ip
ian Ã§a
B ill
f ado
Ġco nte
Ġsu jo
Ġas as
iza beth
Ġdest ino
ipp in
Ġadvo gado
b el
ĠM amÃ£e
lh ar
Ġdes cia
Ġfor tes
d aria
he Ã§o
it Ã¡rio
Ġesco lh
l Ã³
m entos
p ul
Ġd an
ĠsaÃŃ a
Ġbil hete
E I
ĠT y
Ġmu dou
it ch
ĠG il
Ġmost rou
mor e
M ais
p ido
Ġbo tas
ang or
Ġdificul dade
Ġdesagra dÃ¡vel
Ġassassina to
Ġfec hado
ĠO lha
Ġen cer
udo u
ÃŃn io
Ġmorre ndo
Ġp iada
Ġsegu rar
ĠEstava m
Ġfut uro
ob re
Ġti j
Ġcu ja
Ġsacu diu
Ġc ena
ĠP rin
Ġsal Ã£o
Ġado les
b ird
Ġes ma
Ġno tur
Ġdes vi
Ġpr estes
Ġolh ei
Ġlev Ã¡
ĠJim my
Ġnecess Ã¡rio
Ġgara nt
r Ã¡rio
u so
Ġg rav
ĠR ennie
ĠEsta mos
h eira
Ġo nda
Ġac al
ap ai
Ġsr ta
[ âĢĶ
m u
t ig
ĠAl bert
Ġsol o
Ġpreocu pado
Ã´n ica
Ġgram ado
Ġcompu tador
Ġa to
di tch
rado res
Ġbran cas
Ġmic ro
s u
ir Ã¡
Ġcont rÃ¡rio
Ġacredi ta
Ġescri tor
Ġprate leira
ĠAlgum as
Ġmud anÃ§a
Ġme tro
Ġin Ãº
Ġver des
ina dos
Ġpres enÃ§a
ĠBow ditch
a h
Ġbrilha ntes
Ġexper iÃªncia
gu Ã£o
ĠI mag
ios a
Ġgra ve
Ġacor dou
Ġn esta
Ġl ista
ÃŃ na
dÃ¡ ver
Ġprofunda mente
Ġore lhas
ic ar
ri d
Ġpo ntas
ĠEs cu
Ġve jo
Ġfantas ma
Ġprofess or
A o
qu elas
Ġna ve
it Ã©rio
na is
Ġvermel has
Ġsemelha nte
Ġpossib ilidade
Ãª me
ĠP A
ĠH an
Ġser iam
esse m
Ġpre Ã§o
ĠT or
Ġcha ves
Ġpergu ntando
Ġexp lica
Ġfra co
Ġpisto la
Ġzumb ido
Ġt ap
Ġmar cha
Ġaf o
Ġquil os
V ries
ĠC ara
Ġal un
ez er
ĠPe ar
Ġescu re
Ġant igos
iza Ã§Ã£o
ĠS lo
Ġca dÃ¡ver
Ġsa guÃ£o
Ġbrin cando
ord an
rag orn
i gu
s te
Ã ĵ
or e
Ġcom entou
Ġem b
ando lph
Ġg irou
ÃŃ g
Ġre duz
Ġab rindo
Ġtr is
Ġmor rido
m un
Ġa va
ĠHa ven
Ġfra se
Ġhum ano
Ġpress Ã£o
M A
t udo
Ġt ÃŃnhamos
ia dos
Ġmu da
ĠSa bia
Ġsusp irou
Ġtes ou
i rei
Ġmom entos
Ġdevia m
Ġhum or
ĠRob er
Ġc enta
ĠT emos
ĠlÃ¡ pis
Ġdeix ara
Ġcria turas
ĠFa z
Ġperig oso
an c
Ġem erg
gu lo
te bol
ĠS h
Ġru as
Ġgos tar
ĠSa u
Ġment al
Ġexplo diu
Ric hard
Ġd aria
Ġb unda
Ġl um
ĠN et
Ġper igo
Ġac en
Ġsom ente
Ġm is
Ġre fei
Ġass ento
Ġcas amento
ĠW h
Ġestran has
Ġneg ros
Ġdirig ir
Ġexper im
Ġsand uÃŃ
Ġbicic leta
Ġe co
qu ia
Ġj un
ĠV enha
Ġle ite
Ġsab iam
Ġam iga
Ġconsegu ido
Ġdire tamente
Ġsan g
ĠSa wyer
Ġacor dado
O C
Ġf Ã³s
Ġdo no
Ġno vos
Ġg Ã¡s
Ġche guei
Ġra bo
Ġpreocu par
Ġrev ista
Ġtrase ira
ĠGa ge
Ġresul tado
Ġat irar
Ġros n
Ġcresc ente
d inho
Ġde us
ua is
Ġman da
Ġon das
d ges
ri ge
ec as
ci ar
Ġbochec ha
Ġn ÃŃvel
Ġo rig
Ġan dava
f fe
s aro
ĠJa cobs
Ġeleva dor
u e
z entos
Ġde n
ar da
Ġg r
ĠC ris
ĠP ippin
ica tri
Ġjo gando
Ġc ura
Ġo ra
in ando
Ġma ta
ĠN ÃĥO
Ġenf re
ĠCla u
Ġment ira
van inha
ÃŃss imo
b ada
ran n
ĠG eral
ick y
Ġtest em
g am
Ġg at
Ġac endeu
ĠF ord
Ġesp ÃŃ
Ġar t
Ġch Ã¡
Ġer rada
Ġgela deira
ĠJul ia
H enry
Ġa di
Ġf ina
ĠB et
Ġsor rir
Ġpart ida
Ġf ÃŃs
la vam
Ġpou quinho
Ġint enÃ§Ã£o
Ġcre p
ÃŃ cara
Ġac ost
rada mente
ĠTo do
Ġameric ano
ĠfÃº ria
Ġfacul dade
b ec
Ġa nte
Ġo cul
Ġf ing
Ġcomp or
p p
Ġcon for
Ġcor respon
Ġesc or
est re
Ġus ou
vor e
Ġfu tebol
lei ras
Ġinv est
b ros
on do
Ġre fer
Ġpa ÃŃs
Ġleva nta
Ġbom ba
Ġgu ard
ĠCh ris
bu as
Ġcomple to
ĠA ca
ĠD iga
ĠF ez
Ġaber tos
ĠMat tie
an eta
Ġsu ja
Ġj ulho
Ġcabe Ã§as
Ġsen Ã£o
Ġconhec imento
Ġescri vaninha
Ġlar go
Ġconc reto
Ġescre veu
Ġsum iu
Ġgargalha da
ĠfÃ³s for
b rou
i der
p ira
ĠA ragorn
Ġpas ta
Ġimp ro
Ġbo tar
par tamento
Ġtoc ando
Ġapar elho
ĠBu ick
Ġt Ã©
am a
ĠS on
Ġin ex
ĠF e
Ġar bus
Ġobje to
Ġvie ram
p ando
Ġp Ã³
Ġl inhas
Ġle ndo
Ġvi ol
Ġesta Ã§Ã£o
Ġvolta do
ron d
Ġintelig ente
Ġdemon st
a le
i le
Ġm us
Ġv ent
ĠC er
ĠM ia
Ġcin ema
ĠÃºlt imas
et te
Ġinf eliz
Ġf ome
ĠP ou
ĠD ussander
Ġcar ona
Ġcaminh ar
pee dy
c s
Ġc icatri
ĠB angor
lo rann
ĠEs pero
Ġcomp rido
ĠcomeÃ§ ara
ĠBar bara
Ġcheg asse
Ġatravess ou
ĠtÃ¡ buas
u ck
Ġp ne
Ġt entava
Ġv ende
le c
Ġencont raram
Ġ19 8
Ġa ga
ĠD A
Ġr iso
it ivo
Ġcons ul
ĠpÃ¡s saro
1 1
f in
Ġda ÃŃ
Ġg e
Ġest icou
us ive
dos o
at er
Ġvol tei
pa das
Ġsusp ei
ĠmaÃ§ aneta
Ġtrail er
Ġ Ã¡s
ĠA ÃŃ
Ġdes bo
ĠK ing
Ġsub ia
ĠRa y
Jo hn
Ġoportun idade
Ġdo ze
Ġest ilo
Ġca ntar
Ġen vi
Ġsent ados
Ġcru el
ĠPar e
Ġsess enta
Ġtris teza
Ġf amos
le go
ĠS il
ĠM un
ce ram
ĠQu eria
Ġinter ess
Ġdef in
ĠWill iam
Ġuni forme
B em
Ġr isco
Ġpe gando
ĠL on
Ġcor tar
Ġ1 8
Ġposs u
Ġhor izo
Ġimped ir
g amento
t im
re w
Ġdis c
ul os
ĠDe ve
Ġvis se
Ġnu ca
Ġocas iÃ£o
ĠEntre tanto
O u
s or
s ha
do ma
ĠA u
Ġat irou
Ġin st
Ġtro n
Ġder ram
ĠIn g
Ġcircun st
ar ed
Ġpo p
Ġent endia
Ġesp ero
Ġsobre n
Ġbar co
Ġmaior es
Ġperce bi
Ġating iu
D es
w er
Ġ ilha
qu is
Ġn eles
Ġle i
ĠEs per
Ġri t
atura l
M ar
Ġ ram
Ġf ri
oc ado
ĠC ou
Ġer ro
ĠMor goth
ĠKe vin
Ġna tu
Ġal tos
ga vam
Ġpro m
Ġsegu ra
Ġche gada
ĠÃ¡ l
Ġmar rom
Ġim Ã³vel
Ġpart iu
itu de
Ġmaldi ta
p u
gu i
Ġout ubro
Ġsom os
ĠSi nto
Ġcuidados amente
ĠfÃ´ lego
Ġbr isa
H A
Ġde l
Ġg er
Ġla ma
Ġch eios
Ġbal as
Ġped ido
Ã´n ia
Ġvinha m
Ġbus car
Ġblo co
Ġextrem amente
ĠsÃ¡ bado
E l
v iu
Ġe vid
Ġdo bra
Ġin se
sa da
ĠH er
ĠEs tados
Ġeste ve
ĠTom my
ĠCon segu
Ġx ÃŃcara
Ġinteressa nte
Ġajo el
Ġma ter
Ġdi go
Ġin ca
ĠR andolph
at es
Ġro da
Ġimpul so
! ,
R oland
Ġp ano
Ġque da
ĠO ver
Ġar ris
Ġgra Ã§as
Ġret ira
Ġsatis feito
Ġtel hado
h ila
t z
Ãª nt
Ġma d
ĠC OM
ĠD el
Ġr um
di das
Ġfaz enda
ĠAn el
lic ado
Ġhum ana
ĠDei xe
Ġpain el
Ġenvelo pe
Ġnatu reza
Ġt he
ĠA d
Ã§a dos
Ġac ele
Ġquer em
Ġentre gou
ĠPrec iso
i es
Ġs ist
Ġin va
Ġfor mas
Ġbe leza
ĠNet tie
D on
v eiro
ic ÃŃ
Ġfa Ã§o
ul s
Ġesp or
iz ou
ĠI l
Ġ19 7
ĠRe doma
Ġsobrev iv
Ġincr ÃŃvel
o ter
t ÃŃvel
x i
Ġ ,
in bird
Ġcon dado
ros a
ĠUn idos
Ġdeslig ou
Ġre tra
ĠC ra
ĠM y
Ġper m
Ġsegu indo
Ġmel ho
ba dos
Ġun ivers
Ġestranha mente
c Ã¡
i ras
m Ã£
r or
Ġin fant
ĠH um
Ġpou cas
Ġgu in
Ġaproxim ando
Ġdec isÃ£o
Ġalmo Ã§o
ĠHow ie
Ġdem Ã´n
f ada
v ando
Ġv inho
Ġb ando
ĠE v
Ġter Ã¡
ĠH ill
ru gada
Ġqui ntal
ĠpÃ¡g inas
ĠD urante
un h
Ġac esso
ĠF ar
Ġpro du
Ã¢ nt
Ġbat ia
Ġpat as
f io
ĠP apai
Ġen via
Ġla d
ĠNa quele
Ġestu p
Ġcurios idade
l is
Ġes go
Ġem o
ĠT ess
Ġpar tes
Ġent rando
Ġfor n
lic ou
Ġor gan
ĠDes cul
ĠSent ia
ĠEst rada
g or
Ġe qui
Ġso ou
ĠJam ie
Ġd ragÃ£o
Ã§a va
ĠF ora
ce ra
Ġbol as
Ġmon stru
Ġcigar ros
ĠpÃºb lico
m Ã£o
ri tÃ³rios
Ġtrabal ha
Ġrec Ã©m
Ġcava l
ĠPrim eiro
D E
la das
va Ã§Ã£o
Ġolha ram
Ãºs culo
Ġpoltro na
l Ã©
Ġp Ã£o
Ġv ÃŃ
Ġsu g
ida do
Ġper feito
Ġpens ado
Ġcol inas
id Ã£o
Ġexce Ã§Ã£o
ĠBru tal
b ras
f ico
x u
nt aram
Ġt ec
es pero
Ġb ob
Ã³ veis
Ġper cor
das se
ĠF ui
ĠF inalmente
Ġex ecu
Ġleva ntando
Ġa h
Ġest ri
di to
ĠPor Ã©m
Ġreun iÃ£o
Ġquant idade
r esse
ĠS ha
ĠB ol
Ã¢n cer
Ġespecial mente
ĠHe len
Ġmoc hila
Ġgent il
ĠmÃŃn imo
Ġde ram
ĠG os
ver na
ĠDe vore
ĠPo deria
Ġbei jo
Ġreco me
Ġesper ou
g ente
Ġdisse ram
Ġle u
ver t
mb a
Ġsab emos
Ġpudesse m
Ġve ÃŃculo
Ġfra ca
Ġder re
Ġcint ila
Ġauto mÃ¡
Ġgiga nte
ĠSlo at
A h
Ġc Ã´mo
Ġse t
que Ã§a
Ġap la
Ġmo le
Ġcer tas
Ġinc lu
Ġag on
Ġesquec eu
Ġc ro
Ġcom endo
Ġca deiras
ĠD eu
Ġa ro
Ġprim eiras
Ġref le
Ġsusp iro
Ġsex ta
Ġpreocupa Ã§Ã£o
g le
Ġo be
Ġb isco
ĠR ed
Ġle g
ga cia
Ġquer iam
Ġtra zer
Ġsol dados
Ġus ado
Ġperce be
ĠsÃ© culo
ĠMc Vries
Ġbura cos
Ġpendura da
Ġjor nais
Ġore lha
Ġ ÃŃ
in ce
Ġsol tar
Ġbol o
Ġag ente
ĠcaÃŃ ram
Ġret ru
Ã©r ica
ffe y
S a
de iro
Ġma tado
ĠC ada
ĠD ou
un e
ĠR os
Ġinv esti
Ġdiss esse
l s
Ġca ntos
Ġencont ra
Ġpux ar
Ġdiver t
ĠQU E
1 0
b ando
Ġme xer
Ġdes f
Ġent raram
Ġis o
Ġres tava
Ġmo to
Ġmo ver
ch ou
Ġgri tava
gon ha
T om
c aria
u se
as h
Ġma tÃ¡
Ġdi v
Ġinf Ã¢ncia
ĠnÃ© voa
ĠT ar
Ġfor Ã§as
Ġce go
Ġcheg ara
Ġlen Ã§o
cel has
Ġextrem idade
Ġa us
Ġco z
ran has
Ġr Ã©
Ġpas sei
Ġpa co
Ġencont rei
ĠAt rÃ¡s
it Ã¡ria
via m
ĠÃł quela
Ġcomp ara
Ġcomp ras
ter ra
Ġliv rar
Ġguar dar
Ġrece beu
Ġdaqu ilo
Ġsum ido
I C
Ġno vas
ec i
ĠO lhe
Ġti rando
Ġacontec ia
Ġ1 6
Ġescu ras
ific ado
As sim
Ġcr ista
Ġalu c
Ġsobran celhas
g ol
r inha
Ġca deia
om i
Ġter no
ĠJ ordan
Ġpendura do
A p
i ri
Ġp ura
Ġt oss
ara n
Ġb elo
Ġl as
ĠM ai
ĠM erry
Ġcon so
Ġar ti
lo ok
Ġpa u
Ġlon gos
Ġpi nt
Ġcla ramente
ĠCont udo
Ġama va
Ġdete tive
Ġt iros
Ġsent imento
Ġsegu ido
Ġti ras
Ġvira do
Ġfigu ra
U N
Ġn amo
Ġco res
in co
ÃŃ l
Ġcon ce
Ġcon ge
di Ã§Ãµes
Ġesp ada
Ġgaro tinha
Ġcoloc ado
ĠCon dado
Ġfuncion ar
Ġprote g
ĠÃĵ timo
l Ãªs
Ġco nto
Ã£ s
re ns
Ġdis tra
ĠB el
Ġfa ixa
Ġant igas
Ġbol sos
Ġtenha m
ĠPer gu
Ġfecha dos
Ġcava los
Ġlimp ar
ĠBea ver
Ġconse lho
Ġf el
Ġl anÃ§
ĠC idade
Ġle nta
Ġar rum
Ġpa d
Ġra tos
Ġlon gas
ut ch
ĠCo ffey
ĠBob by
Ġassass ino
L o
m almente
nt emente
Ġv ÃŃt
ei tos
Ġem ba
Ġex ig
Ġcer e
Ġban ho
ĠHu gh
Ġgave ta
ĠOver look
3 0
d ÃŃ
w ood
nt eira
Ġg Ãªme
Ġres erva
Ġconhec er
Ġesco lha
Ġbon eca
vol ta
Ġcr Ã¢n
Ġbata lha
Ġdoc um
T udo
g ento
Ġv esti
Ġno tou
Ġme tÃ¡
Ġex ci
ita is
Ġdesc re
Ġfra g
Ġja queta
Ġp el
Ġt ig
Ġt ais
Ġres mun
Ġra ios
Ġvi rando
Ġenf iar
Ġdro gas
ĠAc redi
cons ciente
ĠPrin cip
p es
w ell
Ġd anÃ§a
ĠS un
ai u
ĠH amp
Ġcont ando
Ġi nte
Ġman chas
Ġsal tou
Ġpul ou
Ġaproxim ar
Ġtive ram
ĠFred dy
Ġcircunst Ã¢ncias
ĠM icha
ĠF ique
ĠL inda
Ġcam pos
Ġdele gacia
cu la
Ġouv ira
ero por
Ġlou ca
Ġmontan ha
Ġblo que
ĠCris to
Ġse ios
le tÃ³
da des
ĠS ul
Ġre me
ran s
Ġpe Ã§as
Ġesp re
Ġapo ntando
Ġve ja
ĠPar k
ess as
Ġgri ta
Ġbri lhando
Ã©s semos
ĠCar ol
Ġaspec to
s en
ĠA mb
ĠS peedy
Ġex tre
Ġi gn
ti dos
ĠAl go
Ġpal mas
Ġdirig indo
ĠBro wn
Ġfurios o
ĠKen ne
Ġt um
Ġvol tasse
Ġimag ens
Ġmost rando
ĠmÃ© dio
Ġescon dido
c eiro
h asse
in d
so na
ĠG or
ĠprÃ³p rias
Ġbat ida
ĠSte ph
Ġbor ra
Ġinforma Ã§Ãµes
w ick
Ġg l
Ġca ntando
Ġent endo
Ġpr ision
Ġresp irar
Ġmost rava
Ġarbus tos
Ġpne us
g il
k o
Ġt an
Ġma la
Ġex er
Ġte x
Ġacontec era
pos ta
Ġta ntos
Ġaber tura
Ġdesaparec er
ĠAp esar
Ġgeral mente
Ġincl usive
Ġproprie dade
h eiros
Ġde cla
in n
an Ã§o
la y
Ġre ino
Ġcon vida
ĠL ester
Ġpa letÃ³
ĠHal lorann
al ho
al bert
ĠB iblioteca
Ġan ivers
me u
der e
ĠW ard
Ġti nta
ck er
Ġconc l
Ġfantas mas
Ġtorno z
Ġf oc
Ġal ma
Ġmor tal
ĠBar ry
Ġdeta lhes
Ġa con
Ġo vos
Ġen so
ci dos
Ġmo rava
Ġquer ido
Ġta te
cado r
ĠEl len
ĠfÃ© rias
Ġtare fa
G ard
M eu
b orn
Ġt enta
Ġv in
ic ip
ĠP res
Ġat ro
tado res
ĠBe ezer
ĠTom Ã¡s
ĠHo dges
AD O
icip al
Ġf in
Ġre vis
di ram
Ġras te
Ġgor do
Ġocu pa
Ġbrinca deira
r ick
Ġse de
ĠN esse
Ġmen inas
Ġaju dÃ¡
ĠGra Ã§as
Ġmex eu
Ġmoe das
Ġcenta vos
A inda
U S
ra p
Ġt ime
Ġf itou
ĠN orris
ĠP ela
ĠM A
Ġcon ju
Ġin e
ĠhÃ¡ b
Ġad ul
Ġtrans forma
Ġcur ta
Ġor den
ĠEn cont
Ġsaco la
Ġdomin go
Ġhobb its
u nt
Ġt Ãºn
Ġac amp
ĠG old
Ġpre tos
Ġins ti
ion ado
Ġag osto
ĠNe gra
Es tava
. ]
1 5
D ei
P er
Ġb en
ĠC ava
ĠF ica
Ãªn io
Ġ1 7
ĠTo das
Ġpla ta
Ġfur gÃ£o
ĠespÃŃ rito
re d
ĠS entiu
ram ento
ĠÃ¡ guas
Ġcur vou
ĠBu ck
Ġamo nto
Ġpei xe
Ġmaravilhos o
Ġencolh eu
Ġf enda
ĠE M
que te
ĠB al
ura r
res so
Ġmo de
Ġcas os
Ġtam pouco
Ġra ramente
Ġtrans por
ĠBo a
Ġdeci dir
Ġcus p
n ing
Ġp om
il i
ĠP r
Ġpro n
Ġvol ume
ing ol
Ġcons ider
Ġcent ral
Ġval or
Ġnatural mente
l ida
Ġ w
Ġp ilhas
Ġl inda
Ġca uda
ĠC re
Ġpe gÃ¡
Ġent endi
ĠÃ³ b
ĠÃ³ dio
ĠlÃ¡b io
Ġqueb rar
ĠcrÃ¢n io
em or
Ġg irando
Ġre to
Ġres tos
inh ar
ĠnÃºm eros
Ġabsolu ta
UL O
eropor to
a a
b as
Ġc Ã£es
qu eiro
la terra
em an
Ġfa ces
Ġi de
Ġar que
Ġlig ado
Ã¢m ara
Ġcontro lar
ÃŃa co
Ġencos ta
Ġrodo via
ĠS t
Ġest ro
Ġsu pon
ĠJ ared
ĠF iz
cial mente
Ġdup la
Ġadi v
b s
le tas
ĠC ent
Ġcor rida
Ġfar Ã³is
Ġsof re
Ġgo le
Ġcre io
Ġmad rugada
r inhos
Ġc Ã¢ncer
Ġcham am
Ġgar ras
Ġqueb rou
Ġlen ha
Ġcrim e
Ġjun ho
ĠIng laterra
Ġmater ial
Ġequi pe
I I
u be
Ġco la
Ġb rus
Ġsu st
ĠQu a
ĠMar sha
Ġpap Ã©is
Ġergu er
Ġmov endo
ĠtÃªm po
ĠnegÃ³ cios
Ġaproxima va
ĠPear son
ĠS an
Ġar te
Ġpergu nt
du ras
Ġsal to
Ġnerv os
Ġabra Ã§ou
Ġfacil idade
i jo
Ġe du
Ġna queles
Ġpro g
Ġpres idente
Ġcur so
Ġmost ra
Ġprecis ou
H O
S ua
g asse
o vern
de ado
Ġest ica
Ġsu pos
ĠC ap
us os
Ġdes li
Ġpux ando
Ġlimp a
Ġarras tando
Ġgela do
Ġacei tar
Ġsatis fa
Ġsist ema
E C
Ġa des
Ġc esta
es tava
ĠS p
ĠC urt
ĠD ol
at ia
Ġcer tos
Ġba ba
Ġaber tas
Ġ3 0
ĠmÃºs culos
Ġhorizo nte
J a
t ia
Ġre b
Ġin espe
ci ou
Ġinf in
Ġgal hos
Ġescorre ndo
br ica
Ġtorna va
Ġinca paz
icÃŃ dio
Ġanivers Ã¡rio
i i
j et
Ġse qu
ĠD un
ĠO este
Ġex c
Ġlon a
ĠÃ³ leo
Ġmil hares
Ġfe dor
ĠDu as
Ġcem itÃ©rio
ĠPA RA
W ireman
e p
le na
Ġcom ando
Ġl it
oc os
Ġre de
ĠC olo
ran ce
Ġfo gÃ£o
Ġfaz ende
ĠEs tÃ£o
Ġesta dual
Ġtent ativa
Ġtorn ara
Ġterr ÃŃveis
Ġbos que
Ġb ai
Ġem bar
ĠC ob
Ãµ e
Ġun has
Ġquar ta
Ġfer ram
Ġpreocu pe
Ġvaz ias
Ġcompan heiro
Ġresta urante
S eu
do ra
is mÃ£
Ġf ras
Ġv ac
Ġv ivos
ĠDe ke
Ġinvis ÃŃvel
1 9
h Ã¡
ĠC an
Ġver gonha
Ġbal anÃ§a
Ġsaber ia
Ġpassa da
Ġfiz er
Ġtransfor m
Ġens ino
Ġserv ir
ĠestÃº dio
ĠtrÃªm ula
Ġul tra
o ta
p cion
Ġa ulas
ĠT eria
ros s
Ġcas tan
ĠNa quela
Ġav iso
Ã³r ter
Ġpun hos
Ġlim po
Ġalc ance
ĠDen is
ĠQual quer
Co nt
Ġinterromp eu
ĠHol mes
Ġgr unh
m Ãµes
Ġf ino
Ġl anÃ§a
ĠS om
Ġou ve
Ġal tas
us sÃ£o
Ġen dere
ĠR ua
Ġdeix ei
Ġpassa vam
ĠCar rie
Ġprecis amos
ĠRe g
ÃŃs que
ĠsÃºb ito
g s
Ġde mas
Ġs inais
in gu
Ġpara ram
on dor
Ġimp a
Ġperman ec
cur so
An dy
Ġplata forma
B ar
p al
ar ou
re o
ha ram
Ġl ite
Ġca lado
ĠC orre
Ġdis parou
Ġcons er
Ġcarre gando
Ġbl usa
Ġmoe da
ĠDar cy
A cho
f un
o w
Ġcom ent
Ġcon den
Ã§a das
Ġpar entes
Ġmom ent
Ġped indo
Ġrece b
ĠMo ntan
Ġcansa da
Ġrever endo
Ġborra cha
Ġc ess
Ġt ia
oca is
Ġ1 4
ĠdÃº vidas
Ġrou ca
ĠNor ma
ĠirmÃ£ os
Ġaj udou
ĠSau ron
re l
en ch
iv emos
it h
ĠQu atro
qui la
Ġdorm ia
ĠTer ritÃ³rios
Ġmant inha
Ġdirig iu
S E
u ras
Ġf omos
Ġdis co
ĠT ho
ĠR ol
Ġres id
Ġvol tava
Ġch ar
Ġrec la
ĠJu dy
Ġdescul pas
Ġbur ro
is to
ĠS to
ĠT u
ĠB il
sa dos
ĠH am
Ġlu vas
Ġdeix aram
Ġpen so
Ġro cha
Ġsuj eira
Ġestre ita
ĠDei x
Ġalc anÃ§
Ġenxer gar
so l
Ã³ rio
ĠF lor
Ġla tas
Ġcar ga
Ġsegu ia
Ġmen in
Ġestar Ã¡
Ġba que
Ġru ins
Ġquar tei
Ġvia tura
Ġempur rando
Ġexplo dir
Ġbei jou
Ġsai ba
Ġing lÃªs
Ġtij olos
c entos
Ġt Ãºm
Ġf rou
Ġem aran
Ġest radas
Ġper sona
Ġmu ra
Ġcont orn
ĠG al
cia m
Ġvi das
Ġquar tos
Ġcost um
Ġraz o
ĠGre en
igh t
Ġhab ita
Ġacost um
ĠMarsha ll
L Ã¡
Ġf ul
ri das
Ġent us
Ġex Ã©rcito
Ġporta nto
Ġrep Ã³rter
Ã´n ico
Ġcomple ta
Ġcober tas
ĠDes de
Ġcinz ento
Ã³g ica
Ġfoc inho
I D
t ivas
v ocÃª
Ġma gro
Ġsu cesso
ĠM Ã©
ĠR at
Ġter em
ch ando
enta is
Ġconf uso
ĠcaÃŃ a
Ġlar gou
Ġprote ger
Ġdescon fia
ĠMai tland
Ġa Ã§Ã£o
se y
Ġas fal
Ġcomp rida
Ġcol or
Ġbe be
Ġtira do
Ġtransfor mou
Ġdou tor
tem bro
Ġqui nta
ĠJam es
Ġcomprim idos
ĠGeral d
in es
Ġescu tar
et t
Ġgos tou
Ġaper tar
ula Ã§Ã£o
Ġcinz enta
Ġresol ver
Ġfotogra fia
Ġrit mo
P Ãį
g in
Ġc Ã³
ĠE r
Ġca ut
ĠT ur
Ġent rado
via mente
Ãº va
Ġra cha
Ġgaro tinho
Ġcons tante
Ġcons ciente
Ġatrav essa
ĠHar ris
e jo
i el
re ira
ÃŃ culos
ĠN an
ĠD rew
imp les
ba te
Ġor d
Ġchama vam
Ġcaminh Ãµes
Ġsilen cios
ĠNos sa
ĠSho oter
d entes
i en
Ġa onde
os co
ĠD oc
ĠT ive
Ġmes mos
Ġbar u
Ġci ent
Ġaper tando
ĠCon s
Ġu ÃŃsque
ĠTed dy
Ġproc urou
C he
b ran
ĠS ar
ĠP OR
ĠR u
Ã¡s tica
ĠSe ja
Ġus a
Ġav Ã´
Ġcho cola
Ġexa to
Ġtri bun
Ġlar eira
ĠNor te
Ġfei tos
Ġcurios o
T ULO
n is
Ċ Ġ
Ġd anÃ§ar
Ġde so
Ġo pe
Ġque ira
em in
ic ado
Ġem po
ÃŃ ram
Ġcon heÃ§o
Ġin stru
vi dos
Ġpol ÃŃ
G O
i per
w in
Ġcon fer
Ġsua vemente
Ġcont ei
Ġan el
ne au
Ġguar das
Ġabri go
Ġboc ado
Ġperfei ta
Ġbarra cÃ£o
ĠNenh uma
Ġbrinque do
Ġater ror
d il
Ġde co
Ġv ender
Ġse jam
el h
Ġg ris
Ġre ta
Ġestar iam
Ġtent ei
Ġban da
Ġtrabal hava
Ġergu endo
Ġench er
Ġtestem un
Ġset enta
N ada
d ica
i Ã§Ãµes
t ima
Ġn Ã¡
Ġdes espero
Ġfa nt
Ġcont ente
ĠI m
ĠprÃ³x imos
Ġprop Ã³sito
Ġcres cer
Ġimpro v
f le
f era
t endo
v Ãª
v ÃŃamos
ec endo
ĠD esta
Ġter mos
Ġpro tes
Ġesp anto
aria mente
Ġvis ÃŃvel
Ġarran car
ord in
ĠlÃ¢m ina
Ġtru que
PÃį TULO
S am
z inhos
Ġest endia
ĠC ad
ĠB an
di re
Ġvis itar
Ġencont rÃ¡
Ġcal mo
lic e
Ġmil hÃµes
Ġagu do
Ġlate rais
ĠtÃ¡ xi
N Ã³s
g ie
Ġa ranha
Ġo dia
Ġt ecido
ĠT ina
Ġle nto
Ġlu ta
Ġva gamente
mit h
Ġpal co
Ġtre in
Ġrea Ã§Ã£o
ĠCra ig
Ġinfant il
Ġentus ias
B e
S em
u el
im bo
ĠD Ã¡
ĠO llie
ob os
Ġver ificar
inh eiros
ĠPor tland
Ġob ra
Ġrespon s
ĠEd gar
Ġcan Ã§Ã£o
ĠRa inbird
Ġbrilha va
ĠinÃº til
M e
y na
Ġ ut
Ã© gio
ĠL or
Ġesta lo
Ġpres os
Ġcan al
vem bro
Ġgra us
Ġtre cho
Ġabaix ou
Ġfres co
Gard ener
l ido
Ġca i
Ġen ga
Ġcar o
Ġcam p
Ġmor tas
Ġlemb ranÃ§as
ost ei
ÃŃn as
Ġimag inou
ende ll
Ġ2 00
Ġve ge
Ġtrem er
ĠCal la
i tava
l ing
o d
x es
Ġc idades
Ġca Ã§a
Ġpro vas
ĠG ondor
Ġlu ar
inh ou
Ġtom a
ĠLe w
Ġgan hou
Ġven ha
Ġconstru Ã§Ã£o
Ġinforma Ã§Ã£o
ĠPens ou
ĠJer ome
C ar
C on
ar em
ri lha
lh Ã£o
ĠF ec
Ġpro cesso
Ġcas ca
Ġtor ta
Ġso ava
Ġban heira
Ġpul mÃµes
Ġment ir
Ġsomb rio
Ġmist Ã©rio
ĠmÃ©d icos
ĠCont inu
Ġorgu lho
c har
p end
Ġna vio
il d
il y
om a
Ġtem pera
res sa
ĠW e
ĠW ar
Ġins p
Ġcarre gado
Ġref rige
Ġdiver tido
Ġexplic ou
Ġgem eu
ĠDescul pe
C h
le te
ĠB or
Ġsal var
Ġta pa
ĠBla ck
ĠlÃ¢m pada
ĠCu jo
Ã¢ne a
Ġroman ce
Ġvio le
Ġrelu z
OC ÃĬ
ec ida
Ġca ch
it iva
ĠL ar
ĠNa omi
ar ra
gu lares
Ġre ci
ĠN O
ma va
ĠEs sas
iz ados
ĠDe le
Ġfu ga
Ġescri ta
Ġneg ras
ĠVer n
ĠlÃŃ qu
ĠelÃ©tr ica
sh ire
ĠBil bo
A ntes
n ia
Â º
ia nte
ĠP es
ĠB as
nta dos
Ġacab ara
Ġtorn ado
Ġabri l
Ġperman eceu
Ġ5 0
Ġind ica
Ġhes itou
Ġcaminha da
Ġencar ou
ĠVal ar
Ġenche u
ĠtÃºn el
r Ã©
t ente
u te
y nt
Ġp ilo
Ġb uz
Ġda vam
Ġenf i
Ġarran cou
Ġdesa jei
Ġsomb ria
ĠMel hor
Ġextra ordin
ynt hia
u u
ra ntes
Ġp io
ia das
Ġper da
ci pe
Ġentre i
ing ando
Ġtermin ado
Ġpior es
Ġrap idez
ĠRober t
Ġobe de
Ġb ron
Ġg ro
Ġin com
Ġac hando
Ġvo o
Ġfi leira
ĠcaÃŃ da
Ġsegui ram
Ġsussur ro
Ġu so
Ġcapa cidade
Ġdiscu tir
Ġdescober to
ÃĢ s
Ġse da
Ġno vembro
ĠS co
ĠB us
... "
Ġmo tivos
Ġcomp art
Ġbo tÃµes
Ġacontec esse
Ġju iz
isse m
Ġimag ino
Ġ19 9
Ġabri ram
ĠmÃ¡g ico
Ġbos ques
Ġadmit ir
Ġdeus es
Ġv ul
ĠE ast
Ġma Ã§o
nte ve
Ġper igos
ĠV Ã£o
Ġlu tar
Ġsub st
Ġtorn ando
Ġconf ianÃ§a
ĠÃ³ rb
Ġdez esse
Ġpal p
Ġquad ril
Ġdesen vol
Ġgat ilho
u almente
Ġma go
ul iar
ura do
ĠL i
Ġesc ul
Ġvo ou
Ġsol ta
Ġru ÃŃnas
id ge
ĠOu vi
Ġprecis am
Ġenc har
Ġfei tas
Ġame dro
Ġfum ar
Dan ny
ĠlenÃ§ ol
D I
c imento
le g
ha das
oc ando
Ġtra tava
Ġtrans mit
ĠHo je
Ġdeci dido
Ġofic ial
Ġalun os
Ġse pul
Ġca la
ĠM on
ĠM enos
ul t
Ãº st
Ġtra v
Ġouvi ram
Ġesca das
Ġvaz ios
ĠremÃ© dio
Ġretru cou
L ouis
b an
Ġa eroporto
Ġc il
Ġf ru
ĠE vie
Ġdis tantes
ĠH Ãºrin
Ġan d
ce te
Ġab ria
Ġne vo
Ġplan os
Ġapos ento
ĠKe e
ÃŃb rio
Ġsilenci oso
a gem
Ġo h
Ġf en
Ġse tembro
to m
Ġdo enÃ§a
ĠB ud
ur ch
Ġmo ra
Ġbo tou
Ġconta gem
Ġexist ia
ĠCome Ã§ou
Ġcrep Ãºsculo
Ġestro ndo
1 2
p ass
y e
Ġc ic
Ġcon diÃ§Ãµes
ver mel
Ġch eias
Ġra dia
Ġlev aria
rin e
Ġcachor ros
Ġlim ite
olo gia
umo nt
Ġaba fado
esti on
ĠsanduÃŃ che
Ġcicatri z
ĠKenne dy
C har
c Ãª
Ġp ente
ĠE xa
em o
Ġg rÃ¡
il as
Ġcor tina
Ġvo vÃ´
Ġtra je
Ġtra zia
Ġrece be
Ġescre vendo
Ġhum anos
Ġexist Ãªncia
Ġpress ion
ĠES T
ta Ã§Ãµes
Ġno tic
Ġre con
Ġme ter
ter na
Ġimp e
cu ro
ÃŃn cipe
Ġav anÃ§ou
Ġcober tura
Ġcompre ender
Ġalar me
ĠBrad ley
Ġpec uliar
ĠÃ¢n gulo
Ġprom essa
ĠHamp shire
Ġtribun al
Ġes va
ro ix
ĠS obre
ĠD er
ĠD ez
ca Ã§Ã£o
aix on
Ġint ro
Ġestre la
Ġconcor da
Ġsin cer
Ġmist er
Ġapos tar
Ġpasse io
Ġselva gem
p ra
Ġde vido
Ġest ilha
Ġal te
Ġat ual
Ġver ia
Ġesp uma
Ġsobre tudo
Ġbal anÃ§o
Ġfu z
Ġta bu
Ġav en
Ġau x
Ġor cs
Ġrela cion
Ġdeci di
Ġcontinua vam
Ġdisc ussÃ£o
El izabeth
Ġacamp amento
Ġm ila
ĠR ec
Ġsent ira
ja ntes
ti das
ĠK y
Ġleva ram
Ġcham ando
Ġsor ria
Ġcan eta
Ġfe bre
Ġamb as
ĠGu erra
Ġpertur bado
I M
v Ã³
le m
Ġpara dos
Ġos so
Ġal vo
Ġfo nte
Ġin ci
Ġin con
Ġdos e
Ġab sor
dia l
Ġrep ara
Ġlev emente
Ġlar ga
ĠMcG overn
Ġpaco te
L E
en cia
Ġdo na
Ġcon st
Ġin da
ĠV era
it enta
Ġh orre
lo go
Ġfic o
Ġcar d
Ġcar n
Ġdire tor
tÃ¡ ria
ĠAn d
Ġergu ia
Ġpul ar
Ġz an
Ġcaminh ando
Ã¢m pa
Ġexist em
Ġdig itais
Ġdisp osto
Ġdescan sar
Ġequip amento
en Ã§o
Ã© u
ĠA man
ve ram
Ġmu dado
Ġtran quil
fei ta
Ġgarra fas
Ġcoto velo
b res
i nto
Ġco bra
or ro
ĠJ albert
Ġpou ca
ios os
Ġfar e
ĠquilÃ´ metro
ĠHom ens
Ġmaca co
Ġflutu ando
Ġmicro fone
f ias
Ġde ce
Ġco fre
ĠD ire
un g
Ġen ver
Ġcas cal
ita nte
Ġconsegu ira
Ġtro ca
Ġmalu ca
C laro
Ġs ÃŃ
Ġv enda
ĠA ven
Ġg irar
ir iam
ĠN as
Ġdeix aria
Ġaju de
Ġcaminh ou
ĠAp osto
Ġmov im
ĠVic tor
ĠmÃ¡g ica
Ġcorrespon dÃªncia
c n
l ito
Ġo dor
Ġpro mo
Ġcas telo
Ġcl asse
Ġun iver
Ġapa gar
ĠJean ette
B en
S te
a Ã§Ã£o
n Ã§a
Ġcom eu
Ã§ aram
Ġl ic
ĠD is
ĠV OCÃĬ
ga la
Ġfec hando
Ġpres sa
Ġsorr is
ĠCo isas
mon d
Ġtur ma
ĠBea umont
Ġesquis ito
Ġvom itar
Ġequil ÃŃbrio
Ġasfal to
G ar
w ald
Ġco ron
Ġf one
Ġes queÃ§a
ĠA ud
ca nte
Ġper dendo
Ġfic Ã§Ã£o
Ġch eira
ĠW endell
ĠJack ie
Ġgar Ã§
Ġder ra
Ġtal ismÃ£
Ġcir cu
Ġtransfor mar
Ġclar eza
ĠHow ard
Ġfazende iro
Ġchocola te
l m
Ġ 0
Ġde itada
er son
ĠC ON
Ġdi vid
Ġla var
ĠG aro
ver s
ĠDe via
ĠK i
Ġlemb rando
ĠPe qu
Ġtran quila
Ġimedia to
ĠmÃ¡qu inas
ĠpÃ¡l ida
Ġofer eceu
Ġocas iÃµes
Ġconvers ando
Ġgro tes
A lan
B I
Ġf emin
il ando
Ġen gas
ĠB ri
Ġpa ci
Ãº de
ĠI N
est ra
ad re
Ġ2 5
Ġocu pado
mer cado
Ġorig inal
Ġrevis tas
s ent
Ġc en
Ġco xas
Ġt ol
ĠD essa
Ġvo ar
ĠPor tanto
Ġli dar
Ġfe ia
Ġpartic ip
Ġbic ho
ĠLu cy
Ġpalha Ã§o
g amos
l ock
ĠD r
Ġpu ro
lav an
min ist
Ġtro car
Ġqueb rada
Ġcinz entos
Ġpega das
Ġjus to
Ġemerg Ãªncia
Ġconcl usÃ£o
Ġtempera tura
Ġa ut
Ġo di
ma da
Ġin je
di Ã§o
Ġenf iado
Ġdegra u
Ġmun dos
Ġeletr icidade
Ġfirm eza
O U
O ut
qu em
ĠO de
ĠR on
Ġla mp
Ġjo gos
ĠOs wald
Ġer gue
ĠSa b
Ġdesen hos
Ġqua ntos
Ġenca ix
Ãĩ ÃĥO
Ġbara to
Ġria cho
Ġnevo eiro
g el
Ġf la
an gu
Ġl indo
Ġma t
ĠC A
Ġpo d
Ã¢n s
Ġbal de
RA N
ang born
Ġcresc endo
Ġdesliz ou
Ġdescan so
Ġinst rum
Ġsobren atural
imples mente
z y
Ġpor Ã§Ã£o
Ġdes cont
ĠR am
Ġmo veu
Ġpa ciente
Ġcons iga
Ġta ntas
ĠBe v
Ġgan cho
ĠFa Ã§a
Ġagar rar
Ġexce lente
Ġconven cer
Ġterm ina
Ġindic ador
Ġsho w
ĠDal las
Ġator do
ĠfÃ³sfor o
c ina
p arec
ĠE N
ĠA queles
oc ia
Ġma nteve
... ?
be Ã§a
Ġser es
Ġcam ada
Ġsol dado
Ġinter rup
Ġbeb endo
Ġestre ito
ĠRob erta
Ġcomb inaÃ§Ã£o
Ja ke
Ġconst ran
M or
V ol
l dor
p ida
Ġse xo
ent amente
ĠN um
Ġal Ã§a
Ġsa cos
Ġtra vesse
Ġtran quilo
Ġarre b
ress al
Ġestu da
Ġmergu lha
Ġflut ua
Ã¢ns ito
ro to
al idade
Ġpara ndo
Ġl ocais
ÃŃ zes
Ġdis far
Ġmas cul
lh eiro
Ġpar da
Ġcont os
Ġrep licou
cho nete
tÃ¡ rio
Ġpres entes
Ġtri lhos
Ġapren der
Ġarti go
ĠCarol yn
Ġdemas iado
Ġaven ida
s Ãµes
de us
Ġl obo
ĠS or
ul Ã¢ncia
ĠDe lac
Ġdu zentos
Ġro lou
Ġrespon sa
ĠDa y
Ġaper tado
Ġbrin car
Ġprossegu iu
dez as
Ġrespons Ã¡vel
A t
i pa
qu inha
Ġm ira
Ġco elho
ĠS ander
ĠT ro
ĠB utch
Ġtr Ã¡
Ġvi rei
enta dos
Ġtorn aram
Ġag ir
Ġcent enas
Ġfra cas
Ġgan ha
Ġfecha das
iza nte
Ġassus tada
Ġabra Ã§o
Ġcole gas
Ġdescon f
Ġtoca va
ĠÃºm ido
Ġescor ria
ĠhÃ¡b ito
ĠDelac roix
R e
c orrer
Ġre gular
ĠO lhei
Ġap aixon
Ġpes ar
Ġso taque
Ġaf un
ĠPe yna
ven en
Es tou
Ġcr Ã©
wen dy
br isa
Ġcompan heiros
Ġconside rando
Ġcruz ou
Ġchor o
Ġade qu
O lhou
i po
Ġma io
Ġma gia
ĠP la
Ġint enso
Ġvi bra
Ġesta be
Ġsen so
id ando
Ġad qui
ĠTo da
ĠsaÃŃ sse
ĠCh urch
Ġchu veiro
Ġur so
Ġon ze
Ġenferm eira
Ġferram entas
b ios
Ġo itenta
ĠS enho
Ġas p
ĠM estre
ĠT Ã¡
ĠV an
ĠF er
ĠF ic
Ġparec esse
Ġcas al
Ġtr Ã¢nsito
Ġtent ado
li ve
Ġfer ida
Ġnor malmente
Ġgal ho
rasse m
Ġprepara do
Ġassist ir
Ġenter rado
ĠLem b
ĠcÃŃr culos
Ġcach imbo
d inhas
t indo
u ga
Ġm eias
is sa
Ġv iam
ĠV ia
Ġpra tos
Ġsal tar
Ġsal vo
Ġsus to
Ġprof iss
Ġpis ca
Ġvira da
Ġgem ido
Ġconclu iu
Ġsubst Ã¢ncia
Ġa ura
la gem
Ġdis to
Ġcon forme
ĠB rig
Ġpo dre
Ġat re
Ġac ender
Ġcont ado
Ġla va
Ġcomp rou
Ġtran cada
Ġgos tos
Ġtri un
Ġagar rando
Ġobserv ar
Ã³g ico
ĠAng el
Est Ã¡
P en
f an
p el
p lo
qu en
Ġv ic
Ġno ldor
Ġma pa
Ġest ive
Ġos cil
ĠP angborn
ĠH ou
Ġpro ib
Ġso co
ne t
Ġtom ada
Ġgra de
Ġfer ido
fei tos
ĠRo ad
Ġja to
Ġafas tando
Ġsuper mercado
Ġvig or
Ġobserva va
ĠPat rick
Ġobje tos
Ġinteress ado
ĠFlor esta
Ġcaut elos
Ġord ens
C lay
s y
Ġl ido
Ġg in
Ġg ai
Ġfa lado
ch es
Ġban de
Ġesco lher
Ġarma z
ĠTinha m
ĠChe v
Ġinclin ado
Ġencos tou
Ġabandon ado
Ġcrista l
g iu
an sas
ri on
Ġcor tou
Ġcorre io
Ġus Ã¡
pres s
Ġment indo
Ġimporta ntes
Ġtan que
Ġsatisfa Ã§Ã£o
uel s
ta mos
Ã© tico
ĠS mith
Ġpre cip
Ġsob ressal
Ġcer tific
Ġcl ique
Ġob jet
Ġim bec
Ġtro vÃ£o
Ġpreocu pada
Ġja zia
Ġreco lh
Ġempres a
Ġbisco itos
ĠÃŃ nt
Ġv elo
Ġv aso
ĠC ynthia
Ġesp iando
Ġmo nt
ĠDe tta
ĠAn dre
tu al
Ġpis cou
Ġpla cas
Ġmaca cÃ£o
T inha
_ _
c ter
de lia
Ġper ple
Ġla p
Ġan uncia
ig amente
ist er
Ġman if
Ġro m
Ġtent asse
Ġju ntas
Ġcab ec
Ġgo verno
Ġret ribu
Ġfeliz es
ĠAm eric
Ġprofun dezas
b on
d ge
v ilha
Ġqu estion
in ci
Ġdes erta
ĠB ÃŃb
ina h
Ġmor ce
Ġro ta
Ġju ntou
Ġacor da
Ġrel Ã¢mpa
ifica Ã§Ã£o
ĠcomeÃ§a vam
ĠPol ÃŃcia
Ġrefei Ã§Ã£o
ĠdemÃ´n io
ĠGos taria
ĠtÃºm ulo
ĠCalla han
4 5
an or
Ġre tro
ĠC lar
Ġsa pa
Ġha bil
Ġcor t
Ġmen ores
Ġresp ostas
Ġconsegu em
Ġpen se
ĠPe gou
Ġconhec ida
Ġsof rimento
ific ou
let t
Ġclar eira
Ġdesvi ou
t ida
u as
Ġma g
ÃŃ cios
us t
ĠJ en
Ġto alha
Ġcar eca
ĠDe ep
Ġesc an
Ġsab or
ĠW es
Ġpoder oso
Ġob viamente
Ġcria do
Ġav anÃ§
Ġbat eria
vis or
Ġja z
Ġcarre gar
Ġsinist ro
Ġofe gante
Ġcascal ho
Ġuniver so
G U
g rÃ¡
Ġf eio
re iro
Ġpara va
Ġpe di
Ġac ar
Ġent rava
Ġesc al
ĠAl len
Ġexp ul
Ġapo dre
ĠCh uck
ĠHo ra
ĠPode mos
Ġcr ÃŃ
Ġdou rado
Ġreconhec eu
2 0
l ig
Ġc ris
Ġv ulto
Ġem br
ĠS han
Ġar rem
Ġcam ara
ti Ã§a
Ġro mp
Ġva ca
ĠAn ne
Ġalgo dÃ£o
Ġacab aria
Ġder ro
Ġpi quen
Ġfuncion ando
Ġamb ulÃ¢ncia
Ġfantas ia
Ġclar idade
ia th
Ġf ume
gu ra
ĠA my
ĠT ex
nta das
ĠAn nie
Ġcham Ã¡
ĠsaÃŃ am
Ġlimp ou
Ġrap osa
Ġext ensÃ£o
Ġmol hado
Ġprote Ã§Ã£o
Ġalc anÃ§ar
Ġcob rir
Ġform ando
Ġgros so
Ġqueim ado
ĠVe ja
To dos
Ġpassag eiro
ĠtÃ© cn
Ġpop ular
G e
in gar
em bora
ÃŃ fico
ĠP am
ja vam
ti on
Ġespe ranÃ§as
Ġperce b
ĠRic h
Ġgo tas
ĠBla ine
Ġbre vemente
Ġclar Ã£o
Ġrevel ando
rgu er
Ġvid ra
h um
Ġt im
in oso
Ã© tica
el ic
Ġca verna
ĠP ri
ĠP ass
ĠM E
Ġpar ceiro
Ġparec ida
Ġcha me
Ġvis itas
Ġcol una
Ġimag inava
Ġapa gou
Ġrecu ar
Ġofer ecer
ĠAm Ã©rica
Ġcambale ou
Ġsilenci osa
Ġinse tos
Ġign or
ĠKee ton
H olly
h ill
i entemente
Ġma tÃ©
om in
Ġsa ud
Ġin o
Ġpe go
Ġac us
ĠV ince
mo nt
Ġla mb
ina das
nta vam
har ton
Ġir ra
Ġcal m
Ġus avam
Ġav anÃ§ar
Ġparece ram
mou th
Ġcruz amento
ĠAcha va
Ġfotogra fias
ĠLau rel
Ġnov enta
Ġtex to
Ġendere Ã§o
R a
a k
Ġno j
Ġin consciente
Ġac os
Ġpro nta
Ãº rguer
Ġpra Ã§a
th y
Ġgra u
Ġolha vam
Ġinf ec
Ã³r nia
Ġtransfor mando
Ġsacu dindo
ĠBa ker
Ġocor re
Ġirri tado
Ġafir mou
Ġexter ior
Ġconju nto
N enh
b is
ĠE rgu
de o
ĠP assou
Ġfa is
Ġmes as
iz ando
Ġass al
Ġra cional
Ġsol tando
if Ã³rnia
Ġcoloc ando
ĠRo th
Ġri fle
Ġcober tor
Ġref lex
Ġdirig ia
Ġens angu
Ġsurpre endeu
Ġmachu car
ĠWh ite
Ġacon se
ĠBuck y
ĠDele van
A r
b Ã¡
b io
v entu
Ġque ntes
ĠA la
ĠM il
Ġen xu
Ġmo rar
Ġresp ira
Ġresp irando
Ġro lando
enta vam
Ġcara cter
Ġcaminho nete
ĠOu viu
Ġpux a
Ġnerv osa
mÃ© dia
Ġanim ado
Ġpesade los
Ġdeter m
Ã´m ito
Ġvit rine
Ġfranz iu
Ġintens idade
Ġretra to
Ġdesli gar
M u
y s
Ġde itou
es as
es tas
Ġf rÃ¡
Ġl ia
Ġas se
Ġdis curso
di go
Ġter rivelmente
Ġmal ig
Ġju ntar
Ġcaix Ã£o
Ġguar dou
Ġrela x
Ġcapaz es
Ġfug iu
ĠBre nda
Ġapavo rado
Ġfacil mente
ĠPas so
Ġbaba ca
J Ã¡
c eira
f im
se t
Ġsu c
us cri
Ġfo gueira
Ġesp erto
Ġmo der
Ġpou sou
ber to
Ġaparec e
Ġdese java
Ent re
Ġempur rar
ĠdÃ³ lar
Ġu iv
Da vid
Ġquie to
Ġadoles cente
V amos
ÃŃ am
ĠT al
di z
it Ã¡
Ġan al
ter r
ĠW or
Ġcons ta
Ġescu tando
Ġav anÃ§a
Ġesca pou
Ġfuncion a
Ġprepara ndo
Ġacer tou
Ġdeter min
ĠOl son
Ġtron co
Ge or
f fer
Ġd rin
Ġe lo
Ġt ou
Ġf le
ĠA z
ĠS implesmente
ĠP RO
Ġen venen
Ġpar ei
Ġmu ro
ĠV elho
ce is
Ġcor tes
Ġdia bos
no t
Ġexp ress
Ġta lento
Ġcidade zinha
end ida
Ġpart ido
Ġquad ris
EN TE
Ġmem bros
Ġacompan har
Ġcob ria
ĠWil ma
Ġsecre tÃ¡ria
Ġcri ar
Ġcader nos
lÃ³ rida
Ġsang rando
1 4
r uma
in ny
Ġna quilo
Ġdes or
Ġdes via
Ġdes gra
Ġcon du
Ġfa tos
ĠF lÃ³rida
Ġjo ga
Ġvolta ra
ĠK at
Ġleva ntei
ĠPo der
Ġvoltar ia
ĠAr delia
ĠCin co
ĠlÃ¢m padas
ĠsÃºb ita
CA PÃįTULO
Ġps ic
Ġinim igos
Ġperm issÃ£o
ĠBÃŃb lia
V ou
c an
t ua
Ġpara lis
Ġl un
Ġdes tro
Ġan Ãºn
Ġvi esse
Ġgra des
ĠMar cy
one te
Ġemp ol
Ġmil ho
Ġfecha dura
ntei ras
ĠPeter son
ĠVer mel
ĠUn der
Ġprepara r
Ġflu xo
Ġdescar ga
Ġdesma iar
ĠIr v
Ġpri vada
Ġv Ã´mito
ri ll
Ġma tando
ĠV en
ĠR om
Ġent endendo
ac redi
Ġimp er
Ġdu vida
Ġrep arou
ick er
Ġapo iou
Ġapro vei
ĠMa x
Ġcarre gava
Na quela
Ġgrava ta
ĠSal ly
Ġfamos o
ĠgÃªme os
S O
u g
Ġp us
Ġc imento
Ġco inci
an ie
se u
ĠC H
Ġcon osco
Ġent or
gar ia
Ġpa isa
ĠW harton
Ġdor es
Ġinter va
Ġban cada
Ġfiz emos
Ġrel ig
Ġbrilha vam
ĠObri gada
ĠMcC ar
Ã¢ne o
Ġaliv iado
Ġcard ÃŃaco
F ran
f ando
Ġe tern
Ġde itar
Ġt osse
un as
ci das
ob il
Ġab enÃ§o
Ġass ent
Ġcomp rado
ĠLe ah
Ġz om
Ġret irou
ĠprÃ© dios
ĠpÃ¡l pe
Ġexam inou
Ġincl inada
Ġsar gento
Ġaro ma
Ġvege taÃ§Ã£o
ĠcrÃ© dito
B ob
P ro
d Ãµes
Ġn Ã³
Ġes f
ĠE ver
ĠN ar
ĠN ell
Ġin oc
Ġmo radores
Ġconsegu iam
Ġinter min
Ġlo jas
ĠCh ip
ren Ã§a
Ġcarre ira
Ġven eno
Ġcir cular
Ġsin gular
Ġpret ende
Ġbeira da
ĠCal ifÃ³rnia
Ġcob riu
Ġ4 0
ĠTh ingol
ĠÃģ rvor
Ġadm ira
Ġdemo rar
ĠTe ve
Ġfro nteira
Ġcalc an
Ġrecupe rar
Ġpossu ÃŃa
ĠEsper e
Ġide ias
ĠTex as
1 7
Ġm issÃ£o
Ã§ ador
Ã© ter
ĠA contec
te is
Ġsu co
ĠV ie
ĠG ol
ĠEs ses
gado r
Ġpres as
Ġperce bido
ĠMar ty
lic ar
Ãªm io
ĠlenÃ§ Ã³is
Ġinim igo
ĠlÃŃqu ido
B rian
M inha
g uma
ĠS U
il ou
Ġmu r
Ġpro vid
Ġser p
ĠÃł quele
Ġ( "
ĠW y
Ġpoder Ã¡
Ġinter na
end esse
Ġtrans m
ĠSu b
Ġagu entar
Ġcheg amos
Ġconven cido
bb ins
ĠPrec isa
Ġespal hando
Ġsegre dos
Ġcri ou
Ġaj us
ĠSenho ra
Ġacos tamento
1 3
? ",
c Ã³p
e y
g ios
Ġn ÃŃt
ĠA po
Ġpor co
ĠC ase
ĠL ou
cia is
Ġfre n
Ġtor res
Ġban cos
pos iÃ§Ã£o
Ġbe beu
ĠDa vis
Ġpis cando
Ġtraz ido
Ġvie ra
Ġafir ma
ĠRat inho
u re
Ġde nte
Ġco var
Ġt ÃŃtulo
Ġf is
Ġes gu
to ra
ic h
ĠM ac
Ġal co
Ġdes mor
Ġle ito
it ei
ĠH illy
ĠL and
ĠK ansas
Ġant iqu
Ġpul sa
Ġmaravilhos a
Ġextre mo
Ġlic enÃ§a
a g
n al
Ġf lex
la ke
Ġcom pe
Ġb ico
ĠD ava
Ġab an
ti ram
Ġta co
ip se
tam entos
Ġplan ÃŃ
Ġprov oca
Ġidio tas
Ġviv ia
Ġqui nto
Ġcabec eira
k n
in ente
Ġse cun
le ne
ĠA nt
ĠS har
ĠF in
Ġmo ntes
Ġpa ciÃªncia
Ġfor t
Ġcam pa
Ã³s pe
Ġbas ta
Ġfol he
ĠAp Ã³s
ĠlÃŃ der
Ġcoro a
Ġagon ia
F iquei
I V
qu ando
os tos
Ġv imos
da Ã§Ã£o
am ar
ÃŃ das
ĠD inah
Ġdes cu
ĠV icky
ĠR io
ria do
Ġtempo rada
Ġconsegu iram
ĠAs s
Ġsur do
Ġrece pÃ§Ã£o
ĠsÃ© ria
Ġpal Ã¡
ĠEx ce
Ġans ioso
Ġsorri dente
Ġbrinque dos
Ġgera dor
ste in
Ġbrus camente
Ġbaru lh
Ġtrein ador
Ġtraje to
C I
V er
m ie
p la
um bo
Ġv amp
Ġb est
Ġca ta
il lac
Ġdi la
Ġmes inha
Ġsem elh
Ġpre tas
nta gem
Ġman ga
cul as
Ġmar telo
ĠÃ³ tima
Ġri d
ĠPar ker
Ġexist ir
Ġauto m
Ġpermit ir
Ġfum ando
ĠvÃŃt ima
Ġinte gra
ĠCad illac
Ġsemelh anÃ§a
g na
Ġco xa
ÃŃ per
ÃŃ fica
ĠT entou
Ġfo ras
Ġent ranhas
Ġpre gui
Ġmar Ã§o
Ġacontec eria
Ġcl ube
ĠK el
Ġescu ta
ĠLe y
Ġaper to
Ġassus tador
Ġconse qu
ĠOut ra
Ġamea Ã§a
Le va
ĠLew is
Ġrid ÃŃculo
? )
d ra
i nter
Ġno tar
ĠN ed
Ġpr esta
Ġolh e
Ġmes mas
Ġi dos
ĠL iv
mb ar
Ġra ÃŃzes
Ġfal so
Ġvel h
Ġinter net
Ã§os o
Ġespe tÃ¡
tro pos
rig an
Ġid Ãªnt
ĠMu itos
ĠGar y
Ġcarta z
ĠBre tt
Ġenfre ntar
p lex
Ġ Ċ
Ġde mor
ĠB on
Ġpar cialmente
Ġman uscri
ion ais
ris se
Ġsenhor es
Ġrou bado
Ġarma d
Ġtre meu
ĠEl rond
Ġber rando
ĠpÃ´s ter
ĠMorris on
ĠOut ro
Ġimagin ando
Ġempo eira
adre z
L A
b l
Ġf eno
va l
om ia
Ġat mos
Ġac id
ĠR ou
Ġab at
Ġsent imentos
Ġcha lÃ©
Ġsen s
Ġvis ual
Ġbar reira
ĠPe guei
Ġsal va
ĠCh ester
Ġating ido
ĠAli Ã¡s
Ġava lia
Ġacen ou
Ġben gala
Ġtravesse iro
A A
h u
m m
Ġde partamento
Ġv Ãªm
la ntes
Ġl Ãº
ĠD Ãª
ĠV em
ĠV irou
ci oso
it z
Ġesp iou
ĠG as
Ã¡s io
Ġav Ã³
Ġcho rava
Ġad ulto
Ġano taÃ§Ãµes
ĠDo ol
ĠFrank ie
Ġlim ites
AD A
ĠNew s
ĠLem bra
ĠGu ar
ĠAb riu
Ġvende dor
ĠÃ³b vio
ĠTho mas
Ġbande ja
ĠDeep neau
! ",
F a
c ro
Ġa jei
an Ã§as
ic ando
Ġpor caria
Ġme teu
ĠH Ã£
Ġha ja
Ġch in
Ġam ass
ac os
ess es
Ġcol ar
Ġbri ga
Ġad minist
fe go
sei ras
Ġlou ro
Ġrece bido
Ġsegui ntes
ĠMe us
Ġpun hado
Ġfantas mag
Ġflores tas
Ġans iedade
Ġrodo p
ĠFo ram
Ġdesconhec ido
Ġgarant ir
Ġexplica Ã§Ã£o
Ġcort inas
Ġacar ic
' ,
I n
n eu
Ġp ip
Ġf lan
Ġf itando
ĠS A
ĠT ri
Ġper dida
ĠR oss
ga ntes
Ġh Ã³spe
ĠL ane
Ġcor tado
tÃ¡ veis
Ġz ona
Ġtrem or
Ġenc ren
Ġdesl iga
Se us
ĠChe f
ĠDu ke
Ġmun icipal
Ġprofess ores
Ġperig osa
Ġreflet iu
Ġestrem eceu
Ġlum inos
Ġodia va
Ġsapa to
r ul
Ġsu icÃŃdio
ĠT R
iv idade
Ġap osto
Ġab rup
Ãº p
Ġesc ar
Ġche f
Ġgri tei
Ġpos te
Ġti rei
lar go
Ġacab ei
Ġrec ente
Ġpul o
Ġbeb Ãªs
Ġcap tura
Ġsufic ientemente
Ġdese j
ĠNor ton
Ġcompre ensÃ£o
ĠUn ivers
Ġdesp ensa
Ġinic ial
Ġpassag eiros
ĠClau de
Ġviol Ãªncia
ĠSil ver
ĠPes cador
Ġbron ze
ĠExa tamente
Ġenver gon
la m
Ġsu Ã©ter
ĠR andy
ter ior
Ġint ri
Ġpoder ÃŃamos
Ġne ga
asse i
Ġlemb rei
Ġba Ãº
Ġacha m
lic os
Ġbaix os
Ġprecis aria
Ġtrem ia
ĠHar old
Ġtre vas
Ġagu da
iza de
ĠDei xa
gh lin
Ġescorre gou
Ġcolo quei
Ġespal har
ĠFe anor
Ġunivers idade
Ġrefle xo
l im
Ġa ram
Ġdis cre
Ġac um
ĠH igh
Ġser Ã£o
Ġra inha
Ġcu eca
Ġcu jos
end imento
Ġli guei
Ġaco mo
ĠFre eman
Ġcomer cial
Ġperman ecia
Ġapos entado
Ġhor Ã¡rio
ĠRob in
Ġdescon for
Ġilum inado
Ġmorre ram
Ġamp la
Ġcomun s
Ġcansa Ã§o
Ġviz inhos
Ġhip not
Ġemo Ã§Ã£o
F inalmente
H o
e ter
s ando
ĠA N
Ġna quelas
Ġre ais
Ġpo Ã§a
Ġh ar
Ġesp ira
Ġint ensa
Ġir Ã¡
Ġlemb re
tal vez
Ġforma to
Ġbat idas
Ġcava leiros
Ġguarda va
ĠMer rill
Ġjul gar
Ġprossegu e
ĠTor rance
ĠClau dia
ĠKy ra
Ġcalm amente
N inguÃ©m
p elo
Ġ Ãª
Ġp on
Ġo ce
ro mp
Ġdo ÃŃa
Ġpara sse
ic ial
ri dos
Ġsu pe
ca vam
ĠL este
Ġar gum
Ġpre ench
Ġres tante
ĠcomeÃ§ asse
Ġentre gar
du Ã§Ã£o
Ġcham in
Ġgar gal
Ġenf ia
Ġcoloc Ã¡
ĠpÃ©s s
ĠSam uels
Ġel im
dÃ¡ veis
ĠfÃ¡ brica
ĠCor vo
Ġacresc entar
ĠPrec is
Ġparticular mente
Ġinsist iu
pp ing
Geor ge
n on
co mp
Ġest ru
Ġap ress
Ġab orre
ĠU M
Ġcomp ra
Ġentre la
Ġsol itÃ¡rio
Ã¢n ica
Ġba ga
Ġescu tou
Ġconf usa
ock ste
Ġatravess ando
ĠLa ke
Ġx adrez
Ġqua ntas
Ġrecor dar
ĠCur wen
Ġengol iu
ĠSon ny
ĠautomÃ¡ tica
ĠMicha ela
ĠÃ³rb itas
ockste tter
O lhei
Ġc Ã¢mara
Ġn elas
or y
Ġen sa
Ġle tra
Ġsent isse
Ġsegu e
Ġtra ta
ter ia
Ġqual idade
Ġtor cendo
Ġpen dia
Ġro ck
Ġbar be
Ġsub terr
Ġad vert
Ġcontinu aram
Ġmil hÃ£o
Ġz ÃŃper
Ġhum il
Ġgru pos
Ġtransfor mado
Ġop osto
Ġigu almente
Ġexemp lar
ĠestÃº pido
ĠelÃ©tr ico
Ġguard ana
ĠMontan has
Ġnotic i
i des
r ist
Ġp neu
Ġm ina
Ġb izar
Ġl ix
ÃŃ du
ĠM Ã£e
ĠT ig
ĠB ell
Ġper di
ĠR osa
Ġcont inha
ĠEs p
ĠDe partamento
ja dos
Ġrep ro
cha da
Ġconf iar
Ġprof esso
ud die
ĠcaÃŃ ra
Ġvira ram
Ġhorr ÃŃveis
Ġvest indo
Ġmurm Ãº
AD E
Ġsup Ã´s
ĠLem bro
Ġqueim ar
Ġbl ocos
Ġchor ou
Ġperten cia
Ġirre gular
ĠfÃŃs ica
Ġde lic
Ġf ero
Ġes bo
Ġcom bus
ic al
co me
ĠC l
Ġan Ãµes
Ġpas tor
Ġcar inho
aro id
ja das
Ġman dado
Ġva la
ĠCo x
Ġenf im
Ġenc ur
Ġquad rado
Ġcompre endeu
Ġgol fe
AN DO
ĠMer ce
Ġcruza das
Ġabsur do
ĠremÃ© dios
Ã¢nt ano
J ones
Ġd anÃ§ando
as te
Ġn ua
le to
Ġb igo
ĠT w
Ġab or
ĠAl Ã´
rado ra
Ġdu vido
Ġcu jas
Ġbar cos
Ġinc rivelmente
tu de
Ġve em
Ġpergunta va
Ġsum ir
ĠCa le
ĠHal l
Ġperde ra
Ġreme x
Ġexer c
v ista
Ġ k
ra Ã§Ãµes
is om
Ġt at
de au
ĠC ul
ĠM undo
un ciou
Ġap ara
ĠEla ine
Ġsol itÃ¡ria
Ġcorre dores
Ġcons um
Ġtrans par
gre me
Ġpis cina
ĠBar rens
Ġsuj eitos
Ã³r ico
ĠKe y
Ġabsolu to
Ġengra Ã§ada
Ġrisa dinha
Ġgros sa
ĠPol aroid
Ric hie
ĠMcG ee
Ġsuf oca
Ġcader no
ĠÃŃn greme
ĠPou co
ĠPrincip al
Ġbai le
ĠtrÃ¡ fego
Ġobjet ivo
Ġatmos fera
M c
Ġ it
Ġe cl
Ġqu inh
la d
Ġb am
to p
gu es
Ġg ostei
ec k
il mente
Ġre vol
ĠD ur
ve te
ca beÃ§a
Ġat endeu
... âĢĶ
ĠG o
ĠG ri
tar uga
Ġcam pe
ina nte
rando n
ios amente
ĠMar tin
Ġlou cos
Ġpla ntas
Ġgo ta
van deria
ĠChe gou
Ġsurg ir
Ġdec lar
Ġreco mp
ĠGran des
Ġprate leiras
Ġsop rava
Ġassist indo
ĠDor iath
Ġdiminu iu
ĠWal ter
Ġdevem os
ings ley
ĠmÃŃn ima
ĠOde tta
Ġprofiss ional
Ġdesmor on
t eira
re as
ec ta
Ġest es
ĠM ad
ĠT hor
Ġper u
Ġat itude
ĠR E
ĠG wendy
ter o
Ġ1 3
Ġcu tu
Ġau di
ral mente
ĠEl izabeth
Ġras tro
Ġperman ecer
Ġexam inar
rus t
Ġsecre ta
Ġdob rou
ĠDun ning
Ġpiquen ique
Fran k
c ross
i ei
j ur
Ã ł
Ġt este
Ġem bara
Ġg atos
ĠS oc
Ġen la
Ġsa Ãºde
Ġter Ã§a
ĠF A
Ġan c
ĠL ily
Ġpre ndeu
Ġimp ren
Ġim enso
Ġprecis asse
Ġesquec i
Ġsufic ientes
ĠSu pon
Es sa
Ġdesper tar
Ġcump rir
Ġsuger iu
Ġcompor tamento
Ġestri dente
ute la
M esmo
c le
Ġd Ã£o
Ġs ino
Ġt ensÃ£o
in amente
la zar
en ce
gu s
ĠA cor
Ġre z
ĠN at
Ġos ci
ĠD em
Ġr ico
ram as
Ġvol te
Ġfor mar
Ġlu tando
Ġint u
Ġrep ou
Ġleva ra
Ġav ent
ine te
ĠsaÃŃ ra
Ġcap im
ĠHar rigan
ula da
Ġamb iente
Ġven cer
Ġident ificar
Ġtesou ro
Ġadul tos
ra gia
Ġs hor
er Ã¡ria
Ġco ca
es tos
an idade
Ġdo ces
Ġem per
Ġl Ã³gica
co l
ĠD entro
ĠF ei
Ġcor das
Ġab ismo
Ġcam inhos
Ġam al
ĠsÃ³ tÃ£o
undo u
Ġentre tanto
Ġfil has
hec er
Ġano ite
ĠDE S
ĠNor th
Ġrepet ir
Ġcaminha va
Ġagrade cer
Ġgargalha das
Ġretorn ou
ÃŃst ica
Ġhip Ã³
gol as
Pen sei
H Ã¡
es tar
re y
al ie
ic he
ec imento
Ġdes fa
Ġen e
ĠB lu
Ġla c
ĠL ud
ĠG im
Ġcor riam
Ġlu va
Ġcomp rimento
Ġpass am
ch Ã£o
Ġjo gada
Ġsur ra
Por que
Ġcinz as
Ġsup unha
Ġmencion ar
Ġedi tor
Ġcampa inha
ĠespetÃ¡ culo
G A
u ta
Ġc osta
in z
Ġv im
va lho
te ra
Ġre for
Ġper plex
Ġmor ro
inh ando
Ġman che
Ġru ÃŃdos
Ġgos tam
Ġtrans fer
Ġbaix as
Ġpeda c
Ġmov imentos
ĠEsta dual
Ġ6 0
Pe ter
Ġexaus to
Ġfrag mentos
Ġatro pe
ĠCava leiros
Ġemaran hado
ĠmatÃ© ria
O ra
T had
k or
in Ã¡rio
re ta
en cial
Ġma j
Ġca utela
ĠO S
Ġra Ã§a
Ġra lo
Ġson hando
Ġbal anÃ§ava
Ġperce pÃ§Ã£o
Ġchegar ia
ĠAr roto
Ġmant endo
Ġgela da
cri Ã§Ã£o
Ġapan hou
Ġsupor tar
Ġdesliz ando
Ġpren der
tim amente
ĠIl se
ventu de
ra z
la mento
Ġda ta
Ġest as
Ġca dela
ir ley
Ġre com
ĠT irou
Ġac usa
ĠF ico
Ġpro por
ura da
ĠG ib
Ġsent idos
Ġam izade
ĠsÃ³ b
Ġoutro ra
Ġimpor tar
ĠBe leg
ĠcaÃŃ sse
Ġdese jar
Ġcober tos
bri l
Ġmol ho
Ġsenho ras
ĠCur tis
Ġofic ina
Ġliber dade
Ġleit ura
Ġsequ est
ĠSander s
ĠPasso largo
P arec
k i
Ġo x
Ġt ivemos
Ġv aria
Ġdo ido
Ġre le
ĠC oca
Ġr us
Ġcont er
Qu em
Ġche que
ĠSe is
Ġdeix asse
Ġir iam
Ġnas cer
ĠJack y
Ġant igamente
Ġemp ilha
Ġdiver sÃ£o
Ġconside rar
Ġon du
ĠWil lett
ĠÃģ tropos
ĠImag ino
Ġmura lhas
Ġmila gre
Ġresponsa bilidade
ĠpÃ¡lpe bras
c Ãªs
d is
g eiro
ar y
es o
Ġv os
Ġem oc
Ã³ tico
Ġfo gos
iv il
iv Ã©ssemos
ĠV ale
it inho
ĠL os
ĠL en
Ã´ metro
Ġgran a
Ġro chas
Ġso pa
Ġcal ar
ut ter
Ġolhar es
ĠpÃ¡ ra
Ġapo io
ign ifica
br indo
ĠCam ber
Ġengan ado
Ġbata tas
Ġrevel ou
Ġdelica damente
Bar bie
Ġvelo z
Ġimpren sa
N os
S usannah
e en
j oso
r eria
ar es
Ġf ral
la in
Ã¡ culos
ĠV a
Ġtem er
Ġla deira
Ġha mb
Ġpes qu
Ġti pos
Ġve ÃŃculos
Ġdesaparec era
ĠPer ce
Ġpapel Ã£o
ĠFa zia
ĠY une
ĠSte bbins
ĠBen ny
Ġprov ocou
Ġsurpre endente
ĠSegu ndo
ĠbÃª bados
Ġencara r
Ġescure cer
Ġparda is
ĠDool ing
D urante
t ÃŃ
Ġv es
al has
ĠE U
em bro
ic ion
ĠA L
ĠA ndo
Ġest endendo
Ġen jo
Ġh ero
Ġsent a
pa dos
ru z
Ġfal sa
ber ta
Ġencont ramos
Ġestar em
Ġcol Ã©gio
ut Ã¢ncia
Ġficar em
Ġrou bar
Ġhou ver
ĠNor cross
Ġestacion ado
Ġderru bou
Ġdescober ta
ĠSara h
ĠDal ton
IL L
Richard s
Ġram pa
Ġquartei rÃ£o
a ntes
u Ã§Ã£o
v imento
y d
Ġt olo
es curo
um bra
Ġca deado
Ġin vas
ĠI nter
ess ou
Ġtor tura
gra fia
Ġtran cado
sas s
Ġtele p
ll man
Ġlig ando
tem po
Ġcora Ã§Ãµes
ĠVi nte
Ġencar re
Ġespalha dos
Ġbomb as
Ġrepent ina
Ġori gem
Ġequil ib
Ġpaisa gem
rul ha
1 6
2 2
R o
d Ã¡rio
n or
u p
Ġque ijo
ro ns
gu em
Ġno Ã§Ã£o
Ġma us
Ġal erta
ĠB at
Ġat ender
ĠR idge
isa da
ur Ã£o
Ġesp iada
lo to
Ãº r
Ġra dio
Ġpass asse
est Ãµes
Ġro lar
Ġ1 00
Ġexp ecta
and ro
Ġob st
Ġfun dam
Ġexa ge
Ġrel utÃ¢ncia
Ġgo la
hei la
Ġfug indo
Ġaba jur
Ġchega vam
Ġapre nde
ĠFal ou
Ġlan chonete
Ġdespre zo
Ġdeb ru
Ġperf ume
Ġnamo rada
ĠWes ley
Ġamal diÃ§o
F ui
M orris
U M
l d
t ha
x im
Ġe con
Ġp Ãªn
do re
Ġv ela
Ġdo er
ĠN Ãºm
om ir
gar o
Ġpro lon
Ġalg emas
Ġpu se
Ġmar Ã©
Ġencont raria
cor reu
Ġcab ana
Ġci ente
ren ch
ĠIn c
Ġfuncion ava
Ġmol hada
Ġarras tar
ĠMel kor
ĠSegu nda
ilar es
Ġlanter nas
Ġcomun ica
ĠOl d
ĠLau rie
ĠDire tor
h umo
u lado
Ġa lavan
qu Ãª
Ġv iria
ha dor
ĠA C
ĠA i
ĠM im
ĠF rench
Ġex pe
ĠEs qu
ĠcomeÃ§ am
Ġob riga
Ġsub iram
Ġacab aram
Ġposs ivelmente
hado res
orn ou
ĠMu itas
Ġescorre ga
Ġcres ceu
mu ito
Ġlad rÃ£o
Ġpint ura
ĠfrÃ¡ gil
Ġaram e
A tÃ©
C ap
d Ãª
Ġ ka
Ġp Ãµe
Ġde vesse
Ġco lher
Ġco pos
in ville
Ġl anÃ§ando
ÃŃ lio
ĠP iper
ĠM en
ĠT Ã£o
ci d
Ġha vido
io te
ĠU r
Ġimp lo
Ġba gu
bra l
Ġcho ram
Ġim ens
Ġim ensa
Ġmon Ã³
Ġreun iÃµes
ÃŃss ima
Ġcump rim
ĠtrÃªm ulo
Ġindi fer
Ġul timamente
Ġmos cas
Ġdocum entos
ĠColo rado
E x
T ER
t ru
t eiros
le nta
ĠS ob
ĠB randon
Ġmes tre
Ġesp ingar
ĠEs pe
Ġte ia
Ġencont rara
Ġcons erva
Ġescu te
Ġbat ido
ende ram
ĠMor dor
Ġpux ado
Ġsign ificado
Ġassass in
Ġarras tou
Ġgor da
Ġabando nada
Ġdiminu ir
Ġdiss er
ĠSent i
Ġbomb eiros
Ġemb ria
brou gh
Ġentusias mo
! âĢĶ
ent ara
el has
te ran
ĠS ai
ĠO lÃ¡
ĠO bs
Ġan Ã©is
Ġbo ta
Ġro lo
Ġgu ia
th er
Ġacor dada
Ġpi ntado
Ġfol ga
Com e
Ġpun ha
ques is
Ġcre me
Ġviv as
Ġcart Ãµes
ĠAc ima
Ġlam pe
Ġenferru jado
Ġconfir mou
Ġinvest ig
ĠRol ando
Ġrazo Ã¡vel
Gar raty
ĠErgu eu
Ġcombus tÃŃvel
Jones y
. ,
M ike
T OS
j us
p ens
w son
Ġde ca
do ria
Ġes bu
to la
ĠP el
ĠP esso
Ġfo der
Ġser via
Ġla vanderia
Ġres ga
Ġvo vÃ³
Ġtam bor
Ġbo quia
Ġcorre ntes
Ġleva nt
Ġali Ã¡s
Ġposs am
Ġfecha ram
Ġagu lha
Ġqueb rando
ĠKe ene
ĠBa lazar
Ġdep rim
Ġsop rou
Ġaum entou
ĠOut ros
Ġtu bo
bur y
ĠSteph en
ĠtÃªmpo ras
Ġut il
Ġretro visor
N esse
P ar
b ua
i di
k s
r ica
z ie
Ġa Ã©
in am
Ġat ras
Ġpr ÃŃncipe
ĠF ri
Ġser ve
Ġar ru
Ġsent ei
Ġam as
Ġtra seiras
ĠÃº til
ĠEnt endeu
cor re
fa das
lic as
Ġaparec ia
Ġaco nte
Ġven en
Ġ4 5
Ġhab itu
Ġsemelha ntes
Ġsobrev iver
Ġdeta lhe
Ġope raÃ§Ã£o
ĠGim li
Ġhamb Ãºrguer
T RA
j Ã£o
Ġa ve
al l
im ado
Ġda das
am e
Ġma gn
ĠT entei
Ġper do
Ġle ntes
ens ivo
ĠL iga
Ġcer im
Ġvel as
Ġso zinhos
cho que
Ġsal p
Ġfi leiras
Ġvia jar
Ġconf un
Ġobs tante
Ġz ela
ĠprÃ³x imas
Ġagu ar
Ġbor do
Ġata car
let te
Ġamp lo
Ġof us
Ġrevel ar
Ġajoel hou
Ġsorris inho
ĠRoth stein
ĠMerce des
! )
c ei
m i
o la
Ġp inheiros
is on
Ġco p
Ġt ente
de ral
Ġdes ceram
Ġac hasse
Ġh os
Ġmo via
ĠW at
Ġencont ravam
ĠJack son
Ġbe co
ĠÃºn icos
ila nte
Ġarran jar
Ġnar inas
tasse m
Ġmem bro
Ġofer ec
Ġtrou x
Ġdesp en
ĠBow ie
Ġacer tar
Ġdescul pa
Ġfix amente
Ġadorm ecido
Ġevid ente
Ġtornoz elo
Ġarmad ilha
Ġdeclar ou
O h
b om
g rado
is mos
ta ne
Ġum idade
de l
que za
Ġha bilidade
Ġconsegu indo
ĠW ash
Ġva go
Ġapo iado
Ġfer imento
Ġdesc al
Ġlar gos
ĠPar ou
ĠVer dade
Ġprocura va
Ġregist ros
Ġameric ana
Ġedi fÃŃcio
Ġmelho rar
Ġsilencios amente
Ġsaud Ã¡vel
Ġcoinci dÃªncia
e g
g en
r t
Ġa Ã§
Ġv ilar
an ces
Ġem pa
Ġg ener
ÃŃ qu
ĠM eio
Ġdi vi
Ġat irando
ĠEs tre
Ġfor no
ita dos
Ġch umbo
Ġhom en
ess os
fic os
Ġaf unda
ĠJo y
ĠTo o
Ġcontinu asse
dic ionado
Ġfe bril
Ġencos tas
Ġreconhec er
Ġcole ga
Ġenca nt
ĠGre g
ĠBur ny
ĠAch ou
Ġadoles centes
Ġante bra
Ġemo Ã§Ãµes
Ġmode lo
Ġimbec il
Ġdetermin ado
Ġdemor ou
ĠUnivers idade
Ġqu ÃŃm
Ġb Ã¡s
Ġno tado
ĠS ente
ÃŃ ra
Ġre cos
ĠP ai
Ġen ru
Ġsa uda
ul sa
Ġar ruma
mb io
Ġgu er
Ġru gido
Ġespe rado
Ġperce bia
Ġobs c
ĠCar l
Ġdesc ans
Ġpensa tivo
Ġri ram
ĠPro f
Ġpi jam
Ġtira va
ane amente
ĠBer en
Ġcambale ando
Ġesfre gando
Ġtornoz elos
ĠÃª x
1 8
? ]
Ġde tes
Ġde com
ar ro
Ġqu Ã£o
Ġco brindo
la ra
Ġen vel
Ġsa c
Ãº l
Ġch ei
Ġch ico
Ġam igas
ti fica
ch eira
Ġdu vi
gra fo
Ġgos tando
Ġestran gu
mes mo
ĠRo y
Ġdesl izar
Ġop Ã§Ã£o
ĠMer da
Ġfres ca
Ġmonst ros
goth rond
Ġfirm emente
Ġhon ra
Ġinvesti gaÃ§Ã£o
Ġbuz ina
Ġcen Ã¡rio
ĠNar gothrond
Cap ÃŃtulo
C H
z as
Ġc ida
is h
Ã¡ ticos
ĠD i
Ġdis ti
ĠÃ© ramos
ica go
Ġpa ga
Ġsent ava
ĠDe vo
nta c
Ġra bis
Ġman gas
Ġpoder osa
ĠCom pre
Ġaf rou
Ġins tantes
Ġ2 4
Ġamar go
Ġpul ando
Ġsuj as
Ġespa ntado
Ġvest ir
Ġdist ingu
Ġanterior es
Ġens inar
ĠBow ers
Ġhes itante
Ġapre cia
Ġran g
Ġrepent ino
ĠCou ghlin
ĠQua ntos
Ġgin Ã¡sio
Ġox ig
T im
c inha
p per
ra tura
Ġp ondo
do m
Ġb in
Ã© us
Ġca ip
Ġre n
Ġre is
ĠP on
ĠT her
Ġesp inha
ĠL ei
Ġpre nde
Ġpa dre
Ġcer ve
Ġimp re
ĠPor ra
est rada
Ġnas ceu
Ġinc hado
Ġacha do
Ġdorm iu
Ġamar elos
ĠCh icago
ĠCla ire
Ġfuncion Ã¡rio
Ġprov ar
Ġcurios a
ĠDen brough
Ġresol veu
Ġenter ro
Ġespal hou
Ġassustado ra
Ġpers ist
Ġdever iam
Ġdesespe rado
Ġrecome Ã§ou
Ġprision eiro
Ġsupon ho
Ġpilo to
Ġperple xo
ĠEver ett
C O
l umb
t inhos
x os
Ġv inda
ĠA S
ĠM iss
ĠO x
Ġcon diÃ§Ã£o
ver nas
Ġro xo
Ġlev ei
end Ãª
Ġtro no
Ġeste jam
Ġpis car
Ġguar dado
ĠHo ff
Ġescre vi
ĠPar te
ĠNor rie
Ġcostuma vam
Ġapan har
ĠVol tou
ĠCu idado
ĠTra bal
Ġfurios a
Ġjogado r
Ġretorn ar
Ġalegre mente
Ġdesvi ar
Ġhabita ntes
ĠBor omir
A TI
i nte
i leza
Ġf ura
an ha
de za
te ia
ĠD uma
ĠO ndo
Ġdes as
Ġen dire
Ġcer cado
ess ar
enta das
Ġob ras
Ġmal as
Ġban deira
Ġtrabal hos
Ġsan idade
Ġhou vera
iza das
Ã§ado res
Ġcir ur
Se gu
Ġencos tado
Ġpress ent
ĠBea v
Ġtrope Ã§ou
Ġ195 8
Ġmoment aneamente
Ġpersona gem
ĠsÃŃ mb
Ġoce ano
Ġprofesso ra
Ġfero z
Ġalavan ca
T em
t ho
Ġn it
Ġn essas
Ġf ision
ent aram
ĠS cho
Ã³ leo
Ġas pira
Ġre tar
ĠP AR
ĠT if
un ciar
Ġin a
ul l
ĠH ospital
Ġtem a
ver eiro
Ãº do
ĠW illy
Ġmar cado
Ġcl iente
Ġaf e
Ġali en
Ġprecisa vam
Ġce ga
ĠMa y
Ġ2 2
Ġrece bi
Ġarran cado
Ġquad ros
Ġil usÃ£o
ans com
ĠtÃ¡ bua
Ġens in
Ġsex ual
Ġvisita nte
Ġquebra das
Ġmergu lhou
Ġron co
Ġenvi ar
Char lie
fan y
ĠAndre w
ĠpalÃ¡ cio
Ġestru tura
Ġecl ipse
O O
b em
b ei
Ġde li
is cons
in or
in dro
re ne
da lhÃ£o
Ġl Ãª
ĠA mar
ĠC ath
Ġat entamente
Ġcont ava
Ġesp rem
Ġi doso
Ġcor rig
Ġfic amos
ĠU sava
per gu
st rid
Ġcarro Ã§a
Ġav anÃ§ando
Ġmer ece
Ġag entes
Ġcap Ã´
ĠHo gan
Ġment almente
ona to
mal as
Ġdesper tou
Ġexam e
Ġincl ina
Ġrisa das
Ġfix os
ĠTre nt
Ġresist ir
Ġsinist ra
ws ky
Ġden sa
Ġfel icidade
ĠAven ida
elic Ã³p
Ġanoite cer
Ġaconte Ã§a
b um
m em
s ia
Ġp len
Ġt eu
Ġt irÃ¡
Ġf rust
Ġb el
ic ho
Ġl ist
ÃŃ zo
Ġest endi
us Ãµes
Ġcon vi
Ġin acredi
Ġla bora
Ġcor tada
Ġcam isas
Ġcomp ridas
cu re
Ġsol to
Ġva gar
Ġcons ist
Ġbar ras
Ġbal anÃ§ar
Ġsor vete
Ġfun eral
ĠBe ach
ĠCar ver
Ġdesc ri
ĠHom er
Ġpartic ipa
Ġmorta is
Ġdou rada
Ġmara vilha
Ġmex endo
Ġinfor mou
Ġarqu ivo
ĠfÃ³sfor os
Ġtron cos
ĠCre io
ĠgrÃ¡ vida
Ġinterrup tor
Ġasp ir
Ġcertific ar
B ig
S er
z inhas
Ġp ir
Ġes voa
en Ã§as
Ġna use
Ġas segu
ĠC ele
Ġfa das
Ġtem ia
les s
Ġesp ir
Ġsob e
Ãº cia
Ã¡s semos
ĠU llman
Ġcha pa
ĠI a
ĠW ay
ĠCom ecei
Ġconhec i
Ġdesaparec eram
Ġsuj os
Ġreg ras
Ġdist ribu
Ġval er
Ġmin Ãºs
Ġpers pec
Ġpub lica
Ġher Ã³i
ĠLeva ntou
ĠÃ¡s pero
ĠvÃŃ deo
ĠAmb erson
Ġignor ou
ĠUnder hill
d idade
f ou
Ġa ze
Ġt ua
Ġf on
Ã¡ l
Ġpara l
ĠS ac
Ġma chado
il la
Ġme di
Ġdes an
ul ando
ur ras
vel os
ig ra
na dos
Ġtor to
ns ide
ĠAs sass
Ġbal sa
Ġpres um
ĠcaÃŃ dos
Ġamar elas
Ġdesc ida
Ġbeb ia
ĠSr ta
Ġmurm ura
Ġassu ntos
Ġgol fo
Ġdesp eito
Ġenca ntado
ĠAng eles
Ġemit iu
Ġtig re
Ġsupos tamente
A lice
c em
d im
Ġc os
Ġc era
os iÃ§Ã£o
Ġm elo
or ta
el ido
Ġma ci
Ġre ca
ĠC ho
Ġat ribu
di as
Ġh elicÃ³p
Ġsem ic
Ġha vÃŃamos
Ġvol um
Ġvol tas
ĠQu ar
Ġten so
Ġbal Ã£o
Ġacredi tou
Ġapa gado
Ġdest ran
Ġinv Ã©s
Ġ3 5
ĠEx Ã©rcito
Ġfrequ entemente
ĠBro ok
Ãĩ A
Ġinquie to
Ġgent ileza
ĠsanduÃŃ ches
ĠcÃ´mo da
ĠRos alie
Ġconser tar
Ġrefrige rante
Ġcil indro
isom em
ĠhipÃ³ tes
Ġesbu galha
R us
ia na
Ġv entos
le ia
la Ã§Ãµes
Ã© dia
Ġdo endo
ĠS usan
ĠJ as
ĠJ ose
ĠH ockstetter
ĠF O
me da
Ġcha p
Ġcal ou
Ġtom ava
Ġins pe
ĠRe almente
Ġhorr ores
Ġescon dida
Ġmorre ra
Ġdescul pe
Ġconcent raÃ§Ã£o
Ġdevol veu
ĠEscu te
John ny
ĠEast lake
ĠBud dy
Ġestabe le
ĠClar k
Ġembr ul
N A
i Ã¡
u rando
Ġp ingando
Ã¡ r
ĠE rin
ĠS heila
ĠN Ã³
ĠM ou
Ġpo ema
Ġper ver
Ġfo da
Ġpe gado
Ġi ntes
Ġres tavam
aram ir
Ġvis tos
Ġso len
Ġacontec imentos
Ġcorre ram
Ġlev asse
Ġfala m
Ġdesa f
Ġespa nt
ĠPro nto
ĠPro me
Ġsign ific
Ġassist ente
Ġdura r
Ġprofun didade
Ġcaus ar
Ġcoto velos
ĠJan ice
Ġnamo rado
ĠAcredi to
Ġine v
ĠSan gue
Ġcompart imento
ĠhÃ³spe des
Ġc ÃŃ
Ġv Ã´
Ġcom ido
Ġsa em
ma il
ma nte
ci es
Ġpr Ãªmio
Ġpro pa
Ġcont ÃŃn
Ġla t
Ġcor vo
Ãº th
Ġdire Ã§Ãµes
Ġmar gens
Ġcu idando
ĠNo ve
pos tas
Ġcan eca
Ġacab asse
Ġdez enas
ĠPer kins
Ġmant Ãª
Ġdese ja
Ġquad ra
Ġlimp ando
Ġqueim ando
Ġsecre to
ĠStre eter
Ġmencion ou
Ġmos ca
Ġcompara Ã§Ã£o
Ġenso la
ĠCent ral
ĠÃģrvor e
Ġnotici Ã¡rio
Ġintes t
P a
p l
w ard
Ġc Ã³p
Ġo l
Ġt on
Ġt ÃŃp
Ġv Ã©s
de cker
ĠMas sa
na va
Ġdeix am
ĠMar ina
Ġtro m
Ġconver sas
Ġrela tÃ³rio
Ġhaver Ã¡
Ġpendura dos
Ġconside rava
Pe te
ĠVal inor
Ġbate ram
Ġalun o
Ġvesti dos
Ġvac as
Ġimprov Ã¡vel
ĠgarÃ§ onete
Ġlap top
Ġduvida va
Ġtat ua
Ġespingar da
ĠWash ington
" ?
C IA
V A
j Ã¡
Ġ ÃŃm
Ġp enas
le tes
Ġcom a
gu arda
Ġre jei
ĠN A
Ġme te
ĠT O
Ġin des
Ġac eno
ĠR an
Ġent endido
ĠF aramir
ria ult
Ġi ra
Ġcor tando
Ġresp ei
Ġman gueira
ĠW iscons
Ġcara mba
car re
Ġcan Ã§Ãµes
Ġrou co
ĠrÃ¡p idos
Ġproprie tÃ¡rio
Ġcontemp lou
ĠSh irley
ĠmetÃ¡ lico
ĠSteph anie
Ġimpa ciente
Ġpalp ite
Ġcamara da
ĠRom mie
Ġforas teiro
ĠGas her
ĠOndo wsky
V E
d ico
g ÃŃn
p aram
v indo
y a
Ġs ib
Ġo c
ĠA M
co ol
co isa
Ġg re
Ġdes fi
ci osa
Ġi ntac
Ġass in
Ġcomp ar
Ġint im
des te
Ġentre ol
Ġleva vam
Ġsal vou
ĠMar inville
ĠSa ia
tra l
Ġbeb idas
ĠFa lei
Ġcost elas
Ġestu dos
Ġocor rido
Ġdestru ÃŃdo
Ġmud anÃ§as
ÃŃst ico
Ġrecus ou
Ġtap inha
ĠPrincip almente
ko v
Ġcoment Ã¡rio
Ġinstru Ã§Ãµes
ĠAmeric an
Ġserp ente
ĠmurmÃº rio
Ġlabora tÃ³rio
Ãºth ien
i Ãªncias
m en
Ġc ra
Ġc renÃ§a
ĠS y
Ã³ rios
Ġre no
Ġre cado
Ġser ra
Ġmo ntar
Ġcar vÃ£o
Ã¡s s
Ġresp irou
no w
Ġpos terior
Ġmar cada
Ġba ir
ĠPe gue
Ġfun Ã§Ã£o
Ġenf iando
ĠcÃ© us
Ġpis tas
Ġtelef Ã´nica
Ġ2 3
Ġnor mais
ÃŃs se
Ġandar es
Ġespec iais
Ġsof reu
Ġcheg am
ĠMu lher
Ġbor bo
ĠdifÃŃ ceis
Ġado rava
elha dos
ĠDei xou
Ġclar e
Ġbic hos
raria mente
Al Ã©m
Ġenro lado
Jo e
Ġengol ir
ĠÃºm ida
Ġconso lo
Ġgris alho
ĠBus ter
Ġtriun fo
ĠJoy land
T enho
a v
g Ãªncia
p ol
t res
Ġo vo
Ġco is
es p
Ġv ital
la dor
Ġb ibliote
Ġdis cos
Ġcont udo
Ġcont ribu
Ġmo da
iz ava
undo n
Ġentre ga
Ġentre vista
ĠhÃ¡ lito
Ġenf ei
Ġinf lu
Ġel dar
Ġfe vereiro
ema to
Ġu ivo
Ġlen das
Ġprate ado
ĠGra ce
Ġaman hecer
Ġdestru ir
Ġgros sas
Ġigu ais
Ġench endo
Ġdiss ip
Ġjogado res
Ġsofre ndo
ĠRon nie
Ġalco Ã³
A b
N em
b and
f at
i Ã§o
t Ã³ria
as so
Ġn isto
ei ga
Ġca ub
ma Ã§Ã£o
res sar
Ġcor u
Ġmen Ã§Ã£o
Ġch ances
Ġch urras
Ġtr in
Ġtra tar
Ġvi ve
for th
Ġpesso almente
Ġvis lumb
las s
Ġcl ientes
ut ei
Ġcab os
je ta
Ġav anÃ§ava
ĠMa in
ĠRe ino
ĠRo ver
ĠParec iam
Ġenc am
Ġfar iam
Ġadia ntou
IN HA
Ġacompan hou
Ġtur no
Ġobri gada
Ġmachu cado
Ġarrep io
pis Ã³
Ġviz inho
Ġesto jo
Ġcalc inha
Ġsho pping
Ġnotur no
Ġart ista
Lo is
Ġpron uncia
ĠtÃªmpo ra
Ġcalcan hares
Ġcovar de
Ġcerve jas
ĠJose ph
b it
s ton
t rans
Ġco bre
Ġt eias
Ġt ÃŃm
Ġl anÃ§ar
ĠA lec
il hos
Ġele gante
ĠM inas
Ġdis tor
Ġcon cha
Ġpo te
sa vam
ĠH uddie
ĠH anscom
Ġesp iar
Ġfor ta
ess Ã£o
Ġvel udo
Ġfre io
Ġro de
Ġcol chÃ£o
min as
Ġgal o
ĠY an
Ġment iras
Ġsop rando
Ġquais quer
Ġdestru iÃ§Ã£o
Ġesper e
cel ana
Ġadm iraÃ§Ã£o
ĠFal ls
Ġtelefon ema
Ġexib indo
Ġcusp iu
Ġades ivo
Ġoxig Ãªnio
ĠTher riault
P re
u to
Ġa da
Ġc ens
Ġde pos
Ġes quele
ent Ã¡
oc as
Ġma cia
om er
Ġdes enh
Ġin cont
ĠH em
Ġob ter
Ġinter pre
Ġun ha
Ġforma vam
Ġmedo n
Ġvia gens
Ġbaix ar
Ġ2 9
ĠChar ity
Ġdesa po
ĠSam my
ĠIn im
Ġconside rado
Ġsacu dir
Ġacei tou
ĠÃ¡l cool
ĠdemÃ´n ios
Ġultra pass
ĠWar wick
ĠMcCar thy
ĠvÃ©s pera
B om
P E
c ra
w or
Ġc and
Ġb obo
Ġl isa
ĠS her
Ġre lan
ĠN el
ĠC at
ĠM us
ĠM aria
ĠB ou
Ġis queiro
lo yd
Ġtra tamento
Ġte vÃª
ber g
Ġins u
Ġav ental
Ġmer ecia
ĠJohn son
Ġmil itar
Ġaper ta
Ġrec ei
Ġz ero
De us
Ġcul pado
Ġating ir
Ġpendura das
Ġcob ras
Ġdispara r
Ġhe in
Ġacal mar
Ġrum ores
Ġtig ela
Ġinstrum entos
ocia Ã§Ã£o
Ġdrin que
ĠLewis ton
Ġanc est
Ġvilar ejo
L obo
S A
a b
a inda
i pe
v Ã¡
v Ãµes
Ġp lena
Ġp Ã¢ntano
Ġs inu
es on
Ġf os
re mos
Ġse io
ĠM ach
Ġat ualmente
Ġh emato
Ġsent iria
Ġmor resse
ĠSe lena
Ġpass aria
ti Ã§Ã£o
Ġso ar
Ġmal dade
Ġer vas
Ġgu itar
Ġsabe doria
ĠEm p
ĠÃ³ r
Ġchegar em
ĠHo tel
ĠdÃ³ i
Ġsurg iram
ĠirmÃ£ s
han y
Ġilum inaÃ§Ã£o
Ġilum inou
Ġind is
Ġserv iu
Ġprofun das
Ġintelig Ãªncia
Ġselva gens
ĠdÃ© cada
Ġtare fas
ĠcÃ´mo do
ÃŃl ias
Ġresmun gou
Ġcala f
Ġquinh entos
Ġpijam a
igra fia
I X
l arec
s ua
Ġe pisÃ³
Ġc elas
Ġo de
Ġt ili
es ia
ĠA per
Ġca tre
ul ou
ul sÃ£o
ĠR ip
ĠF l
ĠL Ãºthien
Ġres sa
Ġparec era
Ġesc larec
Ġam ost
Ġman ob
con dicionado
lu vas
Ġconf ro
lic idade
Ġrou bou
Ġtelef ones
Ġprecis ando
Ġpul sos
Ġarre gal
Ġrel va
Ġnar ra
Ġrev ira
Ġu iva
ĠChe ga
Ġcruz ar
Ġdef esa
Ġacompan ha
ĠBur ke
Ġesquis ita
Ġinex p
Mar y
ĠEr nie
set ts
Ġzela dor
Ġdecom posiÃ§Ã£o
ATI E
ĠTif fany
g ir
i nta
j amos
s al
t n
Ġt Ã©r
Ġf ixo
Ã© ns
ĠA strid
ĠM ost
Ġdes po
Ġsa cri
ĠB aix
Ġfa bul
Qu anto
Ġra jada
Ġtempo rariamente
Ġva ntagem
Ġsan gre
Ġacredi te
Ġassus tou
Ġfei Ã§Ãµes
pec ial
Ġsop ro
ĠCol ocou
Ġident idade
ĠcÃ¢me ras
Ġgigantes co
ĠcadÃ¡ver es
ĠCer tamente
Ġarris car
Ġlite ratura
ĠSto ne
ĠAnd rea
ĠanÃºn cio
Ġbest eira
Ġmanuscri to
Ġabrup tamente
Ġshor t
Ġassassin atos
A c
e k
k ie
p ito
s Ã³
Ġm entes
ĠA gar
ĠA nde
Ġg el
po t
Ġdes ce
it ivos
ĠF eliz
Ġver tig
Ġpro ntos
ĠG la
Ġvol unt
Ġmor der
Ġconsegu imos
Ġdeix avam
Ġbar ril
Ġsub iam
Ġtran ca
Ġdisso l
Ġju ventude
Ġquar tel
Ġsal tando
Ġbas quete
Ġtri p
Ġaper tados
ĠVer de
Ġfran go
Ġdesp ro
Ġcres cia
Ġdiminu indo
Ġtraz endo
ĠmaÃ§ Ã£
Ġvit Ã³ria
Po de
Ġfasc inado
Ġfro nteiras
Ġassum ir
Ġimpression ante
Do is
Ġenferru jada
Ġnotur nos
Ġdesbo tado
Ġguin cho
Ġaus Ãªncia
ĠvÃŃt imas
ĠTur gon
ĠCase y
Ġchamin Ã©
cid ental
) :
E mb
F icou
P O
a o
g ran
h t
n ado
r ima
Ġque ix
ia vam
ro la
Ġsu ic
Ġal ianÃ§a
Ġpe gava
ria mente
Ġcont ador
dia na
Ġpens aria
Ġpen has
Ġinter no
Ġacha vam
Ġru idos
Ġbas icamente
Ġpassa das
Ġergu ida
fÃŃ cios
Ġlou camente
Ġgan hando
ĠPode m
ĠY ou
Ġliga va
chu setts
Ġinterro m
Ġviv endo
Ġform ul
Ġpermit iu
ĠMat t
Ġjul gamento
Ġgrava dor
Ġflu ores
Ġabandon ar
Ġterm inal
Ġterm inava
ĠSi rion
Ġplane jando
Ġrepent inamente
Ġdesespe radamente
Ġdispos iÃ§Ã£o
Ġredo ndo
Ġtij olo
ĠpolÃŃ tica
Ġdezesse is
Ġmanif esta
Ġescan cara
Ġfle cha
Ġinoc ente
ĠCul lum
ĠInim igo
I T
P elo
Ġp Ãª
qu ase
en das
Ġcom ia
Ã© rios
ĠE ar
Ġg Ãªn
ĠS us
Ġpor celana
Ġest im
ĠN este
ĠN essa
ĠP al
Ġme tido
Ġpe ram
Ġpro ba
ce dor
Ġab Ã³
iz os
Ġlu tou
pe la
per ou
Ġmal tra
Ġcol dre
Ġim Ã³veis
Ġpis ou
ĠcaÃŃ am
Ġprov ocar
Ġescon dendo
Ġliga Ã§Ãµes
Ġcapa cete
Ġhes itaÃ§Ã£o
Ġconv ic
ĠWal ker
Ġdup lo
ĠTy ler
ĠÃ¡l bum
Ġdobra di
Ãºva tar
Ġparalis ado
Ġexpecta tiva
Ġrelan ce
* *
T am
l ight
x in
Ġa Ã§Ãµes
ar Ã£o
Ġes m
ĠS ide
Ġest ende
Ġal tern
ĠR icky
Ġh id
Ġcam undon
Ġpes adas
vi os
Ġjo gava
ing anÃ§a
Ġus ada
ĠNo ra
et h
ion almente
Ġav entu
li que
Ġmil ha
Ġtoc ado
ĠGeor gie
ĠRo han
ĠParec eu
Ġnu cle
Ġfe dore
ell s
Ġreun idos
gg ins
tri te
Ġsupor te
Ġvaga b
ĠPu xa
Ġroman ces
Ġimpression ado
ĠFor t
Ġdesist ir
ĠEv ans
Ġpad rÃ£o
Ġcastan ho
Ġenga t
Ġinda gou
Ġaban ou
ĠRobin son
Ġfision omia
Ġalien ÃŃg
Rus ty
ĠMassa chusetts
d ulo
r inhas
z ias
Ġa er
Ġcom bate
ĠS omos
Ġsu ti
Ġca tÃ¡
ĠD ra
Ġdi vis
Ġpe gue
Ġcam pan
Ġfal tava
Ġvis lum
et hor
id an
Ġcho cado
Ġag itaÃ§Ã£o
ĠTo wer
Ġ19 4
ĠLe golas
Ġtrem enda
dic ional
Ġber Ã§o
Ġcinz eiro
Ġenvol vido
ĠCont inua
ĠDen ver
Ġregist ro
Ġfale cido
rid ge
Ġvent ila
ĠIl Ãºvatar
Ġcoz inheiro
Ġfen Ã´m
lm utter
ĠÃŃnt imo
Ġino f
Nenh uma
ĠAz ul
ĠplanÃŃ cie
Ġamass ado
Ġavent ura
R ob
f ora
t iv
Ġe nte
Ġn inho
Ġes bar
an n
Ã§ ara
Ġb and
Ġdo ent
ic lo
ri en
Ġl us
Ġl obos
ĠA par
Ġg ras
ĠS um
Ġca ntava
ĠN osso
ĠO fic
Ġr ic
ĠT ique
Ġper son
Ġper didos
Ġpr Ã¡tica
Ġesp as
Ġesp ar
Ãº car
Ġpres tar
Ġsal tos
Ġcur vas
Ġ2 7
ĠCon se
Ġrece pcion
Ġlar gura
Ġpart indo
Ġfala vam
Ġdese jando
ĠRa inha
Ġsof rido
Ġfuncion Ã¡rios
Ġgros sos
ĠX X
Ġlin gua
Ġqueima da
Ġinvis ÃŃveis
Ġmis eric
Ġart igos
ĠMy ra
Ġinci dente
ĠrelÃ¢mpa go
Ġenvel hec
Ġperspec tiva
Ġcand ida
: âĢĶ
A quela
A quilo
C am
T ES
a nt
f et
k in
o ito
ta is
la ta
al hado
ĠE X
Ġda dos
Ġca te
ĠO U
Ġdis pon
om o
Ġpo ten
ĠJ amais
ĠH ist
Ġan Ã£o
der s
Ġesc orrer
aix Ã£o
Ġpass amos
Ġesta nte
Ġcara lho
ick s
Ġconhec eu
Ġtorn eira
Ġag Ãªncia
Ġapo nta
ĠTom e
Ġli be
Ġlar gar
Ġreg iÃµes
ĠCas o
ces a
Ġplan eta
Ġsatis feita
Ġameric anos
ĠVol te
Ġdete ve
Ġinquie taÃ§Ã£o
Ġpossib il
Ġater ris
ĠWilliam s
Ġlite ralmente
Ġintro me
ĠChev ro
ĠLand ing
kov itch
i bo
t c
Ġp le
Ġp Ã³s
Ġp inheiro
qu in
Ġb osta
to na
ri tos
Ġg hou
ĠS cou
Ġdis per
Ġper correr
ĠV elha
Ġter ri
Ġtem or
Ġh ipo
ros o
Ġcor ri
Ġmor ib
Ġman eiras
Ġesta lou
Ġcorre to
cion ais
Ġinc Ã´mo
Ġru gas
Ġenf ure
Ġchama dos
Ġraz Ãµes
Ã³r ica
Ã³r dia
oo dy
Na quele
Ġreun ir
Ġdig amos
Ġaum entar
ĠTh ur
Ġbara ta
Ġapavo rante
Ġarqu ivos
Ġava li
ĠÃ¡s pera
ĠMicha el
ĠDol an
ĠHou se
Ġcaub Ã³i
. '
S andy
p so
t ton
Ġp ira
Ġs inos
qu inhos
Ġn Âº
se te
Ġre aparec
ĠN uma
ĠC lu
lh eiros
Ġcon gel
Ġpe des
Ġesp an
ĠestÃ¡ tua
Ġlu xo
Ġpra tas
Ġman dando
ios as
fa to
Ġconf i
Ġacor dei
Ġce deu
ĠDan forth
Ġaparec eram
ĠSu per
Ġcole Ã§Ã£o
Ġestiver em
Ġpei xes
Ġ7 0
ĠAng band
Ġdete c
Ġesfre gou
Ġcoch ilo
ĠJean nie
Ġtesou ra
ĠfÃŃs ico
Ġaluc inaÃ§Ã£o
Ġconge lado
Ġdescre ver
ĠGor do
Ġesbugalha dos
! !
A quele
z i
Ġ rig
Ġf rios
Ġv eias
ha via
gu eiro
ĠA baixo
Ġpor tÃµes
Ġfa tal
ĠV illa
ĠJ ane
Ġap lica
ens Ãµes
ĠDe es
ĠlÃ¡ p
Ġquer emos
Ġmor dida
Ġmor reria
Ġencont rasse
pos as
Ġsi rene
Ġbas tava
Ġesco lar
ĠMor wen
ĠRo do
Ġrela tivamente
Ġquad rinhos
Ġponta da
Ġcinz entas
ĠBa teu
Ġpia das
Ġala meda
Ġconduz iu
Ġvid ros
Ġrosn ado
Ġespor te
rap ia
Ġtestemun has
Ġsincer o
Ġatordo ado
Ġentor pec
gus ta
ĠtÃ©r reo
ĠScou t
c laro
f eliz
Ġd urou
Ġa vermel
Ġc ivil
Ġo posta
ia no
Ġse Ã§Ã£o
da Ã§Ãµes
Ġcom anda
Ġcom emo
ĠA B
ĠD ro
Ġap e
ur ung
Ġar trite
ĠEs tar
Ġmo Ã§o
Ġass oc
Ġpa ta
Ġpergu ntado
Ġpen umbra
ĠCom pan
Ġus ara
Ġbal bu
ĠCo ra
Ġbat i
Ġim obil
Ġbas tÃ£o
Ġimag ina
Ġve teran
Ġfavor ito
Ġsof rer
Ġmon it
Ġestu dar
ĠDu vido
Ġretor no
Ġinterro ga
mÃ© st
ĠPol icial
Ġdispara do
Ġabandon ou
Ġprome teu
Ġsubstitu ÃŃdo
hh h
Ġconfor tÃ¡vel
Don ald
Ġamonto ado
Ġfras co
Ġdezesse te
ĠPequ eno
ĠnÃŃt ida
ĠFri tz
ĠaÃ§ Ãºcar
Ġrecepcion ista
D ar
u ri
Ġn esses
to d
Ġno bre
ol Ã³gico
ens ÃŃvel
ĠF un
ĠG an
Ġmo di
Ġpa gamento
Ġpes quis
Ġvi b
Ġne gar
fic ado
iso la
ĠIs land
Ġta gar
ion ar
Ġav es
ĠdÃº zias
Ġ2 1
Ġprecis ei
Ġpla teia
ĠRe e
Ġafas tado
Ġri dÃŃ
Ġcava leiro
Ġgal inha
Ġgal eria
Ġgo vern
che fe
Ġdesen ro
Ġavi Ãµes
ĠDen ethor
ĠGu izos
Ġconv uls
Ġdevol ver
Ġabsur da
Ġacaba va
Ġrosn ou
Ġapla usos
Ġadiv inha
Ġresid Ãªncia
Ġatravessa va
Ġintu iÃ§Ã£o
Ġperplex idade
" '
5 0
C lint
c asse
d s
Ġco lh
Ġt ren
el and
ĠA ju
ĠS inger
Ġma tei
Ġma tem
ĠP s
ĠD I
it tle
mo key
Ġver e
Ġmo ravam
Ġsent iam
Ġimp ac
Ġimp ostos
Ġleva ntado
Ġtom ara
du re
Ġcham aria
ib i
Ġjan eiro
Ġcur tas
ĠPer lmutter
Ã´n io
ĠVer mont
Ġquiser em
Ġcurios os
Ġilum inada
ĠAt rav
ĠCha mb
ĠÃ¢ ns
Ġavis ar
ĠAnder s
Ġredo nda
Ġrepu x
Ġconte Ãºdo
Ġmis er
Ġrefei Ã§Ãµes
ĠMun icipal
Ġarrum ar
Ġorden ou
Ġpromo tor
Mu ito
k m
t inhas
Ġe fic
Ġe feitos
Ġc Ã³s
Ġo pa
Ġse cos
Ġes sen
le ntos
se iro
to do
ĠA T
Ġos t
Ġmas ti
Ġcon chas
Ġat ento
Ġpe garam
it ivamente
Ġser vido
Ġan gu
pa is
Ġvo aram
Ġesta mp
ne is
ke e
ib ilidade
Ġaju dando
Ġbon ecas
ĠLe vou
Ġvira va
Ġdesaparec imento
ĠNor man
Es ta
land Ãªs
ĠPeter s
Ġaum entando
ĠtÃªn ue
Ġfigu ras
Ġresist Ãªncia
Ġsolu Ã§os
Ġperde ram
ĠVo vÃ´
Ġdesconhec ida
Ġfing indo
Ġger ente
Entre tanto
Ġetern idade
Ġtranspar ente
Ġfundam ental
O nde
P ou
U U
Ġf inos
Ġpara f
Ġda ma
ĠA ir
Ġma cio
ran da
Ġdes n
Ġcon ex
Ġpro ce
Ġpre vis
Ġres sent
ix i
Ġcar valho
ig g
Ġcas ado
Ġalg ema
Ġtr ic
Ġman cando
Ġjo guei
ing os
Ġcal igrafia
ke t
Ġbar ran
Ġju ro
id Ã¡vel
lin i
Ġau ras
ĠAr k
Ġcomple tar
Ġchu v
Ġfar do
Es se
ĠMo nt
Ġlimp eza
Ġev entos
ĠSo x
ĠHan k
anc ei
ĠAu gusta
Ġinse to
Ġsug eria
ĠAud rey
ĠHora ce
ĠsÃ³b rio
ĠPesso as
ĠGla urung
F red
J essie
T er
Ġc enho
er Ã¡rio
Ġo raÃ§Ã£o
Ġt ub
Ġse le
oc hete
ĠS and
ĠC erta
Ġal on
ĠO ro
ĠR y
Ġap ito
Ġpre ju
Ġsegu rÃ¡
Ġcam isola
Ġtr ist
Ġmor deu
ch ild
ĠAl l
Ġpos tes
Ġtom ei
Ġba con
Ġus am
Ġcab el
Ġposs ÃŃveis
Ġescri tores
Ġsimp Ã¡tico
ĠcaÃŃ das
ĠCon hec
Ġpla nta
Ġaparec endo
Ġcarre gada
ĠDon ald
Ġapos entos
Ġmensa gens
Ġ8 0
Ġimagin ei
Ġesto que
Ġfamiliar es
Ġalim entar
Ġaspec tos
ĠMun dial
Ġinsp irou
Ġcoron ha
ĠWat son
Ġinev it
D esta
c Ãµes
e tas
i tavam
n das
s inho
Ġe p
gu el
ĠA os
us as
om y
ĠT EM
Ġpo bres
Ġolh asse
ĠF lint
ĠEs pera
Ġcas ti
Ġmen e
Ġra ro
ĠI rm
ĠPor tÃ£o
ber s
Ġro dando
Ġcl Ã¡ss
ĠK ay
Ġten ente
gue te
fa nte
Ġtri pas
ĠAr da
Ġcap ric
Ġdese jou
Ġcava lheiro
Ġrela to
Por Ã©m
Ġval es
Ġconstru ÃŃdo
Ġench ia
Ġmi olos
Ġpan cada
Ġade us
Ġator m
Ġpersona gens
Ġacostum ado
ĠAman hÃ£
ĠLey decker
gÃŃn qu
Ġbair ro
Ġressa ca
Tam bÃ©m
ĠTique taque
ĠChevro let
N unca
P ens
b bie
h ir
p ei
p at
Ġt it
Ġf itas
da in
Ġl iÃ§Ã£o
ĠA ke
ĠS ur
Ġre bo
ĠC aiu
Ġcon ec
ĠR ai
Ġla g
ver de
Ġpu to
Ġmar rons
Ġlon gÃŃnqu
Ġinc essa
Ġson hado
Ġru ÃŃna
Ġcan os
Ġsal iva
Ġsan gu
Ġta Ã§a
Ġrou pÃ£o
Ġergu ido
Ġmant eiga
ifica da
Ġcost ume
Ġconstru ir
ĠTim es
Ġproje tava
Ġdelica deza
Ġrepres enta
Ġescolh eu
ĠHan lon
ĠCara mba
ĠRober ts
Ġprision eiros
Ġedu caÃ§Ã£o
Ġdesajei tada
Ġpaci entes
Ġbigo de
? ".
R ose
n i
Ġde dic
Ġde licado
Ġm Ã³veis
Ġo le
Ġco c
Ġes po
an less
Ġb ene
ĠS aiu
Ġma nto
Ġre vi
Ġre gra
ĠD ig
un d
Ã§a vam
Ġfo co
Ġin jus
ga is
Ġla mento
at Ã©
Ġsegu iam
Ġpra zo
ĠEnt endo
Ġlev es
Ġcan ive
Ġgra tidÃ£o
Ġfi tava
Ġsenhor ita
Ġag ress
ĠEstÃ¡ vamos
Ġmil has
ĠGeor gia
Ġve ran
ĠBla ke
ĠCa la
Ġprop riamente
Ġx ixi
Ġpreocupa Ã§Ãµes
Ġident ificaÃ§Ã£o
Ġmun iÃ§Ã£o
Ġconse lhos
ĠMcC a
Ġassomb ro
Po is
Ġaga chado
iri th
Ġmenin inha
At rÃ¡s
kn ock
Ġhar mon
ĠTw itch
Ser Ã¡
Ġpropa gan
ibo deau
! ".
N ick
P ass
c inhas
g rada
Ġco bri
ta mb
ĠS ch
ĠC entro
ĠT ell
Ġpr ost
ens iva
Ġh ost
Ġpa gou
Ġcas inha
Ġesc rav
Ġpes ados
ĠU MA
ior gio
Ġimp lac
ill ian
Ġpen dendo
Ġtran car
et ta
Ġhist Ã©r
ion ou
Ġesco nde
Ġag itando
ĠTo wn
ĠTo omy
Ġenf iada
ĠsaÃŃ rem
Ġbon itas
lan che
Ġamar rado
ĠTer ras
Ġcap uz
Ġarran cando
Ġtermin ando
Ġsum indo
Ġdiver sÃµes
Ġcompre endia
QU I
Ġsex to
Ġcomprim ido
Ġgigantes ca
Ġmec Ã¢nico
ies on
Ġespre ita
Ġsupon do
Ġconden ado
Ġcris e
Ġcoca ÃŃna
humo rado
C u
g indo
g eiros
j osa
Ċ Ċ
Ġv assou
Ġpara le
gu ia
ri ve
Ġca v
Ġr ura
ĠB lo
ĠB urt
Ġfa cho
Ġat endente
ĠH at
Ġmo Ã§as
Ġpa go
Ġsegu ros
Ġcas ar
Ġfor em
Ġpens ara
ĠU ns
Ġvi rilha
ch ei
est Ã¡
Ġtent ara
ĠBill ingsley
Ġescri tas
ĠMor te
ĠMor ton
Ġarre dores
ĠMo nte
Ġcost ura
Ġfir ma
Ġapres entar
Ġcresc ido
Ġanda vam
Ġprofun dos
Ġrodo vi
ĠMal u
ĠVe gas
Ġcontemp lando
Ġsolu Ã§Ã£o
Ġ196 0
Ġmec an
ĠBet hany
Ġram o
Ġacele rador
Don na
ĠBol ton
Ġzan gado
Ġtransm issÃ£o
Ġintegra l
Ġintri gado
Ġbibliote c
ĠÃ¢ns ia
A li
B a
R OS
d inhos
Ġp ÃŃ
Ġp ur
Ġm ob
Ġl ob
Ġl ance
Ġg Ãªnio
Ġma taria
Ġsu ando
Ġca vernas
Ġre nda
Ġre bel
ĠC os
ĠP ER
un s
Ġpar tiram
ĠR ece
Ġtem pe
Ġan unciou
Ġsob rou
dia nte
Ġtra Ã§os
Ġro bus
Ġvis Ãµes
Ġba inha
ĠPo tter
Ġsi nt
Ġgos tavam
ĠCo nte
Ġag rada
Ġaparec ido
Ġagar rado
ecess Ã¡rias
Ġescorre gar
Ġpret endo
Ġval ia
ĠLem brou
Ġdisp ens
Ġderru bando
Ġmun ic
Ġalu guel
ĠestÃº pida
Ġbru xa
Ġreflet ir
Ġautor idade
Ġescolh ido
Ġbisco ito
Ġdocum ento
Ġcola pso
Cont udo
Ġgrunh ido
Ġquartei rÃµes
Ġtabu leta
Ġincon fun
Ġvidra Ã§a
Ġautom Ã³vel
Ġhabitu al
Ġoc orr
I O
T he
a gora
b aria
j ara
r ington
s er
ar on
Ġt elhados
Ġf aro
Ġf inas
to wn
co w
co x
ÃŃ gn
Ġest ima
ĠM ister
Ġal f
Ġdes er
Ġj urar
Ġpe de
ci oc
Ġap osta
Ġcar tola
ĠI greja
bo x
Ġvi er
Ġtor cer
Ġnas cido
ĠCom p
ĠNo on
ĠNo ite
eria nd
Ġfer imentos
Ġaz ar
Ġesquec era
Ġaparec esse
Ġfam into
Ġtre me
Ġel Ã¡stico
Ġbor das
Ġfir mes
Ġber rar
Ġdepres sÃ£o
Ġmaldi tos
Ġexam inando
Ġderru bar
Ġirri tante
ĠMill er
Ġorgu lh
ĠDou g
ĠBel eriand
Ġadiv inhar
Ġcastan hos
ĠContinu e
Ġintermin Ã¡vel
Ġhumil de
Ġmanche te
Ġcaip ira
D OS
S ent
a velmente
h rens
u de
u gh
Ġm am
Ġf erv
Ġv inganÃ§a
Ġse ver
ent on
ri el
ĠA deus
te ve
Ġas tu
Ġre pre
ĠC Ã¢mara
ĠP ensa
ĠP ier
Ġcon stitu
ĠF ilho
Ġpre ce
Ġfic ha
ĠW in
Ġesta lar
Ġpos se
ĠK in
Ġten da
Ġcol unas
Ġseria mente
Ġvia jantes
Ġdez embro
Ġrec entemente
ĠHar low
Ġesca vaÃ§Ã£o
Ġfecha va
Ġdesa bou
ĠDes cob
Ġfug ido
Ġadia nt
Ġcompre ende
Ġmaldi Ã§Ã£o
Ġviv iam
Ġresol vido
ĠTh ibodeau
Ġapan hado
Ġdob rado
Ġdispara da
Ġbru tal
ĠTa k
Ġcostum am
Ġcheira va
Ġgai vo
ĠPrecis amos
Ġadvert Ãªncia
Ġboquia berto
Ġhos pe
ĠAssass ino
ĠAke ley
2 5
b es
g ri
r ÃŃ
v on
Ġm ens
Ġn eu
Ġt estes
Ġf inais
en ciar
Ġdo n
ĠA no
Ġca po
ĠM OR
Ġdes ar
Ġen for
Ġat ur
Ġac esa
ĠV EN
Ġcont am
ĠL ib
Ġar tic
Ġfor Ã§ar
ĠI ns
Ġinter fer
Ġsal as
Ġta pe
Ġag itado
ĠAr lette
Ġdesaparec endo
Ġarre gan
Ġfar mÃ¡
Ġras gado
ĠGar th
Ġcole te
Al guma
Ġsurpre end
Ġengan o
Pe guei
Ġquebra dos
Ġadorm ec
Ġprossegu ir
iqu ia
Ġigno rando
Ġsug estÃ£o
Ġinsti nto
Ġarmaz Ã©m
Ġmorce gos
romp eu
Ġbaga gem
Ġlingua gem
Ġpossibil idades
child t
hrens childt
H ar
P ela
a z
u o
w lie
Ġcom pa
Ã§ Ã¡
Ġl ide
ĠA do
ĠA quelas
ol hos
Ġca Ã§am
ĠT ru
Ġen ros
Ġen ig
ĠJ us
ĠL loyd
ix on
Ġsegu rei
ina vam
Ġch eiros
Ġdire itos
Ġprim o
ĠÃ¡ cido
Ġmal ha
Ġus ados
Ġins pira
ib re
fa lantes
Ġconhec iam
Ġcur vado
Ġquatro centos
Ġpux Ã£o
ĠCh rist
Ġlar gas
ĠSte vens
Ġext rava
Ġros as
Ġescorre u
Ġengan ar
ĠMan we
Ġmancha do
Ġdescar re
Ġtelefon ar
Ġenvi ou
Ġfras es
ĠAud ra
ĠGaro to
Ġretribu iu
Ġinterva lo
cÃ³p io
Ġhero ÃŃna
Ġdeli be
ĠNoon an
2 7
F iz
c Ãªncia
s us
t ilo
Ġ ÃŃamos
ent am
Ġb one
Ġca lada
ĠM Ã¡
ĠD ec
Ġdes va
Ġfo ntes
ĠL ittle
ĠEs cola
Ġra cioc
Ġpergu nto
Ġentre a
Ġrep ulsa
Ġrep orta
Ġficar Ã¡
Ġficar iam
Ġcria ndo
Ġim itaÃ§Ã£o
Ġpassar em
Ġamar ga
ĠCh ina
Ġescre ve
Ġfala ra
tÃ© is
Ġras gou
Ġempur rado
rian Ã§as
Ġatravess ado
Ġliga da
ĠMel ian
ÃŃst icas
Ġencara ndo
Ġcruza dos
Ġtestem unha
Ġsobreviv entes
Ġbob a
Ap esar
Ġcere bral
Ġtum or
Ġtate ou
Ġpergunt ara
ĠDol ores
Ġmura lha
Ġindica va
Ġincom um
Ġdece pcion
Ġexpress Ãµes
ĠExce to
ÃŃdu o
ĠAndo lini
Ġchico te
Ġcompar til
ĠgÃªn ero
ĠOfic ina
ĠConse lho
Ġimpac to
Ġcanive te
P A
b ulo
n ar
p eito
u dos
v im
y rus
in ei
Ġf eira
ent re
ĠE ye
Ġem ol
gu los
Ġma con
Ã³ tica
Ġca cos
Ġas c
ĠP assei
Ġal pend
Ġdi pl
Ġen gre
Ġpo emas
ĠR ho
ĠR iv
ĠF ra
ĠL ua
ĠDe vem
Ã¡s ticos
Ġsobre vi
Ġch ec
Ġch iado
Ġcomp lica
orr Ã£o
Ġpos tos
hos o
ne ta
ba va
Ġespe ta
Ġtorn aria
erv ar
Ġsala da
Ġdorm ido
Ġapro p
Ġimag inado
Ġrec usa
Ġtrem iam
Ġespera vam
Ġmotor es
Ġret irar
EN TO
Ġinfer nal
Ġfran cÃªs
ĠDu gan
QU E
Ġocu pada
ece dor
Ġamp li
Ġvisita ntes
ĠBur nside
Ġadorm eceu
cur sÃ£o
Ġcaus ado
Ġbur ra
ĠIr ma
Ġeletr Ã´nica
Ġdescia m
ĠWh it
Ġdivert indo
Ġnervos ismo
ĠnÃ¡ de
Ġviole ntamente
Ġrecon for
Ġpod ÃŃamos
ĠShan non
Ġantebra Ã§o
Ġdesas tre
ĠCath y
! ]
C or
H al
f iro
f oi
ra d
Ġqu estÃµes
Ġf ins
Ġse cas
ent aria
Ġma cha
ĠN ei
ĠP O
Ġmas tig
ĠT io
Ġter mo
Ġar dendo
Ġab al
Ġcar tu
Ġfor Ã§ado
pa va
ĠU S
ĠI ota
Ġman e
Ġpoder es
Ġtor ceu
Ġbol has
pres sa
Ġolha do
Ġcontinu ei
Ġapo iada
Ġesquec endo
Ġfar Ã¡
Ġadia nta
Ġalc anÃ§ou
Ġcruz ando
ĠWil cox
ĠGu arda
Ġpreocupa va
Ġjus tamente
Ġgrava Ã§Ã£o
Ġresul tados
Ġamea Ã§ado
Ġcaus ou
Ġcontor cendo
Ġexter na
Ġesconder ijo
Ġconsider Ã¡vel
ĠCob rador
Ġaux ÃŃlio
Ġene vo
Ġcerim Ã´nia
ĠNel son
Emb ora
tamb Ã©m
T AR
c ru
c iso
f il
p Ã¡
u f
Ġe ti
Ġp icos
Ġc Ã´m
Ġde vas
Ġf us
en or
en se
el le
Ġin segu
Ġcont ara
ĠG len
Ġmo rando
Ġche gue
Ġcha te
Ġimp resso
ĠcomeÃ§ aria
ada mente
Ã¢n gulo
Ġins criÃ§Ã£o
ĠAn n
th ur
Ġant ena
Ġbol iche
ĠCo ates
ĠpÃ´ quer
ĠBar kovitch
Ġtermin ei
Ġri tual
Ġespec tral
Ġfuncion ou
ĠespÃ© c
Ġprate ada
Al guÃ©m
Ġapre ndeu
Ġaproxima vam
ĠÃģ gua
Ġdespe dida
Ġperten ce
Ġassomb rado
Ġbomb inha
Ġdeb oc
Ġnov idade
Ġsang rar
Ġocul to
Ġbob agem
Ġlas cas
Ġamedro ntado
Ġparticip ar
Ġnoj ento
v ana
Ã ļ
Ã¡ culo
ĠM olly
Ġdes d
ĠB eson
Ġpar es
sa das
di oso
ĠJ erry
via l
ĠF inn
Ġi P
Ġpa po
ĠU l
Ġtra diÃ§Ã£o
Ġcomp ro
Ġcomp arec
Ġte oria
Ġro ch
Ġbol inhas
Ġapo ntar
Ġfer ru
Ġrec eio
guei ras
Ġfam ÃŃlias
Ġespec tadores
Ġespa das
Ġras tros
Ġconcor dar
Ġext ingu
Ġfug iram
ĠClay ton
Ġarras tado
ĠHal low
Ġacompan hando
ĠWil son
Ġterre mo
Ġmi jar
Ġsuperior es
Ġuni for
Ġvio lento
Ġassum iu
Ġdesist iu
Ġdan ado
EI RO
Ġcantar ol
Ġinclu indo
zy ck
Ġmascul ino
Ġvislum bre
Ġric ochete
Ġalpend re
J im
m ei
r ice
Ġn am
Ġt ons
Ġt ivÃ©ssemos
Ġl igo
ĠA us
Ġpor to
ÃŃ te
ĠN ana
ĠC ost
Ġal er
ĠT anto
Ġdes cas
Ġen lu
ĠB ach
Ġin co
ĠV ir
ĠV eio
ĠF BI
Ġan dei
Ġar dente
ĠG iorgio
Ġres f
Ġres um
Ġmo ntado
Ġvol tavam
ĠmÃ£ es
Ġcl ima
ĠK a
Ã¢n ia
Ġru de
Ġsal t
Ġpassa gens
Ġmuit ÃŃssimo
li das
Ġsair ia
Ġpux ei
ĠLe andro
Ġrec ru
Ġli gue
ĠEn nis
Ġconc eito
Ġgem endo
Ġesper ei
Ġident ific
Ġirri taÃ§Ã£o
Ġvom itou
Ġpub licado
Ġps iquia
Ġhobb it
Ġenlouqu ecido
ĠBet sy
Ġforn alha
Ġtoss ir
Ġadul ta
Ġmenin inho
Ġdesconfia nÃ§a
Ġtrav ess
ĠVie tn
Ġdistingu ir
Ġinconfun d
ĠHallow een
E i
J un
O B
g ica
g ros
Ġ [
ra qu
Ġp ic
in osa
Ã¡ ter
Ġb ul
gu ar
am en
te tive
ĠS ER
Ġma x
Ã³ lica
Ġpo esia
di ente
Ġsob ra
Ġcomp ens
Ġcomp ridos
Ġdire itinho
Ġne bul
Ġso lene
Ġsub ida
Ġpai rava
Ġespe rasse
ĠmÃ¡ rm
Ġlou ra
Ġprecis e
Ġtermin asse
Ġchu te
ron ia
Ġassus tados
Ã¢m ica
Ġexist iam
gg ie
Ġavis os
ple ton
To dd
Ġadmit iu
quia gem
Ġesgo to
Ġgl Ã³ria
ĠCent er
Ġaterror izado
Ġimpe di
ĠLemb rava
Ġabat ido
Ġpip oca
Ġinsu por
Ġple no
Ġterri tÃ³rio
Ġcoc Ã´
ĠmÃ¡rm ore
D eu
I R
N O
d an
f res
o van
Ã ķ
er e
as p
Ġf umo
le ndo
la w
en cont
ha ra
al ina
Ġest eira
Ġca Ã§adores
ĠN ecessÃ¡rias
ĠM os
ĠO lhando
Ġfa chada
Ġin cons
Ġle nte
Ġcont aria
Ġan or
Ġcor rim
har ia
Ġliv res
Ġsal Ã¡rio
Ġim un
Ġcaix o
Ã©r cio
ans y
Ġsum iram
Ġcir co
Ġconside ra
Ġdef ro
Ġvig iando
Ġform ado
ĠLem bre
Ġexplos Ãµes
ĠStan ley
ĠEst endeu
Ġimpul s
ĠtÃ© rm
Ġpercor re
Ġtransform ara
Ġatrope lado
Come Ã§ou
Ġghou ls
ĠfarmÃ¡ cia
ĠVietn Ã£
C al
M o
e amente
i k
l cho
Ġc ed
Ġc rer
qu ente
is Ãµes
Ã§ osa
ĠE ll
Ġdo mÃ©st
Ġl ito
Ġfo dido
Ġin ver
me dia
Ġass ente
Ġpa pa
Ġfor Ã§ou
Ġfal o
Ġva gas
ba das
Ġacab ando
ĠÃºn icas
Ġfi quem
ĠMar cha
Ġcontinu am
Ġfer idas
Ġcru Ã©is
Ġarran cada
Ġfala ram
ones es
Ġnu b
Ġdesa fio
Ġtre zentos
Ġaco lcho
Ġga b
Ġaproxim aram
Ġtira da
Ġvir Ã¡
Ġens inou
Ġconstru Ã§Ãµes
Ġconstru ÃŃda
Ġobserva do
yn cho
Ġindic ando
Ġinex press
ĠTommy knock
Ġretira da
ĠBal l
Ġcoment Ã¡rios
Ġtabu leiro
Ġaux iliar
Ġconstran g
Ġvibra Ã§Ã£o
Ġgostos o
Ġfort una
Ġvamp iro
Ġguardana po
ĠWiscons in
Ġinevit Ã¡vel
Ãķ ES
C K
f t
i ques
n inho
Ġe diÃ§Ã£o
er ente
ri z
ĠS mokey
Ġre ti
ĠP E
Ġme ados
Ġr Ã³
Ġpe gara
ci entemente
ĠG osto
Ġcor pu
at i
Ġab elhas
Ġint itu
Ġman dei
Ġentre vis
ĠÃ¡ reas
Ġencont rada
fic ar
Ġleva dos
Ġba fo
Ġcria Ã§Ã£o
Ġru ivo
tic e
Ġacredi taria
Ġesco ndeu
Ġdorm entes
Ġapo ntava
Ġcur tos
ĠCar la
Ġprin ci
Ġrela tos
Ġapa gada
Ġgru dado
Ġfei jÃ£o
ĠAp ro
Ġber ros
Ġconven ceu
ĠJam ieson
Ġanima da
Ġpia no
Ġmancha da
Ġdiscu tindo
Ġespalha das
Ġdeslig ado
sh un
Ġcoloca va
Ġhe di
ĠmÃ¡scara s
Ġgen eral
Ġmuda ram
ĠSau bers
Ġguard ando
Ġajoel hado
ÃŃl ulas
Ġdistra ÃŃdo
Ġemba lagem
Ġextre ma
Ġconvida dos
Ġcient ÃŃfica
Ġfru tas
Ġsincer idade
Ġmister ioso
Ġmorce go
Ġpesqu isa
Ġaventu ras
yncho t
) ;
J ul
M E
M el
i posas
x ico
Ġf rias
re tt
le en
Ġb las
Ġb elas
ĠE ric
ĠA fas
Ġest ender
Ġdi Ã¡rio
Ġsa u
ĠR and
ram m
ce y
ĠG inny
ĠEs cre
Ġsent ando
Ġesc utei
Ġsab ido
ac as
Ġfal asse
Ġimp res
pre mo
era Ã§Ã£o
fic ial
Ġcu ido
Ġtent aram
Ġva ci
Ġbar es
ĠAn da
Ġju ntaram
hou se
lu la
fa dos
ass im
ĠMa g
ĠCon heÃ§o
tre iro
Ġdef ender
Ġenvol via
Ġservi Ã§os
Ġenco ra
Ġfl Ã¡
Ġquisesse m
Ġcansa dos
Ġdob rar
Ġenro lar
ĠmaÃ§ Ã£s
Ġirre gulares
ĠVe jo
Ġexib ia
ÃĬ N
Ġleit or
Ġdom ÃŃnio
Ġenvia do
Ġrazo avelmente
Ġdesconfia va
Ġsepul tura
Ġfen das
ĠEST Ãģ
Ġhorre nda
Ġvic iado
Ġperceb endo
Ġdeterm inaÃ§Ã£o
Ġdestro Ã§os
Ġenvergon hado
ragia n
Ġada p
Ġdobradi Ã§as
Pou co
U R
j aram
j amento
m inha
Ġco a
es ou
in c
in aram
um es
Ġb Ãªn
de ram
gu lha
Ġl Ã£
Ġma quiagem
Ġsu til
ĠT rans
ma dos
Ġent rara
Ġle vam
ob y
Ġmo tel
Ġvo avam
Ġleva ntaram
ĠEd ward
Ġsi nton
ĠMar k
Ġenf raqu
ud ÃŃvel
ĠDo ra
Ġescre via
Ġbor ri
Ġata cou
Ġinclin ando
Ġdou rados
Ġapres entou
Ġcelular es
Ġmergu lhar
bur g
Ġenferm aria
Ġleit ores
Ġesma gado
Ġexperim entar
Ġacost uma
Ġdemonst rar
Ġpop ulaÃ§Ã£o
lida y
emor ial
Ġimpa ciÃªncia
Ġdesajei tado
estra de
Ġergue ram
Ġreflex os
ĠAcontec eu
Ġpulsa Ã§Ã£o
Ġpedac inhos
Ġentreol haram
F o
F rodo
N or
n ei
r ÃŃvel
x ar
Ġd inam
Ġde dica
or o
Ġpara no
ic ioso
Ġal vor
ĠO k
ado ra
Ġent rasse
Ġcor dÃ£o
ĠEs tado
Ãº rb
Ġcomp rom
Ġpen diam
Ġmar cava
ne ve
Ġcal ibre
ĠJo die
Ġju ÃŃzo
Ġfec hei
Ġbol sas
par e
Ġaju dava
ĠGe rar
Ġce le
Ġcober tores
ĠRa wlie
Ġdeci d
Ġnecess Ã¡ria
Ġlinha gem
Ġgor du
Ġreconhec ido
ĠLÃ¡ quesis
ĠJe ffer
Ġadorm ecida
Ġimpress Ãµes
Ġproduz ir
Ġvas to
Ġinsta nt
Ġenche ram
Ġmus go
Ġsuspei ta
atural mente
Ġretira do
Ġrum or
ĠautomÃ¡ tico
Ġinsti nt
Ġcircu ito
Ġadequ ado
__ __
Ġinfec Ã§Ã£o
Ġdesor i
Ġluminos idade
Ġsac ana
Ġbel is
Ġaspir ina
Ġsuti Ã£
Ġferru gem
Ġprinci pais
2 3
C a
S u
V ic
f enda
Ġe ter
ra ma
Ġp ÃŃlulas
Ġo co
Ġf ia
va das
Ġb is
Ġca Ã§ar
Ġmu dando
Ġpe Ã§o
Ġter ÃŃamos
Ġolh Ã¡
Ġex al
ĠL in
iz ador
Ġch if
ĠSe an
ĠSe te
Ġesta lando
fic as
ĠEnt ragian
Ġins ignifica
Ġbal anÃ§
Ġfun da
Ġfi el
Ġbas tar
Ġrec ur
Ġrec ua
Ġgal inhas
ĠÃĢ quela
Ã³r cio
Ġabri ra
ntan eamente
Ġbus cÃ¡
Ġatravess aram
Ġassass inado
Ġdiver sos
ĠChe fe
Ġencos tar
Ġcla ras
Ġgas tar
Ġcora joso
ĠTh Ã©
ĠHe in
Ġflu ido
Ġinsist ia
Ġron cando
ĠpÃºb lica
Ġsess Ã£o
ĠKen ny
ĠdÃ© c
Ġexaus tÃ£o
Ġquie ta
ĠAca bou
ĠAmb os
Ġconvida do
Ġgrunh iu
bran qui
Out ra
Ġchef Ã£o
Ġtelep atia
ĠepisÃ³ dio
ĠApar entemente
Ġmacon ha
Ġcorrim Ã£o
Ġblas f
V ER
b ores
b lÃ¡
f ran
g i
i lado
Ġde po
âĢĶ ,
la t
ent er
Ġb yrus
Ġl om
Ġno tei
Ġest icando
Ġca cete
il v
il os
ĠP Ãºb
ĠM es
ĠD eci
Ġme dic
Ġpar ente
ĠR ick
ĠL is
Ġar tes
ĠG w
ĠG rin
Ġcar Ã¡ter
ĠDe lain
Ġra chado
Ġcomp rara
Ġman sÃ£o
Ġdire ta
Ġsol ic
ne gro
ĠMar sh
par ei
Ġergu iam
Ġ19 3
Ġdez oito
ĠEn f
Ġdese mb
Ġpi ntar
Ġga gue
Ġboc as
Ġcr ist
Ġsono lento
Ġaba fada
Ġequ iva
ĠRob bie
Ã³l ico
Ġjor nada
Ġaum entava
Ġcomun idade
Ġaleg res
Ġarrega laram
Ġacer ca
Ġmul ti
Ġarro mb
ĠPrim eira
Ġmonstru oso
Ġvin dos
ĠMontan ha
ĠBas ta
Ġcautelos amente
Ġcondu zia
ĠVermel ho
ĠSupon ho
ĠsÃŃmb olo
wor th
Ġinexp lic
Ġproba bilidade
ĠcaÃ§am ba
Ġemol dura
g ico
h el
k es
o to
Ġ ida
ar de
ar ts
Ġv emos
ta velmente
ou r
Ã© ticos
de iros
ĠS anto
ĠD est
om as
Ġdes vio
Ġfa ÃŃs
Ġat Ã´n
Ġpar to
ur rou
Ġi rem
ĠG ood
Ġpens am
ĠW et
ĠW anless
Ġbo atos
et es
Ġcontra to
Ġconhec idos
Ġtro caram
Ġneg oc
ĠDo dge
ren es
Ġsil hu
ĠFa la
duz iu
ĠMo hrenschildt
ĠFran c
Ġsomb rios
Ġencos tada
Ġasso alho
ĠMel da
Ġdig ital
Ġagrade ceu
Ġremo to
Ġdific ilmente
Ġatira do
ĠBran ca
Ġgave tas
Ġcicatri zes
ind le
Ġpergunt asse
Ġesva z
Ste ve
Ġcoron el
Ġmat inal
grÃ¡ fica
Ġespira l
Ġcomunica Ã§Ã£o
ĠMou nta
ĠridÃŃ cula
Ġangu st
Ġsilhu eta
A qui
M a
S il
d imento
d uais
f ir
g rima
i deia
l ite
s aram
re al
Ġse camente
an des
Ġb ac
ho mem
ri p
ĠA ham
ĠA aron
Ġre zar
ĠM ara
ĠM ur
Ġal deia
dos a
Ġdi gn
ĠB ei
Ġin stitu
it ty
Ġsua ves
Ġcont asse
Ġmo viam
Ġint en
ĠSe ar
Ġman dÃ¡
gra de
ĠOs mond
Ġcorre ta
Ġmal Ã©
ĠAn ci
ap ro
fa lei
alha da
Ġcap tar
Ġfavor ita
Ġarma Ã§Ã£o
Ġfar ol
Ġpi ntada
ĠmÃ© dia
Ġsusp eito
Ġprov oc
Ã³r um
Ġtira ra
Ġur ina
ĠHal liday
Ġama nte
ÃŃb ulo
Ġinic iais
ĠJer zyck
Ġinde f
Ġgen uÃŃ
Ġdel ÃŃ
Ġign iÃ§Ã£o
Ġtate ando
ĠQua ntas
ĠrepÃ³rter es
Ġfant Ã¡stica
ĠFec hou
Ġtrav essa
Ġdesconf iado
Ġasse mel
Ġlun Ã¡tico
Ġode io
ĠBurke tt
Ġmiser Ã¡vel
Ġvassou ra
Ġlito ral
A bra
C erto
D essa
F ez
Ġd ÃŃ
Ġc esto
Ġm ir
is tos
Ġv ice
de pois
am es
Ã³ rm
on das
Ġca tar
ĠC O
Ġal o
ĠT ansy
Ġdi rige
ĠB ay
Ġper dÃ£o
ĠJ uro
ram bar
esse i
Ġh osp
Ġfaz emos
der ou
Ġar cos
ĠestÃ¡ tica
lo gos
ĠEs tes
Ġmor dendo
Ġentre gue
ne ticamente
Ġmel anc
ĠK indle
Ġleva da
Ġaf ora
Ġinc hados
Ġtar taruga
th il
Ġvia jante
Ġchegar mos
ĠAr thur
ĠEn fim
Ġras gando
ĠNor m
Com ecei
Ġsign ificar
ĠDon ovan
Ġasso b
ĠCal ma
Ġhor rivelmente
Ġviv em
ĠcÃ¡ qui
Ġobserva Ã§Ã£o
bb y
Ġ9 0
Ġconcent rar
Ġsoc ial
Ġsoc orro
Ã³i des
Ġpec ado
Ġdescobri ra
ĠdÃ© bil
Ġemit ir
Ġbarba nte
Ġgira va
Ġencer rado
Ġlum inoso
ĠPergu ntei
Ġconsider ou
ĠCap itÃ£o
ĠSp r
ĠCan al
Ġmalig no
Ġbagu nÃ§a
ĠPel ley
Ġbin Ã³
Ġinacredi tÃ¡vel
Ġconvic Ã§Ã£o
Ġcamundon go
ĠPier re
4 0
I TO
R ES
h inha
m ob
w ent
Ġa ranhas
um an
Ġes s
Ã§ amento
se l
ri ar
ĠA g
Ġg iz
ĠN ig
ĠC AR
Ġdes ci
Ġdes at
Ġdes pa
Ġen com
ĠB ai
Ġin veja
Ġmu do
ĠF ris
Ġpro ntamente
Ġser en
Ġesp lendo
at or
at ley
ita ram
Ġmor tes
Ġman dava
lha do
Ġpos tura
Ġvolta m
Ġestar Ã£o
ĠPo nte
Ġacredi tam
Ġcho cal
Ġconf iante
Ġchama das
Ġafas ta
Ġras gada
ĠPro vid
Ġagu lhas
ĠcomeÃ§ar em
ĠmÃºs icas
Ġpress as
Ġarm ado
Ġenvol veu
Ġreco lher
Ġenter rou
Ġderru bado
ĠRock y
Ġregist radora
Ġans iosa
Ġcontor no
Ġindic ar
ĠTre nton
Ġris cos
Ġrecus ar
Ġrepu taÃ§Ã£o
Ġgarant ia
Ġprodu tos
Ġmonstru osa
Ġdiv Ã³rcio
Ap Ã³s
Lo go
Ġexci taÃ§Ã£o
Ġades iva
Ġobede ceu
Mor t
ĠJen ny
Ġcolar inho
ĠhipÃ³tes e
ĠalcoÃ³ la
Ġnucle ar
Ġimplac Ã¡vel
ilv Ã¢nia
2 9
V ai
d icos
e te
n ell
x to
Ġ y
Ġa x
Ġa res
Ġm entais
es tou
in Ã¡ria
ha w
Ã¡ gio
el y
ĠA P
Ġca tÃ³
Ġme le
Ġme xe
ma gem
ĠÃ© gua
Ġin unda
ĠJ ulho
Ġver so
Ġser iedade
Ġcar rinhos
Ġcas ual
vo ra
Ġsab ÃŃamos
Ġam ado
Ġvi veu
Ġne bl
Ġouv imos
Ġexp osiÃ§Ã£o
tÃ¡ rios
Ġmal vado
Ġju nt
Ġju ntamente
Ġsan gra
rim eiro
Ġexa ta
Ġpare Ã§a
Ġce der
Ġlou Ã§a
Ġmost rador
Ġaper tada
Ġtoc aram
Ġesquec ida
Ġlig eiro
Ġchu tou
duz ir
Ġprov ocado
Ġdiver tir
Ġapres sar
ĠOh io
Ġespal hado
Ġentende m
ĠlÃŃ mp
Ġjard ins
ĠVal fenda
Da ve
ĠOr cs
Ġgen g
Ġabsur damente
Ġpel Ãºcia
ĠPark us
Ġocupa va
Ġestica da
Ġinespe rado
ĠCorre dor
ĠLor tz
Ġradia nte
Ġdescont ro
Ġpisca dela
ĠShar p
Ġpregui Ã§os
Ġlac rim
Ġcirur gia
Ġconvi te
Ġindes cri
Ġpropagan da
Ġdinam ite
Ġnebl ina
B o
u diu
Ġa i
Ġde nta
Ġse vera
Ġb le
Ġno c
ec os
ÃŃ so
ÃŃ ris
ol ho
ĠC loto
ĠP ynchot
ĠM ic
ve e
ma ha
Ġper dia
ĠR ela
Ġpro tu
Ġla Ã§o
ĠL imp
ĠL amento
ĠG am
at ivo
Ġpre parou
Qu ase
tas e
Ġam ig
ĠsÃ³ lido
Ġcha to
Ġcomp rei
ĠÃī omer
Ġfre neticamente
Ġmar car
Ġencont rando
Ġcal cul
ĠK ells
Ġten dÃªncia
Ġlemb rado
ÃŃn ica
Ġta x
Ġag l
Ġtro vÃµes
Ġaper tava
Ġtoc Ã¡
Ġdesc ido
ĠsÃ© rios
Ġref res
ĠEl vis
Ġvest ia
Ġestu pe
gal hado
gn ado
Ġdesen har
ĠLa Ver
Ġexper iÃªncias
ĠGa lad
Ġhes itar
ĠSou th
Ġalmo Ã§ar
Ġprefer ia
Ġrever Ãªncia
Ġapavo rada
Ġinterromp ido
Ġcompu tadores
Ġadvo gados
Ġarro gante
Ġpenet rante
Ġdesespe rada
ĠDiz ia
Ġtru ques
Ġreduz ido
Ġdesbo tada
ĠFica va
ID ADE
Ġenfi leira
Ġpio rar
Ġtranquila mente
Ġcautelos o
Ġvidra Ã§as
Ġacusa Ã§Ã£o
Ġhomen zinho
ĠcÃ³p ia
Ġcalaf rio
Ġgras n
ĠVilla ge
randa ll
ĠnÃ¡de gas
Ġinconfund ÃŃvel
? ...
E ram
b ura
b aram
m aram
r Ã³
s s
Ġc Ãºp
Ġo pera
es e
ou t
en ci
ro y
Ġb i
ĠE is
Ġpara ra
Ġna va
Ġna cional
so bre
Ġele tro
ĠP ul
ĠO b
ve rando
Ġdi tado
Ġcon vin
ĠV ila
Ġent ram
Ġle treiro
ĠF ing
Ġex ti
Ġesp on
Ġesp iri
ĠL uz
Ġcor tador
Ġcar pete
Ġtr inco
Ġtra g
Ġhom ena
Ġdia gon
Ã¢ mbio
ĠAl den
Ġesta m
Ġtor tas
Ġro tina
Ġmar iposas
Ġtom e
ĠEnt ende
Ġespe ran
ly n
ĠMar tha
Ġconf id
Ġtrans bor
Ġcontinu aria
ĠMa nt
Ġpux Ã¡
Ġapar tamentos
Ġdese mbar
Ġpi ranha
Ġempur rÃ£o
Ġvest iu
Ġsum ira
ÃŃa ca
Ġhorror izado
Ġgor dura
Ġacompan hado
ĠPen so
Ġenco lher
Ġenter rada
ĠBow den
Ġmaravil has
Ġsoubesse m
Ġcri p
Ġfizesse m
ĠEmb aixo
Ġviz inha
Ġfranz ida
Ġreve laÃ§Ã£o
Ġpesada mente
Ġenlouqu ec
Ġdolor oso
Ġequip amentos
Ġnotur na
ĠHum vee
ĠLor de
Ġcic lo
Ġpaci entemente
Ġlamp ar
omin Ã¡vel
ĠWor th
ĠScho ol
Ġbarran co
Ġmene ou
mob ile
E F
V OR
b ador
c unda
g ai
j es
Ġd uros
Ġe nto
nt eiro
Ġm ig
Ġm Ã³r
Ġl Ã¢
Ġg ele
Ġma gra
Ġma tara
Ġest ud
Ġre man
ĠC le
ĠP Ã´s
ĠT ornou
Ġj ap
Ġat raÃ§Ã£o
ul ler
ĠF icar
Ġsob rado
ĠEs co
Ġmo des
Ġsent in
Ġsent em
ĠlÃ¡ grima
Ġch ic
Ġra iz
ĠI S
Ġimp ass
ch ester
Ġporta l
Ġdu ras
ĠCom itiva
Ġacontec em
Ġaf undou
Ġva gÃ£o
ĠAn di
Ġinc hada
Ġtar des
Ġforma va
id inho
rei ras
Ġrou bo
Ġz un
ĠAr len
Ġcachor rinho
Ġestacion ou
Ġperman ente
Ġcint urÃ£o
Ġcurios amente
Ġacompan hava
Ġrepet indo
Ġcus to
Ġdestru ÃŃda
Ġjus ta
Ġenro lada
Ġfurios amente
Ġintelig entes
Ġindi v
ĠSta cey
Ġflutu ar
Ġinespe rada
ow yn
ĠNan cy
Be verly
Ġradia Ã§Ã£o
Ġhorre ndo
Ġfemin ina
Ġoscil ando
ĠPrecisa va
Ġrecomp ensa
ĠOx ford
Ġsolen emente
Ġcois inha
Ġguitar ra
feliz mente
tod ista
ĠBach man
ĠlÃ¢ minas
D u
T RO
b ida
b ack
c ramm
f on
n ut
o este
s ter
z endo
Ġ *
Ġd il
Ġp ran
Ġp ilares
Ġs osse
Ġco va
ent asse
Ġcom ece
Ġb Ã©
ĠE di
ÃŃ metro
ĠM inhas
ĠD OS
ĠD ragÃ£o
ĠÃ ļ
ĠT enha
Ġfa tia
ĠR Ã¡
Ġter ei
it Ã¡rios
Ġex as
Ġtem por
Ġar ca
Ġpre gos
Ġfic assem
ig an
Ġcas co
Ġtra tor
Ġpu p
Ġgri taria
Ġpos itivo
Ġvis ÃŃveis
Ġso a
Ġcal cu
con segu
cion ou
Ġinc endi
Ġcham ara
if fe
Ġimpor to
Ġconhec emos
Ġcontinu e
ĠCar mo
ĠAr ran
bu la
Ã´n icos
Ġgo te
ĠMu ita
Ġtesta mento
Ġber ro
Ġexam es
Ġacei ta
Ġreconhec imento
Ġrepet idamente
Ġmachu cou
Ġjus tiÃ§a
Ġapren di
ĠPu ta
ĠVo ador
Ġresponde ra
ĠSE U
ĠOlha va
Ġfamos a
ĠConsegu iu
Ã¢nt ico
ĠAven ue
Ġfume gante
Ġcida d
Ġventila dor
Ġconex Ã£o
Ġrura l
Ġsurpreend entemente
Ġdesva ira
Ġreporta gem
Ġespeta cular
Jun ior
verando m
F ec
N N
Ġf an
Ġma te
Ġele mento
ĠO maha
ve la
ĠT ira
Ġen o
Ġpo t
Ġfo f
Ġpe gasse
Ġac esas
ĠV Ãª
Ġex cesso
Ġan g
Ġi di
ĠG oo
Ġsent aram
Ġcas sete
Ġcam as
ita das
Ġaqu ecimento
Ġtra va
Ġencont ram
Ġouv isse
Ġexp ressa
ĠEnt endi
ph y
Ġinc endia
Ġru bor
Ġsan itÃ¡rio
Ġant ec
Ġim undo
Ġposs uÃŃ
bi ri
ĠsÃ© culos
Ġpi pa
Ġamor te
ÃŃt ulos
ĠHolly wood
vin das
Ġind ist
Ġachar ia
ĠsÃ¡ bio
Ġcalc inhas
Ġpain Ã©is
Ġsobran c
Ġconfir mar
Ġgrav emente
Ġrosn ando
ĠSil mar
ingol fin
Ġcess ou
ĠDeix ei
Ġlamp iÃ£o
ĠJen kins
Ġenxu gou
Ġinterva los
Ġmaj or
Ġecon om
Ġgab inete
2 1
J ud
L ila
O wen
n ec
r r
er ou
Ġo cidental
Ġf ones
ha que
to dos
al hos
te in
Ġma pas
Ġas a
il s
ĠC rianÃ§as
Ġal t
Ġr icos
Ġj ura
Ġsa po
Ġpar do
ĠH on
ĠH icks
Ġesp essa
Ġar tific
Ġpre gado
Ġvi Ãºva
Ġnas cimento
Ġten sa
ut enÃ§Ã£o
ĠPo e
Ġescu tado
ĠDeus es
Ġsal s
Ġconhec era
ĠMar ie
Ġolha m
ine y
Ġfra tura
Ġmant ido
ĠTem po
Ġbrin cos
ĠEl den
vil hÃ£o
vido u
Ġsaco le
Ġata ques
Ġescon didos
Ġassass inos
Ġop Ã§Ãµes
Ġconven cÃª
Ġesfor Ã§os
Ġgas to
Ġapres entava
Ġviv ido
ĠPen se
Ġdescon cer
Ġsop rar
Ġinteressa ntes
Ġaproxima Ã§Ã£o
Ġaproxima damente
Ġbata ta
Ġproje to
Ġdespe da
Ġapren dido
Ġcrim es
ĠPens ilvÃ¢nia
Ġproduz indo
Ġvas ta
Ġdelica da
ĠDiz em
Ġdispos itivo
Ġfing ir
Ġconfor to
Ġimpro vis
Ġpercor reu
Ġexecu Ã§Ã£o
Ġtoss indo
ĠGold man
Ġreceb endo
ĠcÃ³ digo
Ġprotes to
ild ur
ĠSco tt
ĠrelÃ¢mpa gos
Ġconsequ Ãªncias
ĠHem ing
ĠFl ick
Ġaltern ativa
ĠfenÃ´m eno
igg ins
g entes
o den
ra t
Ġde mit
Ġs pra
Ġco gum
in gue
Ġf era
Ġes gan
da lha
ro w
ĠE LE
Ġem an
Ġl iso
Ġma gre
Ġest icar
Ġca ia
Ġca le
Ġre m
ĠM ol
ĠO correu
go le
Ġcon quis
Ġen x
ĠÃ© lf
ĠR iver
ĠJ os
ĠH orr
ĠF im
Ġcont inente
me ras
Ġpre ca
Qu er
Ġtam bores
Ġfal ha
ĠÃī owyn
orr indo
Ġgri taram
Ġob itu
Ġsub consciente
cha cho
rim entos
Ġesqu iv
Ġmer ec
Ġconhec Ãª
ĠAr ky
Ġtre chos
Ġref u
Ġespa Ã§os
ell er
Ġrev est
oo t
Ġmol hados
00 0
Ġadia ntar
Ġbei jar
Ġpertur bada
ĠES C
ĠES TA
ĠOut ras
Ġestra Ã§
ĠPens ando
Ġpude ram
Ġviz inh
Ġdesagra dÃ¡veis
Ġintens amente
Ġconsul ta
Ġdivert ida
Ġprog ramas
ĠTu rambar
Ġfant Ã¡stico
Ġreluz ente
Ġreci nto
Ġhabil itaÃ§Ã£o
Ra inbird
Bob bi
Ġdesconfor to
ĠpÃ©ss ima
Ġfral das
ĠvÃ´ o
ĠcÃ³s m
Ġtub os
ĠTommyknock ers
ĠGerar d
B E
I E
T rÃªs
d res
g Ãµes
h inho
l v
w art
Ġe i
qu ice
ou tro
da le
Ġdo bro
Ġpara das
Ġno iva
ĠA R
Ġna dar
ĠS tra
Ġca os
Ġre des
ĠC ass
ĠC randall
ĠO ri
Ġfa Ã§am
Ġat os
di ra
iv idades
he arts
ĠF ingolfin
Ġver ificou
Ġpro cur
Ġla biri
Ġto la
Ġcor ro
ĠEs fran
Ġmo ral
iz za
ĠsÃ³ lida
Ġtra ga
Ġman utenÃ§Ã£o
ĠW it
ĠW oody
Ġesta n
Ġdizer es
Ġro b
Ġro dar
Ġmel an
Ġrep leto
ĠK end
Ġleva ntava
Ġcol cha
Ġbra sa
pos s
Ġbal Ãµes
erv ou
Ġaber tamente
Ġor la
Ġmost ravam
ĠPer to
Ġcomple tou
Ġtermin ara
Ġfam a
Ġhum anidade
ĠRa iney
Ġras gar
ĠPar que
ĠMo ores
Ġfei tic
Ġlate jar
Ġev ento
AD OS
AN D
Ġvig as
Ġocas ionais
ĠcentÃŃ metro
Ġproje tando
Ġouvia m
Ġavis tou
Ġdup las
Ġris os
Po p
ĠX er
Ġplane jado
Ġincomo dar
Ġvid rados
Ġinde fin
Ġrecupe raÃ§Ã£o
ĠGil bert
Ġaga chou
Ġtranspor te
ĠMax ton
ĠApo ntou
Ġexerc ÃŃcios
ĠpÃªn is
ĠMiss iss
Ġdescri Ã§Ã£o
Ġesquele to
Ġfluores centes
ĠArk ham
Ġcompa c
Ġinsupor tÃ¡vel
Ġreman es
9 0
A chei
G AR
H H
P AR
T H
T ess
d ist
e Ã§a
p Ã³
x ei
Ġd anÃ§
Ġs ard
qu ilidade
nt Ã£o
Ġna vios
Ġpor tÃ¡
Ġma leta
Ġest udo
il Ã¢ncia
Ġou Ã§a
Ġal ca
Ġal fa
Ġdes mo
Ġpe dia
Ġac endendo
ĠR ubro
Ġent ravam
ĠH ull
Ġh emor
Ġsem i
ĠL estrade
at ivas
Ġpes ava
Ġtra Ã§o
Ġpou sar
ĠI Ã©
Ġman d
Ġgri tavam
Ġti que
las h
Ġcorre ia
Ġsub ido
Ġsub mer
Ġins Ã´nia
Ġcham pan
ĠNa cional
Ġsi renes
ĠDa qui
Ġia n
Ġpassa dos
Ġposs amos
Ġpis ar
Ġfer idos
Ġpassar inho
ilha da
Ġve ter
Ġli qu
ĠPer se
Ġaparec iam
ĠHar ley
Ġafas taram
Ġfar ei
Es te
ĠMo tton
Ġescon dia
Ġimedia ta
gh s
Ġeng enho
Ġvig ia
Ġcarta zes
Ġocas ional
ĠmÃ¡x ima
Ġobri gou
Ġpermit ido
Is to
Ġserv iria
Ġcorrente za
Ġestra gar
Ġcrim inoso
Ġfasc inante
gum as
ĠÃºm idos
ĠRes pon
Ġinde pend
Ġden so
Ġdefin itivamente
ĠSun light
Ġfrou xa
ĠMÃ© xico
Ġextraordin Ã¡ria
Ġrelax ar
Ġdila ce
Ġencren ca
ĠpÃ©ss imo
Ġremex eu
Ġpuse ra
Ġatras ado
Ġtroux era
ĠÃªx tase
Ġrig or
Ġescrav os
Ġbone co
Ġterremo to
Ġpsiquia tra
Ġmax ilar
Ġspra y
ĠEsfran galhado
8 0
E las
K ATIE
L iz
S ub
u das
Ġd ur
Ġp isa
qu ista
Ġm eios
Ġco iote
Ġf est
ei re
Ġg estos
ec ro
Ã³ ticos
Ġca ntou
Ġre cip
ĠC AS
ĠO atley
Ġdis tan
Ġdi f
ido r
Ġat ividade
Ġter Ã£o
Ġent ramos
Ġpr osa
Ġle tal
Ġcont ras
Ġsent iram
Ġcer vo
ĠU p
Ġam endo
ĠcomeÃ§ amos
ess or
Ġpu d
rado u
Ġtor cida
Ġrep uls
Ġcl os
ĠK ir
Ġlemb ravam
Ġsub i
Ġtran cou
ĠPo int
Ġcria dos
ib ras
Ġun idade
Ġcan ela
Ġapo iando
Ġapro vaÃ§Ã£o
Ġergu idas
Ġau ro
Ġmost rado
Ġcama das
Ġrece bia
De tetive
Ã´n imo
Ġescre vera
RA S
Ġagu ard
Ġsussur rando
ĠFrank lin
ĠHom e
Ġhouvesse m
ĠSer vi
Ġarm Ã¡rios
Ġreco l
Ġsap at
ÃŃb ulas
vie w
Ġmencion ado
ĠFo da
RI O
Ġliber tar
Ġdispos tos
ĠBran dir
Ġgrav idade
ondo lin
Ġcere al
Cont inu
rÃ© st
Ġrecebe ra
ĠavanÃ§ ado
Ġintermin Ã¡veis
Ġhipnot izado
Ġexerc ÃŃcio
Parec ia
Ġparal isa
Ġformul Ã¡rio
ĠcatÃ¡ logo
Ġcomanda nte
Ġcabel udo
ĠbÃªn Ã§Ã£o
ĠThÃ© oden
B RO
D rew
K e
L em
T U
l iv
v inha
Ġd anos
Ġe va
Ġc Ã£
qu eira
ar ei
Ġo deia
Ġt ram
um way
Ġf Ã³rum
le nt
va dos
Ġcom em
gu nd
ĠA le
am eric
te ca
inha da
ĠN OS
ĠB ry
Ġpr ud
Ġver Ã¡
Ġesp l
ĠL issa
ĠG ente
Ġres tantes
Ġlu to
ina Ã§Ãµes
ita ntes
pe ta
Ġtra pal
Ġdeix em
ĠW ater
for t
Ġsol tei
Ġexp ressar
Ġtom bou
tura is
du in
Ġtrabal hou
cha u
ĠIs ildur
Ġvia jando
ide rando
Ġfer reiro
Ġpux ava
bro ok
Ġcomple xo
Ġfra queza
Ġcarre gou
Ġpi ntadas
ula nte
Ġvest ida
Ġvest ÃŃbulo
Ġfe de
Ġprote gido
Al go
Ġpermit ia
Ġprome tido
Ġdiscu t
Ġinic ia
Ġconclu ir
Ġpren dendo
Ġsepara r
Ġproc ess
Ġrepu gna
Ġ195 0
ĠSh umway
Ou viu
ind ros
ĠMA IS
Ġprog resso
ĠSar uman
Ġimprov isada
Ġtol ice
Ġinje Ã§Ã£o
ĠalÃ§a pÃ£o
Ġarrem ess
Ġcortes ia
ĠVen ham
Leva ntou
Ġaposentado ria
Ġsufoca nte
Ġchoram in
Ġaspira dor
Ġnarra tiva
Ġperson alidade
Ġess Ãªncia
f Ã¡
m ers
u ar
os idade
Ġco que
Ġse cando
ro le
Ġpara b
Ġl Ã©
te ram
Ġma taram
Ġest Ã©
Ġsu ado
Ġr ÃŃg
Ġfa brica
Ġper desse
ĠR ath
Ġent enda
Ġap elido
Ġle ra
it Ãª
ĠH en
Ġto alhas
ce dores
ĠG ro
Ġfor mal
ĠSe a
ua Ã§Ã£o
Ġencont rados
Ġgaro tÃ£o
ĠK emp
Ġbom be
Ġson hou
cha va
cer to
Ġsi nta
fa zer
mel ia
end entes
Ġbri lhou
Ġperce besse
Ġag itada
gre n
ĠGe ary
RA M
ĠEl la
ĠSu p
ĠFa le
Ġassus tar
Ġado raria
Ġinclin ar
chu va
Ġgol pes
dem ia
Ġdesper tado
Ġdou radas
Ġtemp lo
ĠGra y
Ġrecor dava
Al guns
Ġatra pal
Ġbarra ca
ĠAbra ham
Ġirri tada
nd il
Ġdireto ra
rag Ãµes
Ġfranz indo
Ġpan ela
Ġcoch ilando
Ġpoltro nas
ĠBran co
Ġcenta vo
Ġacen ando
bec ca
Ġprodu to
Ġtec n
Ġarti fÃŃcio
Ġpad rÃµes
ench ick
GO RA
Ġaut Ãªnt
Ġuiv ando
Ġesgu ic
Ġavalia Ã§Ã£o
Ġves pas
Ġindifer ente
Ġaze do
ĠÃŃm pe
ĠlÃ¡p ide
Ġmatem Ã¡tica
Ġnam ora
Jul ia
ĠMounta in
Ġclos et
J A
g Ã¢ncia
v ico
Ġe is
Ġa fer
Ġp iedade
Ġde bil
er y
as sa
Ġn us
Ġt ona
Ġf ase
Ġse ta
Ġes guei
da ram
Ġb ir
ĠE as
Ġno tÃ¡vel
ĠA Ã§Ã£o
ĠA onde
so m
Ġca Ã§ador
ĠO bel
ĠT ente
Ġen xa
Ġj arra
Ġsa que
ca ntes
Ġin er
di tos
ob ili
Ġan dado
ce p
ĠestÃ¡ gio
lo tte
at endo
Ġpa vim
Ġcome ter
Ġra Ã§Ã£o
bo to
ti Ã§o
Ġesta duais
est ic
ĠK illian
Ġsub me
ĠPe ga
cha m
Ġlo como
Ġun idas
cer ia
Ġliv raria
Ġhist eria
ÃŃn iel
Ġad entro
Ġtro co
ed h
Ġsou ber
Ġobs cura
ven il
ĠAr n
ck y
Ġhum anas
Ġras tre
Ġagu arda
ĠIn n
Ġlocal izaÃ§Ã£o
eno ve
ĠEx ist
Ġmem bran
Ġofer ta
ĠDen ker
Ġsatis fat
ĠDor rance
Ġsurpre ender
Ġador Ã¡vel
Ġabaix ada
Ġalar mado
Ġbil he
Ġprome to
Ġran gido
Ġdificul dades
Ġdespre ocu
ĠTa co
Ġlin Ã³leo
cl us
Ġdet Ãª
Ġ196 3
ĠPas cow
Ġdan inhas
su ce
Ġsobren ome
ĠHer b
ĠHarris on
parec ia
ĠBrig ham
ĠWy zer
Ġpresta ndo
ĠLiv ro
Ġlix Ã£o
ĠLud low
ĠhelicÃ³p tero
Ġmilha ral
Ġmonit or
ĠGilbert son
Ġpud Ã©ssemos
C urt
V irou
p iraÃ§Ã£o
v est
Ġde para
qu al
nt idÃ£o
Ġco elhos
Ġv il
Ġse d
Ġes gueira
ha vam
Ã¡ ticas
Ġb elos
Ã© ias
al guma
de ir
Ġno jo
Ġg Ã©
ÃŃ gio
Ġas tro
ĠP ub
ĠM eta
ĠO lhos
po tente
ĠT irith
Ġdi Ã¡
Ġpo eire
Ġac ende
Ġac erta
Ġpro cla
Ġpro posta
Ġho lo
ĠG ondolin
ĠestÃ¡ bulo
Ġparec eria
Ġmo ve
Ġfor mou
Ġmor ra
Ġpra tic
ter ling
Ġpergu nte
Ġpen d
Ġmar tel
rem es
Ġtent Ã¡culos
Ġdor mente
fa x
Ġaju dado
Ġtri lhas
Ġvoltar em
Ġce gos
Ġprecis Ã£o
Ġdese mp
Ġespera ra
ĠSu e
Ġempur ra
Ġmon o
Ġnecess ariamente
Ġcomer ciais
Ġdiver sas
Ġon ÃŃr
Ġhorror izada
Ġdesper di
Ġauto ma
Ġcob riam
Ġfl ocos
ĠTim my
Ġcres ciam
Ġtempesta des
Ġeleva Ã§Ã£o
ĠperÃŃo dos
Ġincr Ã©
Ġajo elha
ÃŃg ios
Ġviol Ã£o
ĠLon g
Ġderram e
Ġdel ine
Ġevid entemente
Ġespor tes
Ġproteg Ãª
Ġproteg endo
Ġfin anc
ĠEncont rei
Ġcil indros
Ġconstran gido
Ġrom per
Ġirra cional
Ġocorre ra
Ġempoeira do
ĠlÃº gu
Ġflan ela
ĠGib ney
ĠRidge wick
Ġlampe jo
Ġchei rando
Ġendire itou
ĠCompan hia
Ġinterroga tÃ³rio
Ġtrist es
Ġorgulh oso
ĠXer ife
C ur
P hil
d Ã¡ria
g ger
l ton
p endente
r ico
Ġo vel
an ia
ent Ã£o
Ġb esta
de e
im ar
ĠA ver
ĠS tor
Ġma i
ĠM in
ĠM EN
Ġal turas
ĠT ire
Ġen cob
Ġter emos
Ġle ntos
ĠF ilhos
Ġab riam
Ġab oto
Ġcar go
Ġalg em
Ġpens asse
Ġche ques
Ã³s itos
Ġjo gÃ¡
Ġpos icion
Ġsol idar
Ġvis tas
Ġvis cos
ĠÃ¡ guia
Ġten dÃµes
Ġba cia
Ġus aria
Ġpres tou
por que
Ġbri lhar
ed ro
Ġdorm i
dou ro
Ġpis ando
lan des
ĠmanhÃ£ s
ĠcaÃŃ rem
Ġapar elhos
ĠRe ed
ĠvÃ¡ lv
Ġfra cos
Ġpal ito
Ġesca p
Ġrela xou
ĠMc Donald
ĠSte ff
Ġlimp os
ona ve
Ġconven iente
Ġauto estrada
TO U
Al bert
Ġqueim ou
Ġabaix ar
Ġsuf ocado
Ġigno rar
Ġrelu tante
Ġ198 0
Ġsobreviv Ãªncia
Ġperm ite
Ġinvesti gar
Ġacon che
Ġsequ Ãªncia
Ġexc ess
Ġenfi ei
Ġesva zia
Ġfuz i
Ġfuz il
ust ria
ĠCl ut
Ġente dia
ĠDro ga
Ġcorpu lento
Ġauro ra
H ow
I Z
O lha
c tion
u nto
Ġ q
Ġde ns
Ġco leira
es el
Ġf eria
Ġf Ã³rm
Ġcom Ã©rcio
al os
Ġdo nos
el ar
Ġl es
ĠA gu
so me
Ġma tasse
Ġest endida
Ġre gulares
ĠC D
ĠC Ã¢mbio
lh em
Ġdi ta
Ġen ri
Ġj atos
Ġat i
Ġac he
Ġle is
be e
Ġver tic
Ġla tido
Ġla vado
Ġha vendo
ĠEs pecial
ig am
ĠDe v
rou xe
Ġir landÃªs
Ġbo let
Ġro xa
Ġvis ivelmente
Ġtran quilidade
Ġbal dio
Ġesqu ad
Ġacredi tavam
Ġestran he
ĠHa w
Ġbat iam
Ġim inente
ĠSa la
Ġtro cando
Ġescri tos
li quei
lin ou
ĠMor ia
ĠCar olina
Ġdesaparec e
Ġdescob re
ĠRo verandom
ins more
Ġgan hava
Ġesca daria
ĠFa zer
endia m
Ġestre itas
Ġsussur ros
Ġber rava
Ġsurg indo
ĠEx p
Ġfuma va
Ġaba lado
Ġmalu cos
ĠPat ty
Ġjul gou
Ġzumb indo
Ġcontor ceu
ĠPu xou
Ġproduz iu
Ġsuf ocar
Ġatira dor
Ġvapor es
ĠEscu ro
ĠFe deral
ile ad
Ġlas ca
ĠmetÃ¡ lica
Ġgl obo
Ġestabe lec
ĠChev y
Ġanal is
Ġemoc ional
Ġamas sada
Ab riu
Ġhemato mas
Ġarregal ou
Ġpoten cial
Ġmob ÃŃlia
Ġengre na
Ġdign idade
Ġchampan he
6 7
C la
F al
N e
P olly
V I
f it
i bra
t us
v ente
Ġde forma
Ġco lhei
re te
gu Ãªs
Ġda tilo
co ra
Ġg la
Ġg im
ĠP ress
ĠM emorial
ran go
Ġme tr
ĠT ele
Ġdes inte
Ġen dure
Ġj Ãº
ido res
ĠR oc
ĠF ro
Ġto nto
Ġi ronia
ĠL as
ĠG ilead
at if
Qu al
ĠEs cri
Ġparec idos
Ġpa us
Ġam ei
Ġam istos
Ġcomp aixÃ£o
ti te
per im
Ġsol idÃ£o
Ġcal deira
Ġtent aria
ke ag
ba teu
Ġins inu
ĠEm pis
ĠCo ggins
Ġmer ca
vida des
Ġrec entes
Ġapar iÃ§Ã£o
Ġfar ra
Ġempur rÃ¡
Ġsusp enso
Es tavam
Ġfantas ias
Ġreun iu
Ġenvol ver
ĠlÃŃn guas
ĠDen ise
TO N
Ġsurpre ende
Ġalu gado
Ġazu le
ĠWill ie
sem pre
ĠDia bo
ĠOr ris
Ġdolor osa
Ġcro co
Ġfrou xo
Ġinsp iraÃ§Ã£o
Ġescul turas
Ġcic l
Out ro
Nenh um
Ġassal to
ĠabenÃ§o e
Ġidos a
Ho dges
Ġdescal Ã§os
Ġfrust raÃ§Ã£o
ĠpÃª lo
Ġprost itu
Sil Ãªncio
Ġdenta dura
ĠCarmo dy
Ġespl Ãªn
L a
P u
S tan
W endy
e b
l n
n em
z ier
Ġ ramos
Ġd ragÃµes
Ġe reto
Ġa gou
Ġp icar
Ġc ume
qu eiros
nt ura
Ġf ed
Ġv endido
le e
Ã§ aria
se ira
ĠA bri
am ba
ĠS tu
Ġest resse
Ġca ntavam
ĠN ÃŃniel
ĠC Ã©us
ĠP ior
ĠD os
ĠD insmore
Ġat endimento
Ġmu ti
Ġan jo
Ġi le
at s
Ġab risse
Ġmo ram
iz ara
indo r
pe lada
Ġtra pa
Ġfal tando
oca va
Ġgri tado
Ġro dada
Ã¢n icos
Ġcu b
Ġba bos
Ġaf eta
Ġdor me
Ġpol u
Ġgos tado
Ġag indo
Ġcrian cinhas
Ġacor de
ĠOu Ã§a
ĠMor tos
ĠLe ve
ĠRe p
Ġrece p
Ġpal estra
tÃ© rio
ĠIn felizmente
ĠCas arÃ£o
com un
bar u
Ġguarda da
Ġu sei
Ġu ivos
Ġexplo dindo
Ġcul to
ĠChe guei
Ġmurm urando
Ġdesen ca
Ġsacu di
ĠMel inda
ĠMel issa
Ġhor rip
Ġmoc inha
pro vavelmente
Ġtrail ers
ĠAca bei
ĠConsegu i
Ġprodu zia
Ġcintila nte
ĠTar taruga
Ġtoss iu
Ġdistra idamente
Ġexci tado
Ġinte lec
Ġrecla mar
ĠMÃ© dio
ĠDer went
ĠDis ney
Ġgrotes co
Ġfemin ino
Vol tou
Ġconsta ntemente
Ġchin elos
Ġcampe Ã£o
ĠFA VOR
Ġencarre gado
ĠNÃºm enor
Ġembrul hado
Ġtren Ã³
Ġcidad Ã£os
J e
P arou
c esse
h ist
Ġe go
Ġa Ã§ou
Ġde van
Ġn en
Ġo tim
Ġt elas
in er
ia nas
le ntes
im es
ĠS cramm
Ã³ rien
Ġest ron
Ġre daÃ§Ã£o
Ġele vou
Ġele mentos
ĠC e
ĠD iv
Ġou s
Ġal de
us keag
Ġr ÃŃ
Ġpo ente
Ġmu ros
ĠV ida
ram ado
ĠF ir
ĠG er
ĠDe p
Ġfor Ã§ando
ist ente
Ġcha veiro
Ġimp el
Ġimp on
Ġjo gavam
Ġesta Ã§Ãµes
ĠK itty
Ġleva ntada
Ġlemb rasse
Ġaf li
Ġnum er
Ġban das
Ġant igu
Ġgos ma
Ġacredi tasse
Ġfilho te
Ġgra xa
Ġesquec e
Ġsensa to
Ġesca pado
Ġcarre ga
Ġgo verna
Ġgru d
Ġtira ram
cios as
cios amente
EN S
Ġlim itou
Ġfran camente
Ġcint ilando
Ġmem Ã³rias
ĠLa w
Ġprepara va
ise tas
Ġparecer em
ok s
ĠNew t
Ġengra Ã§a
stitu to
Ġanima Ã§Ã£o
Ġanda m
Ġconv ulsÃ£o
Ġespalha va
Ġfasc ÃŃnio
Ġpersegu iÃ§Ã£o
Ġexperim entou
Ġpint uras
inco ln
Ġdecla raÃ§Ã£o
ĠHam ey
ĠalcanÃ§ Ã¡
Ġviole nta
Ġenchar cado
DI O
Ġsorris os
ĠRam ona
Ġoscil ou
ĠtÃ©cn ico
gues es
ĠSoc iedade
ĠFei xe
Ġfral da
ĠToo key
ĠcontÃŃn uo
av y
Ġtempe ramento
Ġresf riado
Ġmand ÃŃbulas
6 0
A ce
D ER
E rgu
R Y
S al
T EM
n um
p en
t um
t to
t eio
t ino
Ġd iriam
Ġde vÃŃamos
qu im
Ġco lado
in Ãªncia
Ġv endendo
re g
en ham
ha t
ĠA GORA
Ġpor cos
ĠC ir
ĠC Ã©u
ĠP ur
Ġal inha
Ġme tra
Ġr Ãºst
ĠB ara
Ġac eso
ci entes
Ġent al
he ta
gar re
Ġla tidos
Ġla tindo
Ġres va
ĠEs queÃ§a
Ġpa tam
aix a
Ġmor rem
Ġgran ito
Ġprim or
Ġverdade iras
esta de
Ġaf iada
Ġban quete
Ġacha mos
Ġsal Ãµes
id inha
Ġestou rou
Ġaju daria
Ġobs cure
ven ir
Ġemp rÃ©st
Ġprecis amente
Ġesquec idos
ĠRo ta
sur de
Ġinf la
Ġespec tro
ĠSu baru
Ġsusp ens
bol t
mon s
Ġclar os
ÃŃr culo
Ġpendura r
ĠCor cel
Ġreconhec ia
Ġvig ilÃ¢ncia
ĠGra nt
Ġrecor dou
Ġrecor daÃ§Ã£o
Ġocas ionalmente
Ã³l vora
ĠBra dy
Ġlam beu
ĠVol tei
ĠRus k
ĠBre thil
ĠWal l
Ġindic ou
Ġsuger ir
ĠJer sey
Ġpren dia
ĠÃŃn dios
Ġgera Ã§Ã£o
Ġmos qu
ĠinÃº meras
Ġfri eza
ĠPergu ntou
Ġenso pado
ĠPr ÃŃncipe
Ġpron unciar
Ġsupos iÃ§Ã£o
Ġreb anho
Ġinespe radamente
ĠSom bra
Che gou
Ãºst ia
Ġpod res
Ġinstrum ento
Ġvelh inho
Ġcaptura do
Ġguardana pos
Ġinflu Ãªncia
ĠalienÃŃg ena
ĠUl mo
ĠGw indor
ĠNig gle
Ġconvin cente
Ġsobranc elha
ĠKend uskeag
ĠÃŃmpe to
Ġestranhe za
L O
T OR
Ġd ano
Ġa ra
Ġa ver
Ġp im
Ġc lass
Ġs ara
an gue
ĠE ris
ĠA QUI
oc ra
Ġca iria
ĠP RE
Ġdi esel
Ġen surde
ĠB EM
ma das
Ġfa ti
ĠJ ess
he im
Ġle Ã£o
Ġex ec
Ġh Ã£
Ġesp inhos
Ġla de
ĠL incoln
Ġcar ru
Ġvol to
pa pÃ£o
ita m
ĠU lt
Ġmor ria
Ġcomp licado
Ġir rompeu
Ġgri pe
fer o
Ġexp el
Ġer va
Ġsim ilar
ĠMar gar
Ġguar di
mes a
ĠTer min
Ġarran hÃ£o
ĠLo t
Ġhum ilha
Ġid Ã©ias
Ġreg imento
ula dos
Ġempur rava
Ġagar ra
Ġdeci de
Ġprov ocando
ĠPa lav
Ġsacu dia
ĠLÃ¡ grimas
Ġincl inava
Ġpei tos
Ġapan hador
Ġans iosos
Ġtraz Ãª
ĠSal Ã£o
Ġprefer ir
Ġafir mar
Ġtelefon ou
Ġincomo dava
Ġing les
Ġencara va
Ġpenet rar
Ġtorre nte
Ġher deiro
Ġestrem ecer
Ġaliv iar
mu chacho
ĠLon dres
Ġgentil mente
EC H
Ġcolor ido
ĠnÃ¡ use
Ġpente ado
Ġirra dia
Ġconfro nto
Ġtric iclo
Ġestima Ã§Ã£o
Ġdepo imento
ĠFris ky
Ġesplendo r
ĠProvid ence
ĠGalad riel
ĠFing on
Ġartific ial
Ġprocur Ã¡
Ġveter inÃ¡rio
ĠObel isco
ĠjÃº ri
Ġmerca dinho
2 8
< <
C E
G ra
K urtz
T erry
V iu
e ia
g remes
h in
u ado
u tas
Ġp ico
nt Ã¡
ia ram
ta z
Ġes far
la te
Ġcom Ãª
ro d
Ġb if
Ġdo eu
ĠA pre
ĠA grade
Ġg esso
te ou
ol as
Ġca em
Ġca gando
Ġca var
ĠN aturalmente
ĠC andy
ĠC ross
Ġcon g
ma vam
Ġle nda
ĠH enchick
ĠF uz
me di
at her
Ġab elha
Ġass entos
Ġsent enÃ§a
Ġcar bon
ĠDe pressa
Ġcam isetas
Ġcome tido
Ġvo ava
ĠI nt
Ġgran izo
Ġvolta mos
Ġso tur
Ã¢n da
Ġsub Ãºrb
ns mouth
bal l
Ġtrabal hado
Ġsur rado
Ġfec ho
Ġhist Ã©rica
rim os
Ġfun erÃ¡ria
Ġacredi tei
ĠCo le
Ġcho cou
Ġconf usos
Ġtro Ã§o
Ġapo ntei
Ġcoloc aram
ĠMa ura
vol unt
Ġarma dos
Ġinf lex
Ġtre ze
Ġsuper ficial
Ġquad rados
Ġale at
ĠSte ven
Ġsusp ira
Ġfuncion amento
Ġrev irou
bil ho
Ġnecess idades
Ġescorre gando
Ġating iram
solu tamente
Ġenvol vendo
Ġassist ia
Ġdisp aro
Ġbara lho
Ã¢ne os
Ġsar jeta
ĠVo z
Ġenferm eiras
ĠBet h
Ġlad rÃµes
Ġtrabalha vam
ĠhÃ¡b itos
ĠalcanÃ§ ado
ĠCons igo
ĠSar gento
win der
Ġgris alhos
Ġapaixon ado
Ġproib ido
Ġensangu entado
Ġrez ando
Ġpuse ram
Ġfura cÃ£o
ĠJas Ã£o
Ġlus tros
ĠRodo via
Ġsau dade
Ke vin
Ġautoma ticamente
F ar
G E
V Ã¡
g osto
j aria
n es
p Ãµes
p iro
Ġp se
Ġp onde
Ġn ut
Ġo per
in ga
ou gh
le ra
ent almente
Ġb ist
ic aram
Ġl anÃ§ava
Ġda da
ĠA mon
Ġg estic
ĠS id
ĠP icker
Ġal Ã§as
Ġr ica
ĠT ER
ma ntes
Ġpar quinho
Ġin so
Ġap al
Ġver sos
Ġver mes
ce to
ĠG lor
Ġcor rido
at as
Ġmo la
Ġmo tiva
iz Ã¡
Ã¡s ticas
Ġpes tane
ter os
Ġdia gn
Ġfazer em
Ġmar cando
Ġdent re
Ġcria da
Ġsur ge
Ġfec hÃ¡
Ġcho cada
Ġgra to
Ġconhec em
Ġfi vela
Ġjan el
ĠÃ³ t
Ġquis era
Ġemp un
bu ck
Ġpreocu p
Ġcap tou
Ġcru a
Ġmant Ã©m
Ġmant ive
Ġesca la
Ġcuida va
ĠNe gro
Ġapa garam
Ġagar rÃ¡
Ġlimp as
Ġconcor dei
Ġ3 8
Ġarras tada
Ġgarra f
Ġperfei Ã§Ã£o
Ġanterior mente
Ġconside raÃ§Ã£o
han k
Ġabra Ã§ando
Ġhor ta
Ġbase ado
Ġcus ta
Ġsilen cia
ĠchapÃ© us
ĠJun e
Ġpasse ar
Ġbara tos
Ġencolh ido
Ġconcent rado
Ġassomb rada
Ġincomo da
Ġala ranja
Ġperf ura
Ġquant ia
Ġaliv iada
Ġgrav es
ĠCou nt
ĠlanÃ§ ado
ĠdanÃ§a vam
Ġpermanec eram
Ġprotes tou
ĠMon st
Ġimpe diu
Ġaconse lhou
Ġbronze ado
Ġdesconfor tÃ¡vel
Ġsupe rar
Ġbarbe ar
Ġrepou so
Ġembria gado
Ġofus cante
pergu ntou
Ġassegu rar
Ġtrom be
Ġconfi Ã¡vel
Ġgaivo ta
Ġmens tru
ĠEnf iou
Ġvizinh anÃ§a
Ġaguard ando
Ġtrapal hÃ£o
Ġholo fo
2 6
O bri
P are
S tar
c in
d Ã©
h ue
i um
i ntos
n g
p int
r tle
v ira
Ġt ing
Ġf estas
re iros
Ġse cado
Ġdo entes
Ġpara vam
ĠA A
ĠA O
ĠA mo
Ġest ira
Ġca is
Ġre gu
ĠP Ã¡s
ĠP osto
ĠM ilo
ĠO K
Ġr iam
go a
go od
ĠT ipo
Ġdes gas
Ġen re
Ġpo eta
Ġpar o
ens en
ĠF i
Ġesp atif
ĠG l
Ġab ismos
ix as
Ġcas cos
Ġtam po
Ġsab Ã£o
Ãªn ico
Ġtra iÃ§o
Ġra jadas
Ġimp lor
Ġgran dalhÃ£o
Ġentre gando
Ġti re
Ġbo te
ber na
Ġrep rim
Ġrep leta
Ġcu ide
Ġba b
Ġba le
Ġru giu
Ġacredi tando
Ġav ista
Ġenf iadas
ĠsaÃŃ mos
Ġbaix ando
ĠCon f
Ġdescob risse
mar t
ĠChar lotte
Ġespera ria
Ġdesa boto
ula va
Ġale mÃ£o
Ġbrilha ram
Ġestacion ados
Ġlate jando
Ġlate java
Ġmist Ã©rios
Ġnerv osamente
Ġsul cos
Ġdesper ce
ĠBa ta
ĠDen nis
Ġvig ÃŃlia
Ġdig no
ĠBro wer
Ġamp l
Ġregist rar
Ġenro lou
Ġadorm ecer
ĠDar k
Ġexter no
Ġqueima va
ĠRes postas
ĠÃŃn gremes
Ġgira vam
Ġhon esto
Ġrefer Ãªncia
Ġinfant is
Ġmole que
ĠlanÃ§ amento
Ġful gor
Ġracha duras
Ġconfer ir
Ġestive ram
Ġromp eu
ĠtÃ©cn ica
Ġmoder na
kn ess
Ġsecun dÃ¡ria
Ġconsequ Ãªncia
Ġacid entes
Ġemper tig
ĠPon ha
Ġlist ras
Ġconsist ia
Ġmete or
Ġtrip ulaÃ§Ã£o
ĠSide winder
Ġvagab undo
Ġavali ar
Ġreaparec eu
Ġmunic ÃŃpio
Ġmacha dinha
Ġeter no
Ġdiagon al
Ġgele ia
Ġestud ando
Ġang Ãºstia
Ġesgan i
Ġpatam ar
ĠPicker ing
2 4
B L
p idos
Ġ Q
Ġp anos
Ġp Ã³lvora
qu eio
Ġn ÃŃveis
le tos
to ne
Ġem bo
ĠS ec
ĠS at
ĠS na
ĠS terling
Ġma da
Ġest il
ĠM oss
ĠT ill
Ġsa pos
Ġsa cer
Ġac ess
Ġac enderam
ĠR em
ga Ã§Ãµes
ĠH os
ĠF u
Ġex clus
Ġser mÃ£o
ĠL an
ĠL im
Ġmo vido
Ġcar ran
Ġsobre carre
oca da
ĠW om
ge tte
ĠPor ta
Ġencont re
Ġverdade iros
Ġba tom
Ġcons terna
cion ar
Ġtran se
tal ho
Ġsal taram
Ġesqu el
ntas ma
Ġim potente
ĠTo zier
Ġapo iar
ĠpÃ´ nei
Ġor c
Ġpul mÃ£o
ĠJa ya
Ġpegar ia
Ġcheg assem
ĠIn nsmouth
Ġrecu perou
Ġil us
bil idades
uro ra
Ġliga dos
Ġbei jos
Ġdesper ta
ĠCal vin
Ġocu par
ĠAm mi
Ġrisa dinhas
ĠBom ba
ĠBro ad
Ġinteressa va
Ġpreocupa dos
Ġfria mente
Ġarrep ender
Ġamarela da
Ġfasc inaÃ§Ã£o
Ġsoc iedade
Ġsar c
ws ki
ws hank
Ġreve lado
ĠÃ¢n imo
Ġresponde ram
Ġinst Ã¡vel
ĠDescul pa
ĠSha wshank
Ġderre ter
Ġapla ud
Ġdesf ila
Ap enas
ĠBel la
ĠÃ³b via
II I
ĠColo quei
Ġmoment Ã¢nea
Ġracha dura
ĠÃ³rb ita
Ġensangu entada
Ġempol gaÃ§Ã£o
ĠnÃŃt ido
bl ung
Ġsubterr Ã¢neo
ĠNÃºm ero
Ġlat iu
Ġensola rado
Ġforta leza
ĠContinua va
Ġnub lado
Ġtrag Ã©dia
Ġimpass ÃŃvel
J ordan
P assou
R achel
T AS
V o
a quele
d Ãªncias
g assem
m entar
u tos
v idade
Ġp izza
Ġc Ãº
nt le
Ġm Ã³vel
Ġse car
le mb
em s
Ġdo ida
Ġpara ÃŃso
Ġest icado
Ġre bate
ĠO lho
ran jado
po de
Ġpo Ã§as
Ġpar ti
Ġac res
Ġac ion
ĠV Ã¡rios
ĠJ on
Ġver ific
Ġcont endo
Ġla tÃ£o
Ġha ll
ĠEle ndil
Ġass inar
Ġpes car
Ġcha mo
ĠI ow
Ġte atro
Ġne vas
Ġacontec eram
ĠK ash
ĠK asp
Ġinter fone
Ġcham ei
ĠNo el
Ġson har
Ġson hador
bra k
car ou
Ġcan ais
pres sÃ£o
Ġci Ãªncia
Ġcho ver
Ġesco va
Ġag itou
tu la
Ġtro cou
Ġacor dava
Ġemp al
Ġfer ra
Ġlou ros
fei tura
ĠrÃ¡p idas
Ġmant imentos
ĠsÃ© timo
ĠCla wson
Ġcava lheiros
Ġapa gadas
ĠCas telo
Ġgru dados
Ġestu fa
Ġgol es
ĠpÃ¡l idos
Ġdec live
Ġeng or
ĠUn idade
Ġofer ecendo
Ġacompan hÃ¡
Ġenter rados
ĠCha p
Ġarrep ios
ipp i
Ġadm irar
ĠJun ction
Ãĩ O
Ġcontemp lar
ĠLau ghs
Ġofe gando
Ġverdadeira mente
Ġmanda ra
ĠespÃŃ ritos
Ġvent re
Ġunivers itÃ¡rio
Ġleg ista
Ġaus ente
Ġarrum ado
Ġraste jar
ĠEncont rou
Ġchar uto
Ġbaru lhos
Ġreta guarda
lm ers
Ġdivid ir
Vol tei
Ġrespira va
ĠGol lum
Ġantiqu ado
ĠLey den
ĠDi rig
Ġnause ante
Ġdesfi le
Ġamost ras
Ġmorib undo
Ġape tite
ĠDoug las
Ġeti queta
Ġunifor mes
ĠPÃºb lica
ĠIow a
ĠKasp brak
C loto
D ussander
I G
M an
P edro
S uas
c eiros
w ak
Ġ <<
Ġo cular
Ġt ens
va nte
Ġcom an
Ġb la
Ġpara m
ĠA urora
Ġna tal
Ġna dando
Ġpor t
ÃŃ cula
ĠC um
ĠP ay
ĠD am
ĠD ill
Ġme ga
ĠT ha
Ġen ras
Ġj Ã³
ma z
Ġmu dava
ĠV im
ras to
ĠH ei
ĠH OM
ĠF ru
Ġh aste
Ġi tal
Ġcas ou
Ġcas ulo
Ġlu tava
ina gem
Ġhom icÃŃdio
Ġint riga
Ġte im
Ġso ando
Ġmar es
Ġsom a
Ġob teve
Ġmal ign
Ġpai rando
Ġins tal
Ġins pec
du la
Ġson eca
Ġacha ram
Ġbol ha
Ġcontra iu
fa lante
Ġimpor taria
Ġconf ia
one y
ĠMa blung
Ġve ado
Ġdesaparec ia
Ġcap as
Ġlig eira
ifica va
Ġapa gando
Ġvest ÃŃgios
vil has
Ġdist rito
Ġsin ce
Ġadia ntava
ĠrelÃ³ gios
Ġobserva vam
ler ke
Ġjor ro
Ġmin ia
ĠCha lmers
ner man
ĠrevÃ³lver es
Ġcoloca da
Ġrecus ava
Ġpenet rou
ĠÃ¢n gulos
Ġenferru jados
Ġmec has
Ġmus ical
ĠMun shun
Ġatro pel
Ġpermanec iam
ĠcÃ³ ce
Ġestendia m
Ġcamp us
Ġextraordin ariamente
Ġzan gada
Ġestuda nte
At rav
Ġmalig na
Ġenvenen ado
Pro vavelmente
Ġautom Ã³veis
Ġcampe onato
ĠVerdade iro
Ġplen amente
ĠtÃŃp ico
Ġassin atura
ĠtÃŃm ido
ĠHist Ã³ria
ĠhistÃ©r ico
Ġbibliotec Ã¡ria
media tamente
ĠatÃ´n ito
ĠportÃ¡ til
ĠRath bun
edh ros
Ġcolhei ta
! ...
" )
B A
J albert
N um
T ed
V O
g Ã£os
j um
j ard
z el
Ġm ito
er ve
Ġco unt
um ÃŃnio
Ġf raÃ§Ã£o
Ġv ÃŃcio
Ġv Ã©u
Ã§ ura
Ã§ amos
ĠA pa
co lh
so ta
ĠS he
Ġma quin
ÃŃ ne
ĠC el
ĠM et
ĠD ali
Ġal ter
ĠO lhar
Ġdis cor
ĠT irei
Ġdes in
Ġen ce
ĠB rid
Ġat arra
ĠG ates
Ġcome teu
ĠMas s
Ġcomp ensa
Ġte or
ĠAl lie
ge ral
tor ze
Ġsol ar
ĠK ings
Ġaf a
Ġaf iados
Ġins anidade
Ġescu tava
Ġsur gia
tic ut
Ġgos tasse
Ġconhec esse
Ġtorn asse
Ġesco l
ĠMa u
ĠRe becca
tei ras
Ġdescob rindo
Ã´n icas
Ġespec ÃŃfico
Ġcarre tel
Ġmotor istas
ĠFre e
Ġestu pro
Ġros ada
Ġlim us
Ġarras tava
Ġidio tice
Ġesfor Ã§ar
ĠcÃ¡ ps
Ġenca nto
Ġind ustria
Ġaum ento
ĠAt la
Ġanda ra
Ġanda ram
Ġamp lia
Ġabaix a
Ġpertur bador
Ġfres ta
Ġdemo ra
Ġmercado ria
ÃŃst icos
Ġvas cu
Ġinsta ntaneamente
ĠRes p
Ġcoch ic
Ġemb ut
Ġinfeliz mente
ĠHill man
Ġocupa dos
Ġide al
Ġinfin ito
Ġacostum ar
ĠContinu ou
Ġenchar cada
Ġpression ou
Ġestuda ntes
ĠWor ld
Ġetern amente
Ġidos os
Ġapress ado
Ġpedac inho
Ã¡l ise
ĠcÃŃ vico
ĠMulher es
tiv es
Dar cy
ĠCos law
Ġadiant aria
Ġreconfor tante
Ġinexplic Ã¡vel
ĠAnci Ãµes
Ġindescri tÃŃvel
ĠMic key
Ġhomena gem
nec ticut
ĠMeta de
Ġsacer do
ĠcÃº mp
ĠKash wak
> >
? '
I TE
I CA
M ia
R es
V i
V IN
a contec
c us
h l
t ilha
w ford
Ã Ĥ
es tavam
Ġes branqui
Ġcom i
Ġcom iss
se ll
ĠE w
el icidade
Ġsu ÃŃte
Ġca torze
ĠP ost
Ġou sa
Ġmas tro
un der
Ġdes den
Ġen erg
Ġsa ib
ĠB A
Ġfa xin
Ġper ÃŃcia
Ġat en
ĠR en
Ġent raria
ĠH ad
gar ty
Ġpro xim
Ġesp esso
Ġto co
vel l
ĠL E
ĠL obos
ĠL inny
der ick
Ġcor rem
Ġcor ridas
Ġsobre mesa
Ġdia b
Ġvis itÃ¡
Ġmar te
ĠK o
ĠEnt rou
ĠEnt endido
cion ado
ph ie
Ġju ramento
Ġbe x
Ġbal des
Ġestou rar
Ġesco peta
par tamentos
Ġtri bo
Ġtri lho
Ġcaix inha
ĠDan iel
Ġ2 8
ocu tor
ĠCon cor
ĠCon necticut
Ġpensa tivamente
ĠRo da
Ġarran hando
Ġtermin aram
Ġsensa Ã§Ãµes
ĠcalÃ§a das
ĠDes e
ĠIn stituto
iza vam
Ġguarda dos
Ġexplo rar
Ġmol as
Ġmol hadas
Ġnerv osos
Ġprepara da
Ġoito centos
mÃ¡ tica
Ġblo queio
Ġexplos ivo
Ġpertur ba
Ġran ger
Ġbara tas
Ġfur tivamente
Ġtelefon ista
Ġreflet indo
Ġlan cheira
Ġsepara dos
ĠNatal ie
cam ore
lÃ³ min
Ġiso lamento
Ġfrag mento
ĠRu dy
Ġcamp oneses
ĠFer ro
ĠBrig ht
Ġasse mb
ĠanÃºn cios
Ġsecun dÃ¡rio
Ġit ens
ĠGib son
Ġintest inos
ĠSy camore
Ġancest rais
Ġpenhas co
Ġcampan ha
ĠincÃ´mo do
Ġequiva lente
Ġvertic al
ĠcÃ³ce gas
Ġcount ry
B ILL
C orre
D en
D uas
S o
T ony
d ilo
m ara
s i
y ar
Ġe re
Ġe ri
Ġe terna
Ġp Ãºl
es os
es cura
re io
ĠE bbie
gu inho
gu lhas
Ġma car
Ġca fet
il on
ir Ã¡vel
ĠN ien
ĠC ruz
ĠD IS
us land
Ġdis cer
Ġdi vor
Ġfa ixas
ul tane
ez inhos
ĠF osse
Ġesp osas
ica da
ĠL amp
ĠG osse
Ġcam ion
pe raÃ§Ã£o
Ġdeix ada
ti po
ti vera
ch er
Ġcasa da
Ġfil as
ber tos
Ġmar fim
Ġestar ei
ĠK ent
ĠK lerke
Ġtom aram
ĠEnt er
Ġcol Ã´nia
Ġus asse
Ġcham amos
ap enas
Ġesqu ilo
Ġgar fo
Ġconf issÃ£o
ĠpÃ¡ lidas
ble ma
Ġnu as
Ġri bom
Ġtre ns
ĠNe bras
ĠFa ye
ema ntle
Ġnecess Ã¡rias
Ġagra dÃ¡veis
Ġvir tude
Ġado ra
Ġ- ,
Ġincl inaÃ§Ã£o
ĠCol ina
Ġjor rou
Ġextrem idades
Ġmex ia
Ġexemp lares
Pe gou
Ġmul ta
Ġtrouxe ram
Ġagrade cido
Ġdispara ndo
Ġamea Ã§ando
Ġamea Ã§ador
Ġinquie tos
Ġinterromp ida
Ġ11 9
Ġmassa ge
Ġgera Ã§Ãµes
Ġmuda ra
Ġgr Ã£os
Ġocul ta
Ġconsul tÃ³rio
Ġcruel dade
Ġfri tas
Ġinva diu
ĠBol sÃ£o
Ġcintila ntes
Ġmole tom
Ġpercebe ram
Per gu
ĠCorre u
Ġcient istas
Ġextraordin Ã¡rio
Ġflutua va
Ġsobressal to
Ġembr ulho
ĠSU A
Ġcriou lo
Ġcutu cou
Ġinvas Ã£o
nor te
ĠBrook lyn
Ġchap inha
Ġespant osa
Ġinterrom per
Ġlob isomem
Ġinstitu iÃ§Ã£o
ĠMississ ippi
Ġamendo im
ĠArn old
Ġdatilo gra
Ġbist uri
ultane amente
ĠGosse lin
C ON
I r
P rimeiro
c is
c enta
p assou
ra y
Ġm ama
do nda
Ġo correr
Ġt Ãº
Ġse cou
de ra
ec eram
Ġca len
ĠP it
ĠM id
ĠM ander
ĠM ith
Ġdes je
Ġdes man
Ġdes tes
Ġdes ven
Ġcon vidou
Ġj ar
ĠB lanche
Ġat entos
Ġin volunt
di Ã§a
ĠV I
ĠR ita
Ġle gais
Ġser ei
Ġesp iava
Ġpre visÃ£o
Ġpa gando
Ġpa pelada
ig ou
ita Ã§Ãµes
ĠU ris
Ġra ras
ĠW ol
Ġpoder osos
Ġesta ndo
Ġgri los
Ġpen it
Ġro lante
ela gund
Ġmar inheiro
Ġtom asse
ĠJo gou
ĠHa y
Ġesco las
Ġpassar ela
Ġamar rada
isso ra
Ġref Ãº
ĠEl gin
ĠMe ia
ĠSte wart
Ġdeci disse
ĠCa fÃ©
ĠMike y
Ġmol dura
ĠEx iste
Ġdec ente
AN TE
Ġmalu quice
Ġfrequ entes
mÃ¡ tico
ĠDor m
Ġinteressa dos
ĠVÃ¡ rias
Ġalmo fada
ĠAng ie
Ġdete tives
Ġprome ter
Ġcuidados o
Co la
EL A
Ġdespre z
Ġpub lic
Ġpont eiro
Ġbrinca deiras
Ġredo ndos
Ġexaus ta
ĠEscu ta
Ġderre tendo
Ġpad rasto
Ġvesti Ã¡rio
rap icho
Ġmantinha m
Ġful ig
Ġmentir oso
Ġgai ola
Ġacus ado
Ġtou ro
Ġdesgra Ã§a
ĠChip per
ĠKel lin
Ġpreench er
Ġrecom enda
ĠAmar elo
ĠAgar rou
gran de
Ġinof ensivo
ĠespÃ©c imes
Ġidi oma
Ġobitu Ã¡rio
Ġbabos eira
Je an
heim er
Ġbex iga
ĠpÃºl pito
ĠtÃº neis
B ER
S obre
T V
c ic
d ca
e gon
g Ã©s
i fer
t he
z entas
Ġp ilar
qu entes
Ġse lo
en gar
de ix
Ġdo Ã§ura
el erou
ri ra
Ġna z
ĠS Ã¡
ĠS entou
il t
Ġre cob
ĠC ro
ĠC em
ĠP lan
ĠP obre
Ġou sava
ĠO tto
ĠT ia
ĠT RA
Ġdes gren
Ġcon j
ca p
Ġat ividades
Ġin ut
Ġpe rante
ĠR ap
he y
Ġla tir
vel and
Ġcor vos
Ġpre go
Ġres qu
Ġsob rinho
Ġpa te
ig i
Ġcer rados
Ġcer Ã¢mica
Ġaqu ecedor
ĠI I
na das
Ġfal sas
Ġdia mante
ĠAl f
ĠAl to
ĠW ins
Ġro che
Ġso lavan
Ġcorre ias
Ã¢n imo
Ġrespon dia
ĠJo vem
Ġgu im
ĠPo wer
Ġsur real
Ġpres erva
Ġbri gar
Ġad ic
Ġcoloc ara
Ġau ge
ĠMa edhros
Ġpux ada
Ġcent ena
Ġve jam
ĠRo gette
Ġaparec em
Ġafas tava
Ġdesa fia
Ġel fo
Ġagar rava
Ġdest em
Ġexplo diram
Ġsurg ido
Ġfran co
Ġur gÃªncia
IN E
ĠCor po
Ġenvol ta
ĠCal vert
Ġacresc enta
Ġapres enta
Ġcole tiva
Ġmensa geiros
Ġgem er
Ġgem idos
Ġatra ÃŃdo
En cont
Ġapre ciar
Ġdespe dir
Ġdomin ado
Ġimagin ara
Ġdescobri ram
Ġdispos ta
Ġenferru jadas
Ġinferior es
Ġenvelo pes
EI RA
Ġafo gado
Ġafo gando
Ġtesou ros
ĠAd rian
Ġreserva do
Ġraste jando
Ġtransforma va
Ġsofre ra
Ġedu cado
ĠCons iderando
Ġperigos os
Ġrelacion amento
Ġinje tados
Ġmergulha do
Ġafun dar
Ġafun dando
Ġdrin ques
ĠAcontec e
ĠShar on
Ġvamp iros
ĠRou te
Ġentrela Ã§adas
Ġbizar ro
ÃŃdu os
Ġperu ca
ĠSoc orro
Ġempilha dos
Ġexpe diÃ§Ã£o
ĠEspe rava
ĠToo t
Ġencant ador
Ġduvi dar
Ġdesan imado
Ġfedore nto
Ġpreju dic
Ġdipl oma
Ġanor mal
Ġcomprom isso
ĠSear les
Ġalt itude
Ġlabiri nto
ĠExist em
ĠvÃ¡lv ula
Ġmada me
C ra
C ol
I BI
P OS
b lo
g ista
j Ã©
v ent
Ġa be
Ġc um
nt or
Ġn ÃŃ
in Ã¡
in ne
Ġv ÃŃr
de ll
Ġdo enÃ§as
Ġl ida
ĠA melia
Ġg am
Ġpor rada
Ġest udou
ol Ã³g
ĠM ec
ĠD im
ĠD ona
Ġme ra
ĠT rouxe
Ġdes do
ma x
Ġfo guete
Ġac eito
ĠV est
ĠJ ensen
Ġle Ãµes
Ġex ul
ria da
Ġesp elhos
Ġcor ta
Qu ero
ĠDe L
Ġmen digo
Ġdia nteira
Ã¢ metro
ber ry
Ġsol taram
Ġbar b
bal ho
Ġban heiros
Ġacredi tado
ĠCo o
ĠCo nta
por ta
Ġfi tavam
tÃ³ dia
Ġtro cado
Ġbon itos
Ġacor dasse
Ġor g
ĠCh ico
Ġarran hÃµes
Ġenc osto
Ġespec ula
Ġfar fal
ĠEl fos
eral d
ĠIn cl
iza ntes
Ġsusp ensa
Ġrecu ando
Ġsaco las
Ġestacion ar
Ġmol har
Ġmaldi tas
Ġpret endendo
Ġur gente
ĠLa go
Ġenvol to
Ġabando nados
ĠNew some
ĠAm igos
Ġsup rimentos
Ġferro lho
Ġparticular es
ee k
ĠBur pee
Ġfigu rinha
Ġbur rice
ĠelÃ©tr icos
Ġesto nte
Ġarro xe
Ġautor idades
Ġps ÃŃqu
Ġdet rÃ¡s
Ġbu eiro
ĠPas sa
Ġrepu gn
Ġdolor osamente
ĠinÃº teis
Ġcompor tar
Ġge o
Ġderram ado
gui Ã§a
ĠConsegu e
Ġorgan izaÃ§Ã£o
ĠlanÃ§ ador
ĠCob b
ĠSom ente
Ġresid entes
ĠCad Ãª
Ġut ilidade
Ġtoma te
ĠcrÃŃ tica
Ġdesgra Ã§ado
ĠplanÃŃ cies
Ġaudi Ãªncia
Ġrele mb
Ġpressent imento
Ġretar dado
Ġdesfi gu
Ġborbo leta
Ġrecei ta
Ġveteran o
Ġparaf usos
Ġprevis to
pat rulha
Ġdesajeitada mente
von ne
Ġdesd Ã©m
Ġinsignifica nte
ĠWet more
ĠLaVer ne
Ġimprovis ado
Ġrecip iente
Ġexec ut
B O
J ared
M O
b ano
e bros
f ix
i bal
z heimer
Ġp it
Ġp ras
Ġde ton
Ġo i
or de
ou tra
Ġb esou
ĠE va
de g
Ġl Ã³gico
ĠA Ã©
co mpan
Ġsu ce
Ġsu deste
Ġas ilo
ĠC ham
ĠC live
ĠP ac
Ġper ua
Ġpar Ã¡
Ġac am
ĠV A
ĠV E
ci dente
Ġent arde
ĠH ob
ĠF elagund
Ġh i
Ġto quei
ĠL oc
Ġpre firo
Ġcar ecas
Ġesc udo
ĠEu ro
ĠU au
Ġra dic
Ġpou par
Ġte rapia
Ġman dÃŃ
Ġvi ga
ĠAl zheimer
Ġfre gueses
cu ras
Ġpesso ais
Ġten ebros
Ġlemb raria
Ġva gando
Ġer ros
Ġins inua
du almente
Ġlo tado
Ġsal inha
ion ando
Ġcho cante
ĠSa nta
Ġtro te
Ġergu i
ven Ã§Ã£o
alha dos
Ġz o
Ġpensa vam
Ġdese jos
ĠY vonne
ifica dos
Ġpi garre
Ġescon didas
Ġcul par
ĠQuer ida
Ġsono lenta
ES S
Ġesfor Ã§ando
Ġdep ende
Ġenter rar
Ġgem ia
Ġcart eiro
ĠCam inho
ĠTh under
Ġjus tific
Ġans iosamente
Ġtorna vam
ĠAb aix
iqu eiro
ĠelÃ©tr icas
ĠtrÃªm ulas
Ġresta ura
ĠMill s
Ġinsta lado
Ġbro tou
Ġrecupe rando
Ġentra rem
Ġ197 0
Ġleg enda
ĠAcredi te
Ġdeso laÃ§Ã£o
Ġvul gar
Ġdivid ido
ĠCA PÃįTULO
Ġmascul ina
Ġrecolh eu
Ġperple xa
Ġaprovei tar
Ġzom be
ĠKel ly
Ġensa io
Ġenjo ado
Ġresga te
ĠEstre la
Ġrecos tou
Ġdetes tava
Ġrang endo
ĠTrabal ho
Ġnit idamente
Ġcorrig iu
Ġfon Ã³ides
Ġancest ral
ĠChamb er
Ġessen cial
ĠSand ra
Ġharmon ia
ĠBlo co
Ġentrea berta
ĠrÃ³ t
ĠdÃ©c imo
Ġpend urou
Ġsolidar iedade
ĠrÃŃ gido
ĠHos kins
ĠmandÃŃ bula
5 5
7 0
O i
P OR
S entiu
g Ã¡vel
r inger
v ivo
Ġ rios
Ġc Ã³r
Ġs now
do is
or tal
Ġf rig
le igh
la ho
Ġem bos
ĠA mes
ĠS EM
Ġma tra
Ġre ga
Ġele vado
ĠC OR
ĠP ris
ĠD enton
ĠO lhem
Ġdis par
Ġcon gre
Ġpo Ã§os
Ġpo tente
Ġmu leta
ĠV ER
ĠH O
ĠH eck
Ġser vem
ĠL Ã³rien
Ġcor tava
Ġpre cioso
Ġres so
Ġres tou
iz aram
io tes
Ġpes ca
Ġmor tu
inh ei
Ġimp ie
dor m
Ġvi rem
Ġne to
Ġgri tinho
ke es
Ġer radas
Ġban ana
Ġban didos
cas a
Ġsal vÃ¡
lhe ram
Ġimpor tou
Ġim ortal
Ġad vers
mp son
ass ins
Ġenf at
Ġobs curo
ĠCar re
ĠCar son
ĠCar rapicho
Ġamar rar
Ġamar gura
Ġnor oeste
Ġreal izar
ĠHar t
Ġgan hei
Ġpal m
Ġinf elicidade
ĠMo ore
forma Ã§Ã£o
Ã³r icos
tis tas
gens en
Ġsurg iam
Ġating indo
Ġapres entaÃ§Ã£o
Ġtur istas
Ġmensa geiro
Ġmin Ãºsculo
ĠbÃª bada
Ġeleva dores
ĠVol ta
Ġremo ta
Ġencolh endo
Ġpers ua
Ġsuger e
Ġlin das
Ġofe gou
Ġreve lava
Ġinde pendente
ĠSara sota
Ġdesconhec idas
Ġacal mou
Ġexplica Ã§Ãµes
ĠPear ly
igu eza
Ġdel ira
ĠCre ed
Ġestica dos
Ġferram enta
Ġtransform aram
Ġcontorn ou
Ġsilencios os
ĠnÃ¡ ilon
Ġvul ner
ĠLi gue
Ġestilha Ã§os
ĠSab lo
Ġarmaz en
ĠME U
ffer ty
Ġfren Ã©tico
Ġsens ÃŃvel
Ġfantasmag Ã³rico
Ġaborre cido
Ġencur ra
ĠpÃªn dulo
ĠmonÃ³ tona
ĠhambÃºrguer es
Ġsauda des
Ġmelo dia
Ġsuic ida
Ġesm ur
ĠClu be
ĠMcCa usland
Ġracioc ÃŃnio
ĠOk laho
ĠdelÃŃ rio
Ġhemor ragia
Ġdistan cia
Ġlocomo tiva
Ġdiscer n
ĠrefÃº gio
Ġrepugn Ã¢ncia
S ei
e is
f lor
g iÃ£o
p ai
Ġe vol
Ġc et
nt u
Ġco ta
es tado
Ġf Ã£
ent Ã¡vel
va gar
ei g
Ġl idando
ĠA cker
ĠS no
ĠS tam
ÃŃ max
Ġas ma
ĠP OL
ĠM U
ĠM anda
ĠO ito
Ġcon dicional
ĠB ec
Ġat irei
Ġfo tÃ³
ĠV inha
Ġter res
Ġela bo
it ter
ĠH ith
ĠF is
ĠF ol
ĠF orn
Ġesp inhas
ĠL eland
Ġar dia
Ġpre di
cia nte
Ġmo fo
Ġcam ar
vo z
Ġtra to
Ã´ pe
ac ho
Ġvoz inha
Ġvis sem
Ġmar mo
Ġmar inheiros
fic ador
Ġexp osto
Ġexp uls
Ġcl ÃŃnica
Ġban car
Ġtran cadas
Ġtrabal hadores
Ġaca be
ris te
Ġperce p
Ġconf iava
Ġaper tei
ĠCon ver
Ġpla t
Ġpla us
Ġpensa tiva
Ġesca pando
ĠSu bur
ĠSu premo
ĠPar ei
Ġel mo
tr Ã³leo
ER O
Ġfe dia
Ġven ham
Ġsin cera
Ġconversa vam
Ġdesen hado
Ġpl ana
Ġbater ias
Ġcus tÃ³dia
ĠcÃ¡ l
Ġsup rimento
Ġsup Ãµe
fi ei
rus dale
bor o
TA M
Ġatra ente
Ġident ificou
Ġmergu lho
ĠPhil ip
Ġdesma iado
Ġdesma iou
Ġdespre n
Ġmistura do
ĠincÃªn dios
Ġpub licar
Ġbro tar
Ġencer rar
Ġcura r
ĠConsegu ia
Ġrecome Ã§ar
Ġdesf ez
Ġexc Ãªnt
Ġultra pas
Ġtransmit ir
Ġuiv ou
Ġdesliga da
Ġdiscre to
Mc Vries
ĠPerce beu
Ãºr p
Ġaprende ra
ther idge
Ġsauda Ã§Ã£o
ĠÃªx ito
ĠQuar enta
Ġperver so
ĠabÃ³ bora
Ġespas mo
Ġmiseric or
Ġmiseric Ã³rdia
Ġproce dimento
ĠLis bon
Ġinten Ã§Ãµes
Ġnava lha
ĠDill on
Ġsince ramente
Ġmacar rÃ£o
Ġdesje jum
ĠEuro pa
ĠChamber lain
ĠSubur ban
F re
T RE
d in
d Ã´
g ero
g ton
j eira
p i
Ġs ite
Ġm ÃŃ
or te
va lhos
se us
ĠE L
ĠE red
Ġdo ÃŃam
Ġg ado
Ġna turais
Ġpor quÃª
Ã³ grafo
ÃŃ ci
ĠP Ã©
ĠP asse
Ġal imento
que tas
ĠT rum
ĠT eig
Ġdi Ã¢metro
Ġera s
Ġfa cas
Ġper ca
ĠV ista
ĠV OL
Ġap ostas
Ġser vos
Ġmes cla
Ġh igi
Ġto a
ima da
Ġab aste
Ġmo rango
ĠDe veria
Ġtr Ã´pe
Ġtam anha
Ġtra tando
Ġpou so
Ġfal s
Ġman ual
oca Ã§Ã£o
ĠW he
ĠW ood
Ġpu ri
Ġsen ha
Ġsol tos
Ġins ano
Ġban dos
Ġcham us
lu ia
Ġsim ultaneamente
Ġci Ãº
Ġtorn ei
Ġag ressÃ£o
ĠMor rie
Ġpul sando
cou rt
Ãºm eros
Ãºs ica
Ġenc an
Ġgan gue
Ġquad rada
ĠDes espero
duz ido
tr icos
Ġvest ÃŃgio
Ġdeci f
Ġmon ito
Ġata dura
Ġcontro lado
Ãī M
Ġprocura do
Ġreun ido
iss Ãµes
Ġdim ensÃµes
ub lic
Ġobri gar
Ġdesco nto
Ġgrava do
Ġproje tavam
Ġ9 11
ĠsÃ¡ bios
Ġprefer ido
ĠBer egon
Ġengol ido
Ġinquie ta
Ġinquie tante
Ġvaga bun
Ġesfre gar
Ġhe ra
Ġvar eta
Ġarqu ite
Ġconsul tar
Ġprom essas
Ġleg ÃŃt
Ġiso lado
ĠgÃªme as
Ġinsti ntos
ĠSom b
Ġcolor idas
Ġbebe deira
ĠDer ek
ĠRec or
Ġrepara r
Mor gan
ĠTro y
Ġcamara das
ĠPRO IBI
Ġflex ÃŃvel
Ġpregui Ã§oso
ĠidÃªnt icos
Ġdesfa zer
Ġacusa Ã§Ãµes
ĠmonÃ³ tono
Ġdeprim ido
ĠWay ne
Ġton ela
ĠRip ley
tc hard
ÃĬN CIA
Ġpup ilas
poss ÃŃvel
Ġnevas ca
Ġminia tura
Ġcalen dÃ¡rio
Ġentarde cer
ĠLoc her
ĠHith lum
ĠTrum an
C inco
E v
H OR
M er
P apai
R U
R IA
S ou
c ista
g Ãªn
i ers
n ham
v ir
x et
Ġe cos
ia nos
Ġse be
ro ll
Ġpara peito
ri Ã£o
ĠA nton
co lo
ol Ã³gica
Ġca Ã§ada
ĠN isso
ĠC ru
ĠC orn
ĠC AM
ĠP an
ĠM is
ĠD ana
ĠD IA
ĠD ama
ĠD NA
Ġou Ã§o
Ġou sou
Ġal tar
ĠT rav
Ġdes tas
Ġdes enter
Ġcon quista
Ġj ac
ĠV oo
ĠR ES
Ġpr Ã³s
Ġle al
ur so
ĠL ob
Ġpre ma
Ġpre mon
Ġpas to
Ġmo rada
Ġsegu idos
Ãº ria
Ãº lt
Ġtra jes
Ġcha co
bo ok
Ġimp era
Ġimp edia
Ġpu la
ge is
Ġmar reta
Ġbar ris
Ġinter l
ĠAn os
Ġru iva
ĠNa hum
ÃŃn gua
Ġta ci
Ġta ba
Ġav anÃ§o
ĠCo ntou
Ġfi lete
Ġfi letes
Ġbas es
ĠTo y
Ġexa gero
Ġemp il
Ġtenha mos
Ġmost rei
ĠLe vei
Ġdesl oc
Ġtre pa
ĠBo y
ĠEl mer
ĠFa lava
ula das
Ġestre itos
Ġga ta
ts field
cios os
Ġnecess Ã¡rios
ĠCa b
Ġros ado
Ġsitua Ã§Ãµes
IN G
Ġcole cion
Ġcresc imento
tri tos
Ġrecor daÃ§Ãµes
Ġobserva ram
Ġpat rÃ£o
Ġpermit indo
ĠcÃ¢ mbio
Ġnove la
Pe ar
Ġconseguisse m
Ġmoc assins
Da le
Ġmercado rias
are y
Ġqueima dura
Ã©rci tos
Ġsinist ros
Ġigno rava
Ġinfor mar
Ġenlouqu ecer
Ġafo gar
Ġrefer Ãªncias
Ġguard Ã¡
Ġarbus to
ĠDel ta
Ġsobreviv ente
Ġlad ri
ĠGos tava
ÃŃl ios
Ġw al
Ġdesli guei
Ġembar que
ĠTho mpson
ĠpolÃŃ tico
Ġmister iosa
Ġganha ra
Ġanuncia va
Ġcaracter ÃŃsticas
ĠavanÃ§a vam
ĠKat ie
ĠCH E
Ġfort emente
dim entar
ĠhelicÃ³p teros
asso mb
Ġtili ntar
Ġcate g
Ġhipo teca
ĠThur ston
ĠGordo n
ĠMalu co
Ġsever o
ĠWhit more
ĠNei bolt
ĠcÃºp ula
Ġrepugna nte
ĠlÃ© guas
Ġenri j
Ġbolet im
ĠMargar et
ĠBec ky
ĠTeig lin
ĠBeregon d
B rad
C AR
D isse
E D
F lagg
S aiu
g is
m ent
r ume
s ub
v ard
y re
Ġe tc
Ġa ros
Ġc rav
Ġde vida
Ġqu ina
Ġf osso
ta xer
da das
la gens
va mente
Ġcom entar
ro p
Ġpara mÃ©
Ġem bal
so mb
Ã³ logo
Ġca gar
ĠM ack
Ġal imentos
que tes
ĠT id
Ġdi ri
Ġsa ias
Ġin un
ul idade
Ġap ris
it Ã£es
ob e
ĠH as
ĠH el
Ġan fit
Ġsem b
Ġsem an
Ġsem estre
ĠL am
ĠL ance
Ġar der
ĠG ru
Ġcor tados
ĠestÃ¡ dio
Ġmo dos
Ġsent adas
Ġcar cer
Ġmor dido
Ġra dar
vi ou
Ġimp ressa
ĠW a
Ġfre guÃªs
Ġpos tal
Ġsol tas
Ġvis or
Ġob rig
Ã¢n dia
ĠPe tra
du to
ĠAn duin
Ġju nta
pos tos
Ġbe le
Ġacha ra
Ġlo teria
et u
Ġtrans tor
Ġce gas
Ġce gamente
Ġtoc has
ĠRe is
Ġz igueza
ĠHo o
ren alina
Ġchu tando
Ġdesa bar
Ġbrin de
Ġquad ras
ĠNe vada
Ġlimp ador
Ġil has
Ġata cado
tis mo
Ġ3 1
tido res
Ġur inar
ĠLa ura
AD OR
Ġreconhec e
Ġocor ria
TA L
ĠcÃ£o zinho
Ġamp u
Ġregist rado
Ġjul gava
ÃŃss imos
ĠHu nton
Ġbl usÃ£o
Ġchor ei
Ġcambale ar
Ġplane java
Ġsubstitu ÃŃda
Ġresist iu
Ġhe ranÃ§a
Ġpri va
Ġbu le
Ġtrope Ã§ando
Ġeco ou
Ġsuspei tava
Ġger ou
Ġexecu tar
Ġagon izante
Ġtan ques
ĠbalanÃ§a vam
ĠlanÃ§a da
ĠtÃºm ulos
Ġrefrige rantes
Ġcompart ilha
Ġfare jar
Ġtol do
Ġprecip ÃŃcio
Ġtim idamente
Ra dar
ĠVermel hos
Ġcalcan har
Ġbarulh ento
Ġvelh ice
come Ã§ou
Ġrus so
ĠaÃ© rea
Ġvenen oso
Ġencant amento
Ġnit idez
ĠTO DOS
Ġchurras co
Ġcens ura
Ġamost ra
Ġvertig em
Pens ou
Ġmecan ismo
Ġdefro nte
ĠdÃŃ vida
Ġgeng ivas
Ġcrip ta
Ġchic lete
ĠJos ie
Ġcroco dilo
ĠFuz zy
Ġconsterna Ã§Ã£o
ĠBella my
taxer xes
A ÃŃ
A final
C er
D or
D ez
G UN
V irei
c ent
l idos
o th
v ura
Ġ ?
Ġa udÃŃvel
Ġc un
Ġde ck
Ġde partamentos
nt ara
nt amento
ar di
Ġf iss
Ġes verde
Ġb orrÃ£o
Ġem a
ri dade
Ġma nta
Ġca nta
ĠD om
Ġme dalha
ĠF eira
ĠF ECH
gar ta
endo u
Ġan co
ĠG en
uma va
Ġsegu rado
Ġam igu
Ġtra gada
Ġfal tavam
Ġjo garam
Ġjo vial
for es
Ġso leira
fic ou
Ġestar emos
Ġob stru
Ġson ora
Ġlo j
lu z
Ġsaber Ã¡
end il
Ġad renalina
Ġaju dasse
ĠmÃ¡ goa
Ġtoc asse
ĠAr taxerxes
ĠEn g
Ġarre me
Ġarre ba
Ġarre donda
Ġgan ho
Ġgan chos
tÃ© tricos
xa tamente
Ġespa Ã§
Ġaco lh
AR D
ĠEx perim
Ġaba fados
Ġapos entar
VocÃª s
ĠPa w
Ġempre gados
Ġpat rulha
Ġalu gar
Ġengan ou
Ġavis ou
uss Ãµes
Ġamarela do
ĠfÃº ne
ĠÃŃn dio
ĠLeva ntei
Ġdan ada
ĠMy rtle
ĠFar ren
Ġpercebe ra
Ġpaco tes
Ġcusp indo
LÃ¡ quesis
Ġdeso lada
Car ter
Ġobede cer
Ġgrotes ca
ĠLemb rei
Ġquestion ar
ĠavanÃ§ aram
Ġdescu ida
Ġadminist raÃ§Ã£o
Ġluminos os
Ġdesej aria
Ġit em
Ġene gre
ĠbÃ¡s ico
Ġdisti nt
ÃŃsse is
Ġforta le
Ġdesenh ou
Ġvolunt Ã¡rios
Ġpenhas cos
** *
Ġdesn ecess
Ġcasti go
Ġdelibe radamente
Ġcuido u
Ġalvor o
Ġdecid idamente
ĠalcoÃ³la tra
Ġlacrim e
Ġnoc tÃ©tricos
Ġcalcul ou
Ġestupe fato
ĠCle veland
Ġindiv ÃŃduo
Ġpot Ãªncia
Ġrob Ã´
Ġafli Ã§Ã£o
Star k
ĠBrid gton
ĠNien or
Ġfulig em
Ġtaci tur
ĠTid well
A bri
P osso
S eria
a f
a ca
s ie
s tan
v ina
Ġd irÃ¡
Ġc enas
qu eca
do ras
do mo
Ġo dores
Ġco g
Ġf ris
Ġv endeu
da y
Ġb ip
el da
ĠS in
ĠS entado
ĠS Ã©rio
Ġpor te
Ġca ber
ĠP us
ĠM ene
ĠO z
ĠO ak
Ġme tendo
Ġsa cou
ĠB os
Ġfo fo
Ġin al
Ġpe tri
Ġpe trÃ³leo
Ġent u
ob s
ĠH or
ĠF us
ĠF IL
ĠF itz
ur n
me ia
Ġab rem
Ġsob ressa
Ġpa c
ĠQu inze
Ġcer cas
Ġquer idos
Ġpes te
ĠMas ter
na Ã§Ã£o
Ġfal sos
Ġdia mantes
Ġtor rada
fic iente
ĠEnt rei
Ġcol on
Ġtent ativas
ke box
Ġbar ro
Ġus adas
Ġins ana
Ġinc er
Ġbal con
ÃŃn ico
Ġfun erÃ¡rio
Ġmer das
ed ic
fe ras
lan de
Ġacor dando
Ġarma dura
ĠDo ze
Ġarran jou
ĠHar dy
ĠHar gensen
Ġgan hado
ĠLo gan
Ġcac he
ĠIn fer
Ġfuncion am
Ġfei xe
Ġrepe te
Ġasso bio
Ġespecial ista
IN A
Ġgor das
Ġgor gole
Ġcob rar
ĠPen al
Ġilum inando
ĠLÃ¡ bios
Ġempre gada
Ġremo ver
Ġinsist ir
Ġdomin ar
Ġtu bar
Ġtiver em
Ġestra go
ĠFo go
Ġespalha vam
Ġconcent rou
Ġproduz ido
Ġresist ente
Ġalim entando
Ġpin gava
ĠBran de
Ġemb ru
Ġlum inosa
ĠHamp den
Ġbloque ando
ĠGor die
Ġgl obos
Ġsust entar
Ġlit erÃ¡ria
Ġracha da
ĠBan nerman
ĠBus hey
Ġrepara do
ĠSor riu
Ġafun dado
ĠAndre ws
Ġreflex Ã£o
raz ier
ĠMim i
Ġave ia
Ġdescans ando
Ġvagar osamente
ĠYan kees
Ġmedon ho
Ġfos fores
Ġestamp ado
ĠDevem os
Hal lorann
Ġcompens ar
Ġconsidera velmente
Ġsangra va
ĠGoo gle
ĠWit cham
Ġfuzi leiros
Ġestabelec imento
Ġmetr Ã´
Ġhorrip ilante
ĠsubÃºrb io
ĠBroad way
Ġmega fone
ĠOklaho ma
Ãºrp ura
Ġtaba co
" ...
9 5
A m
G aro
I DO
N essa
T ra
a qui
c emos
e das
f ec
g nada
m undo
o h
x ima
Ġd anÃ§ava
Ġe ixo
Ġs ig
Ġs Ãºp
nt ur
um ba
Ġf ÃŃ
Ġb ens
Ã© Ã©
gu ias
ho ne
ĠA idan
oc h
ĠS pot
Ġre inos
ĠC ress
ĠP os
Ġal umÃŃnio
un ham
Ġfa x
ul k
Ġac re
Ġac inz
ĠV is
ĠV ento
ĠV ali
ĠR A
ĠR ecu
ĠJ ol
Ġap licar
ĠH ana
ĠF am
ĠF razier
Ġser viam
Ġi rei
ĠL y
Ġpas tos
Ġpa vilhÃ£o
Ġcas ualmente
Ġint eiros
Ġint eiras
Ġdia nteiras
Ġimp osto
Ġpoder emos
fer iu
Ġti rasse
for mado
Ġlemb ram
Ġaf lito
ĠJo Ã£o
ĠPe dra
Ġinc or
Ġvelho te
Ġforma Ã§Ã£o
Ġforma tura
ĠDa ÃŃ
Ġped isse
Ġbri t
Ġconf essar
para do
Ġergu idos
Ġacor re
Ġesquec imento
Ġtrem ores
Ġcap ÃŃtulo
ĠDo gan
ĠDo dee
Ġesca pul
Ġtre inado
Ġconseguir mos
Ġret Ã¢ngulo
Ġu se
ĠFre derick
Ġcir cunda
ĠmÃ©d ica
ĠDu plo
Ġaba teu
Ġon d
Ġofer ecia
Ġgor dos
Ġcarros sel
Ġform igas
Ġform idÃ¡vel
Ġempre gado
Ġind ÃŃcios
Ġtiro teio
Ġgrava da
Ġencar Ã¡
Ġexib ir
Ġreflet ia
Ġlan che
Ġqueima dos
Ġtest ÃŃculos
ĠfÃ´ sse
ĠImag inou
Ġrefer indo
Ġ198 5
Ġguin chou
Ġorgan ismo
Ġestri tamente
Ġconge lada
Ġtenta vam
Ġcontorn ar
Ġtrein amento
Con segu
ĠVOCÃĬ S
ĠDay ton
Ġfracas so
Ġregular mente
Ġadequ ada
Ġgostos a
Ġmag ric
omin Ã¡veis
Ġfle chas
ĠSub iu
Ġexpe diente
Ġespant oso
ĠProme to
Ġcoru ja
ĠEmp ur
ĠAper tou
Ġdoent io
Ġrecru ta
Ġpapa gai
ĠJeffer son
Ġsacana gem
Ġmelan co
Ġengenho ca
ĠAver y
ĠWom an
Cra ig
Ġsnow mobile
D oc
c isa
h em
l ine
m enos
p y
s am
t ivesse
Ġa der
Ġm Ãºm
Ġt os
in era
Ġes gar
en oria
ara h
Ġb ife
ĠA v
ec h
ĠS ap
ĠS tur
Ġest er
on ada
ĠC osta
ĠM omo
ĠD y
Ġal mas
po der
ĠT an
ĠT ran
sa be
Ġmu dei
ĠV idas
it inha
Ġolh eiras
ĠH ador
Ġcont aram
Ġan Ã¡lise
ĠL ÃŃ
ĠG ostei
Ġmo ntou
Ġpa la
ig amento
no vo
Ġcasa dos
Ġpu tinha
ber dade
Ġro nda
Ġmar chando
Ġouv iria
Ġbom bar
Ġrespon da
Ġinc rus
Ġcham aram
Ġcham asse
Ġju kebox
Ġru dimentar
Ġcan ce
Ġta lentos
Ġav esso
ĠCo tter
ĠHa veria
Ġmer dinha
Ġbat esse
ĠMar s
ĠRic ardi
Ġatrav essei
lic ando
fe tam
Ġsimp atia
Ġboa to
Ġ19 0
Ġapar ente
Ġnor deste
Ġbeb ido
Ġve ia
Ġdeixar em
au x
Ġsuj ei
Ġfra que
Ġchu tar
Ġfar emos
ĠPro cure
ĠPar em
Ġsof ist
Ġga ze
che gados
ĠFre neau
Ġexist isse
Ġrepe tidas
Ġinfer n
Ġconversa va
ĠDavid son
Ġofer ecido
Ġdesper to
Ġentender ia
Ġtrou xa
Ġdesp esas
Ġcora jos
Ġperder ia
Ġjor rando
Ġmex idos
ĠMan de
Ġdob rando
ĠSal ve
Ġterm Ã´metro
Ãĩ ÃķES
gro th
Ġ20 11
tch en
Ġsubstitu to
Ġdever Ã¡
Ġpan cadas
ĠSo phie
ps i
Ġcruza va
Ġemit indo
Ġdesconhec idos
Ġreduz ir
Ġescor riam
ĠCou rt
Ġinca pa
Ġsobreviv ido
ĠBol seiro
Ġiso lada
Ġmoto cic
Ġdiv ul
ĠrÃ© p
Ġamonto ados
Ch uu
Ġrecebe ram
encia do
ĠsÃŃ la
ĠSor te
Ġadqui rido
lig ou
Ġdeterm inada
Ġfantasmag Ã³rica
Ġpon ha
Ġaudi tÃ³rio
ĠFA Z
Ġvenen osa
Ġestendi das
Ġcos te
Ġincont Ã¡veis
Ġsacri fÃŃcio
Ġruidos amente
ĠDra ke
Ġdispon ÃŃvel
Ġefic iente
Ġespo nt
ĠLib by
Ġmastig ando
Ġconstrang imento
Ġcoa gu
ĠIS SO
ĠLan chonete
Ġenras cada
ĠNebras ka
Ġjac ar
ĠToy ota
Ġsemb lante
" ),
A per
D iz
L au
S peedy
c amento
g ru
k ing
k ell
m om
r ista
v aria
Ġd urÃ£o
Ġp inos
Ġc rava
Ġc ron
Ġde bate
Ġde tritos
Ġn Ãº
Ġco pa
Ġco ceira
Ġco erente
Ġt rio
Ġt ÃŃtulos
Ġf urado
Ġes fa
va i
ro las
Ġb un
al o
ri t
te to
ĠS EN
Ġpor teiro
Ġca Ã§
Ġca car
ĠC Ã£o
ĠD aria
Ġal is
Ġdes ign
Ġdes Ã¢nimo
Ġat in
Ġpar ca
Ġin au
Ġmu dam
... ]
ĠF omos
Ġpro a
Ġla vou
Ġfaz endas
ĠL ock
ĠG RAN
Ġcor dil
Ġmo veram
Ġass ado
Ġcar idade
Ġcar pint
Ġcer cada
Ġch ique
ac inz
Ġcomp rava
Ġte at
Ġman de
Ġvi rasse
Ġgri lo
Ġpos ta
Ġbo xe
Ġro laram
ĠÃ¡ gil
ne dain
Ġsom bre
Ġcl ÃŃmax
Ġob c
Ġaf l
Ġgu de
Ġgu tural
ilo to
ĠEd ge
ib an
et ter
Ġcho ra
Ġbas tou
Ġbri gas
Ġtorn am
Ġesco tilha
ĠHavia m
Ġor n
ĠLe o
Ġ2 6
ĠRe a
ĠRe ggie
Ġfra camente
ĠDo o
Ġfala mos
Ġespa cial
ĠNe le
ĠÃ©p ocas
Ġpi ntados
inos sa
Ġ3 2
ĠmÃºs culo
eno te
Ġgara nto
Ġperman ece
Ġprote tor
ĠDu fres
Ġespecial idade
ĠLa dy
Ġalc anÃ§a
Ġgor ro
Ġrepet ia
Ġilum inar
Ġdestru iu
ĠCol Ã©gio
Ġdiminu ÃŃdo
Ġapre ensÃ£o
Ġsecre tas
Ġjus tifica
Ġtraz iam
Ġconv Ã©s
Ã³p sia
ĠMcC one
ÃŃss il
Ġfix ou
ĠWal nut
Ġcontor cer
Ġran cor
ĠAb solutamente
ĠTre vor
Ġmi jo
Ġof endido
Ġirre al
fal o
Ġindi gna
Ġincomo dado
Ġsubstitu ir
gum es
Ġconvers amos
Ġconduz ir
Ġsuf ocando
ĠSta ad
Ġdeb atendo
Ġpolegar es
Ġemit ia
Ġarqu iban
Ãĵ S
Ġmis to
ĠGeral mente
Ġfri ta
Ġinva dir
ĠDou tor
Ġdesf ru
ash more
ĠTar ker
Ġespre itando
Dei xe
Ġreto mou
Ġedu cada
Ġful gu
ĠRu ger
Ġdecidi ra
ĠAman da
ĠPri tchard
ĠPass aram
Ġanal gÃ©s
ĠavanÃ§a da
ĠVie w
ĠBlu e
Ġplen os
Ġborbo letas
ĠSher lock
Ġuiva va
Ġincessa nte
Pass aram
ĠiP ad
ĠpreguiÃ§os amente
Ġpran che
eb les
Ġagou re
Ġaver sÃ£o
Ġfati as
jard in
Ġzigueza gue
fetam ina
ĠDufres ne
' .
3 8
C as
E mp
F ER
I l
M al
T entei
a quela
p rin
y le
z ela
Ġa talho
Ġs ir
Ġm ÃŃsseis
do este
Ġco itado
Ġt entaÃ§Ã£o
Ġf ocal
Ġf Ã©r
Ġem issora
Ġg lor
Ġg ord
Ġest ivÃ©ssemos
Ġsu pera
Ġsu doeste
Ġre tan
ĠM O
ĠM iriam
ĠD ob
lh Ãµes
go la
Ġfa br
di ta
ĠR icker
Ġpro jÃ©
esse ps
Ġesp ic
Ġto ques
ĠG lock
Ġres i
ĠEs tu
ĠDe tter
Ġra bu
ĠI mp
ĠI ll
Ġresp eitos
Ġimp lica
Ġdeix amos
Ġvi la
lha dora
Ġbo i
Ġbo tando
Ġsol teiro
Ġacontec iam
ĠK now
Ġbar man
Ġrespon dendo
ĠPe ebles
Ġju ntando
Ġcan elas
Ġima cu
Ġfi Ã©is
tu xet
Ġrou bada
Ġbon dade
alha das
Ġdesc renÃ§a
ila ntes
ĠRe ver
ren ce
Ġtre ino
ĠMe g
inos os
Ġagar rei
Ġassus tando
Por tanto
Ġgo ela
Ġgru dada
Ġsomb rias
Ġinv entar
Ġlen Ã§os
Ġbre cha
Ġlim onada
Ġexper imento
Ġabra Ã§ar
Ġexam inava
Ġtrase iros
Al gumas
ĠCol lie
Ġmachu cÃ¡
ĠSegu rava
Ġinteressa da
Ġcaminha das
ĠSou be
Ġacer tado
Ġlam entar
ĠES P
Ġferro via
Ġfix a
Ġcump rimento
low s
low ay
Ġperten cer
Ġris inho
ka te
RI M
Ġing Ãªn
Ġtrope Ã§ar
Ġdolor ido
Ġexplica va
Ġtap inhas
ĠBet ty
Ġrefer ia
ĠAca demia
Ġdemonst rou
Ġvent ania
ĠLon nie
Ġdisc ussÃµes
ĠAu to
pu ta
Sa die
Ġtransforma Ã§Ã£o
aa aa
Ġdece pÃ§Ã£o
ĠEN TRA
ĠSander son
Ġdesconf iar
ĠFer n
Ġcaracter ÃŃstica
ĠÃģrvor es
ĠTri nta
Ġapress ou
Ġpesqu isas
Ġdestran cada
Ġinspe tor
Ġensola rada
Ġtatua gem
Ġdesapo ntado
Ġhid ro
Rob erta
Ġdoent ia
Ġpedes tres
Ġvib rar
ĠpÃŃ lula
Ġfaro este
Ġcantarol ando
ĠVir gin
Ġtravess ia
Ġesvaz iar
Ġcatar ro
Ġamig Ã£o
Ġlampar ina
ĠRÃ¡ pido
Ġpicar eta
Far land
ĠCount ry
Ġindustria l
ĠcÃºmp lice
Ġplat Ã´
ĠMene groth
ĠfÃ´sse mos
ĠDetter ick
K amen
M at
P assei
T entou
i Ã§a
l ua
l Ã¢ndia
o ple
p inho
Ġp atro
qu inhas
Ġm ÃŃssil
Ġn ecro
is er
Ġco o
um ento
Ġv endia
va la
Ã§ asse
de le
el osa
ic es
Ġno no
ĠA bre
ĠA mor
co a
ÃŃ mos
inha va
Ġele vando
ĠN ela
ĠO R
ĠO n
dos os
Ġdes ac
Ġsa grado
ĠB ird
Ġin Ãºmeros
di ar
di osa
ĠR et
Ġent idade
ĠJ esse
Ġle que
Ġle vo
Ġle gumes
das sem
be d
ĠF ry
Ġex ista
Ġser ena
Ġser eno
Ġar tistas
ĠG A
ĠG ul
Ġpre feitura
Ġmo tos
Ġcas acos
Ġra ra
Ġra ros
ac he
Ġimp rim
Ġman ip
Ġman daria
Ġvel oc
ĠW ett
Ġentre cor
Ġencont ros
Ġcal vo
ino is
ĠpÃ© rolas
Ġcons tantes
Ġcons piraÃ§Ã£o
Ġinc red
bra is
Ġfun das
Ġimpor tando
Ġim unda
Ġag enda
Ġaju dei
Ġsimp licidade
ide out
Ġlou vado
Ġdez enove
ĠTer ceira
ĠCh ry
ĠAr ca
ĠHo le
Ġdese quil
Ġri do
Ġagu dos
tan g
ĠnÃºm enoria
che y
Ġil ust
Ġboc e
Ġcinz el
ĠfÃ¡ ceis
ĠQuer em
Ġmem or
Ġajuda ram
Ġconven cida
Ġpl Ã¡stica
Ġavi dez
Ġdep end
Ġapres sa
Ġvig iar
Ġtur ba
ĠAm mit
Ãºn cia
ĠCol inas
Ġligar ia
Ġmin ist
Ġsex uais
ĠVi rei
Ġmex ic
Ġatra ir
Ġderru bÃ¡
ĠCha me
ff ney
ĠPat sy
Ġ7 67
ĠMan sÃ£o
ĠTra cker
ĠMcC lat
Ġcontor cia
Ġinic iar
Ġvit rola
Ġtelefon emas
Ġris p
Ġvom itando
Ġbru ta
Ġtel has
Ġsepara va
Ġdet enta
Ġconvers aram
Ġempres as
Ġvar iedade
ĠSol tou
mu lher
Ġmanda ram
Ġconsul tou
Ġtec las
Ġcintila vam
ĠcÃ´mo dos
Ġapla u
Ġmoto neve
Ġades ivos
Ġrede mo
Ġsombria mente
Ġincom pre
Ġperturbado ra
Ste ph
ĠgarÃ§ om
Ġjaz iam
ĠcrÃŃ ticos
Ġsuc umb
ĠAss ociaÃ§Ã£o
Ġempoeira da
AA AA
Ġajei tou
Ġintri gada
Ġargum ento
ĠBlu enote
Ġempilha das
ĠProf essor
Ġparticipa Ã§Ã£o
Ġintac ta
Ġsangre nta
Ġvagab unda
Ġtremenda mente
Ġbalbu cia
Ġsangu ÃŃne
Ġsint omas
Ġdeser tas
Ġchec ar
ilado res
Ġmulti p
Ġsals ic
Ġian que
Ġesfar ra
Ġbab acas
Ġlimus ine
Ġcafet eira
ĠDeL esseps
Ġbalcon ista
ĠVali um
ĠWett ington
ĠMcClat chey
3 5
A ca
C ha
C ada
H ER
T Ãĵ
a ver
c udo
c lor
f u
l ina
n di
s ville
u rei
Ġs ha
Ġs ina
Ġs kate
er n
Ġt in
Ġes que
ĠS ignifica
ĠS hhh
ÃŃ ficos
Ġre encont
ĠC L
ĠC ly
ĠP oss
ĠT ol
ĠT rig
un ci
Ġcon es
ĠB rin
Ġpe didos
ĠR ad
ĠR EC
ez inho
Ġle ntidÃ£o
it Ã³rio
gar ra
Ġex Ã©rcitos
Ġesp um
Ġan Ã´n
ica is
vel ho
ce go
Ġar d
Ġpre ver
Ġab ran
Ġmo gno
Ġpa to
dia no
Ġpens Ã£o
Ġtra pos
Ġra sa
Ġpra ga
Ġcomp osto
Ġdeix assem
ĠAl ha
Ġtor tos
Ġro los
Ġrep el
Ġtom o
Ġrespon dido
Ġson hei
Ġson hava
Ġtrabal ham
ib or
Ġsur rada
mas ter
Ġesqu entar
ip per
Ġestou ro
Ġposs ui
erv as
ĠdÃº nedain
Ġdorm iam
ĠMa go
ĠCar tÃ£o
Ġpla ntar
ĠAr ch
rie dade
Ġafas tÃ¡
ĠDE US
ĠBob rinha
Ġgal er
ĠY a
ĠPro cura
ĠSte f
ĠNor ville
Es per
ĠAp ple
Ġga y
Ġsussur rar
Ġestacion ada
Ġlen hadores
ĠDon nie
Ġsurg ira
IN H
han na
Ġeng rada
Ġeng ana
Ġconstru iu
Ġreconhec i
ĠDor is
ĠCam po
Ġlam entos
Ġconv iver
ĠZ elda
Ġdespe jou
Ġmarca das
Ġ8 00
Ġpuder mos
Ġbru Ã§os
Ġdemo raria
Ġpub licidade
hh hh
Ġdet entas
Ġigno rado
Le ah
fant il
Ġadoles cÃªncia
Ġora Ã§Ãµes
Ġaga cha
Ġesgo tado
Ġcaval gar
Ġvoltasse m
Ġinfin itamente
ii i
Ġperigos as
Ġpedi ra
Ġino x
Ġchef es
Ġgargal o
Ġbarbe aria
Mc G
Ġrecomp ens
Ġenla me
Ġbagu n
Ġestrangu lado
Ġcida dÃ£o
Ġpublica da
Ġescancara da
ĠChamb ers
ĠgenuÃŃ no
ator ze
Ġferia do
ĠaÃ§ou gueiro
ocra ta
Ġrebate dor
ĠPay ton
ĠWhe el
ĠPaw tuxet
Ġpapagai o
ĠVirgin ia
Ġincred ulidade
L u
d Ãªm
i us
i asse
j or
m am
m eio
n enh
Ã Ķ
Ġ !
Ġd inossa
Ġs Ã£
Ġt ÃŃ
Ġt ava
Ġv ime
da ra
Ġb ras
de ma
ic ida
Ġl is
ĠS cor
ÃŃ pe
on eiro
Ġca tara
ĠD as
us ter
Ġme t
Ġr esse
dos amente
Ġdi visÃ£o
Ġdes am
Ġper curso
Ġpe gamos
ĠJ O
Ġle ma
ĠF le
Ġser inga
Ġh ipp
Ġar ra
Ġcor neta
Ġpre co
Ġab om
Ġass ina
Ġass inou
Ġpa gava
Ġfic has
ita ra
ĠsÃ³ cio
Ġtra go
Ġtra iÃ§Ã£o
nde ga
rou nd
vi Ã¡ria
Ġir Ã£o
ĠÃº teis
Ġjo ias
Ġfil tro
ĠCom b
Ġexp an
Ġcorre tor
tado ra
ĠPe avy
ĠPe ople
Ġinc andes
ĠNo vo
Ġpol ido
Ġru gia
Ġcan cel
ris h
ris sem
ĠTom ou
Ġpul sar
Ġpul sava
Ġvira das
ĠCh ero
pas sados
ĠLo w
Ġdesl ocado
ĠMc K
Ġsuper st
Ġespa ntar
ĠDes l
ĠPro te
Ġsof ria
ĠNor malmente
Ġgru ta
ĠMo tor
Ġbor bu
Ġbor bul
Ġdirig ido
Ġdesse m
ena ult
Ġreun iram
ĠTam pouco
fre nte
Ġdep ender
Ġgas ta
Ġacresc entando
Ġacei taria
ĠGra dy
Ġprocu rei
IS A
Ġobserva dor
ĠGre at
Ġsoube ra
Ġadm irÃ¡vel
Ġalar gou
Ġdob ras
Ġdob rÃ¡
Ġmaravilhos amente
Ġespalha ram
ĠBer tie
Ġperten ciam
Ġpers uas
Ġapren dendo
Ġbate ra
ĠPens ar
Ġsoc os
Ġcoloca dos
cl iffe
ges on
Ġps ico
Ġinsta lar
Ġcruza vam
Ġencer rou
Ġvent iladores
Ou vi
Ġderram ou
Ġderram ando
Ġacele rado
Ġtum ba
Ġtex tura
ĠPr imavera
Ġcontorn os
Ġdisfar ce
Ġdisfar Ã§ar
ĠFic aria
Ġvigor osamente
Ġanuncia ndo
Ġescan carou
Ġpopular es
Ġtim es
ĠPri est
ĠpÃ´ster es
Ġacomo dou
ĠTig er
ĠAcor de
eg rin
ĠquÃŃm ica
Ġensin ara
Ġpir Ã¢m
ĠSac ha
Pre ciso
Ġhemato ma
ĠEar endil
ĠClu b
Ġcongel ar
Ġmodi fica
Ġtagar el
Ġconvuls Ãµes
ĠAT Ãī
Ġrebo co
Ġcav eira
ĠameaÃ§ado ra
Ġvaci lante
Ġhosp ÃŃcio
ĠFlick inger
Ġliqu ida
Ġcontras te
Ġile gal
Ġego ÃŃs
Ġempal ide
Ġembut ido
Ġladri lhos
Ġobc ec
Ġpranche ta
ĠCly de
Ġgaler ias
! '
? ),
B ru
C are
G EM
N orris
P oi
R uth
b ry
e al
g ina
h assem
j eito
n io
n ings
s eria
u ca
Ġd unas
Ġe f
Ġa lei
Ġm ero
Ġco iotes
Ġt Ã³
es c
Ġf urt
Ġf Ã£s
re p
Ã§ al
Ġb uro
Ġb radou
ei ger
gu l
gu er
ri ou
am igo
Ġg iro
ĠS w
Ġma qu
Ġca cho
ĠP ig
ĠP OS
ĠD ias
ĠD isso
Ġcon vid
Ġj arro
ca Ã§a
ca ute
Ġfa gulhas
ĠÃ© l
Ġat ende
ĠV au
Ġent radas
it asse
Ġver me
Ġex ube
Ġpro vis
Ġtem ores
Ġan e
ĠL U
ĠL itch
Ġha bi
ĠG eiger
Ġsob em
Ġmo ntando
Ġlu bri
Ġalg as
pa vam
Ġch ines
Ġvo a
Ġmor domo
ua da
Ġvi as
Ã¢ ntan
Ġir res
ch Ã¡
Ġdire i
est im
gra fos
Ġencont radas
Ġexp ondo
Ġcal om
Ġcal Ã§Ã£o
Ġban ca
Ġpres id
Ġcan udo
Ġcarro Ã§as
fa Ã§Ã£o
ĠCo w
Ġcho rado
Ġtorn eio
Ġad ent
Ġag iu
Ġapo de
Ġcur var
Ġcur vando
Ġor Ã§amento
Ġce ia
Ġtoc ha
ÃŃs semos
ĠHar kness
Ġfam intos
Ġri pas
Ġlig asse
ĠTem p
Ġdesa b
Ġempur rei
Ġaco me
Ġbrilha m
Ġassus tava
Ġfuncion avam
Ġgo z
Ġrecu aram
Ġabri ria
Ġcontro les
Ġext ras
Ġven das
ĠCa pe
Ġvir iam
Na omi
ĠTam pa
IN O
IN U
Ġdec rÃ©
ĠCor inne
Ġvara l
Ġenvol vidos
ĠGre tchen
ipp y
Ġacer tando
Ġdescul par
ee ee
Ġagrade cimento
Ġinsist ente
Ġcomb inado
Ġprefer e
Ġinic iou
Ġcontemp lava
Ġlin dos
tern idade
Ġinfor mado
ĠLeva nte
Ġescure cendo
Ġreduz ida
Ġeco ando
Ġfing iu
Ġmus cular
ĠSha piro
Ġbloque ar
Ġreto mar
Ġbai ta
Ġcaut elosa
Ġsilencios as
ĠMon ica
Ġcen ou
Ġdescont ra
Ġescal ar
Ġesf ria
Ġinoc entes
amar ela
Ġmunicipal idade
Ġescar late
ĠPerce bi
Ġequilib rar
Ġafrou xou
Ġtatua gens
ĠSher idan
ĠRip ton
Ac ima
Ġcomemo rar
Ġrevi rando
Ġveran eio
Ġtape tes
Ġcompartil har
ĠcÃ´m ico
ĠtÃ©rm ica
Fo ram
Ġseren idade
Ġax ilas
Ġindepend entemente
Ġimpon ente
Ġantigu idade
Ġcarru agem
Ã¢nda lo
Ġsaib am
ĠfÃŃ gado
Ġmagric ela
ĠWoman Care
ĠCotter ie
ĠFry e
ĠLitch field
Ã¢ntan os
C U
O este
T h
d h
n unca
v ento
w ns
Ġp Ãªs
er t
ia ra
da bi
en ie
ent rion
Ã§ uz
Ġb ou
Ġb lu
Ġb rim
ĠE a
ĠA U
ec era
.. ..
Ġest endido
Ġca chos
Ġca vando
inha do
Ġos s
ĠP h
ĠÃ į
ĠT ÃŃnhamos
Ġen xo
ma la
Ġpo ntes
Ġper didas
ens tein
ĠF UN
ĠG el
eu zinho
Ġmo itas
Ġass ociaÃ§Ã£o
Ġesc ra
Ġtra dicional
ĠI ra
Ġfal aria
Ã¢ ndega
Ġir mos
za va
Ġesta los
Ġsol teira
Ġmar cou
Ġacontec imento
ĠK ale
Ġob l
Ã¢n icas
Ġtom aria
ais er
Ġba bÃ¡
Ġba leia
esta dual
Ġva gos
Ġsub mar
ĠJo gos
ĠPe psi
Ġgu ri
ÃŃn ios
if iquei
Ġolha mos
tu almente
Ġtro ll
Ġtro cados
Ġcontinu o
Ġapo ntado
Ġsimp Ã¡tica
Ġano tar
Ġvoltar Ã¡
ĠMor de
Ġlou cas
Ġamar rou
Ġtrem el
ĠHo pe
Ġcru ci
Ġconc urso
ĠHar per
Ġfecha vam
Ġcava lete
Ġrela Ã§Ãµes
Ġrel ÃŃ
ĠDE R
Ġcarre gÃ¡
ĠBo one
ĠBo ok
Ġespa ntada
ĠPar is
ula c
ĠMo ose
oo k
Ġlim Ã£o
Ġespecial istas
Ġbei jando
Ġconside rada
ĠCor o
Ġgor jeta
Ġsatis feitos
Ġprate ados
Ġrecor dando
Ġsup lica
ĠGa ffney
Ġdig am
Ġlivre mente
ĠJu venil
Ġserv indo
ĠHu nt
Ġagrade Ã§o
ĠEst ran
Ġenro lando
Ġestra dinha
ĠmÃ¡g icos
ĠDisse ram
Ġfranz ido
Ġconduz indo
ĠdÃ© cadas
Ġbu fando
we ed
ĠFor Ã§a
Ġpersegu indo
Ġdoc inho
ĠImag ine
Ġinfeliz es
ĠLon ga
Ġpossu ir
Ġpano rama
Ġmelho rando
Ġcintila va
Ġresmun gando
ĠpolÃŃ ticos
Ġtestemun har
ĠExa to
Ġmila g
Ġaut Ã³psia
Ġfla me
Ġmont ÃŃculo
Ġjaz endo
ĠcrÃŃ tico
Ġnoj enta
Ġuiv ar
Ġelo gio
ĠidÃªnt icas
Ġlix eira
Ġdelic ioso
Ġabor to
Ġosci lava
ĠLen ny
Ġdebru Ã§ou
Ġaguar dava
Ġafrou x
ĠsÃŃmb olos
Ġperam bu
Ġperam bul
ĠFort una
ĠalienÃŃg enas
Ġressent imento
Ġcaixo te
Ġassob iando
ĠSpr ing
ĠEdi fÃŃcio
ĠPur sey
ĠemprÃ©st imo
Ġestil ingue
Ġdispar os
Ġpriva cidade
ĠespaÃ§ onave
B ro
G andalf
H E
O lhando
S co
T y
W ill
c ir
c hor
f les
p ris
p esso
t rem
v eio
z eman
Ġd ram
Ġs am
qu ad
os ene
Ġo fÃŃcio
Ġque ixa
Ġv Ã³s
re e
le co
ent ador
Ġcom Ã©dia
ro l
al gum
Ġda mas
Ġsu ar
Ġsu pre
Ġre inado
ĠN ixon
ĠM UN
ĠD ulac
ran dir
ve y
po le
ĠT ashmore
Ġsa cada
ĠB O
ĠR ut
Ġap ocal
Ġla gos
Ġla vando
Ġres son
tar em
Ġsob rara
Ġsent imos
Ġcas eiro
Ġlu xu
Ġcam uf
Ġsobre vo
pe qu
vo ada
Ġcome ram
Ġmor didas
Ġra re
ĠI lha
ĠI mediatamente
Ġresp lande
ch eiro
Ġesta dos
Ġesta cas
Ġesta lido
Ġsol tava
Ġvis itando
Ġso la
Ġso zinhas
Ġencont rassem
Ġcal cular
Ġrep ass
ost y
Ġban quinho
Ġlo do
Ġsal iÃªncia
Ġespe tado
ĠCo om
Ġbas tÃµes
Ġag ilidade
tu i
Ġexa u
Ġapo iadas
ĠpÃ´ neis
ĠMor reu
Ġfer vor
Ġaper taram
Ġdesc endente
Ġescre vo
Ġri fles
ĠMc A
Ġquad ric
Ġagu entou
ĠmÃ© todo
Ġment iu
ĠIn fantil
Ġinv ent
Ġassass inada
Ġcompre ensÃŃvel
Ġajuda nte
Ġens inado
Ġofer ece
Ġcruz ado
Ġconstru ÃŃram
Ġcolo que
ĠPete y
ĠPen ny
ĠNew port
Ġdro gado
Ġama ntes
Ġrecor de
ĠnÃ© on
Ġind ÃŃcio
ĠSegu rou
cel Ãªncia
Ġnatural idade
ĠÃ´n ix
Ġjul gado
ĠSenhor es
ĠVol tar
Ġbil hÃ£o
Ġconcent rando
ĠLu gar
ĠtrÃªm ulos
ĠBru xas
ĠpÃºb licos
Ġdever ÃŃamos
Ġgolpe ou
Ġpri or
Ġrecupe rado
Ġdesist ido
Ġgigantes cos
Ġacal mÃ¡
Ġgat inho
Ġsuspei tas
Ġinva dido
Ġenvia ndo
Ġestup idamente
Ġesgo tos
Ġpercor rido
Ġbloque ada
Ġconju ntos
Per cy
Ġlit erÃ¡rio
Ġfazende iros
Ġmoment Ã¢neo
Ġreceb Ãª
Ġcontorn ando
Ġconfer Ãªncia
ĠFec he
Ch ris
Ġvul tos
Ġperigos amente
Ġdesenvol vimento
Ġamedro ntada
ban y
Ġencaix ar
Ġflutua vam
Ġexpul so
Ġdesvia ndo
Ġpus esse
Ġprovid Ãªncias
Leva ntei
Ġacaric iou
Ġelim inar
Parec e
ĠbÃ¡s ica
ĠminÃºs cula
ĠcÃŃ mb
Ġton alidade
Ġdissip ar
ĠMus tang
Ġindis cu
Ġdivis Ã³ria
Ġpedes tal
Ġvere ador
ĠIrm Ã£os
Cu jo
Ġhedi on
ĠFranc isco
Ġassemel hava
ĠBai le
ĠGam ache
Ġremanes centes
ĠEspecial mente
ĠEw ie
Ġere Ã§Ã£o
ĠLamp ley
Ġmarmo ta
Ġplaus ÃŃvel
Ġcache col
ĠIll inois
ĠnÃºmenoria nos
A po
A cor
B ec
G RA
G wendy
M amÃ£e
W es
a vermel
c entas
f ra
n ou
n Ã³s
o t
p osto
r Ã³p
u ti
w ater
Ġ Ãªn
Ġe ru
Ġc is
Ġc itar
Ġs itu
ar te
Ġt eles
es i
or t
Ġv enho
va dor
ĠE g
Ġem be
ĠA in
ĠA ga
on dist
Ġre vez
Ġre mor
ĠM AR
ĠM ich
ran o
Ġmas tur
un o
Ġsa nto
ĠB y
ĠB olo
Ġin um
ĠH i
ens haw
ĠF ood
Ġla Ã§os
Ġto nta
Ġcor tadas
Ġpre gador
Ġpre ciosa
Ġab ominÃ¡vel
ver deado
ĠEs pa
Ġpa ntan
Ġfor mos
Ġlu cro
pe y
Ġquer osene
Ġsab onete
Ġpra ias
ĠI M
Ġvi emos
Ġir Ã´nico
ĠW icker
lha da
hos a
Ġtor cido
Ġsen il
ĠK ar
ĠK ada
ĠK aiser
Ġaf ei
ba go
Ġcab ide
Ġbal ancei
Ġpres te
Ġcontra tou
mel hor
ĠHa ver
Ġbat ista
Ġbat imentos
ĠMar ten
Ġag itava
Ġapo ntada
Ġconta vam
ĠSim mons
Ġpla tÃ©
ĠRe ba
cip almente
Ġarran ha
Ġsensa cional
Ġinf ilt
ĠRa fferty
ĠDes aparec
Ġsof t
Ġsusp ense
ific amente
ĠAp an
dic amente
che u
Ġret in
Ġrapaz inho
Ġinv entou
Ġbus cando
Ġcir cul
Ġpisto las
Ġcompre enda
Ġclar Ãµes
ĠEx pe
Ġreun indo
anda l
Ġcompan heira
Ġdec isÃµes
Ġ4 2
Ġx ingando
ĠGran ger
Ġform aram
Ġcus pe
Ġench ente
ĠVi Ãºva
Ġanda mento
Ġvale nte
Ġpasse ios
ĠFal ando
Ġjard inagem
ĠWal mart
Ġ15 0
Ġdomin ou
ĠTre vas
Ġtu fos
Ġsuger indo
Ġesquis itas
Ġproprie dades
Ġexib iu
To do
To da
Ġsoc iais
Ġ11 7
Ġofic iais
Ġsepara do
ĠSta nton
Ġcoch ilar
rb on
ĠSho pla
Ġnotur nas
Ġgarant iu
ĠImag inei
Ġcura do
Ġdefin iÃ§Ã£o
ĠÃ¡l ibi
ĠFar nham
ĠautomÃ¡ ticas
Ġaluc inado
Ġproteg ida
Ġfel tro
Ġpel udo
ĠGor g
Ġconcl usÃµes
Ġmortal mente
Ġvin das
ĠPr ice
Ġcola te
Ġvac ilou
ĠReg is
ĠTur co
ĠBev vie
Ġimbec is
Ġhabil idades
Ġsuc essÃ£o
Ġprovid Ãªncia
Ġchamin Ã©s
ĠEsp osa
Ġprolon gado
Ġimens os
Ġdivi dia
Ġbin go
Ġesvoa Ã§ando
Ġsemic ÃŃrculo
ĠhipÃ³tes es
Ġsignific aria
ĠMach ine
ĠÃ³r gÃ£os
Ġengat inhar
ĠEX P
ĠlongÃŃnqu o
Ġdedic ado
ĠDig amos
Ġocorr Ãªncia
Ġinstint ivamente
ĠDeci di
Ġencom enda
Ġsevera mente
Ġtax ista
Ġcassete te
Ġcogum elos
Ġprud ente
Ġbir uta
Ġiner te
Ġengrena gens
Ġcub ÃŃculo
Ġpim enta
Ġpse ud
ĠMander s
Ġfarfal har
ĠAÃ© rea
ĠrÃ³t ulo
ĠHas kell
Ġanfit riÃ£o
Ġcacar e
Ġinox idÃ¡vel
Bru tal
ĠKale vala
ĠplatÃ© ia
ĠShopla w
E E
E llie
L inda
N ÃĥO
S ol
T ornou
c amos
e Ã§o
f ina
j Ãµes
m ia
n inguÃ©m
p asse
x ie
z io
ra gem
Ġs uma
os sa
Ġo ca
Ġv osso
en quanto
ro co
gu eiros
ĠA cer
te t
ĠS tr
Ã³ ticas
ol ar
ĠC amp
Ġme dos
ĠT en
ĠT Ãº
Ġcon haque
ĠB r
ĠB ir
Ġper pÃ©
Ġin ima
di g
ĠV in
ĠJ ill
he Ã§a
ĠF eno
Ġex cursÃ£o
Ġsua da
Ġan z
ce ps
ĠG ur
Ġpre en
ĠEs tive
iz ei
Ġsent im
Ġcar ica
Ġcas t
Ġpra gue
Ġir rom
Ã³s tico
Ġjo gados
Ġpoder Ã£o
Ġvolta da
Ġpen du
Ġro lavam
Ġso avam
ing ado
ĠEnt ra
Ġer rou
cion almente
Ġins iste
ĠPe Ã§o
Ġtran co
pos o
jo el
Ġaca dÃªm
iga nte
cas o
Ġfu ro
Ġfun go
Ġesqu ema
vem os
Ġav ol
Ġimpor tasse
ĠHa zel
Ġim itando
ĠSa lem
Ġconf ess
Ġconf essou
tu as
Ġrou bando
Ġguar dei
Ġfer ir
Ġfer til
Ġneg lig
au la
ĠPer di
Ġtermin aria
ĠHar tsfield
Ġcarre gamento
ĠNe ary
Ġras pando
ĠDes jardin
ĠPro cu
ifica Ã§Ãµes
ĠCas ca
Ġassus ta
xo xo
Ġconseguir iam
Ã³r icas
Ġsussur ra
sim as
Ġobserv Ã¡
Ġfug i
ĠCa vana
ĠEx am
br icas
fre y
AS S
Ġbic ha
Ġcruz aram
Ġgela tina
Ġ4 8
Ġgas es
Ġacei tava
Ġresol vi
ĠGra tui
Ġpermit iria
ĠAt l
Ġdisp unha
Ġpei do
Ġcaminha vam
Ġrea giu
Ġ6 5
Ġpertur bar
ĠES TOU
ĠCu ide
Ġtoca vam
Ġmergu lhando
Ġflu ÃŃa
Ġmaravilhos as
ĠCur tas
ĠMal l
ĠmÃ¡g icas
Ġapren diz
AM OS
Ġsuger iam
ĠHol den
Po dia
ĠX V
Ġsolu Ã§o
ĠÃºm idas
Ġori entaÃ§Ã£o
Ġimpression ada
Ġrepres a
Ġdom ingos
Ġgrave tos
Ġacele rar
Ġorgan izar
Ġtec lado
Ġencontra rem
ĠTar de
Ġcoz inhar
Ġdistra ÃŃda
Ja cobs
Ġexc lu
Ġlit ros
Ġcess aram
ĠPla za
ĠFic amos
ĠVia jante
Ġtriun fante
Ġvelo zes
Ġafirma Ã§Ã£o
ĠExce lente
ĠLiv ros
Ġacaric iando
Ġnega tivo
Ġremex endo
Ġpropor Ã§Ãµes
Ġimplo rando
ĠaÃ© reo
ĠRoy al
ĠAS S
ĠScho ondist
Ġestendi dos
Ã¡l ias
ĠJas on
Ġclare ar
esp osa
Ġmaltra tado
ĠSum mers
Ġveteran os
Ġchuv osa
ĠRy der
Ġrobus to
Ġalf inete
Ġinco er
Ġpercorre ndo
Ġcele bri
Ġrecur sos
Ġmedic ina
ĠHeming way
Ġchoramin gou
Ġbilhe tes
ĠlÃºgu bre
Ġazule jos
ĠLaw rence
ĠnÃ¡use a
Ġdesven cil
ĠvÃŃr us
ĠPac ÃŃfico
Pear son
ĠmÃºm ia
Ġapressa damente
ĠScor e
ĠCoom bs
ĠcÃŃmb alos
Bec ka
ĠCavana ugh
ĠGratui TV
D EM
M M
O llie
S Ã£o
S lo
T e
T EN
b rado
c lu
i deira
k espe
m ita
m Ã£e
Ġe ta
Ġa te
Ġde ri
Ġde mos
nt z
Ġm ei
er i
ou bert
ou fax
la ca
Ġdo br
co isas
te xto
Ġma le
Ġre men
ĠN E
ĠN aro
ĠM i
ĠD ist
lh u
ĠT rusdale
Ġsa tÃ©
ca t
Ġper e
Ġin comp
Ġmu la
Ġmu letas
Ġac elerou
Ġeu f
Ġeu for
Ġent alhado
ĠH ard
Ġis ca
Ġver em
Ġan ci
Ġres sal
Ġab ut
Ġsob rinha
ĠEs pec
Ġpa vimento
iam i
Ġvo ador
Ġmor na
Ġtra tado
na vam
Ġdeix o
ess enta
Ġesta ntes
Ġtor tu
Ġro la
ne tte
Ġsom e
Ġtom adas
Ġinter mit
Ġsub l
Ġtran sa
Ġficar mos
Ġtrabal hei
Ġun idos
Ġforma da
Ġcan sar
Ġbol or
Ġcontra tado
id aria
ĠHa garty
end ron
Ġim obili
Ġad ver
ĠQue en
Ġbon zinho
ĠOu via
Ãªm ios
Ġau diÃ§Ã£o
Ġmost re
Ġamar rados
Ġrec he
Ġconver sado
Ġpul ver
Ġprin cesa
ĠPer ry
Ġri em
Ġrela tar
Ġdesl ocar
Ġbrin cava
Ġref ul
ĠMe todista
Ġapa gados
iza Ã§Ãµes
Ġguarda das
Ġlate jante
Ġven ceu
Ġagra dar
van g
Ġpisto leiros
Ġlim iar
Ġrepe ti
ĠfÃ¡ bricas
ĠPre t
Ġasso bia
Ġdec is
Ġama da
ub us
ĠGre y
Ġalar mante
Ġfigu rinhas
nd Ãª
Ġsupor tes
Ġinsist indo
Ġdeter io
Ġmud aria
Ã¢ne as
ĠHol loway
queta que
ĠIr win
Ġreceber ia
ÃĬ S
Ġvar re
ĠSta te
ĠPaul ie
Ġrepres entar
Ġrosa das
Ġreduz iu
Ġrefei tÃ³rio
Ġadi ar
Ġpne um
Ġarris cado
Ġforn ecer
Ġmonstru osas
Ġobe di
Ġbrus co
Ġtransform ador
ĠalcanÃ§ aram
Ġemaran hados
Ġreluz indo
Ġfare jando
mond s
Ġodi ar
Ġlamp iÃµes
ĠFic aram
Ġmoder no
Ġrelig iÃ£o
ĠlÃŃder es
Ġajei tar
lim inar
Ġk it
ĠDur gin
Ġosci lante
Ġobriga Ã§Ã£o
iote rapia
Ġcumprim entou
Ġconfun dir
Ãºl ti
ĠOx y
ĠminÃºs culos
Ġestabele cer
Ġintest ino
ĠtÃŃp ica
ĠÃ³r gÃ£o
ĠpÃª los
Ġtagar ela
Ġlag osta
Ġsonhado ra
ĠJus tin
Ġcartu chos
ĠfaÃŃs cas
Ġespiri tual
Ġsentin elas
ĠpossuÃŃ am
Ġenx ame
Ġalca Ã§uz
ĠEas ter
ĠincrÃ© dulo
Ġprostitu ta
ĠBata lha
Ġassemb leia
Ġcongre gaÃ§Ã£o
Ġvulner Ã¡vel
Ġjacar Ã©
clor e
ĠKada th
ĠNaro g
B M
D ick
P at
S on
e de
h ias
m Ã£os
Ġa ren
Ġp ino
Ġde g
Ġm inas
Ġm Ãºlti
do n
Ġo ita
es co
Ġf rito
Ġes fo
an hos
Ġb ÃŃ
Ġb isa
to ns
im i
im amente
ic on
ri etta
ĠA ti
Ġna tivos
Ġca Ã§ando
Ġre forma
Ġal he
Ġme d
Ġj ipe
ĠB ILL
Ġac ent
ĠR i
ĠJ A
ĠJ oubert
Ġap uros
Ġpr est
ĠH it
ens or
Ġcont atos
Ġh il
Ġla v
Ġla bar
Ġto le
Ġan jos
ĠL anÃ§ou
ce beu
cia do
Ġdiz Ãª
Ġcar os
cont ra
Ġcer vos
mb ra
Ãµ em
Ġtempo ral
bo la
ĠAl ta
ĠW anda
Ġjo gara
Ġgran dÃ£o
hos as
Ġro lha
Ġrep olho
ĠK ATIE
Ġtom ados
vor ou
Ġins ensa
ĠNa vio
Ġpalav rÃ£o
Ġacab amos
ĠCo gan
Ġci ntos
Ġgra cinha
Ġconf io
Ġtro fÃ©
ĠrÃ¡ dios
Ġcontinu ando
ĠpÃ¡ roco
ĠforÃ§a da
Ġtelef Ã´nico
Ġmil k
ĠCar une
Ġpla ntÃ£o
ĠEn gle
Ġdesaparec iam
Ġlar gado
Ġesquec idas
Ã´n ias
Ġaparec era
Ġafas tei
Ġesca va
ĠMc Farland
Ġsuper s
Ġpi ntando
ĠIn verno
Ġfei as
ER S
tel Ã£
ĠFrank enstein
Ġpun gente
Ġobserv ei
Ġven cido
Ġven cedor
Ġlocal izar
ĠCa vell
van na
Ġbre ves
ĠEx press
til has
Ġmorta lha
AN A
ĠBa b
Ġretor cida
Ġassist iu
Ġrecor tes
IS TA
Ġdiminu ÃŃa
Ġmachu cada
Ġjor rava
Ġsex y
Ġident ificado
Ġregist rou
Ġregist rada
Ġsecre tos
Ġcomun icar
Ġeleva da
ĠHe ath
ĠMan dos
Ġfres cos
Ġcaus ada
Ġprefer iu
Ġcuidados a
atura is
Ġqueima das
Ġempres tado
Ġpont eiros
ĠJan et
Ġinfor t
Ġhip n
Ġfale cida
Ġsho ws
Ġpavor oso
Ġocul tos
Ġespor tivo
Ġperm ita
Ġset entrion
ĠCidade la
Ġemba lagens
Ġestica das
Ġinfin ita
Ġfras cos
Ġcess ar
ĠBan k
Sem pre
Ġreluz entes
Ġrecon stru
Ġconcorda ram
Ġrelacion ado
Ġcheira r
ĠOde io
ĠSab em
Ġatordo ada
Ġflutua nte
ĠsaÃŃsse m
Ġderro tado
Ġparalis ia
Ġprovoca va
Ġsecun dÃ¡
Ġdescu idado
Ġbarulh enta
CI ON
Ġmanuscri tos
Ġflan co
ĠTig re
ĠDem ocrata
ĠamaldiÃ§o ado
ĠInc linou
Ġgener osa
Ġgener oso
Ġhomen zar
Ġenru gado
Ġaspir inas
Pa la
ĠAnde i
Ġesbar rou
Ġdetec tor
ĠAtrav Ã©s
Fred dy
ĠKay leigh
ĠbinÃ³ culo
ĠbinÃ³ culos
Ġprotu ber
Ġespon ja
Ġmig alhas
Ġconquis tar
ĠÃ©lf ica
Ġalde Ãµes
Ġpalm eiras
ĠAcker man
Ġpremon iÃ§Ã£o
Ġcateg oria
ĠChero kee
Ġeufor ia
B la
N I
T irou
c imentos
f ase
Ġp Ãºrpura
Ġt rian
es qu
in k
Ġf itar
Ġf itÃ¡
da nte
Ġb ocal
ĠE theridge
Ġl ocutor
ĠA eroporto
co ran
Ġg ene
oc orro
te d
ĠS k
il le
ĠP Ã´
ĠP ES
ĠD ie
Ġal tamente
ĠB E
ĠB un
Ġfa tor
Ġper n
Ġpar iu
Ġpar tidas
Ġin undou
iv is
... )
ĠR ory
ĠJ or
ga tivo
ĠH iggins
ĠF AL
Ġcont em
Ġan ual
ĠL und
ĠL ÃŃngua
ce tta
ĠG osta
Ġab st
Ġass inado
Ġsegu em
ĠDe ver
pe ram
udo lph
Ġvo dca
Ġsab ore
ĠsÃ³ r
ja cente
Ġra so
Ġra iv
Ġcomp osta
Ġdia nteiro
Ġdeix adas
ĠcomeÃ§ assem
ti Ã§os
ĠAl bany
Ġjo gadas
fer Ãªncia
Ġtor cedores
Ġouv ida
Ġleva nte
Ġtom Ã¡
Ġcu ecas
cion ava
Ġus aram
Ġdent ista
Ġsub ira
Ġban c
Ġban deiras
ĠPo nto
car ro
Ġju deu
Ġbe Ã§a
ad inha
Ġta lent
Ġgos te
ĠCo ntei
Ġag itar
Ġjan g
Ġcontinu ado
Ã©s imo
ĠBe at
Ġacor dados
Ġce po
ĠCar lin
Ġamar gamente
Ġpeda lando
ĠLo vie
RA R
Ent rei
Ġempur rada
Ġfe deral
che gado
sim itÃ©rio
Ġinv entado
Ġ3 00
Ġexplo dido
ĠDon ati
eric amente
Ġsul ista
Ġpret endesse
Ġating ira
Ġajuda ntes
Ġev itando
Ġabra cei
Ġtur bu
Ġestiver mos
Ġilum inados
Ġexcla ma
ester n
Ġassustado ramente
Ġquebra ram
ĠTra zia
Ġalar mada
Ġfres cas
Ġprefer iria
Ġgram pe
Ġvit oria
Ġplane jar
EL O
Ġala ranjado
Ġsepara Ã§Ã£o
Ġperde mos
Ġpiso te
Ġcant il
Ġpenet rando
Ġsuf ocou
Ġdelica das
Est endeu
Ġgrav ura
Ġorig inais
Ġmata gal
Ġfing ia
Ġcompara do
Ġcere brais
Ġreme xer
Ġtum ulto
Ġcusp ir
Ġcess ado
ĠGal li
Ġbebe douro
Ġdeso lado
Ġaterror izante
ĠSco oter
Ġfru to
Ġfuz is
ĠKy le
Ġexpul sou
ĠRich ler
Ġdesvia ram
Ġfren Ã©tica
Ġantiqu ada
Ġespira is
Ġtranspar entes
Ġbam ba
Ġexage rado
garo tinha
ĠminÃºs culas
ĠSy l
Ġtrin cheira
Ġesquele tos
Ġmedon ha
ĠRy an
ĠclÃ¡ss ico
Ġincessa ntemente
Ġrepresenta nte
Ġextrava gante
Ġcomplica da
Ġinsegu ro
Ġchate ado
Ġsalt itando
ĠLin dy
ĠbÃ© tula
Ġprocess ador
qual quer
Ġfed endo
Ġnen Ã©m
Ġotim ista
Ġensurde cedor
ĠBomba dil
Ġabe tos
Ġinfern almente
Ġesfa que
ĠLock ridge
Ġindigna Ã§Ã£o
ĠRever endo
ĠYa vanna
A fas
C UL
G ran
b ino
u dio
u lhu
Ġp eles
qu ial
nt ador
Ġm inho
as tes
ar re
ar to
Ġt olos
es ota
or den
Ġum bral
la ch
Ġcom emos
Ġl orde
Ġg iras
ĠS Ã©
ĠS endo
ĠS AL
ĠS ecas
ĠS arey
on g
Ġas fix
il es
il ton
ĠP U
ĠP ei
ĠM UL
ĠM EL
Ġal ce
Ġdis cur
Ġme tan
ĠT r
ĠT ivemos
Ġdes inter
Ġen ra
ĠB ates
ca be
Ġpo vos
Ġpar ceiros
Ġpe gada
Ġent endesse
Ġent endimento
Ġtem endo
Ġcont Ã©m
Ġla tim
ica Ã§Ã£o
ĠL ac
Ġcor dial
lo gia
ima is
Ġpre Ã§os
Ġres idente
Qu atro
ĠEs ca
Ġcas ulos
ĠDe tes
ĠQu is
ita velmente
Ġpou sado
ĠI nde
Ġte us
Ġte imos
Ġman ÃŃaco
Ġvi deo
ĠAl lis
Ġvel Ã³rio
Ġne gou
Ġprim Ã¡ria
Ġtor cia
est u
era is
for Ã§a
Ġsol tado
Ġsol tÃ¡
Ġvis itado
Ġob tura
Ġcons ervar
ns field
Ġgu inada
Ġinc ent
Ġsur to
Ġdar Ã¡
Ġcan alha
Ġsal vado
th ulhu
Ġta h
Ġpalav rÃµes
Ġbat u
Ġgra tu
Ġgra dualmente
ĠSa iam
Ġconf l
rig ht
Ġcur sos
ud h
Ġtri tura
Ġchegar Ã¡
ĠMa leen
Ġfer ocidade
Ġmost rasse
Ġaper tadas
ĠTer rÃŃvel
Ġconver sou
vid entemente
Ġvira dos
ĠCh uu
Ġz um
ĠAr s
Ġpreocu pou
Ġesquec ia
ĠPer dÃ£o
Ġcap tado
Ġcap ital
Ġarran hado
Ġenc al
Ġsensa ta
Ġpal idez
ĠTem pleton
Ġsuper vis
Ġapa ga
Ġagu enta
ĠCas as
Ġfuncion aria
che on
Ġaproxim ado
Ġsaco de
rea dy
Ġcontro lada
Ġexist ido
Se ja
ĠVer e
Ãĥ E
Ġating i
ĠCor coran
ĠCont ra
Ġpega josa
Ġcus tou
Ġprocu re
tinha m
Ġ5 00
Ġanima dos
Ġpovo ado
ĠCha ma
Ġabaix ando
Ġcurva dos
Ġdura ria
Ã©tr ica
ĠestÃº pidos
Ġpagar ia
ĠFal ar
IA L
Ġfurios os
ric h
Ġinsist Ãªncia
Ġmancha das
Ã´m ica
Ġencolh ida
iqu em
Ġconcent rada
Ġron ron
Ġgent is
Ġesquis itos
Ġconclu ÃŃdo
Ġsolu Ã§ando
Ġautor izaÃ§Ã£o
ntal ho
Ġvas os
Ġ196 2
Ġ196 4
Ġincr ÃŃveis
Ġpec ados
Ġpri vil
ĠSta nsfield
ĠDick ens
Ġori entais
Ġbu f
Ġassum indo
Ġfamos os
Ġhorizo ntal
ĠAu le
ĠEsper ei
ĠHill s
inn esota
ĠMA INE
ĠColo que
Ġembar caÃ§Ã£o
Ġcolor ida
Ġenfi Ã¡
ĠLi guei
ĠMon o
Ġvibra nte
Ġsobressal tado
Ġromp ido
Ġlamb endo
Ġempol gado
Ġassent i
Ġadmira do
Ġfis icamente
Ġbizar ra
Ġesbo fe
Ġmaj estos
Ġrus sos
ĠBat ista
humo rada
Ġindifer enÃ§a
Ġantebra Ã§os
Ġguer ras
Ġinspe Ã§Ã£o
ĠcÃ³p ias
Ġultrapass ar
Ġmanifesta Ã§Ã£o
Ġpira ta
Ġtreme ram
ĠAus tin
Ġcaixo tes
Ġentrevis tas
ĠApro xim
Ġbis bilho
Ġindef eso
Ġmelanc Ã³lico
Ġagl om
Ġopera Ã§Ãµes
enci Ã¡ria
Ġantec ed
How ie
Ġfarra pos
ĠÃ³t imos
ĠSna b
ĠMith randir
Ġpigarre ou
ĠfotÃ³ grafo
Ġhigi Ãªnico
Ġtubar Ã£o
mom ento
Ġcordil heira
ĠENTRA DA
Ġbou rbon
ĠDER RY
Wes ley
kespe are
Ġoita vo
Ġhomenzar rÃ£o
H om
H OS
H AM
H ugh
S ob
V EN
V EL
b its
c urou
j Ãł
n u
n cia
s ta
v Ã©m
Ġd rive
Ġp Ã¢ntanos
Ġde feito
Ġqu ilo
Ġco let
Ġco Ã§ando
ia gu
Ġf lash
Ġv oc
le d
ent amos
Ã© rito
de os
ĠN Ã£
ĠC ÃŃr
ĠM ent
ĠD ix
ĠO ntem
ĠO live
Ġdis sim
Ġme dica
Ġen rugada
ĠB ast
sa bia
ĠV ira
ĠV iva
ci dez
Ġent riste
Ġle p
Ġle ntas
it aria
ura dos
ros e
ĠG ene
ĠestÃ¡ tuas
Ġpre ndÃª
ver dade
Ġparec essem
Ġmo inho
Ġmo ntada
iz am
Ġpa vio
Ġsent avam
ig er
Ġesc ro
Ġam am
Ġtra fica
Ġcha ta
ĠI d
ĠI da
Ġvi veram
Ġir landes
oca dos
Ġne ta
Ġpos iÃ§Ãµes
Ġti quetaque
ĠÃ¡ ra
Ġtom avam
Ġcol isÃ£o
gue tes
Ġinter medi
ib el
lu gar
th ers
Ġbol inha
if ique
min ado
Ġim er
Ġconhec idas
Ġbri gando
Ġesco lares
lic es
ĠBe ar
ĠLe gal
ender son
Ġsegui das
Ġcru cial
Ġpal est
Ġdese m
Ġesca param
Ġrela tÃ³rios
Ġfar pas
ĠFa ir
com be
Ġfuncion asse
Ġfei tiÃ§o
Ġata cando
Ġvir gem
Ġmol hou
ĠGar rett
Ġado ro
Ġrepe tiÃ§Ã£o
ensa va
ĠEx cursÃ£o
Ġur sinho
IN T
Ġcompan hias
ome o
Ġabra Ã§a
Ġhor Ã¡rios
ang ol
Ġacresc entei
Ġtur bul
gg y
ĠGa len
Ġdig na
Ġpat ru
Ġmachu que
Ġmaravil hado
Ġench iam
uz zi
Ġamp las
Ġrea b
Ġapan hÃ¡
Ġcurva da
ĠTra ga
Ġdob rada
Ġfix aram
Ġvie la
Ġcaus ava
Ġperten ces
Ġamarela dos
Ġedi tora
Ġron cos
Ġretorn ando
Ġexib iÃ§Ã£o
Ġsoc i
Ġlan Ã§as
Ġopin iÃµes
Ġdemon ÃŃaca
Ġsinist ras
ier e
Ġalim entava
Ġbro tando
Ġrepres entava
Ġesma gar
Ġesma gando
ffe e
ĠCris s
Ġante passados
Ġsobren aturais
Des de
Ġarris cou
ĠCOM P
Ġretra tos
ĠFar ei
Ġsug estÃµes
Ġderre tido
Ġinclu ir
Ġinclu ÃŃa
IC O
ĠAcredi ta
Ġchar utos
ĠDeix em
Ġempo leira
ĠWar rington
Ġmovim entaÃ§Ã£o
Ġoscil ar
ĠÃŃnt ima
Ġrom Ã¢nt
Ġfais cando
Ġpulsa nte
Ho je
ĠAN D
ĠLen g
tÃŃ culas
Ġserra gem
Ġchurras queira
Ġesclarec er
ĠRai der
Ġrodovi Ã¡ria
ĠKin der
Ġsobrevi veu
ĠMos queta
Ġinstant Ã¢neo
Ġdesori entado
ĠGrin er
ĠcatÃ³ licos
Ġprotu be
Ġesperan Ã§oso
ĠÃļ lt
ĠHorr ores
Ġpreca uÃ§Ã£o
Ġdur ma
ĠcÃ£ ibra
ĠBry ant
Ġmetra lhadora
Ġhumilha Ã§Ã£o
ĠSid ley
ĠHOM EM
Ġdesin fe
Ġfrig ideira
ĠMU ITO
ĠfÃºne bre
Ġobl ÃŃqu
ĠAllis on
3 2
E vie
G a
N as
S or
T ad
W il
c ento
g ias
i gar
k is
n amente
p io
t ler
w ing
w ich
Ġn estes
Ġco bi
Ġt weed
in ador
Ġf Ãªme
en ciou
va va
Ã¡ x
Ġno tara
oc ha
so lo
ĠS qu
Ġpor no
on ia
Ġca lados
Ġca jado
Ġre iv
Ġre tes
Ġre lin
ĠC AN
ĠM ist
ĠM AS
ĠM AN
Ġal Ã´
Ġr ins
ĠT it
ĠB ela
Ġat endido
Ġfo gueiras
sa tis
Ġap Ã³
Ġpr ima
Ġpr Ãªmios
Ġh Ã©
me ral
ĠL um
ĠG ina
Ġcor tante
Ġpre gar
Ġpre ciosas
ĠEs tas
ix os
Ġcar valhos
Ġsegu isse
pa Ã§Ã£o
pe t
Ġtra po
Ġcomp rando
ĠI BM
Ġconsegu irem
Ġman gueiras
Ġpu lava
Ġesta lagem
Ġfre ios
Ġprim itiva
Ġentre gÃ¡
Ġso pÃ©
Ġrep arei
ĠK amen
ĠK oufax
Ġer rar
Ġins cri
ĠPe da
Ġgu iar
Ġju ntado
cor po
Ġpol ar
Ġpol ida
Ġfun il
por te
Ġnova to
ĠSa yre
Ġesco lhas
Ġag itavam
Ġtro p
Ġprof issÃ£o
Ã©s ia
Ġcur vo
lado ra
Ġacor dÃ¡
lin er
Ġcoloc aria
Ġ19 30
ĠMor to
Ġrec reio
bu laÃ§Ã£o
Ġdeixar iam
ĠEn cos
fei ras
ĠPer feita
Ġdescob rimos
Ġfavor itos
ĠRo w
ger s
Ġfala Ã§Ã£o
Ãºs so
Ġri dic
Ġfar ma
Ġreg ressar
Ġespa ntos
Ġras teira
ora dos
ell on
pon Ãªs
Ġnariz es
Ġponta pÃ©
bil itaÃ§Ã£o
Ġfir mar
Ġber ra
Ġbus cas
oo oo
Ġado rar
Ġrepe tido
ĠPre to
ex ceto
Ġur ubus
Ġating ida
fre d
ĠCor t
Ġconven iÃªncia
Ġauto gra
raria m
Ġx aro
Ġtur bil
Ġresol ve
Ġcus tar
ĠAm Ã©m
ĠDave y
Ġcres ce
ĠCin quenta
ĠBro w
ĠSegu ranÃ§a
Ġaum entado
Ġbarra gem
ĠCam bry
Ġconse lheiro
Ġcomun itÃ¡ria
ĠBre e
Ġjard in
ric ia
Ġavis ando
Ġprefer Ãªncia
ĠTre ma
ĠVe jam
ĠPra ta
Ġdemo rado
Ġarro gÃ¢ncia
ĠDia nte
oria mente
ĠJan nings
Ġori ental
ĠDiz er
Ġsand Ã¡lias
Ġbro tava
Ġgen u
Ġeletr Ã´nico
Ġprograma Ã§Ã£o
Ġemerg iu
Ġdesbo tados
Ġdesbo tadas
Ġcircunst Ã¢ncia
ĠEsper ou
Ġ197 8
Ġtrabalha dor
Ġtec idos
Ġderre tida
Ġcro mado
Ġiso lados
Ġconce der
ĠPergu nte
Ġdescre veu
Ġine gÃ¡vel
Ġmode los
Car rie
Ġmira gem
Ġgin Ã¡stica
ĠAmeric ana
GU E
Ġaconse lha
Ġdesor den
Ġrelig ioso
Ġsingular mente
Ġnega tivamente
ĠThor pe
Ro ger
Ġdeprim ente
Par k
ĠquÃŃm ico
Ġmaci Ã§o
ĠcontÃŃn ua
Ġtrom pete
Ġsib ilou
Ġintac to
Ġcois inhas
Ġdesapo ntamento
ĠBou l
ĠBaix ou
ĠEstar ei
Ġmasti gar
Sent i
ĠKin ney
ĠiP hone
ĠMur phy
ĠlÃŃmp ido
Ġdil ig
Fec hou
Ġmagre lo
Ġrefu gia
Ġentedia do
Ne w
ĠPalav ras
Ġocular es
ĠHad ley
Den is
Jean ette
Ġwal kie
ĠGen eral
Ġloj inha
Ġdistint ivo
ĠEdge combe
Ġnecro tÃ©rio
ĠIra que
Ġinima gin
Ġmetan fetamina
" ;
4 7
L ib
L entamente
V enha
b ana
c leo
d ÃŃssimo
e co
f r
p idas
r Ã³g
z z
Ġde cor
Ġde itados
Ġqu in
es per
in son
ia nt
Ġes mo
le p
le th
la tho
ĠE du
Ġpara rem
Ġl angol
Ġno vidades
ĠA lex
ĠA ranha
Ãª Ãª
ol Ãªncia
Ġele gantes
ĠC U
ĠC aro
ĠC IDADE
ĠP ie
ĠP ick
ĠP RA
ĠM ap
ĠM Ãºsica
ĠD U
ĠD ixon
ve tte
ĠB ura
ca uda
Ġfa Ã§
Ġper dÃª
Ġat um
Ġat iva
Ġat riz
sa gem
ĠJ ard
ĠJ ory
ĠH ava
ĠF inal
ĠF OR
ĠÃł quilo
ĠÃł queles
Ġan do
ĠG ai
Ġres fo
Ġres ÃŃduo
Ġpas mo
ĠEs tic
Ġsegu ravam
ĠDe baixo
ĠDe enie
Ġcam balho
Ġaqu ecido
Ġra char
Ġpou pado
bo ras
ĠSe x
Ġvi essem
Ã¢ mb
ti os
ĠW ind
Ġesta da
Ġesta tura
Ġgran ada
Ġsen sor
for te
Ġro xas
ĠOs car
Ġcorre tamente
tÃ¡ vamos
Ġmal ÃŃcia
Ġcons erto
Ġcons tern
Ġbar rica
ĠPe d
ĠAn nis
Ġbra vura
ĠPo xa
Ġescu to
Ġcab ia
tal kie
Ġsor ra
Ġsal tava
Ġsal tavam
Ġcarro ceria
oi des
ip s
ly mouth
Ġvia turas
Ġconf ins
par te
Ġobs er
Ġobs ess
Ġtri Ã¢ngulo
Ġbon itinho
Ġpis cava
ven iente
ven port
ĠTom a
ĠAr lene
Ġpreocu po
ĠBar ney
cip es
Ã´n ios
Ġarran har
Ġtermin amos
Ġhum an
Ġcarre gados
Ġreg ress
ĠBo zeman
Ġagar raram
Es sas
zer es
ĠAp pleton
tur ou
pon do
Ġmeta is
Ġinv entando
Ġcompre endo
mor cego
Ġfuma nte
ĠEsta cion
Ġprop Ã³sitos
umb as
Ġev ent
ĠKe en
Ġval ise
izado res
Ġabando no
Ġform igamento
Ġexcla maÃ§Ã£o
ĠWil low
ĠMat ar
Ġapre ensivo
Ġlam entou
Ġlam entÃ¡vel
Ġcump ri
Ãģ S
Ġavis tar
Ġcomb inava
bur gh
ĠHol t
ĠTe to
Ġbu quÃª
Ġfale ceu
Ġassum ido
Ġgira tÃ³ria
Ġtap as
Ġtap ar
ĠSlo pey
Ġevid Ãªncias
Ġdobra das
ĠSha kespeare
Sa be
Ġconce ber
ĠgÃªme o
ĠmetÃ¡ fora
ĠSun liner
Ġexer ci
Ġreb ater
Me arah
Ġpeculiar es
Ġinci dentes
Ġfare jou
ĠGaro tos
Ġengas gado
ĠSab emos
Ġadqui riu
Ġvic iados
Ġpsic ologia
Ġcompe t
inter rup
ĠBon nie
Ġrodop iando
Ġinicial mente
ĠcÃ¢mara s
Ġbigo des
Ġapara dor
ĠMad den
Ġembara Ã§ado
Ġinvas ores
Par ei
Ġdescal Ã§o
ĠquÃŃm icos
Ġdetes to
Ġparal isada
Ġsemic er
Ġol mo
Ġencam inhou
Ġsinu osa
Ġformul Ã¡rios
Ġespas mos
ĠFritz y
Ter ritÃ³rios
Ġagress ivo
Ġhost il
ĠpÃŃ er
ÃŃgn io
ĠPensa va
Ġdecepcion ado
Su bi
ĠfaÃŃs ca
Ġmele ca
ĠSilmar ils
Ġfeitic eiro
ĠServi Ã§o
ĠestÃ© ril
Ġdesinte g
Ġdiagn Ã³stico
ĠMonst ro
Obri gado
Ġmalign os
Ġinstal ou
Ġinut ilmente
ĠVA I
ĠHob bits
Ġmortu Ã¡rio
Ġsalsic has
ĠAin ur
Ġremor so
ĠTurco tte
ĠMUL HER
ĠBoul der
ĠAnnis ton
D OR
H uddie
I mag
T a
T ive
T oot
a la
b emos
c lar
d ur
f let
g iam
i qui
l ulas
p rim
t enta
t esta
u ja
u reza
v inhas
Ġd rama
ra bo
Ġco leta
Ġf osco
Ġv ocais
re almente
Ġes bura
Ġb lÃ¡
Ġb Ãºsso
Ġl os
Ġno bres
ĠA dam
Ġg rado
Ġpor tinho
on Ãªs
Ġca dar
ĠN ob
ĠC lo
ĠC ac
ĠC had
ĠP lymouth
ĠM ellon
ĠO tÃ¡rios
Ġr ÃŃs
ĠÃ Ķ
ĠT orn
Ġdes ocu
Ġdes norte
Ġpe p
ĠV ig
ĠR id
Ġter nos
Ġent ul
ĠH erald
ĠH osty
Ġcont ada
Ġh ino
ĠÃł quelas
Ġla gar
Ġho me
ĠL igou
ce le
ĠG un
ĠG endron
Ġcor resse
Ġpre m
Ġres tara
Ġmo ntados
ĠDe baria
pa ta
Ġcome ra
Ġam Ã©m
Ġpelo tÃ£o
Ġcabe leira
Ġdele ite
Ġcomp ulsÃ£o
rou pa
Ġfal har
vi va
Ġvi vera
ch eio
za da
Ġpoder osas
Ġesta ca
per os
Ġbo de
Ġpen hor
ber land
st ia
Ġmar u
Ġmar co
Ġouv em
Ġexp res
ost inha
ĠPe guem
Ġficar ei
Ġinc har
Ġju deus
Ġcab anas
Ġun icamente
Ġru fi
Ġru gindo
Ġfu inha
Ġhist Ã³rico
Ġgos tara
fa z
fa ntes
Ġav idamente
Ġped iria
Ġped Ã¡gio
Ġad icion
Ġag ru
Ġemp en
ĠMa gn
Ġmost rara
Ġapar eÃ§a
Ġdesc em
dro me
ĠAr ras
Ġarran hou
Ġfala nte
Ġchu vas
ĠPara do
Ġdesl ocando
ĠRa to
ĠNe gros
Ġras cun
ĠFa gulha
Ġpi nto
ĠIn v
ĠdÃ¡ di
tr ina
tr Ãªs
Ġale luia
Es cu
Ġdirig i
ĠFre ed
Ġsin gulares
ĠVer Ã£o
Ġfran ca
ex ler
Ġbei jei
ĠHal dir
Ġeng en
Ġenvol vida
Ġretor cidas
Ġesfor Ã§ou
ĠTim e
dios amente
Ġsurpre endido
Ġgros seiro
Ġgros seira
ĠSegu iu
ĠGre na
Ġderru bada
Ġcaminha ntes
Ġgrava das
ĠCu ba
ĠPol ley
Ġextra ir
Ġextra ter
Ġamea Ã§ou
Ġcomb inar
Ġtiver mos
Ġdesliz ava
Ġmi Ãº
Ġfur tivo
Ġbur ros
Ġviva mente
ĠBrad bury
AM ENTO
Ġmic ma
Ġmic ros
Ġedi fÃŃcios
To das
Ġbomb eiro
EL E
Ġ11 0
Ġcant or
Ġpont iagu
Ġdesespe rados
Ġvio leta
Ġacaba vam
Ġconfir maÃ§Ã£o
Ġencer ra
ĠTor geson
Ãĵ timo
ĠfÃŃs icos
Ġinvest ida
Ġ198 4
ĠRay mond
ĠxÃŃcara s
ĠAd vert
Ġmelho ra
Ġprodu Ã§Ã£o
Ġestup idez
gor m
Ġpercor ria
Ġcro mo
Ġretru ca
Ġdivert imento
Ġ16 0
Ġpel uda
Ġvin gar
Ġpron unciou
Ġarque jou
Ġsupos iÃ§Ãµes
Ġdemas iada
ĠFec hei
Ġmago ado
cÃª ut
ĠPequ enos
Ġretro ce
ĠPri us
Ġlamb er
ĠfrÃ¡ geis
ĠUnder wood
ĠVen uti
ĠAnt igamente
hu gh
In c
ĠhÃ³spe de
Ġdiscre ta
Ġgargal har
Ġdelic iosa
Ġperplex os
ĠObs ervou
eg lin
Ġvolum oso
ĠBrook s
ĠFO I
ĠRan som
Ġgre lha
Ġposterior es
trans for
Ġfluores cente
Ġfedore nta
ĠPs am
Ġrebo que
Ġbene fÃŃcio
ĠFra ti
Ġparano ia
Ġgordu cho
ĠGrin nell
ĠOb viamente
ĠcÃ³sm ico
Lem b
Ġsed Ã£
Ġholofo tes
Ġempertig ou
ĠTha yer
Ġital iano
hl ke
ĠWol f
Ġroche do
Ġgam bÃ¡
Ġema gre
Ġbombar de
Ġincapa cidade
ĠnÃº cleo
Ġretan gular
Ġchines es
ĠÃªn fase
Ġcircul ando
ĠStr ick
ĠperpÃ© tua
Ġanz ol
Slo at
ĠHit ler
ĠHava ÃŃ
Ġrufi Ãµes
A nde
A contec
J an
J am
O bs
P as
S ac
V inte
W ar
a ju
b orrÃ£o
c Ã©u
f ez
i gue
j an
k en
s inha
s Ã³is
v Ã©is
Ġa vel
Ġs lo
Ġs iga
qu ie
do ck
ar cas
Ġqu atorze
Ġo rar
Ġo pon
Ġt chau
es cri
la garta
Ġb Ãº
ĠA va
ĠA vis
am Ã¡
te p
so no
Ġma Ã§ar
ÃŃ culas
Ġca co
ĠC rist
ĠP ros
ĠM innesota
ĠD ats
ĠO fer
ĠO cidental
ĠO dabi
Ġme didas
om et
un ch
ĠB ase
Ã§a nte
Ġpar Ã³
Ġpar cial
di zer
ĠV O
ĠR ideout
ĠJ ac
Ġpr ÃŃn
ĠF la
ĠF en
Ġex or
Ġh astes
ur y
Ġesp ara
Ġesp ess
Ġesp erta
Ġho tÃ©is
Ġar g
Ġar dentes
ĠG in
at rav
Ġpre feito
Ġpre liminar
Ġab us
ĠEs tivera
Ġmo ita
Ġsegu iria
Ġsegu imos
ĠDe e
Ġcam ponÃªs
Ġvo tos
Ġaqu ecer
ĠSe at
ĠSe con
Ġfal as
vi dez
ti Ã§Ãµes
ch eiros
orr Ãªncia
Ġne ur
Ġdu zentas
Ġfil magem
ĠCom itÃª
Ġso aram
Ġexp or
ĠK ra
Ġba ÃŃa
Ġva nta
Ġcons te
Ġer mos
Ġinter estadual
ĠPe di
Ġgu iou
du Ã§Ãµes
ĠAn Ã©is
Ġficar Ã£o
Ġinc ans
ĠPo vo
if f
fa zendo
Ġim pot
ĠSa ÃŃ
Ġag re
tÃ³ rias
Ġenf iados
rei tava
ed en
erv ando
Ġapo derou
Ġpis caram
Ġvoltar iam
ĠAr t
Ġarma da
Ġmant ivesse
Ġmant enha
Ġpart ia
Ãºs sia
Ġespec tros
Ġrela xa
ĠDE IX
ĠPar ish
Ġfol clore
bri dge
Ġlimp ava
Ġconcor do
ĠCa beÃ§a
Ġvir Ã£o
ĠChe gamos
Ġmurm urei
ĠEx celÃªncia
Ġdec l
Ġprepara tivos
AN TES
Ġcapa cho
Ġsop ra
Ġengra Ã§adas
Ġfrequ entar
ĠWil d
Ġempre gos
Ġind ÃŃg
Ġhes ita
ĠAt irou
Ġatra so
Ġdesco ne
ĠStan ny
Ġquebra ra
Ġproje tou
far iz
Ġprome te
Ġprome ti
Ġrever be
Ġtes Ã£o
Ġapavo rados
Ġbru xu
Ġsolu Ã§ar
Ġcant am
ĠSta tler
ĠdÃ© jÃł
Ġbicic letas
Ġflutu ou
Ġpin Ã§a
Ġdoc emente
Ġ195 7
Ġden om
Ġviol ino
Ġinteress es
ĠAd ley
Ġcaval gando
ĠvÃŃ deos
Ġtec la
ĠSha w
ince y
Ġmoto queiro
Ġaluc inada
Ġconso le
Ġpom o
ĠFiz eram
Ġlenha dor
Ġresid encial
Ġrecla mou
ĠSto oks
Ġfrou x
Ġaterror izada
ĠLor i
Ġpio rando
ĠgrÃ¡ tis
ĠRec eio
Ġabsor to
Ġodi oso
ĠBrig gs
Ġrecolh endo
Ġacorda ra
Ġhabil idos
Ġarrem essou
Ġfume gantes
Ġimper cep
Ġafirma tivamente
Ġcompe tiÃ§Ã£o
ĠpalÃ¡ cios
Ġcata cl
Ġadminist ra
Ġdesmoron ar
ĠNat ional
Ġsalp icado
Ġhos te
Ġdespen cou
ĠCele gorm
Ġencantado ra
Ġmilitar es
ĠMach en
Ġfabul oso
Ac redi
Ġdispon ÃŃveis
Ġavali ou
Ġgovern ador
Ġchuv oso
hir rim
Ġveran istas
Ġneu tro
Ġricochete ou
Jim my
ĠAus ter
Ġbastar do
Ġblasf Ãªm
ĠgenuÃŃ na
Ġexti ntor
Ġestam pada
Ġconfid encial
ĠCAS A
Ġdebil mente
Ġenxa queca
Ġovel ha
ĠengraÃ§a dinho
hat tan
ĠGrant her
Ġmosqu itos
Ġingles a
Ġbif ur
Ġtrombe tas
ĠFree port
Ġperturba Ã§Ã£o
ĠIncl usive
Ġpit ores
ĠcÃ³r re
Ġdecif rar
Ġvagabun dos
Ġleal dade
Ġdevida mente
ĠInfer no
Ġmelanco lia
Ġdesequil ib
Ġbras as
Ġperambul ando
Ġpseud Ã´nimo
ĠArs enault
ĠVere adores
Lib bit
ĠKeen an
? ?
A os
A nd
B RI
F ora
L ar
L ester
M y
R ec
R andolph
T re
b oca
b Ãºrguer
c alha
c enÃ§a
c lique
f Ã³
g ramas
m il
m ina
n ando
p irou
t ran
u Ã§Ãµes
w ai
Ġc estas
Ġde em
Ġde ita
Ġde pre
Ġde cola
Ġde formado
qu ÃŃ
nt ia
Ġco Ã§ar
es tiva
Ġf ron
Ġse los
Ġum b
Ġcom iam
Ġcom itÃª
ha um
Ã¡ cia
Ã© ria
ĠE re
ĠE terna
de as
ĠA qu
te z
ĠS ir
ĠS IM
Ġma cho
Ġma tu
Ã³ licos
Ġest rid
il Ã£o
Ġre in
Ġre tÃ³
ĠC IA
ĠC RI
ĠC thulhu
ĠP R
ĠP is
ĠP ine
ĠD AS
ocÃª ncia
Ġen garra
ĠB is
ĠB ridge
Ġfa da
Ġper diam
ĠR as
Ġent a
Ġap oss
ĠH es
be de
ĠF ive
Ġex tas
Ġser mos
Ġesp el
ĠG AR
ĠEle c
Ġpas tas
Ġfor ro
ĠU sou
Ġaqu Ã¡rio
Ġpou saram
Ġpra do
ĠI dade
Ġresp ec
ĠW estern
Ġesta te
Ġne tos
per to
Ġprim itivo
Ġentre gas
cul oso
Ġmar gar
ing ente
Ġexp osta
Ġestar ÃŃamos
and le
cho n
Ġcu idaria
Ġba by
Ġdor so
Ġva gue
Ġins er
ĠJo hanna
du zia
Ġacha tada
Ġpequen inos
Ġhist ericamente
ip es
por Ã©m
ĠMar gie
Ġcaminho n
Ġobs essÃ£o
Ġquis eram
Ġor valho
ĠTom ara
ĠMa eglin
ĠMor gul
Ġrec orrer
Ġdesc rito
ĠCon way
ĠCh asse
Ġz ar
Ġz on
ĠHar vard
Ġpeda l
Ġdese mba
Ġdese javam
Ġespec ÃŃfica
ĠRa paz
Ġfar dos
Ġgal Ã¡x
ĠDes con
ĠSte vie
Ġdeci dindo
Ġsussur rei
Ġpun iÃ§Ã£o
Ġfeliz mente
Ġexist iu
Jack ie
Ġarras tÃ¡
Ġacontecer Ã¡
Ġinclin ei
Ġfran ces
IN HO
Ġconstru indo
ĠCont role
endi dos
Ġpega joso
Ġilum inadas
Ġsup osto
Ġanim ou
ĠMary sville
ĠJam al
Ed gar
Ġrea gir
Ġ6 8
ĠNos sos
ĠMan hattan
Ġalmo fadas
Ġmaravilhos os
iqu en
Ġdescan sava
Ġpers ianas
ĠBru ce
RI OS
Ġfolha gem
Ġtel eri
Ġdet entos
Ġdemon ÃŃaco
ĠSo f
Ġproc essar
Ġfro nte
ĠRes ol
Ġalim entaÃ§Ã£o
Ġdeb ater
ĠPaul son
Ġpersegu ido
Ġmec ha
Ġconte xto
Ġocul tas
ĠCer ca
Ġdobra dos
Ġdiv isa
ĠPark s
ĠPres idente
Ġocupa vam
rap eu
ĠPr Ãªmio
ĠcÃ³ lera
dil hos
Ġfant Ã¡sticas
Ġprotes tar
Ġpression ando
ĠDez esse
ĠAnd rÃ³g
Ġcircu laÃ§Ã£o
Ġdivid ida
Ġencaix ou
Ġparda l
Ġjaz z
ĠtÃ©cn icos
Ġconsta tou
ĠIrv ing
Ġprovid enciar
Ġfren esi
ĠFin we
ĠFin rod
Ġforas teiros
ĠidÃªnt ica
Ġacid ental
ĠlÃº cida
Ġenvergon hada
Ġveem Ãªncia
ĠSupon do
Ġobriga dos
Ġimens as
ĠObs erva
ĠaÃ© reas
Ġarruma da
Ġaprecia ndo
ĠSac udiu
Ġposterior mente
Ġcoru ch
ĠtÃŃm ida
Ġcalaf rios
Ġenfure cido
Ġtric Ã´
ĠOro me
Ġinjus to
Ġcav idade
ĠDescob ri
Ġinterfer ir
ĠRiv ington
Ġaprop riado
Ġcartu cho
Ġcomparec er
Ġroch osa
Ġnebul osa
Ġced endo
____ ____
Ġchif res
ĠMes haum
Ġchocal har
Ġy ou
ĠPul so
Ġsentin ela
Ġtempor Ã¡rio
ĠSilmar il
Ġinicia tiva
Ġmembran a
Ġvil Ã£o
ĠgÃ© lido
Ġmai Ãºs
Ergu eu
Ġimplor ou
Ġverific ando
ÃĤ N
Ġgeo grafia
Ġradic al
ĠLob isomem
ĠGRAN DE
ĠprojÃ© til
jor ie
Ġafei Ã§Ã£o
ĠAtl Ã¢ntico
Ġlabar edas
Pala cio
Ġfarma cÃªut
Ġturbil hÃ£o
ĠAdvert Ãªncia
ĠDats un
Ġbruxu le
C ase
D is
P ra
W A
b am
f ol
f osse
f ava
f unda
f atos
l iss
m ington
p ha
p am
t Ãºcia
u fin
Ġde itei
Ġm ando
Ġm obil
Ġv endÃª
le ge
la us
en vol
ara do
al idades
ic hÃ£o
Ġem iss
ho m
Ġno vel
oc Ã¡
Ġpor tu
Ġsu gar
Ġca gada
Ġas tÃºcia
ĠN ol
ĠM r
ĠD iver
Ġou sado
Ġal as
Ġal terna
ĠO J
Ġme todista
ĠT ocou
ca gem
Ġpo tes
ĠÃ© ter
Ġin ve
Ġin chando
Ġac ro
ĠV endo
ĠR ara
ĠR omeo
ci ntos
Ġpr is
Ġpr Ã¡tico
Ġle vamos
ga u
it Ã¡rias
Ġolh inhos
ĠF ish
Ġver s
Ġpro to
ria dos
Ġh ÃŃ
ros to
ce b
Ġcor tara
Ġcor dÃµes
at icamente
Ġres sur
Ġres umo
Ġres ervas
ĠEs taria
Ġparec idas
Ġcar dÃ¡
Ġcar dÃŃ
Ġfor rado
ĠQu ent
Ġcer co
mb ros
ru so
Ġmor ou
Ġra di
Ġcha fariz
Ġcomp uls
na gem
Ġfal hou
Ġimp ec
Ġdeix ados
ĠAl b
Ġpu laram
Ġgri tara
tor il
est idade
Ġro dinhas
ĠÃ¡ r
ĠÃ¡ vido
Ġmar chas
Ġcol oss
Ġtent Ã¡culo
Ġer vilhas
cion a
ut ton
ut cheon
Ġrespon deria
ĠJo h
ĠPe oria
du ilas
Ġtran cos
Ġinc ha
Ġinc hadas
Ġcab ines
Ġsur da
Ġlo tada
Ġdar iam
Ġcan ibal
Ġsal vaÃ§Ã£o
Ġespe ram
Ġbol inhos
Ġta xa
Ġacredi tara
ion ada
ĠCo veiro
Ġped reg
Ġbat em
Ġconhec eram
Ġtro pa
erv ei
ĠpÃ¡ tios
Ġtri z
Ġtri go
Ġtri vial
ĠMa quin
Ġpux ados
Ġtoc ara
Ġdesc endentes
ĠCon cetta
Ġli qui
ĠEn gra
Ġdesaparec em
Ġpart ira
Ġarran cados
Ġarran cÃ¡
Ġreal izado
ĠJa cob
Ġafas tados
Ġri queza
Ġespec ificamente
Ġdesa ba
Ġdesl ocou
RA DA
Ġfar inha
Ġsil vo
ĠEl ise
ĠFa lada
ĠPar kins
Ent rou
Ġale gava
Ġqueb rei
Ġbor dado
Ġsurpres as
Ġrap idinho
Ġconcor dando
Ġdirig iam
cla y
Ġguarda vam
Ġexce pcion
Ġarras tavam
Ġaba far
Ġperfei tos
Ġcint ilou
Ġequ aÃ§Ã£o
ten di
Ġev itado
ĠCor ri
Ġcre tino
Ġcapa taz
Ġretor cidos
Ġpl Ã¡
Ġ4 00
Ġhor telÃ£
Ġapres entado
Ġengra Ã§ados
Ġqua nta
Ġocu pando
ĠCol oca
Ġind ul
ĠSen Ã£o
bor ra
Ġexplos ivos
ĠSent indo
Ġirri ta
Ġsecre tamente
Ġ7 5
Ġarrep iante
ĠJu nto
ĠStre hlke
Ġgrama dos
Ġterm inada
ĠsuperfÃŃ cies
Ġbl usas
ĠFo x
Ġmoc hil
Ġron cava
Ġesfre gÃ£o
ĠVo vÃ³
entu almente
Ġvar rer
Ġredo ndas
ĠFor te
Ġdolor ida
Ġpin gu
Ġmec Ã¢nica
ĠPrin cesa
Ġesma gou
OC K
icÃŃ dios
Ġcaval inho
Ġrefle te
ince ramente
Ġexig ia
ĠSun set
aa a
Ġlit ro
ĠCan ad
ĠRat cliffe
Me us
Ġbron ca
Ġescul tura
Char ity
Ġestilha Ã§ou
Ġalte rar
Ġtranquil izador
Ġfla gra
Ġtravesse iros
Ġdesconf iada
Ġpisca vam
Ġderro ta
ĠMcCar ron
ĠGol den
ich Ãª
ĠFin duilas
Ġfolhe to
dra po
Ġdiscre tamente
Ġensa ios
Ġsubterr Ã¢nea
ĠMad die
Ġtransfer Ãªncia
Ġvos sa
Ġimplo rar
Ġinvestig ador
Ġchei rou
ĠCompre i
Ġimpre vis
Ġafe tado
Ġpublica Ã§Ã£o
Ġvolum es
Ġsignific asse
Ġdepos itou
ĠMost re
Ġsangre nto
Ġband ido
ĠThur se
ĠlÃ¡p ides
ds ky
Ġessen cialmente
Ġsele Ã§Ã£o
ĠMcCa in
Ġalf Ã¢ndega
Ġatur dido
ĠTru dy
ĠDec ker
Ġenevo ado
Ġbul dÃ´
Ġacolcho ado
Ġintitu lado
ĠDeci diu
ĠGood hugh
uller vo
ĠÃ©lf ico
Sub itamente
ĠautÃªnt ico
Ġsatisfat Ã³rio
Ġaconche gante
Ġdesenca de
Ġental hes
ĠPÃ¡s coa
ĠAtla nta
ĠPit ts
Ġpate ta
olÃ³g icos
Ġacam par
ĠFis her
Ġprema tura
ĠsÃºp lica
ĠcaÃ§ ula
Ġtremel uz
Ġpneum onia
ĠbÃŃ ceps
ĠDix ie
ĠKinder ling
ĠprÃŃn cipes
5 00
B et
B utch
C ynthia
D ud
H e
I GO
J u
J esus
O l
O correu
S orrindo
c ros
d Ã¢ncia
f ane
f ilho
g Ãªnio
j un
o thy
p in
p los
s angue
z Ã£o
z an
Ġe ro
Ġe fet
Ġp uma
Ġp ie
Ġp aixÃ£o
Ġc ros
Ġc ÃŃnico
qu ecas
do or
is dell
es cu
Ġque iram
Ġv oca
Ġv este
Ġv itais
Ġse g
se is
se iros
Ġpara mos
Ġem par
Ġg ib
ĠS ky
Ġma Ã§os
ÃŃ acos
on ica
Ġca bra
Ġre quis
ĠN esta
ĠC ut
ĠC OL
ĠC ivil
ĠP ais
ĠP Ã¢ntano
ĠD um
Ġdis forme
ĠT esta
Ġdes cor
Ġcon e
Ġsa iam
ĠB ater
Ġat uais
Ġin son
Ġin duz
sa la
ul tos
ĠV etter
ĠR ia
ĠR Ãºssia
Ġolh em
mo th
ĠH enderson
ĠF ranÃ§a
Ġver dades
Ġex Ã³tico
vel ha
ĠL I
ĠL O
ĠL es
Ġar dor
Ġar fando
Ġar gola
Qu a
ver sa
Ġdiz emos
ĠEs sie
Ġmo rador
Ġesc am
Ġesc roto
Ġvo adores
Ġtr ico
Ġam n
Ġam urada
Ġra b
Ġcha leira
ĠMas en
Ġcomp osiÃ§Ã£o
Ġint rans
Ġfal Ãªncia
Ġman dasse
ĠW eek
ĠW exler
za das
Ġro dou
Ġro Ã§ando
Ġsol as
ĠCom un
Ġgaro tada
Ġexp ia
Ġrep letos
Ġcl andes
Ġcu bo
Ġba z
ost inho
Ġaf ug
Ġbar reiras
ĠJo el
Ġson olÃªncia
Ġdar em
ĠIs engar
Ġbran da
Ġcontra tar
oso fia
ĠCo z
Ġmer os
Ġgra videz
Ġbri lhos
Ġolha ra
Ġolha dela
qui as
Ġconf usas
li guei
Ãªm en
Ġterr ores
Ġdesc am
Ġpla ntou
ila va
ĠCh u
fei Ã§o
fei tamente
ĠRo gan
ular es
Ġarran cadas
ĠHar bor
Ġesca pe
Ġfecha ra
tica is
ĠcalÃ§a dÃ£o
Ġfar pado
ĠNe ely
Ġras gÃ£o
tr ic
Ġempur re
Ġdeci dida
ĠMo tel
Ġabri dor
Ġabri rem
Ġ3 3
Ġexce lentes
Ġperman ecido
Ġreun idas
Ġbei j
ĠSer ra
ose f
Ġcla mor
Ġhorror oso
Ġexper imentos
Ġdesper tador
Ġsignifica vam
Ġesfor Ã§ava
Ġx ing
EM BRO
Ġtemp inho
Ġcresc em
Ġqui ntas
Ġdig itou
ĠDor sey
ĠDor othy
ĠSegu re
bor ough
Ġaum enta
ĠCam el
ĠPat ricia
Ġarrep iado
ĠMan chester
Ġpasse ando
Ġbil har
ĠHu ggins
uth bert
ene y
Ġprossegu ia
Ġdespe diu
ĠMal one
Ġ8 5
Ġespalha da
Ġdesliz aram
Ġengol indo
Ġcrim inosos
Ġgram as
Ġvit or
Ġcambale ante
Ġron cou
Ġron dando
ĠX IX
Ġpude ra
Ġincomo dando
Ġexib iam
Ġfasc inada
Ġarro to
Ġconclu ÃŃ
Ġdem ol
ĠVo zes
Ġconduz ido
Ġdescobri ria
Ġher Ã³is
Ġequip ado
Ġencer rada
ĠPear l
ĠtÃ© dio
Ġaga chada
Ġsuspei tos
ĠSil Ãªncio
ĠIng lÃªs
ĠHer bert
ĠCra wford
ĠFar ris
ĠTar box
IC H
iri on
ĠKenne th
Ġraste jou
ĠtÃºn ica
Ġrecla mando
Ġfrou xos
Ġtestemun ho
Ġinsp irar
ĠLar ry
Ġpilo tos
Ġalte rado
ĠPequ ena
Ġpod ridÃ£o
grÃ¡ fico
ĠLand ry
mm mm
Ġdesej asse
ĠmurmÃº rios
Ġbam bo
Ġrez ou
Ġpropor Ã§Ã£o
Ġarru inado
Ġsalp ica
Ġoferec eram
ĠEstre las
ĠPon d
Ġpersist ente
Ġpresum ivelmente
Ġinterpre tar
Ġengat inhando
ĠfenÃ´m enos
ĠXX I
Ġmonit ores
Ġrepux ados
ĠConhec e
ĠclÃ¡ss ica
Ġrevi gora
Ġbibliotec Ã¡rio
Ġcapo ta
ĠespÃ©c ime
Ġenlu vada
ĠdomÃ©st ica
Ġhedi ondo
Ġacostuma da
Ġseren amente
ĠmÃ³r bido
Ġeno jado
ĠHeming ford
Ġtecn ologia
Ġesguei rou
Ġesgueira r
deir inha
ĠAgu ente
ĠFro nteira
Ġamistos o
Ġpolu iÃ§Ã£o
ĠUlt har
Ġjanel inha
Ġdesfila deiro
Ġcompensa Ã§Ã£o
ĠWins ton
Ġespont Ã¢nea
ĠTrig ger
ĠAlha mbra
[...]
