{
  "version": "1.0",
  "truncation": null,
  "padding": null,
  "added_tokens": [
    {
      "id": 0,
      "content": "<|endoftext|>",
      "single_word": false,
      "lstrip": false,
      "rstrip": false,
      "normalized": true,
      "special": true
    }
  ],
  "normalizer": null,
  "pre_tokenizer": {
    "type": "ByteLevel",
    "add_prefix_space": false,
    "trim_offsets": true,
    "use_regex": true
  },
  "post_processor": {
    "type": "ByteLevel",
    "add_prefix_space": true,
    "trim_offsets": false,
    "use_regex": true
  },
  "decoder": {
    "type": "ByteLevel",
    "add_prefix_space": true,
    "trim_offsets": true,
    "use_regex": true
  },
  "model": {
    "type": "BPE",
    "dropout": null,
    "unk_token": null,
    "continuing_subword_prefix": "",
    "end_of_word_suffix": "",
    "fuse_unk": false,
    "byte_fallback": false,
    "ignore_merges": false,
    "vocab": {
      "<|endoftext|>": 0,
      "!": 1,
      "\"": 2,
      "#": 3,
      "$": 4,
      "%": 5,
      "&": 6,
      "'": 7,
      "(": 8,
      ")": 9,
      "*": 10,
      "+": 11,
      ",": 12,
      "-": 13,
      ".": 14,
      "/": 15,
      "0": 16,
      "1": 17,
      "2": 18,
      "3": 19,
      "4": 20,
      "5": 21,
      "6": 22,
      "7": 23,
      "8": 24,
      "9": 25,
      ":": 26,
      ";": 27,
      "<": 28,
      "=": 29,
      ">": 30,
      "?": 31,
      "@": 32,
      "A": 33,
      "B": 34,
      "C": 35,
      "D": 36,
      "E": 37,
      "F": 38,
      "G": 39,
      "H": 40,
      "I": 41,
      "J": 42,
      "K": 43,
      "L": 44,
      "M": 45,
      "N": 46,
      "O": 47,
      "P": 48,
      "Q": 49,
      "R": 50,
      "S": 51,
      "T": 52,
      "U": 53,
      "V": 54,
      "W": 55,
      "X": 56,
      "Y": 57,
      "Z": 58,
      "[": 59,
      "\\": 60,
      "]": 61,
      "^": 62,
      "_": 63,
      "`": 64,
      "a": 65,
      "b": 66,
      "c": 67,
      "d": 68,
      "e": 69,
      "f": 70,
      "g": 71,
      "h": 72,
      "i": 73,
      "j": 74,
      "k": 75,
      "l": 76,
      "m": 77,
      "n": 78,
      "o": 79,
      "p": 80,
      "q": 81,
      "r": 82,
      "s": 83,
      "t": 84,
      "u": 85,
      "v": 86,
      "w": 87,
      "x": 88,
      "y": 89,
      "z": 90,
      "{": 91,
      "|": 92,
      "}": 93,
      "~": 94,
      "¡": 95,
      "¢": 96,
      "£": 97,
      "¤": 98,
      "¥": 99,
      "¦": 100,
      "§": 101,
      "¨": 102,
      "©": 103,
      "ª": 104,
      "«": 105,
      "¬": 106,
      "®": 107,
      "¯": 108,
      "°": 109,
      "±": 110,
      "²": 111,
      "³": 112,
      "´": 113,
      "µ": 114,
      "¶": 115,
      "·": 116,
      "¸": 117,
      "¹": 118,
      "º": 119,
      "»": 120,
      "¼": 121,
      "½": 122,
      "¾": 123,
      "¿": 124,
      "À": 125,
      "Á": 126,
      "Â": 127,
      "Ã": 128,
      "Ä": 129,
      "Å": 130,
      "Æ": 131,
      "Ç": 132,
      "È": 133,
      "É": 134,
      "Ê": 135,
      "Ë": 136,
      "Ì": 137,
      "Í": 138,
      "Î": 139,
      "Ï": 140,
      "Ð": 141,
      "Ñ": 142,
      "Ò": 143,
      "Ó": 144,
      "Ô": 145,
      "Õ": 146,
      "Ö": 147,
      "×": 148,
      "Ø": 149,
      "Ù": 150,
      "Ú": 151,
      "Û": 152,
      "Ü": 153,
      "Ý": 154,
      "Þ": 155,
      "ß": 156,
      "à": 157,
      "á": 158,
      "â": 159,
      "ã": 160,
      "ä": 161,
      "å": 162,
      "æ": 163,
      "ç": 164,
      "è": 165,
      "é": 166,
      "ê": 167,
      "ë": 168,
      "ì": 169,
      "í": 170,
      "î": 171,
      "ï": 172,
      "ð": 173,
      "ñ": 174,
      "ò": 175,
      "ó": 176,
      "ô": 177,
      "õ": 178,
      "ö": 179,
      "÷": 180,
      "ø": 181,
      "ù": 182,
      "ú": 183,
      "û": 184,
      "ü": 185,
      "ý": 186,
      "þ": 187,
      "ÿ": 188,
      "Ā": 189,
      "ā": 190,
      "Ă": 191,
      "ă": 192,
      "Ą": 193,
      "ą": 194,
      "Ć": 195,
      "ć": 196,
      "Ĉ": 197,
      "ĉ": 198,
      "Ċ": 199,
      "ċ": 200,
      "Č": 201,
      "č": 202,
      "Ď": 203,
      "ď": 204,
      "Đ": 205,
      "đ": 206,
      "Ē": 207,
      "ē": 208,
      "Ĕ": 209,
      "ĕ": 210,
      "Ė": 211,
      "ė": 212,
      "Ę": 213,
      "ę": 214,
      "Ě": 215,
      "ě": 216,
      "Ĝ": 217,
      "ĝ": 218,
      "Ğ": 219,
      "ğ": 220,
      "Ġ": 221,
      "ġ": 222,
      "Ģ": 223,
      "ģ": 224,
      "Ĥ": 225,
      "ĥ": 226,
      "Ħ": 227,
      "ħ": 228,
      "Ĩ": 229,
      "ĩ": 230,
      "Ī": 231,
      "ī": 232,
      "Ĭ": 233,
      "ĭ": 234,
      "Į": 235,
      "į": 236,
      "İ": 237,
      "ı": 238,
      "Ĳ": 239,
      "ĳ": 240,
      "Ĵ": 241,
      "ĵ": 242,
      "Ķ": 243,
      "ķ": 244,
      "ĸ": 245,
      "Ĺ": 246,
      "ĺ": 247,
      "Ļ": 248,
      "ļ": 249,
      "Ľ": 250,
      "ľ": 251,
      "Ŀ": 252,
      "ŀ": 253,
      "Ł": 254,
      "ł": 255,
      "Ń": 256,
      "Ġd": 257,
      "Ġe": 258,
      "Ġa": 259,
      "ra": 260,
      "Ġp": 261,
      "Ġc": 262,
      "Ġde": 263,
      "Ġs": 264,
      "qu": 265,
      "nt": 266,
      "os": 267,
      "Ġm": 268,
      "er": 269,
      "do": 270,
      "as": 271,
      "Ġn": 272,
      "ar": 273,
      "Ġqu": 274,
      "Ġo": 275,
      "is": 276,
      "Ġco": 277,
      "Ġt": 278,
      "es": 279,
      "Ã£": 280,
      "in": 281,
      "um": 282,
      "Ã£o": 283,
      "or": 284,
      "Ġque": 285,
      "ia": 286,
      "Ġf": 287,
      "âĢ": 288,
      "âĢĶ": 289,
      "Ġv": 290,
      "ta": 291,
      "re": 292,
      "ou": 293,
      "Ġse": 294,
      "Ġum": 295,
      "Ġes": 296,
      "an": 297,
      "le": 298,
      "da": 299,
      "la": 300,
      "en": 301,
      "ent": 302,
      "va": 303,
      "Ġcom": 304,
      "ha": 305,
      "Ã¡": 306,
      "ara": 307,
      "ro": 308,
      "Ã§": 309,
      "se": 310,
      "Ġb": 311,
      "to": 312,
      "Ã©": 313,
      "al": 314,
      "ĠE": 315,
      "de": 316,
      "ĠâĢĶ": 317,
      "im": 318,
      "em": 319,
      "Ġdo": 320,
      "el": 321,
      "Ġpara": 322,
      "ic": 323,
      "ei": 324,
      "ĠnÃ£o": 325,
      "Ġem": 326,
      "gu": 327,
      "ho": 328,
      "ri": 329,
      "Ġl": 330,
      "Ġno": 331,
      "ando": 332,
      "Ġda": 333,
      "ĠA": 334,
      "Ġuma": 335,
      "ente": 336,
      "am": 337,
      "Ãª": 338,
      "co": 339,
      "Ġg": 340,
      "oc": 341,
      "Ġna": 342,
      "te": 343,
      "so": 344,
      "ec": 345,
      "ĠS": 346,
      "..": 347,
      "Ġpor": 348,
      "Ġma": 349,
      "Ã³": 350,
      "ÃŃ": 351,
      "Ġest": 352,
      "on": 353,
      "ol": 354,
      "Ġsu": 355,
      "Ġca": 356,
      "Ġas": 357,
      "il": 358,
      "ir": 359,
      "inha": 360,
      "tava": 361,
      "Ġre": 362,
      "Ġele": 363,
      "ĠN": 364,
      "Ġos": 365,
      "ĠC": 366,
      "ĠP": 367,
      "ĠM": 368,
      "ĠD": 369,
      "Ġou": 370,
      "Ġal": 371,
      "ĠO": 372,
      "us": 373,
      "ran": 374,
      "ado": 375,
      "Ġdis": 376,
      "Ġme": 377,
      "Ġr": 378,
      "ĠÃ": 379,
      "Ġmas": 380,
      "om": 381,
      "ve": 382,
      "lh": 383,
      "po": 384,
      "ida": 385,
      "go": 386,
      "que": 387,
      "ĠT": 388,
      "dos": 389,
      "nte": 390,
      "un": 391,
      "Ġdi": 392,
      "Ġestava": 393,
      "Ġera": 394,
      "Ġdes": 395,
      "ocÃª": 396,
      "Ġcon": 397,
      "Ġen": 398,
      "Ġj": 399,
      "Ġsa": 400,
      "ĠB": 401,
      "mente": 402,
      "ca": 403,
      "Ġmais": 404,
      "ma": 405,
      "Ġcomo": 406,
      "Ã§Ã£o": 407,
      "ido": 408,
      "Ġpo": 409,
      "Ġfa": 410,
      "ĠÃ©": 411,
      "Ã§a": 412,
      "Ġper": 413,
      "Ġat": 414,
      "Ġfo": 415,
      "Ġpar": 416,
      "Ġin": 417,
      "sa": 418,
      "Ġdisse": 419,
      "ai": 420,
      "di": 421,
      "Ġmu": 422,
      "Ġpe": 423,
      "nto": 424,
      "ul": 425,
      "Ġac": 426,
      "iv": 427,
      "...": 428,
      "ĠV": 429,
      "ĠR": 430,
      "Ġeu": 431,
      "Ġter": 432,
      "iu": 433,
      "ci": 434,
      "Ġent": 435,
      "ĠJ": 436,
      "ram": 437,
      "he": 438,
      "Ġap": 439,
      "ĠvocÃª": 440,
      "Ġpr": 441,
      "ez": 442,
      "Ġle": 443,
      "Ġtinha": 444,
      "ga": 445,
      "Ġela": 446,
      "Ã©m": 447,
      "it": 448,
      "ras": 449,
      "ob": 450,
      "via": 451,
      "Ġolh": 452,
      "das": 453,
      "mo": 454,
      "ĠH": 455,
      "be": 456,
      "ens": 457,
      "ito": 458,
      "isa": 459,
      "ĠF": 460,
      "gar": 461,
      "ĠNÃ£o": 462,
      "Ġis": 463,
      "ento": 464,
      "Ġver": 465,
      "Ġex": 466,
      "Ġpro": 467,
      "Ġtem": 468,
      "Ġser": 469,
      "Ġao": 470,
      "Ġmes": 471,
      "ria": 472,
      "Ġsua": 473,
      "Ġcont": 474,
      "esse": 475,
      "les": 476,
      "Ġh": 477,
      "ur": 478,
      "ĠÃł": 479,
      "Ġesp": 480,
      "Ġla": 481,
      "ura": 482,
      "Ġto": 483,
      "endo": 484,
      "Ġan": 485,
      "Ġi": 486,
      "Ġisso": 487,
      "Ġseu": 488,
      "ira": 489,
      "Ġdos": 490,
      "Ġho": 491,
      "Ġquando": 492,
      "ica": 493,
      "res": 494,
      "Ġsem": 495,
      "me": 496,
      "ros": 497,
      "Ġout": 498,
      "Ġfaz": 499,
      "vel": 500,
      "ĠL": 501,
      "der": 502,
      "ce": 503,
      "Ġar": 504,
      "Ġha": 505,
      "ĠG": 506,
      "Ġcor": 507,
      "ĠestÃ¡": 508,
      "lo": 509,
      "Ġvez": 510,
      "at": 511,
      "ĠEle": 512,
      "ima": 513,
      "Ġpre": 514,
      "Ġres": 515,
      "elo": 516,
      "Ġab": 517,
      "tar": 518,
      "Qu": 519,
      "Ġsob": 520,
      "uma": 521,
      "Ġfoi": 522,
      "ver": 523,
      "ntes": 524,
      "cia": 525,
      "anto": 526,
      "Ġdiz": 527,
      "Ġpas": 528,
      "ĠatÃ©": 529,
      "ĠEs": 530,
      "tou": 531,
      "ix": 532,
      "idade": 533,
      "Ġparec": 534,
      "eu": 535,
      "ndo": 536,
      "Ġmo": 537,
      "iz": 538,
      "ie": 539,
      "Ġass": 540,
      "pois": 541,
      "Ġpa": 542,
      "Ġfic": 543,
      "Ġsent": 544,
      "Ġcar": 545,
      "io": 546,
      "tas": 547,
      "dia": 548,
      "Ġsegu": 549,
      "ig": 550,
      "tos": 551,
      "eira": 552,
      "Ãº": 553,
      "Ġcoisa": 554,
      "eiro": 555,
      "Ã§o": 556,
      "Ġhavia": 557,
      "imp": 558,
      "Ġcas": 559,
      "ĠDe": 560,
      "Ġvol": 561,
      "Ġmuito": 562,
      "inda": 563,
      "Ã¡s": 564,
      "Ġfor": 565,
      "indo": 566,
      "cont": 567,
      "ĠQu": 568,
      "Ġesc": 569,
      "Ġbem": 570,
      "Ġmesmo": 571,
      "Ġlu": 572,
      "Ġcam": 573,
      "ina": 574,
      "Ġcer": 575,
      "Ġmen": 576,
      "mb": 577,
      "gora": 578,
      "rio": 579,
      "Ġalg": 580,
      "Ġnos": 581,
      "Ġdas": 582,
      "ĠlÃ¡": 583,
      "pa": 584,
      "nta": 585,
      "Ġsobre": 586,
      "ĠEu": 587,
      "rar": 588,
      "hor": 589,
      "ita": 590,
      "pe": 591,
      "vam": 592,
      "Ãµ": 593,
      "Ġquer": 594,
      "ru": 595,
      "aro": 596,
      "ist": 597,
      "udo": 598,
      "inho": 599,
      "Ãµes": 600,
      "vo": 601,
      "iam": 602,
      "Ġcome": 603,
      "Ġch": 604,
      "Ġvo": 605,
      "Ġtr": 606,
      "Ġpes": 607,
      "Ġpens": 608,
      "ĠU": 609,
      "Ġdepois": 610,
      "Ġtam": 611,
      "Ġche": 612,
      "segu": 613,
      "Ġsab": 614,
      "Ġainda": 615,
      "aix": 616,
      "Ġam": 617,
      "ĠsÃ³": 618,
      "Ġmor": 619,
      "ja": 620,
      "inh": 621,
      "Ãªn": 622,
      "Ġaqu": 623,
      "Ġolhos": 624,
      "Ġpelo": 625,
      "vez": 626,
      "Ġtra": 627,
      "Ã´": 628,
      "Ġra": 629,
      "Ġcabe": 630,
      "alvez": 631,
      "Ġcha": 632,
      "ĠmÃ£": 633,
      "Ġtempo": 634,
      "ac": 635,
      "nde": 636,
      "ĠMas": 637,
      "ĠVocÃª": 638,
      "Ġhom": 639,
      "ase": 640,
      "eito": 641,
      "bÃ©m": 642,
      "quele": 643,
      "Ġpou": 644,
      "Ġdele": 645,
      "Ġpra": 646,
      "Ġlado": 647,
      "Ġcomp": 648,
      "ico": 649,
      "ĠcabeÃ§a": 650,
      "ter": 651,
      "Ġpergu": 652,
      "ĠI": 653,
      "na": 654,
      "Ġint": 655,
      "osto": 656,
      "bo": 657,
      "rou": 658,
      "ĠSe": 659,
      "ior": 660,
      "rando": 661,
      "Ġpass": 662,
      "Ġfal": 663,
      "Ġte": 664,
      "vi": 665,
      "Ġdia": 666,
      "Ġagora": 667,
      "ua": 668,
      "Ġresp": 669,
      "Ġimp": 670,
      "Ġconsegu": 671,
      "har": 672,
      "eio": 673,
      "Ġman": 674,
      "aram": 675,
      "ĠtambÃ©m": 676,
      "Ġdeix": 677,
      "dor": 678,
      "Ġvai": 679,
      "ivesse": 680,
      "Ġvi": 681,
      "ĠcomeÃ§": 682,
      "Ġ(": 683,
      "quela": 684,
      "Ã¢": 685,
      "Ġmeu": 686,
      "ĠEla": 687,
      "Ġir": 688,
      "pre": 689,
      "no": 690,
      "Ġfazer": 691,
      "aria": 692,
      "Ġdois": 693,
      "quer": 694,
      "amos": 695,
      "dade": 696,
      "ĠmÃ£o": 697,
      "ĠÃº": 698,
      "ti": 699,
      "ch": 700,
      "ĠÃī": 701,
      "Ġeles": 702,
      "Ġcasa": 703,
      "ĠjÃ¡": 704,
      "Ġpela": 705,
      "ntou": 706,
      "Ġonde": 707,
      "ess": 708,
      "rada": 709,
      "Ġquase": 710,
      "ite": 711,
      "Ġminha": 712,
      "ĠAl": 713,
      "oca": 714,
      "amente": 715,
      "Ġvel": 716,
      "Ã³s": 717,
      "gou": 718,
      "Ġ\"": 719,
      "Ġdire": 720,
      "Ġantes": 721,
      "ĠW": 722,
      "lha": 723,
      "Ġpu": 724,
      "rado": 725,
      "za": 726,
      "enas": 727,
      "Ġtudo": 728,
      "Ġjo": 729,
      "Ġseus": 730,
      "Ġpoder": 731,
      "orr": 732,
      "Ġporta": 733,
      "ge": 734,
      "Ġesta": 735,
      "Ġfre": 736,
      "ĠtÃ£o": 737,
      "ada": 738,
      "Ġne": 739,
      "ill": 740,
      "Ġgri": 741,
      "dar": 742,
      "undo": 743,
      "Ġpouco": 744,
      "ĠPor": 745,
      "Ġpos": 746,
      "gem": 747,
      "des": 748,
      "mos": 749,
      "Ġassim": 750,
      "guÃ©m": 751,
      "per": 752,
      "Ġgran": 753,
      "Ġqual": 754,
      "Ġpode": 755,
      "hos": 756,
      "Ġvolta": 757,
      "fer": 758,
      "Ġvoz": 759,
      "Ġmenos": 760,
      "Ġoutro": 761,
      "Ġprim": 762,
      "Ġnada": 763,
      "aixo": 764,
      "ack": 765,
      "tor": 766,
      "Ġentre": 767,
      "Ġdu": 768,
      "Ġtor": 769,
      "est": 770,
      "Ġfil": 771,
      "asse": 772,
      "era": 773,
      "ÃŃvel": 774,
      "Ġlhe": 775,
      "cul": 776,
      "Ġfora": 777,
      "Ġdizer": 778,
      "Ġsen": 779,
      "Ġti": 780,
      "for": 781,
      "Ġbo": 782,
      "gra": 783,
      "Ġpen": 784,
      "cu": 785,
      "Ġhomem": 786,
      "--": 787,
      "Ãªs": 788,
      "ry": 789,
      "tante": 790,
      "Ġpesso": 791,
      "arec": 792,
      "ber": 793,
      "st": 794,
      "tamente": 795,
      "osse": 796,
      "inal": 797,
      "Ġtalvez": 798,
      "Ġestavam": 799,
      "Ġro": 800,
      "Ġsol": 801,
      "Ġalgum": 802,
      "Ġdela": 803,
      "Ġvis": 804,
      "ĠÃ¡": 805,
      "Ġnas": 806,
      "Ġnem": 807,
      "Ġprec": 808,
      "Ġanos": 809,
      "contec": 810,
      "enta": 811,
      "inu": 812,
      "las": 813,
      "quanto": 814,
      "Ġporque": 815,
      "Ġrosto": 816,
      "Ãªncia": 817,
      "ela": 818,
      "ĠCom": 819,
      "unca": 820,
      "ĠOs": 821,
      "Ġso": 822,
      "Ġmar": 823,
      "Ġacontec": 824,
      "ing": 825,
      "ne": 826,
      "Ġfosse": 827,
      "Ġ1": 828,
      "rem": 829,
      "deu": 830,
      "Ġparecia": 831,
      "Ġfrente": 832,
      "Ġencont": 833,
      "igo": 834,
      "isas": 835,
      "Ġouv": 836,
      "Ġsom": 837,
      "Ġalguma": 838,
      "Ġlugar": 839,
      "fic": 840,
      "ĠprÃ³": 841,
      "Ġgaro": 842,
      "lher": 843,
      "Ġmel": 844,
      "Ġapenas": 845,
      "Ġexp": 846,
      "ĠentÃ£o": 847,
      "Ġnovo": 848,
      "Ġestar": 849,
      "Ġcal": 850,
      "and": 851,
      "con": 852,
      "Ġrep": 853,
      "has": 854,
      "cos": 855,
      "Ġcl": 856,
      "Ġverdade": 857,
      "ĠK": 858,
      "Ele": 859,
      "Ġob": 860,
      "hec": 861,
      "ĠmÃ£os": 862,
      "Ġaqui": 863,
      "Ġcorre": 864,
      "Ġleva": 865,
      "tado": 866,
      "Ġtodos": 867,
      "cho": 868,
      "irou": 869,
      "Ġten": 870,
      "riu": 871,
      "ĠJack": 872,
      "Ġoutra": 873,
      "enh": 874,
      "Ã§Ãµes": 875,
      "tÃ¡": 876,
      "Ã¢n": 877,
      "Ġlon": 878,
      "Ġmeio": 879,
      "Ġsido": 880,
      "Ġtom": 881,
      "Ġmom": 882,
      "Ġcoisas": 883,
      "Ã§as": 884,
      "Ġnoite": 885,
      "ĠEnt": 886,
      "Ġmal": 887,
      "Ġparte": 888,
      "ais": 889,
      "ĠEra": 890,
      "ios": 891,
      "iso": 892,
      "Ġcol": 893,
      "Ġcu": 894,
      "imo": 895,
      "Ġlemb": 896,
      "Ġfez": 897,
      "ino": 898,
      "elas": 899,
      "Ġtent": 900,
      "Ġmelhor": 901,
      "rava": 902,
      "entos": 903,
      "Ġba": 904,
      "esta": 905,
      "ost": 906,
      "Ġmulher": 907,
      "Ġenquanto": 908,
      "Ġpodia": 909,
      "Ġvezes": 910,
      "Ġaf": 911,
      "ĠpÃ©": 912,
      "Ġnunca": 913,
      "ke": 914,
      "Ġdor": 915,
      "Ġva": 916,
      "Ġcons": 917,
      "Ġbar": 918,
      "Ġtivesse": 919,
      "Ġer": 920,
      "cion": 921,
      "Ġali": 922,
      "Ġeram": 923,
      "Ġsabia": 924,
      "bora": 925,
      "rÃ¡s": 926,
      "Ġsempre": 927,
      "Ġgrande": 928,
      "gue": 929,
      "Ġus": 930,
      "Ġviu": 931,
      "rios": 932,
      "Ġdent": 933,
      "ut": 934,
      "Ġinter": 935,
      "Ġbom": 936,
      "Ġcin": 937,
      "dio": 938,
      "Ġsub": 939,
      "Ġpai": 940,
      "vor": 941,
      "Ġmim": 942,
      "Ġrespon": 943,
      "Ġduas": 944,
      "Ġperguntou": 945,
      "ba": 946,
      "Ġins": 947,
      "ĠJo": 948,
      "tura": 949,
      "Ġmomento": 950,
      "Ġdentro": 951,
      "dy": 952,
      "ns": 953,
      "bal": 954,
      "ĠAs": 955,
      "gado": 956,
      "Ġnum": 957,
      "die": 958,
      "Ġpequ": 959,
      "ĠPe": 960,
      "ĠUm": 961,
      "ph": 962,
      "Ġgu": 963,
      "ilo": 964,
      "du": 965,
      "osa": 966,
      "Ġban": 967,
      "ĠAn": 968,
      "Ġtran": 969,
      "Ġembora": 970,
      "lt": 971,
      "Ã¡rio": 972,
      "Ġficar": 973,
      "sÃ£o": 974,
      "Ġinc": 975,
      "Ġficou": 976,
      "Ġcara": 977,
      "Ġsabe": 978,
      "Ġqualquer": 979,
      "Ġcham": 980,
      "ĠNo": 981,
      "almente": 982,
      "ivo": 983,
      "Ġbra": 984,
      "Ġsuas": 985,
      "ĠatrÃ¡s": 986,
      "ĠPo": 987,
      "Ġcria": 988,
      "Ġdisso": 989,
      "Ġnenh": 990,
      "Ġpoderia": 991,
      "ĠcomeÃ§ou": 992,
      "Ġcima": 993,
      "ĠtrÃªs": 994,
      "Ġson": 995,
      "Ġescu": 996,
      "bra": 997,
      "car": 998,
      "anÃ§": 999,
      "amento": 1000,
      "Ġluz": 1001,
      "Ġju": 1002,
      "Ġmundo": 1003,
      "ĠÃłs": 1004,
      "ista": 1005,
      "iro": 1006,
      "ĠÃºlt": 1007,
      "teza": 1008,
      "ĠmÃ£e": 1009,
      "ĠEd": 1010,
      "Ġdeu": 1011,
      "gua": 1012,
      "Ġsei": 1013,
      "Ġmaior": 1014,
      "pos": 1015,
      "cor": 1016,
      "Ġbe": 1017,
      "ĠQuando": 1018,
      "ĠBill": 1019,
      "cio": 1020,
      "Ġtrabal": 1021,
      "Ġtinham": 1022,
      "Ġolhou": 1023,
      "Ġquanto": 1024,
      "Ġaquele": 1025,
      "Ġpensou": 1026,
      "Ġlev": 1027,
      "Ã§os": 1028,
      "Ġvida": 1029,
      "entes": 1030,
      "imento": 1031,
      "Ġacha": 1032,
      "Ġpequen": 1033,
      "Ġtodo": 1034,
      "cha": 1035,
      "ib": 1036,
      "tando": 1037,
      "Ġtar": 1038,
      "ĠhÃ¡": 1039,
      "Ġpol": 1040,
      "lar": 1041,
      "Ġcab": 1042,
      "Ġsur": 1043,
      "Ġlo": 1044,
      "hou": 1045,
      "Ġun": 1046,
      "et": 1047,
      "jo": 1048,
      "ĠprÃ³p": 1049,
      "ap": 1050,
      "ava": 1051,
      "Ġquem": 1052,
      "Ġessa": 1053,
      "Ġaca": 1054,
      "Ġru": 1055,
      "Ġdar": 1056,
      "Ġfec": 1057,
      "lav": 1058,
      "Ġbal": 1059,
      "Ġboca": 1060,
      "redi": 1061,
      "Ġolhar": 1062,
      "Ġpessoas": 1063,
      "Ġvelho": 1064,
      "iga": 1065,
      "cer": 1066,
      "deira": 1067,
      "Ã¡vel": 1068,
      "ad": 1069,
      "ĠIs": 1070,
      "lu": 1071,
      "Ġcerteza": 1072,
      "velmente": 1073,
      "tal": 1074,
      "Ġliv": 1075,
      "Ġquar": 1076,
      "Ġsor": 1077,
      "ĠDeus": 1078,
      "ĠEntÃ£o": 1079,
      "cas": 1080,
      "mais": 1081,
      "Ġgente": 1082,
      "Ġforma": 1083,
      "Ġfu": 1084,
      "Ġpres": 1085,
      "Ġcan": 1086,
      "ĠNa": 1087,
      "Ġdeles": 1088,
      "Ġsi": 1089,
      "ial": 1090,
      "elos": 1091,
      "Ġsal": 1092,
      "Ġcarro": 1093,
      "rav": 1094,
      "je": 1095,
      "Ġhist": 1096,
      "ÃŃn": 1097,
      "ard": 1098,
      "rin": 1099,
      "th": 1100,
      "Ġespe": 1101,
      "ny": 1102,
      "Ġsan": 1103,
      "Ġant": 1104,
      "ĠEm": 1105,
      "son": 1106,
      "Ġqueria": 1107,
      "ĠtrÃ¡s": 1108,
      "rim": 1109,
      "Ġnuma": 1110,
      "lhe": 1111,
      "Ela": 1112,
      "Ã³ria": 1113,
      "tic": 1114,
      "Ġbol": 1115,
      "mas": 1116,
      "Ġbran": 1117,
      "Ġalgo": 1118,
      "Ġta": 1119,
      "Ġpalav": 1120,
      "Ġcontra": 1121,
      "ntar": 1122,
      "sas": 1123,
      "Ġsim": 1124,
      "oi": 1125,
      "Ġcidade": 1126,
      "ana": 1127,
      "ĠsÃ£o": 1128,
      "oso": 1129,
      "Ġhora": 1130,
      "raÃ§Ã£o": 1131,
      "Ġaquela": 1132,
      "id": 1133,
      "Ġ--": 1134,
      "Ġfun": 1135,
      "alph": 1136,
      "Ġesqu": 1137,
      "ero": 1138,
      "Ġvou": 1139,
      "Ġsaber": 1140,
      "Ġsorr": 1141,
      "Ġcada": 1142,
      "ntas": 1143,
      "Ġestivesse": 1144,
      "ip": 1145,
      "ĠUma": 1146,
      "ju": 1147,
      "man": 1148,
      "if": 1149,
      "tes": 1150,
      "Ġseria": 1151,
      "eles": 1152,
      "ton": 1153,
      "Ġgos": 1154,
      "Ġdemais": 1155,
      "Ġfim": 1156,
      "Ġesse": 1157,
      "ĠnÃ³s": 1158,
      "Ġteria": 1159,
      "min": 1160,
      "pres": 1161,
      "Ġfica": 1162,
      "los": 1163,
      "Ġacab": 1164,
      "ĠalguÃ©m": 1165,
      "este": 1166,
      "Ġnome": 1167,
      "Ġgar": 1168,
      "inhas": 1169,
      "Ġacredi": 1170,
      "vem": 1171,
      "Ġtarde": 1172,
      "ion": 1173,
      "fa": 1174,
      "Ġav": 1175,
      "Ġsr": 1176,
      "Ġacho": 1177,
      "Ġtoda": 1178,
      "Ġimpor": 1179,
      "Ġestou": 1180,
      "mel": 1181,
      "Ġestran": 1182,
      "ris": 1183,
      "ĠCo": 1184,
      "ĠHa": 1185,
      "Ġima": 1186,
      "Ġmer": 1187,
      "ĠDa": 1188,
      "idos": 1189,
      "Ġped": 1190,
      "end": 1191,
      "ĠdireÃ§Ã£o": 1192,
      "ly": 1193,
      "ĠTalvez": 1194,
      "por": 1195,
      "tros": 1196,
      "ick": 1197,
      "Ġtele": 1198,
      "hÃ£": 1199,
      "ĠAcho": 1200,
      "lho": 1201,
      "ĠÃºn": 1202,
      "guns": 1203,
      "Ġci": 1204,
      "Ġbat": 1205,
      "Ġfilho": 1206,
      "Ġaos": 1207,
      "iver": 1208,
      "ntos": 1209,
      "Ġcho": 1210,
      "Ġgra": 1211,
      "ĠEddie": 1212,
      "Ġperto": 1213,
      "Ġia": 1214,
      "Ġfalar": 1215,
      "inguÃ©m": 1216,
      "Ġmedo": 1217,
      "ĠIsso": 1218,
      "Ġim": 1219,
      "ĠComo": 1220,
      "iva": 1221,
      "Ġconhec": 1222,
      "Ġfi": 1223,
      "rias": 1224,
      "Ġbas": 1225,
      "rir": 1226,
      "Ġbri": 1227,
      "Ġsenhor": 1228,
      "Ġpassa": 1229,
      "Ġclaro": 1230,
      "deia": 1231,
      "cada": 1232,
      "Ġperce": 1233,
      "ĠMar": 1234,
      "Ġfinal": 1235,
      "Ġoutros": 1236,
      "ĠâĢĶ,": 1237,
      "gando": 1238,
      "Ġvia": 1239,
      "Ġnova": 1240,
      "hn": 1241,
      "ĠSa": 1242,
      "Ġolhando": 1243,
      "Ġolha": 1244,
      "ĠRic": 1245,
      "nda": 1246,
      "Ġposs": 1247,
      "hado": 1248,
      "Ġtorn": 1249,
      "enry": 1250,
      "),": 1251,
      "Ġsus": 1252,
      "vida": 1253,
      "Ġad": 1254,
      "Ġhomens": 1255,
      "atro": 1256,
      "Ġcaminho": 1257,
      "mp": 1258,
      "usa": 1259,
      "Ġprimeiro": 1260,
      "ĠRalph": 1261,
      "NÃ£o": 1262,
      "qui": 1263,
      "ĠchÃ£o": 1264,
      "ĠSÃ³": 1265,
      "baixo": 1266,
      "Ġprecisa": 1267,
      "Ġesco": 1268,
      "Ġconf": 1269,
      "Ġmuit": 1270,
      "urante": 1271,
      "Ġag": 1272,
      "Ġalto": 1273,
      "ĠTo": 1274,
      "paz": 1275,
      "ĠestÃ£o": 1276,
      "tÃ³": 1277,
      "one": 1278,
      "Ġprimeira": 1279,
      "ass": 1280,
      "Ġfiz": 1281,
      "Ġenf": 1282,
      "tu": 1283,
      "par": 1284,
      "Ġjan": 1285,
      "Ġatrav": 1286,
      "Ġcrian": 1287,
      "vavelmente": 1288,
      "cil": 1289,
      "irar": 1290,
      "Ġfazendo": 1291,
      "Ġomb": 1292,
      "emos": 1293,
      "essa": 1294,
      "rei": 1295,
      "Ġtrans": 1296,
      "Ġtro": 1297,
      "ed": 1298,
      "ĠAgora": 1299,
      "Ġgaroto": 1300,
      "tro": 1301,
      "ĠcÃ©": 1302,
      "Ġrespondeu": 1303,
      "Ġgritou": 1304,
      "lic": 1305,
      "Ġescri": 1306,
      "Ġcerto": 1307,
      "Ã¢ncia": 1308,
      "ĠrÃ¡": 1309,
      "Ġsangue": 1310,
      "ĠQue": 1311,
      "ias": 1312,
      "Ġprof": 1313,
      "Ġbaixo": 1314,
      "tra": 1315,
      "Ġestrada": 1316,
      "Ġaju": 1317,
      "Ġexa": 1318,
      "erv": 1319,
      "para": 1320,
      "ze": 1321,
      "ĠdÃº": 1322,
      "eria": 1323,
      "cado": 1324,
      "ine": 1325,
      "Ġeste": 1326,
      "Ġvermel": 1327,
      "Ġcorpo": 1328,
      "Ġsala": 1329,
      "ĠsaÃŃ": 1330,
      "cob": 1331,
      "ĠHenry": 1332,
      "Ġsou": 1333,
      "Ġcontinu": 1334,
      "ĠFoi": 1335,
      "Ġdorm": 1336,
      "ĠÃ³": 1337,
      "Ġalguns": 1338,
      "Ġtanto": 1339,
      "lor": 1340,
      "Ġnenhum": 1341,
      "dÃ£o": 1342,
      "veis": 1343,
      "Ġpap": 1344,
      "ĠpÃ¡": 1345,
      "Ġrou": 1346,
      "Ġpensar": 1347,
      "ĠJohn": 1348,
      "rig": 1349,
      "fe": 1350,
      "Ġapo": 1351,
      "tÃ£o": 1352,
      "ĠmÃ¡": 1353,
      "Ġpare": 1354,
      "Ã©s": 1355,
      "ĠhistÃ³ria": 1356,
      "Ġobs": 1357,
      "eiros": 1358,
      "Ġcur": 1359,
      "isse": 1360,
      "Ġmesma": 1361,
      "gre": 1362,
      "emente": 1363,
      "Ġsimp": 1364,
      "ĠÃ¡gua": 1365,
      "ud": 1366,
      "Ġtri": 1367,
      "Ġtodas": 1368,
      "Ġbon": 1369,
      "Ġbaix": 1370,
      "Ġforam": 1371,
      "ide": 1372,
      "dou": 1373,
      "ĠEstava": 1374,
      "Ġapro": 1375,
      "Ġpis": 1376,
      "Ġideia": 1377,
      "lan": 1378,
      "Ġimag": 1379,
      "Ġquatro": 1380,
      "Ġtipo": 1381,
      "vis": 1382,
      "tam": 1383,
      "ĠEstÃ¡": 1384,
      "zinha": 1385,
      "ĠBe": 1386,
      "ĠDepois": 1387,
      "Ġdevia": 1388,
      "Ġesquer": 1389,
      "Ġlogo": 1390,
      "ĠforÃ§a": 1391,
      "Ġergu": 1392,
      "lado": 1393,
      "Ġacor": 1394,
      "Ġsorriso": 1395,
      "li": 1396,
      "ble": 1397,
      "ende": 1398,
      "ĠmanhÃ£": 1399,
      "Ġboa": 1400,
      "Ġconta": 1401,
      "ĠEles": 1402,
      ".âĢĶ": 1403,
      "Ġano": 1404,
      "ven": 1405,
      "ĠpÃ´": 1406,
      "ĠHavia": 1407,
      "gan": 1408,
      "Ġnaquele": 1409,
      "fÃŃ": 1410,
      "ĠOu": 1411,
      "Ġtelef": 1412,
      "Ġmente": 1413,
      "dado": 1414,
      "Ġaber": 1415,
      "Ġquis": 1416,
      "Ġpassou": 1417,
      "Ãªm": 1418,
      "lin": 1419,
      "ĠGe": 1420,
      "Ġcoloc": 1421,
      "Ġau": 1422,
      "Ġcaix": 1423,
      "Ġvoltar": 1424,
      "Ġemp": 1425,
      "Ġhou": 1426,
      "\",": 1427,
      "Ġor": 1428,
      "sei": 1429,
      "len": 1430,
      "Ġrua": 1431,
      "Ġpois": 1432,
      "Ġtenho": 1433,
      "iar": 1434,
      "Ġrepente": 1435,
      "desse": 1436,
      "nas": 1437,
      "ĠTom": 1438,
      "Ġce": 1439,
      "lei": 1440,
      "ĠDan": 1441,
      "Ġsair": 1442,
      "Ġminu": 1443,
      "Eu": 1444,
      "ĠbraÃ§o": 1445,
      "ĠninguÃ©m": 1446,
      "Ġguar": 1447,
      "Ġquarto": 1448,
      "Ġfalou": 1449,
      "Ġchegar": 1450,
      "Ġcinco": 1451,
      "Ġ19": 1452,
      "ĠMa": 1453,
      "ĠMor": 1454,
      "Ġtenha": 1455,
      "Ġfer": 1456,
      "Ġfeito": 1457,
      "Ġpux": 1458,
      "alha": 1459,
      "bro": 1460,
      "Ġparece": 1461,
      "vol": 1462,
      "sos": 1463,
      "Ġlou": 1464,
      "Ġmost": 1465,
      "gas": 1466,
      "ĠSim": 1467,
      "ral": 1468,
      "Ġmesa": 1469,
      "Ġmil": 1470,
      "ĠLe": 1471,
      "gada": 1472,
      "Ġaper": 1473,
      "Ġdez": 1474,
      "Ġtrabalho": 1475,
      "mes": 1476,
      "ĠCar": 1477,
      "ressÃ£o": 1478,
      "iente": 1479,
      "ĠcaÃŃ": 1480,
      "Ġproble": 1481,
      "Ġpassar": 1482,
      "rer": 1483,
      "Ġneg": 1484,
      "Ġuns": 1485,
      "Ġterr": 1486,
      "Ġmodo": 1487,
      "ador": 1488,
      "igos": 1489,
      "Ġsimples": 1490,
      "Ġ2": 1491,
      "anÃ§a": 1492,
      "ĠaÃŃ": 1493,
      "Ġchama": 1494,
      "ocu": 1495,
      "ll": 1496,
      "Ġaz": 1497,
      "Ġdias": 1498,
      "Ġcama": 1499,
      "Ġcent": 1500,
      "Ġprecis": 1501,
      "iria": 1502,
      "Mas": 1503,
      "iÃ§Ã£o": 1504,
      "endeu": 1505,
      "ĠvocÃªs": 1506,
      "Ġamar": 1507,
      "aparec": 1508,
      "Ġvirou": 1509,
      "ostas": 1510,
      "Ġrealmente": 1511,
      "ĠTer": 1512,
      "Ġrec": 1513,
      "Ġconver": 1514,
      "Ġpudesse": 1515,
      "Ġtoc": 1516,
      "inhos": 1517,
      "ender": 1518,
      "culo": 1519,
      "enho": 1520,
      "Ġapar": 1521,
      "Ġnaquela": 1522,
      "Ġpul": 1523,
      "orre": 1524,
      "ĠGeor": 1525,
      "Ġdesc": 1526,
      "dro": 1527,
      "inas": 1528,
      "Ġjeito": 1529,
      "Ġvoltou": 1530,
      "ĠCon": 1531,
      "Ġpla": 1532,
      "Ġlonge": 1533,
      "Ġdurante": 1534,
      "Ġprovavelmente": 1535,
      "ila": 1536,
      "Ġaquilo": 1537,
      "imos": 1538,
      "ÃŃcia": 1539,
      "Ġbastante": 1540,
      "guei": 1541,
      "tico": 1542,
      "quei": 1543,
      "vera": 1544,
      "Ġteve": 1545,
      "vid": 1546,
      "Ġnor": 1547,
      "ĠRe": 1548,
      "Ġbeb": 1549,
      "Ġforte": 1550,
      "Ġvira": 1551,
      "ĠSr": 1552,
      "cou": 1553,
      "ilha": 1554,
      "ley": 1555,
      "ĠCh": 1556,
      "ĠpÃ©s": 1557,
      "diu": 1558,
      "Ġdesde": 1559,
      "Ġz": 1560,
      "Ġrece": 1561,
      "Ġdedos": 1562,
      "ĠAr": 1563,
      "ĠalÃ©m": 1564,
      "Ġsegui": 1565,
      "ÃŃs": 1566,
      "ty": 1567,
      "bu": 1568,
      "ĠvÃ¡": 1569,
      "Ġfazia": 1570,
      "\".": 1571,
      "tei": 1572,
      "Ġprin": 1573,
      "zia": 1574,
      "Ġve": 1575,
      "Ġli": 1576,
      "ĠcoraÃ§Ã£o": 1577,
      "orn": 1578,
      "Ġsaiu": 1579,
      "Ġseja": 1580,
      "eta": 1581,
      "Ġdeixar": 1582,
      "Ġpelos": 1583,
      "Ġpensa": 1584,
      "Ġpegou": 1585,
      "Ãºm": 1586,
      "hard": 1587,
      "ĠEn": 1588,
      "Ġandar": 1589,
      "Ġpalavras": 1590,
      "fei": 1591,
      "Ġdesaparec": 1592,
      "Ġsentiu": 1593,
      "Ġpreocu": 1594,
      "au": 1595,
      "Ġlar": 1596,
      "ĠBar": 1597,
      "Ġesquec": 1598,
      "Ġnovamente": 1599,
      "Ġponto": 1600,
      "cip": 1601,
      "inheiro": 1602,
      "mou": 1603,
      "dido": 1604,
      "Ġarre": 1605,
      "ĠPer": 1606,
      "cie": 1607,
      "Ġabriu": 1608,
      "De": 1609,
      "ados": 1610,
      "ranÃ§a": 1611,
      "Ġdescob": 1612,
      "Ġtrem": 1613,
      "ck": 1614,
      "Ġdeve": 1615,
      "Ġsuj": 1616,
      "Ġterra": 1617,
      "ĠrÃ¡p": 1618,
      "Ġcap": 1619,
      "Ġconseguia": 1620,
      "osta": 1621,
      "Ġhorr": 1622,
      "ĠHo": 1623,
      "Ã´n": 1624,
      "vas": 1625,
      "Ġfavor": 1626,
      "ĠGeorge": 1627,
      "Ġcomple": 1628,
      "Ġouvir": 1629,
      "ĠRo": 1630,
      "Ġcabelo": 1631,
      "teu": 1632,
      "Ġposso": 1633,
      "Ġaprox": 1634,
      "Ġmeus": 1635,
      "Ġvento": 1636,
      "Ġcru": 1637,
      "Ġarma": 1638,
      "ular": 1639,
      "Ġacima": 1640,
      "Ġfra": 1641,
      "Ġquero": 1642,
      "Ġsufic": 1643,
      "Ġaparec": 1644,
      "lia": 1645,
      "ĠquÃª": 1646,
      "Ġirm": 1647,
      "bi": 1648,
      "Ġcheiro": 1649,
      "gos": 1650,
      "mit": 1651,
      "Ġcostas": 1652,
      "Ġconc": 1653,
      "Ġmant": 1654,
      "ĠTudo": 1655,
      "ger": 1656,
      "cura": 1657,
      "Ġcaiu": 1658,
      "Ġalgumas": 1659,
      "ĠDo": 1660,
      "Ġescre": 1661,
      "Ġouvi": 1662,
      "ĠsÃ©": 1663,
      "ĠporÃ©m": 1664,
      "ano": 1665,
      "Ġdifer": 1666,
      "Ġfundo": 1667,
      "sur": 1668,
      "Ġpart": 1669,
      "ĠvÃ£o": 1670,
      "iÃ£o": 1671,
      "icos": 1672,
      "oland": 1673,
      "ĠdÃºvida": 1674,
      "ĠParec": 1675,
      "dura": 1676,
      "tivo": 1677,
      "ĠVamos": 1678,
      "Ġarran": 1679,
      "rie": 1680,
      "rvor": 1681,
      "tre": 1682,
      "Ġenor": 1683,
      "ĠEstou": 1684,
      "ĠbraÃ§os": 1685,
      "hando": 1686,
      "tada": 1687,
      "ĠcÃ©u": 1688,
      "Ġder": 1689,
      "Ġfala": 1690,
      "ins": 1691,
      "ren": 1692,
      "Ġtermin": 1693,
      "Ġnenhuma": 1694,
      "zinho": 1695,
      "Ġreal": 1696,
      "tÃ³rio": 1697,
      "Ġjanela": 1698,
      "culos": 1699,
      "Ġfato": 1700,
      "pas": 1701,
      "entou": 1702,
      "enÃ§Ã£o": 1703,
      "Ġhaviam": 1704,
      "ĠTinha": 1705,
      "ĠHar": 1706,
      "Ãºs": 1707,
      "dando": 1708,
      "ĠJa": 1709,
      "Ġpolic": 1710,
      "ĠÃºltima": 1711,
      "ones": 1712,
      "Ġpeda": 1713,
      "Ġenc": 1714,
      "Ġnu": 1715,
      "Ġdizia": 1716,
      "Ġfam": 1717,
      "beu": 1718,
      "Ġgan": 1719,
      "itar": 1720,
      "Ġchegou": 1721,
      "ĠvÃª": 1722,
      "taria": 1723,
      "Ġaconteceu": 1724,
      "Ġamigo": 1725,
      "Ġpequeno": 1726,
      "Ġja": 1727,
      "Ġsensa": 1728,
      "lica": 1729,
      "Ġpal": 1730,
      "Ġhoras": 1731,
      "gia": 1732,
      "mar": 1733,
      "ĠprÃ³x": 1734,
      "Ġdese": 1735,
      "resc": 1736,
      "idas": 1737,
      "olly": 1738,
      "Ġafas": 1739,
      "eliz": 1740,
      "Ġvisto": 1741,
      "ses": 1742,
      "Ġri": 1743,
      "Ġpessoa": 1744,
      "Ġlig": 1745,
      "Ġpensando": 1746,
      "Ġesca": 1747,
      "Ġpergunta": 1748,
      "Ġinf": 1749,
      "Ġelas": 1750,
      "Ġconseguiu": 1751,
      "Ġmaneira": 1752,
      "Ġespec": 1753,
      "xe": 1754,
      "Ġparou": 1755,
      "ĠCla": 1756,
      "ĠTem": 1757,
      "ĠChar": 1758,
      "Ġespera": 1759,
      "Ġminutos": 1760,
      "sar": 1761,
      "ceu": 1762,
      "ores": 1763,
      "ĠVou": 1764,
      "Ġesquerda": 1765,
      "Ġoutras": 1766,
      "Ġfecha": 1767,
      "Ġcava": 1768,
      "anÃ§ou": 1769,
      "ĠprÃ³prio": 1770,
      "Ġcuida": 1771,
      "Ġrela": 1772,
      "Ġchu": 1773,
      "Ġsentir": 1774,
      "Ġpapel": 1775,
      "Ġpegar": 1776,
      "Ġfalando": 1777,
      "Ġdesa": 1778,
      "ĠPara": 1779,
      "ĠBilly": 1780,
      "ĠLo": 1781,
      "Ġmeia": 1782,
      "Ġcaso": 1783,
      "Ġcaminh": 1784,
      "Ġcober": 1785,
      "Ġdesl": 1786,
      "Ġrel": 1787,
      "gio": 1788,
      "Ġpareceu": 1789,
      "ĠÃºnica": 1790,
      "Ġachava": 1791,
      "Ġsegundo": 1792,
      "metros": 1793,
      "Ġvamos": 1794,
      "isso": 1795,
      "Ġexatamente": 1796,
      "Ġhum": 1797,
      "Ġinstante": 1798,
      "reu": 1799,
      "ron": 1800,
      "Ġmaioria": 1801,
      "tÃ©": 1802,
      "cias": 1803,
      "Ġbrin": 1804,
      "Ġmorto": 1805,
      "Ġmenino": 1806,
      "tica": 1807,
      "ĠcalÃ§a": 1808,
      "xa": 1809,
      "RA": 1810,
      "Ġid": 1811,
      "elho": 1812,
      "Ġparar": 1813,
      "ĠSeu": 1814,
      "Ġdizendo": 1815,
      "ĠRa": 1816,
      "ĠDE": 1817,
      "Ġquil": 1818,
      "Ġcarre": 1819,
      "rÃ¡": 1820,
      "Ġtre": 1821,
      "Ġfar": 1822,
      "ĠMc": 1823,
      "Ġparede": 1824,
      "Ġdeixou": 1825,
      "ĠBob": 1826,
      "ĠSam": 1827,
      "Ġreg": 1828,
      "ĠBo": 1829,
      "Ġsuper": 1830,
      "Ġficava": 1831,
      "itu": 1832,
      "Ġref": 1833,
      "unda": 1834,
      "Ġespa": 1835,
      ").": 1836,
      "ĠÃ¡rvor": 1837,
      "Ġouviu": 1838,
      "Ġquad": 1839,
      "ĠNe": 1840,
      "Ġsil": 1841,
      "Ġdaqu": 1842,
      "Ġnar": 1843,
      "ĠEl": 1844,
      "Ġcaixa": 1845,
      "ĠMe": 1846,
      "inua": 1847,
      "Ġras": 1848,
      "Ġjunto": 1849,
      "Ã§ou": 1850,
      "Ġgal": 1851,
      "ĠSu": 1852,
      "gava": 1853,
      "ĠFa": 1854,
      "Os": 1855,
      "ĠDes": 1856,
      "tiva": 1857,
      "enda": 1858,
      "entemente": 1859,
      "ĠBem": 1860,
      "Ġtelefone": 1861,
      "ĠpossÃŃvel": 1862,
      "Ġsuficiente": 1863,
      "Ġentrar": 1864,
      "veria": 1865,
      "Ġsentia": 1866,
      "Ġpequena": 1867,
      "esar": 1868,
      "ĠPode": 1869,
      "Ġtentando": 1870,
      "duz": 1871,
      "ĠY": 1872,
      "ĠRichard": 1873,
      "Ġpelas": 1874,
      "ĠPro": 1875,
      "ĠÃ©p": 1876,
      "ign": 1877,
      "ntando": 1878,
      "Ġdaquele": 1879,
      "Ġseis": 1880,
      "laro": 1881,
      "eral": 1882,
      "ĠprÃ³pria": 1883,
      "ĠPar": 1884,
      "Ġcozinha": 1885,
      "Ġembaixo": 1886,
      "ĠlÃ¡b": 1887,
      "Ġdireita": 1888,
      "iado": 1889,
      "Ġdinheiro": 1890,
      "Ġgrandes": 1891,
      "stru": 1892,
      "Ġsof": 1893,
      "Ent": 1894,
      "Ġlivro": 1895,
      "Ġcac": 1896,
      "ifica": 1897,
      "Ġpi": 1898,
      "inos": 1899,
      "ice": 1900,
      "Ġcerta": 1901,
      "entar": 1902,
      "cando": 1903,
      "Ġapa": 1904,
      "endia": 1905,
      "Ġagu": 1906,
      "tavam": 1907,
      "ĠmÃ©": 1908,
      "Ġcheg": 1909,
      "Ġmorte": 1910,
      "Ġcontar": 1911,
      "Ġlevantou": 1912,
      "ĠRoland": 1913,
      "ula": 1914,
      "lie": 1915,
      "ivos": 1916,
      "Ġment": 1917,
      "Ġproblema": 1918,
      "Ġvelha": 1919,
      "ĠIn": 1920,
      "bre": 1921,
      "idamente": 1922,
      "ÃŃdo": 1923,
      ".\"": 1924,
      "ĠCas": 1925,
      "ces": 1926,
      "Ġel": 1927,
      "Ġflor": 1928,
      "ĠsensaÃ§Ã£o": 1929,
      "Ġestre": 1930,
      "ĠdÃ¡": 1931,
      "Ġmotor": 1932,
      "tr": 1933,
      "Ġale": 1934,
      "iou": 1935,
      "Ġempur": 1936,
      "Ġpalavra": 1937,
      "ĠÃ©poca": 1938,
      "Ġaco": 1939,
      "Ġlongo": 1940,
      "ĠSte": 1941,
      "Ġpior": 1942,
      "Ġcadeira": 1943,
      "Ġfogo": 1944,
      "Ġagar": 1945,
      "amais": 1946,
      "Ġcachor": 1947,
      "den": 1948,
      "iza": 1949,
      "Ãªncio": 1950,
      "erry": 1951,
      "Ġcorredor": 1952,
      "iram": 1953,
      "Ġvest": 1954,
      "ĠJÃ¡": 1955,
      "ĠAh": 1956,
      "com": 1957,
      "ĠcrianÃ§as": 1958,
      "Ġseguinte": 1959,
      "Ġtal": 1960,
      "Ġsusp": 1961,
      "Ġbrilha": 1962,
      "tados": 1963,
      "vil": 1964,
      "Ġsentado": 1965,
      "Ġfalei": 1966,
      "Quando": 1967,
      "Ġdeci": 1968,
      "Ġassus": 1969,
      "Ġfuncion": 1970,
      "Ġfol": 1971,
      "ĠNor": 1972,
      "Ġfoto": 1973,
      "Ġpareciam": 1974,
      "rm": 1975,
      "Ġcorrendo": 1976,
      "Ġmerda": 1977,
      "Ġdest": 1978,
      "ĠSua": 1979,
      "Ġbranco": 1980,
      "Ġsendo": 1981,
      "xo": 1982,
      "Ġveio": 1983,
      "Es": 1984,
      "Por": 1985,
      "Ġmuitos": 1986,
      "Ġpassado": 1987,
      "vido": 1988,
      "Ġpernas": 1989,
      "ntei": 1990,
      "ĠBen": 1991,
      "Ġsemana": 1992,
      "ĠÃºltimo": 1993,
      "Ġgo": 1994,
      "tan": 1995,
      "Ġplan": 1996,
      "leiro": 1997,
      "Ġdist": 1998,
      "ĠÃĢ": 1999,
      "Ġgru": 2000,
      "Ġdiante": 2001,
      "ĠMo": 2002,
      "Ġhoje": 2003,
      "Ġdentes": 2004,
      "vesse": 2005,
      "Ġfei": 2006,
      "ĠMu": 2007,
      "ĠAndy": 2008,
      "ific": 2009,
      "Ã§ado": 2010,
      "Ġqueb": 2011,
      "ĠnÃºm": 2012,
      "ress": 2013,
      "Ġprov": 2014,
      "Ġombros": 2015,
      "enÃ§a": 2016,
      "Ġcontinua": 2017,
      "Ġsorriu": 2018,
      "zer": 2019,
      "ĠFran": 2020,
      "Ġbor": 2021,
      "Ġencontrar": 2022,
      "bado": 2023,
      "ÃŃamos": 2024,
      "Ġisto": 2025,
      "Ġjovem": 2026,
      "ĠAp": 2027,
      "Ġaqueles": 2028,
      "ĠPorque": 2029,
      "bri": 2030,
      "Ġga": 2031,
      "oss": 2032,
      "Ġbolso": 2033,
      "Ġquente": 2034,
      "Ã¡ria": 2035,
      "ocal": 2036,
      "bar": 2037,
      "Ġsurpres": 2038,
      "Ġcair": 2039,
      "ĠexpressÃ£o": 2040,
      "ĠMeu": 2041,
      "lares": 2042,
      "xer": 2043,
      "Ġombro": 2044,
      "ntade": 2045,
      "dei": 2046,
      "ER": 2047,
      "Ġsimplesmente": 2048,
      "ĠrÃ¡pido": 2049,
      "nos": 2050,
      "erto": 2051,
      "ecess": 2052,
      "ĠdÃ³": 2053,
      "Ġcost": 2054,
      "ĠsilÃªncio": 2055,
      "ĠatravÃ©s": 2056,
      "OS": 2057,
      "Ġbura": 2058,
      "nie": 2059,
      "Ġmov": 2060,
      "Ġtesta": 2061,
      "Ġresto": 2062,
      "heiro": 2063,
      "Ġmon": 2064,
      "Ġvontade": 2065,
      "Ġfinalmente": 2066,
      "itou": 2067,
      "Ġpeito": 2068,
      "ridÃ£o": 2069,
      "Ġazul": 2070,
      "dida": 2071,
      "eram": 2072,
      "forma": 2073,
      "Ġjamais": 2074,
      "Ġconseguir": 2075,
      "ĠJim": 2076,
      "Ġdaquela": 2077,
      "hei": 2078,
      "cy": 2079,
      "ĠespÃ©": 2080,
      "Ġvaz": 2081,
      "ĠcomeÃ§a": 2082,
      "hie": 2083,
      "dic": 2084,
      "Ġmuitas": 2085,
      "vos": 2086,
      "Ġsomb": 2087,
      "Ġfe": 2088,
      "Ġlimp": 2089,
      "Ġnele": 2090,
      "tel": 2091,
      "tamento": 2092,
      "ener": 2093,
      "Ġcomigo": 2094,
      "Ġverde": 2095,
      "tur": 2096,
      "iros": 2097,
      "Ġrecu": 2098,
      "inar": 2099,
      "Ġraz": 2100,
      "che": 2101,
      "Ġenorme": 2102,
      "Ġescada": 2103,
      "ĠAinda": 2104,
      "emp": 2105,
      "Ã³r": 2106,
      "Ġrap": 2107,
      "Ġresposta": 2108,
      "Ġmuita": 2109,
      "ĠBla": 2110,
      "conhec": 2111,
      "ĠÃºnico": 2112,
      "ike": 2113,
      "ora": 2114,
      "ell": 2115,
      "Ġcausa": 2116,
      "Ġret": 2117,
      "ĠcomeÃ§ar": 2118,
      "Ġlevar": 2119,
      "ĠatenÃ§Ã£o": 2120,
      "land": 2121,
      "vamos": 2122,
      "ixo": 2123,
      "ĠlÃ¡bios": 2124,
      "erva": 2125,
      "Ġaproxim": 2126,
      "obo": 2127,
      "Ã¢m": 2128,
      "Ġcamisa": 2129,
      "Ġrapaz": 2130,
      "Ġdireito": 2131,
      "ĠDanny": 2132,
      "Ġprincip": 2133,
      "ĠSem": 2134,
      "ouis": 2135,
      "atos": 2136,
      "ĠquilÃ´": 2137,
      "ock": 2138,
      "Ġconcor": 2139,
      "Ġil": 2140,
      "ĠtÃªm": 2141,
      "Ġentrou": 2142,
      "ĠdifÃŃ": 2143,
      "Ġseguida": 2144,
      "my": 2145,
      "Ġleve": 2146,
      "Ġnisso": 2147,
      "Ġsaco": 2148,
      "pon": 2149,
      "Ġabri": 2150,
      "Ġamor": 2151,
      "Ġsonho": 2152,
      "Ġdessa": 2153,
      "Ġsussur": 2154,
      "Ġdirig": 2155,
      "cla": 2156,
      "Ġnariz": 2157,
      "ulho": 2158,
      "Ġescuro": 2159,
      "Ġvermelho": 2160,
      "Ġamb": 2161,
      "Ã©r": 2162,
      "ĠescuridÃ£o": 2163,
      "Ġponta": 2164,
      "Ġrev": 2165,
      "Ġpedra": 2166,
      "Ġguarda": 2167,
      "Ġnossa": 2168,
      "Ġata": 2169,
      "Com": 2170,
      "veu": 2171,
      "tis": 2172,
      "Ġpesco": 2173,
      "ĠGard": 2174,
      "Ġtira": 2175,
      "Ġvinha": 2176,
      "ĠverÃ£o": 2177,
      "ans": 2178,
      "ĠcrianÃ§a": 2179,
      "ema": 2180,
      "ĠpolÃŃcia": 2181,
      "ĠClaro": 2182,
      "ntan": 2183,
      "Ġdava": 2184,
      "'s": 2185,
      "bil": 2186,
      "rido": 2187,
      "Ġlevou": 2188,
      "Ġsign": 2189,
      "Ġcapaz": 2190,
      "rea": 2191,
      "elhos": 2192,
      "Ġfir": 2193,
      "ĠFrank": 2194,
      "Ġpun": 2195,
      "Ġachou": 2196,
      "idades": 2197,
      "Ġbateu": 2198,
      "Ġu": 2199,
      "Ġamigos": 2200,
      "feito": 2201,
      "ĠMais": 2202,
      "ĠespÃ©cie": 2203,
      "ÃŃveis": 2204,
      "Ġprecisava": 2205,
      "Ġboc": 2206,
      "Ġcontro": 2207,
      "ĠpescoÃ§o": 2208,
      "Ġdelas": 2209,
      "EntÃ£o": 2210,
      "Ġber": 2211,
      "Ġext": 2212,
      "Ġolho": 2213,
      "fÃ©": 2214,
      "ĠFre": 2215,
      "sim": 2216,
      "ts": 2217,
      "Ġmeta": 2218,
      "cido": 2219,
      "lada": 2220,
      "Ġmetros": 2221,
      "rian": 2222,
      "vio": 2223,
      "raram": 2224,
      "ulo": 2225,
      "Ġobserv": 2226,
      "Ġacreditar": 2227,
      "Ġinv": 2228,
      "gens": 2229,
      "Ġsum": 2230,
      "ques": 2231,
      "ĠJones": 2232,
      "ona": 2233,
      "Ġvinte": 2234,
      "urou": 2235,
      "Ġestacion": 2236,
      "Ġpele": 2237,
      "No": 2238,
      "Ġescon": 2239,
      "Ġergueu": 2240,
      "Ġlate": 2241,
      "Ġchamado": 2242,
      "Ġven": 2243,
      "cios": 2244,
      "iada": 2245,
      "Ġfeliz": 2246,
      "itos": 2247,
      "Ġfug": 2248,
      "ĠJake": 2249,
      "Ġusando": 2250,
      "ĠQuem": 2251,
      "Ġnecess": 2252,
      "Ġsujeito": 2253,
      "rasse": 2254,
      "uro": 2255,
      "Ġlen": 2256,
      "Ã£e": 2257,
      "Ġapesar": 2258,
      "Ġtornou": 2259,
      "Ġparado": 2260,
      "ham": 2261,
      "Ġesposa": 2262,
      "Ġestado": 2263,
      "Ġ3": 2264,
      "Ġindo": 2265,
      "gÃ£o": 2266,
      "iste": 2267,
      "Ġbus": 2268,
      "inaÃ§Ã£o": 2269,
      "oo": 2270,
      "Ġalta": 2271,
      "Ġlinha": 2272,
      "Ġlembrar": 2273,
      "Ġexce": 2274,
      "EN": 2275,
      "lou": 2276,
      "As": 2277,
      "cara": 2278,
      "Ġlocal": 2279,
      "Ġgarota": 2280,
      "Ġexist": 2281,
      "Ġcomer": 2282,
      "ÃŃlia": 2283,
      "Ġpolicial": 2284,
      "cre": 2285,
      "fo": 2286,
      "Ġestranho": 2287,
      "ĠdifÃŃcil": 2288,
      "pado": 2289,
      "amentos": 2290,
      "Ġesperando": 2291,
      "AR": 2292,
      "Ġvidro": 2293,
      "Ġpreciso": 2294,
      "ĠterrÃŃvel": 2295,
      "Ġabaixo": 2296,
      "ntado": 2297,
      "edia": 2298,
      "ĠNÃ³s": 2299,
      "ĠmÃºs": 2300,
      "ntamente": 2301,
      "jar": 2302,
      "inado": 2303,
      "Ġatravess": 2304,
      "vens": 2305,
      "ĠRichie": 2306,
      "Ġexplo": 2307,
      "entiu": 2308,
      "Ġdormir": 2309,
      "Ġcir": 2310,
      "ĠCa": 2311,
      "cÃ£o": 2312,
      "Ġcr": 2313,
      "Ġcul": 2314,
      "Ġtentou": 2315,
      "Ġagra": 2316,
      "Ġdesse": 2317,
      "dÃ¡": 2318,
      "Ġliga": 2319,
      "Ġessas": 2320,
      "let": 2321,
      "ena": 2322,
      "ĠMike": 2323,
      "Ġtirou": 2324,
      "Ġvendo": 2325,
      "OR": 2326,
      "Se": 2327,
      "Ġdesta": 2328,
      "Ġneve": 2329,
      "Ġcachorro": 2330,
      "Ġcerca": 2331,
      "Ġhouve": 2332,
      "van": 2333,
      "ĠPeter": 2334,
      "ĠTenho": 2335,
      "Ġmorrer": 2336,
      "ĠJoe": 2337,
      "Ġnosso": 2338,
      "Ġbanco": 2339,
      "ĠnÃºmero": 2340,
      "Ġvir": 2341,
      "Ġfantas": 2342,
      "Ġassass": 2343,
      "rados": 2344,
      "Ġdebaixo": 2345,
      "Ġcinz": 2346,
      "veja": 2347,
      "icas": 2348,
      "Ġaltura": 2349,
      "Ġentanto": 2350,
      "Jack": 2351,
      "ĠDon": 2352,
      "rodo": 2353,
      "ÃŃa": 2354,
      "Ġterc": 2355,
      "Ġtotal": 2356,
      "Ġestu": 2357,
      "Ġmol": 2358,
      "Na": 2359,
      "ÃŃcio": 2360,
      "eiramente": 2361,
      "Ġros": 2362,
      "Ġmulheres": 2363,
      "Ġestranha": 2364,
      "Ġruim": 2365,
      "00": 2366,
      "Ġpercebeu": 2367,
      "Ġsin": 2368,
      "orris": 2369,
      "lhou": 2370,
      "Ġpisto": 2371,
      "bol": 2372,
      "Ġfui": 2373,
      "ĠCharlie": 2374,
      "ĠNem": 2375,
      "Ġsegunda": 2376,
      "Ġtive": 2377,
      "Ġouvido": 2378,
      "Ġdiver": 2379,
      "ach": 2380,
      "Ġtomar": 2381,
      "Ġmetade": 2382,
      "Ġadia": 2383,
      "ĠGar": 2384,
      "gal": 2385,
      "esmo": 2386,
      "ance": 2387,
      "tasse": 2388,
      "Ġado": 2389,
      "Ġbre": 2390,
      "ive": 2391,
      "Ġsra": 2392,
      "iais": 2393,
      "Ġlim": 2394,
      "ĠcafÃ©": 2395,
      "dir": 2396,
      "Ġsinal": 2397,
      "Ġrepe": 2398,
      "ĠquilÃ´metros": 2399,
      "Ġtirar": 2400,
      "ĠClay": 2401,
      "ĠVer": 2402,
      "var": 2403,
      "Ġbranca": 2404,
      "Ġestaria": 2405,
      "Ġarras": 2406,
      "Ġacontecer": 2407,
      "ĠChe": 2408,
      "grim": 2409,
      "Ã¡rios": 2410,
      "ĠLouis": 2411,
      "Ġnorte": 2412,
      "ÃŃt": 2413,
      "nter": 2414,
      "Ġlivros": 2415,
      "Ġcigar": 2416,
      "Ġcheio": 2417,
      "Ġimedia": 2418,
      "Ġfrio": 2419,
      "Ġsorte": 2420,
      "lio": 2421,
      "Ġtentar": 2422,
      "Ġburaco": 2423,
      "Ġtransfor": 2424,
      "Ġescola": 2425,
      "ĠtÃ¡": 2426,
      "ĠAlan": 2427,
      "Ãī": 2428,
      "ital": 2429,
      "itas": 2430,
      "Ġinclin": 2431,
      "Ġcontinuou": 2432,
      "Ġminhas": 2433,
      "Ġinfer": 2434,
      "Ãºb": 2435,
      "Ġpensamento": 2436,
      "ĠNada": 2437,
      "Ġencos": 2438,
      "bie": 2439,
      "elha": 2440,
      "Ġmurm": 2441,
      "Ġgarga": 2442,
      "ĠDei": 2443,
      "usan": 2444,
      "eno": 2445,
      "Ġbanheiro": 2446,
      "ĠdÃ³lares": 2447,
      "wen": 2448,
      "Ġpensei": 2449,
      "fia": 2450,
      "ĠfÃ¡": 2451,
      "assem": 2452,
      "Ġgarra": 2453,
      "eric": 2454,
      "dava": 2455,
      "ĠQuer": 2456,
      "mon": 2457,
      "imentos": 2458,
      "Ġbaixa": 2459,
      "gh": 2460,
      "Ġcompre": 2461,
      "Ġgara": 2462,
      "Ġ-": 2463,
      "radas": 2464,
      "ord": 2465,
      "Ġprocura": 2466,
      "Ġrespeito": 2467,
      "grimas": 2468,
      "ĠprÃ©": 2469,
      "Ġescorre": 2470,
      "Ġsit": 2471,
      "Ġsurg": 2472,
      "Ġfran": 2473,
      "Ġsentindo": 2474,
      "Ġclar": 2475,
      "Ġgarganta": 2476,
      "had": 2477,
      "ĠAo": 2478,
      "Ġperman": 2479,
      "ensa": 2480,
      "Um": 2481,
      "Ġdaqui": 2482,
      "pec": 2483,
      "Ġgrito": 2484,
      "Ġvindo": 2485,
      "ĠEx": 2486,
      "br": 2487,
      "ĠJonesy": 2488,
      "mal": 2489,
      "Ġfilha": 2490,
      "Ġmadeira": 2491,
      "ĠserÃ¡": 2492,
      "Ġpodem": 2493,
      "Ġacabou": 2494,
      "ĠVai": 2495,
      "ĠFrodo": 2496,
      "mor": 2497,
      "Ġsombra": 2498,
      "Ġcolocou": 2499,
      "Ġcuidado": 2500,
      "chu": 2501,
      "Ġfuma": 2502,
      "eiras": 2503,
      "Ġdepres": 2504,
      "ĠrelÃ³": 2505,
      "Ġmist": 2506,
      "ĠPre": 2507,
      "Ġentrada": 2508,
      "Ġnela": 2509,
      "ex": 2510,
      "Ġreun": 2511,
      "ĠTam": 2512,
      "olo": 2513,
      "isÃ£o": 2514,
      "Ġredor": 2515,
      "ĠEsta": 2516,
      "ique": 2517,
      "ĠmÃ©d": 2518,
      "Ġasso": 2519,
      "Ġcanto": 2520,
      "ume": 2521,
      "Ã§ar": 2522,
      "Ġsentido": 2523,
      "Ġjoelhos": 2524,
      "Ġsono": 2525,
      "ĠfamÃŃlia": 2526,
      "Ġriu": 2527,
      "ÃŃr": 2528,
      "irem": 2529,
      "ĠSeus": 2530,
      "ES": 2531,
      "umo": 2532,
      "Ġquiser": 2533,
      "Ġpasso": 2534,
      "ĠAlg": 2535,
      "ĠÃ¡rvores": 2536,
      "ele": 2537,
      "Ġusar": 2538,
      "ĠNova": 2539,
      "anda": 2540,
      "Ġtorno": 2541,
      "urt": 2542,
      "pÃ©": 2543,
      "Ġconsigo": 2544,
      "anas": 2545,
      "Ġsitua": 2546,
      "Ġprote": 2547,
      "dre": 2548,
      "til": 2549,
      "icou": 2550,
      "Ãĥ": 2551,
      "riga": 2552,
      "ĠrazÃ£o": 2553,
      "como": 2554,
      "ay": 2555,
      "ĠDu": 2556,
      "Ġassu": 2557,
      "ĠHom": 2558,
      "tido": 2559,
      "Ġhouvesse": 2560,
      "Ġhaver": 2561,
      "Ġidio": 2562,
      "ĠdistÃ¢ncia": 2563,
      "Ġmaldi": 2564,
      "Ġerrado": 2565,
      "Ġoeste": 2566,
      "Ġnerv": 2567,
      "taram": 2568,
      "eca": 2569,
      "cial": 2570,
      "Ġespecial": 2571,
      "Ġdedo": 2572,
      "Ġsegurando": 2573,
      "nah": 2574,
      "estÃ£o": 2575,
      "Ġgol": 2576,
      "Ġdeveria": 2577,
      "Ġprop": 2578,
      "Ġbei": 2579,
      "mpan": 2580,
      "Ġcerveja": 2581,
      "osso": 2582,
      "Ġaba": 2583,
      "amÃ£e": 2584,
      "Ġdito": 2585,
      "anho": 2586,
      "Ġconversa": 2587,
      "ĠirmÃ£o": 2588,
      "Ġperfei": 2589,
      "gn": 2590,
      "Ġdesen": 2591,
      "ĠmÃ¡qu": 2592,
      "timo": 2593,
      "Ġsul": 2594,
      "ÃŃp": 2595,
      "Ġfundos": 2596,
      "Ġmenor": 2597,
      "Ġconsegue": 2598,
      "ĠrelÃ³gio": 2599,
      "Ġpret": 2600,
      "Ġcint": 2601,
      "lados": 2602,
      "Ġmotivo": 2603,
      "ers": 2604,
      "ĠDavid": 2605,
      "Ġmem": 2606,
      "Ġop": 2607,
      "ravam": 2608,
      "Ġur": 2609,
      "quilo": 2610,
      "ĠpÃ¡l": 2611,
      "umb": 2612,
      "ĠlÃ¡grimas": 2613,
      "esso": 2614,
      "lhas": 2615,
      "bert": 2616,
      "ĠDerry": 2617,
      "Ġating": 2618,
      "rÃ£o": 2619,
      "IN": 2620,
      "inou": 2621,
      "eceu": 2622,
      "ĠSer": 2623,
      "Ã³rias": 2624,
      "Ġequ": 2625,
      "Ġcompan": 2626,
      "ĠParecia": 2627,
      "Ġapos": 2628,
      "fre": 2629,
      "ĠapÃ³s": 2630,
      "ĠMesmo": 2631,
      "Ġcabelos": 2632,
      "Ġdec": 2633,
      "ouve": 2634,
      "leta": 2635,
      "leira": 2636,
      "ĠHolly": 2637,
      "ĠHal": 2638,
      "Ġsozinho": 2639,
      "ĠirmÃ£": 2640,
      "Ġnot": 2641,
      "dem": 2642,
      "Ġajuda": 2643,
      "entado": 2644,
      "ĠpÃ´s": 2645,
      "ose": 2646,
      "ĠLa": 2647,
      "Ġcheia": 2648,
      "Ġpendura": 2649,
      "ten": 2650,
      "erior": 2651,
      "Ġev": 2652,
      "Ġanterior": 2653,
      "Ġesses": 2654,
      "Ġconside": 2655,
      "usannah": 2656,
      "Ġens": 2657,
      "lante": 2658,
      "AS": 2659,
      "solu": 2660,
      "Ġdeva": 2661,
      "Ġdegra": 2662,
      "amp": 2663,
      "Ġchave": 2664,
      "ĠKe": 2665,
      "ĠCor": 2666,
      "pada": 2667,
      "Ġimporta": 2668,
      "Ġcentro": 2669,
      "VocÃª": 2670,
      "Ġon": 2671,
      "Ġpartic": 2672,
      "pera": 2673,
      "ĠJohnny": 2674,
      "ĠescritÃ³rio": 2675,
      "Ġcla": 2676,
      "Ġhorror": 2677,
      "gon": 2678,
      "jou": 2679,
      "ĠPa": 2680,
      "ĠpedaÃ§o": 2681,
      "ĠGardener": 2682,
      "usÃ£o": 2683,
      "han": 2684,
      "Ġvara": 2685,
      "Ġfilhos": 2686,
      "Ġporra": 2687,
      "Ġeng": 2688,
      "idente": 2689,
      "avam": 2690,
      "Ġcre": 2691,
      "Ġmatar": 2692,
      "Ġsacu": 2693,
      "Ġalc": 2694,
      "Ġpress": 2695,
      "ĠUn": 2696,
      "Ġofer": 2697,
      "ĠAtÃ©": 2698,
      "Ġjogo": 2699,
      "AD": 2700,
      "entava": 2701,
      "Ġcompletamente": 2702,
      "ĠHÃ¡": 2703,
      "Ġvista": 2704,
      "anÃ§ando": 2705,
      "Ġbic": 2706,
      "ĠcomeÃ§aram": 2707,
      "Ġconven": 2708,
      "erta": 2709,
      "ĠPelo": 2710,
      "Ġcarne": 2711,
      "Ġpassando": 2712,
      "Ġexper": 2713,
      "Ġprepara": 2714,
      "ome": 2715,
      "Ġcampo": 2716,
      "Ġmorta": 2717,
      "Ġdando": 2718,
      "Ġcurios": 2719,
      "ÃĥO": 2720,
      "Ġval": 2721,
      "dendo": 2722,
      "Ġdesper": 2723,
      "Ġabra": 2724,
      "Ġficando": 2725,
      "Ġdepressa": 2726,
      "Ġandando": 2727,
      "Ġfechou": 2728,
      "Ġcruz": 2729,
      "Ġgor": 2730,
      "Ġaberta": 2731,
      "esti": 2732,
      "Ġgela": 2733,
      "Ã©ia": 2734,
      "ciente": 2735,
      "Ġraiva": 2736,
      "ismo": 2737,
      "AN": 2738,
      "Ġgeral": 2739,
      "Ġarm": 2740,
      "Ġesperar": 2741,
      "Ġdef": 2742,
      "Ġenvol": 2743,
      "Ġiria": 2744,
      "Ġdou": 2745,
      "Ġsignifica": 2746,
      "itado": 2747,
      "Ġmarido": 2748,
      "adas": 2749,
      "ĠlÃŃn": 2750,
      "ĠEssa": 2751,
      "Ġacontecendo": 2752,
      "Ġacompan": 2753,
      "ĠMel": 2754,
      "ĠBa": 2755,
      "taÃ§Ã£o": 2756,
      "Ġumas": 2757,
      "ire": 2758,
      "Ġbeira": 2759,
      "QU": 2760,
      "iss": 2761,
      "Ġquerer": 2762,
      "Ġcorrer": 2763,
      "Em": 2764,
      "ĠBu": 2765,
      "Ġluzes": 2766,
      "Ġcapa": 2767,
      "Ġretor": 2768,
      "Ġencontrou": 2769,
      "Ġconstru": 2770,
      "anÃ§ar": 2771,
      "Ġauto": 2772,
      "Ġpl": 2773,
      "ĠCal": 2774,
      "vin": 2775,
      "osp": 2776,
      "esto": 2777,
      "Ġpreto": 2778,
      "ise": 2779,
      "iando": 2780,
      "Ġesfor": 2781,
      "Ġcarros": 2782,
      "Ġchamar": 2783,
      "Ġavi": 2784,
      "Ġdep": 2785,
      "Ġcob": 2786,
      "Ġlentamente": 2787,
      "ramente": 2788,
      "Ġabrir": 2789,
      "raria": 2790,
      "Ġmorreu": 2791,
      "ĠbalanÃ§ou": 2792,
      "Ġaquelas": 2793,
      "Ġ4": 2794,
      "tanto": 2795,
      "Ġsenho": 2796,
      "Ġhor": 2797,
      "Ġdeixando": 2798,
      "ĠsituaÃ§Ã£o": 2799,
      "Ġassunto": 2800,
      "Ã¡stico": 2801,
      "ĠTambÃ©m": 2802,
      "Ġestamos": 2803,
      "Ġmara": 2804,
      "Ġinterro": 2805,
      "ĠCont": 2806,
      "Ġx": 2807,
      "Ġbase": 2808,
      "pou": 2809,
      "Ġentender": 2810,
      "vou": 2811,
      "Ġido": 2812,
      "ĠNunca": 2813,
      "Ġdevagar": 2814,
      "rinho": 2815,
      "Ġoito": 2816,
      "Ġcolo": 2817,
      "ang": 2818,
      "Ġreco": 2819,
      "ĠAlÃ©m": 2820,
      "Ġenfer": 2821,
      "uros": 2822,
      "inada": 2823,
      "Ġgas": 2824,
      "ĠRob": 2825,
      "Ġgostava": 2826,
      "ĠDen": 2827,
      "Ġimportante": 2828,
      "Ġnesse": 2829,
      "izado": 2830,
      "EM": 2831,
      "erra": 2832,
      "Ġabando": 2833,
      "Ġmalu": 2834,
      "ĠÃĢs": 2835,
      "Ġcontinuava": 2836,
      "Ġsete": 2837,
      "endi": 2838,
      "Ġacresc": 2839,
      "tador": 2840,
      "ĠPete": 2841,
      "Ġexam": 2842,
      "Ġparecer": 2843,
      "iblio": 2844,
      "Ġvem": 2845,
      "Ġacei": 2846,
      "Ġvelhos": 2847,
      "Ġtrase": 2848,
      "jando": 2849,
      "Ġrapidamente": 2850,
      "Ġreconhec": 2851,
      "ĠbebÃª": 2852,
      "ker": 2853,
      "ĠvisÃ£o": 2854,
      "Ġpuxou": 2855,
      "ibliote": 2856,
      "Ġfaria": 2857,
      "Ġloja": 2858,
      "Ġcel": 2859,
      "Ġtemos": 2860,
      "Ġapres": 2861,
      "Ġportas": 2862,
      "Ġcontou": 2863,
      "iraÃ§Ã£o": 2864,
      "Ġvig": 2865,
      "ĠQuero": 2866,
      "Ġtamanho": 2867,
      "Ġtemp": 2868,
      "Ġlados": 2869,
      "Ġabsolu": 2870,
      "ok": 2871,
      "Ġtur": 2872,
      "Ġcole": 2873,
      "Ġsentou": 2874,
      "ĠÃ¡rea": 2875,
      "dÃ¡vel": 2876,
      "Ġviv": 2877,
      "Ġrepet": 2878,
      "Ġjanelas": 2879,
      "her": 2880,
      "dores": 2881,
      "rida": 2882,
      "izar": 2883,
      "ual": 2884,
      "tle": 2885,
      "Ġsai": 2886,
      "Ġpausa": 2887,
      "Ġajudar": 2888,
      "Ġpais": 2889,
      "cri": 2890,
      "Ġgrupo": 2891,
      "ites": 2892,
      "Ġidade": 2893,
      "ĠPen": 2894,
      "ĠThad": 2895,
      "Ġchuva": 2896,
      "ĠfumaÃ§a": 2897,
      "Ġdescon": 2898,
      "gg": 2899,
      "Ġsorrindo": 2900,
      "Ġesperava": 2901,
      "bia": 2902,
      "Ġsatis": 2903,
      "Ġgarotos": 2904,
      "Ġestiver": 2905,
      "Ġmontan": 2906,
      "Ġbater": 2907,
      "ĠNew": 2908,
      "Ġmeses": 2909,
      "ĠBrian": 2910,
      "pero": 2911,
      "Ġsurpresa": 2912,
      "Uma": 2913,
      "tem": 2914,
      "Ġservi": 2915,
      "mento": 2916,
      "Ġenco": 2917,
      "ĠGran": 2918,
      "ĠlÃŃngua": 2919,
      "ĠquestÃ£o": 2920,
      "tie": 2921,
      "ndos": 2922,
      "Ġler": 2923,
      "isco": 2924,
      "Ġbola": 2925,
      "Ġprate": 2926,
      "Ġjuntos": 2927,
      "Ġpega": 2928,
      "Ġcresc": 2929,
      "Ġvivo": 2930,
      "Ġdro": 2931,
      "Ġresol": 2932,
      "Ġsop": 2933,
      "Ġdim": 2934,
      "Ġengra": 2935,
      "Ġdiferente": 2936,
      "Ġilum": 2937,
      "Ġperguntar": 2938,
      "tri": 2939,
      "Ġtrou": 2940,
      "ĠfÃ¡cil": 2941,
      "tara": 2942,
      "Ġficaram": 2943,
      "Ġdaqueles": 2944,
      "Ġqua": 2945,
      "Ġocor": 2946,
      "Ġfl": 2947,
      "illy": 2948,
      "pÃ£o": 2949,
      "Ġacabar": 2950,
      "ĠMuito": 2951,
      "ĠGra": 2952,
      "Ġgosto": 2953,
      "Ġform": 2954,
      "mÃ©": 2955,
      "Ġqui": 2956,
      "ornal": 2957,
      "Ġafinal": 2958,
      "Ġcelular": 2959,
      "Era": 2960,
      "Eles": 2961,
      "Ġama": 2962,
      "Ġusava": 2963,
      "ĠidÃ©ia": 2964,
      "ĠBobbi": 2965,
      "Ġquais": 2966,
      "Ġviagem": 2967,
      "ĠSusannah": 2968,
      "andy": 2969,
      "Ġnessa": 2970,
      "itÃ£o": 2971,
      "Ġame": 2972,
      "espe": 2973,
      "Ġassist": 2974,
      "Ġlonga": 2975,
      "TO": 2976,
      "Ġocu": 2977,
      "ĠLÃ¡": 2978,
      "Ġsubir": 2979,
      "Ġgritando": 2980,
      "ramos": 2981,
      "ĠLobo": 2982,
      "Ġbarulho": 2983,
      "Ġcalor": 2984,
      "Ġvazio": 2985,
      "Ġcus": 2986,
      "Ġprocu": 2987,
      "Ġterror": 2988,
      "Ġpoucos": 2989,
      "ospital": 2990,
      "Ġfossem": 2991,
      "Ġescrever": 2992,
      "Ġroupas": 2993,
      "ĠLois": 2994,
      "ivers": 2995,
      "Ġbochec": 2996,
      "ĠAm": 2997,
      "Ġrecor": 2998,
      "ĠhistÃ³rias": 2999,
      "ĠcÃ¡": 3000,
      "Ã©is": 3001,
      "Ġcarta": 3002,
      "Ġenter": 3003,
      "Ġcontas": 3004,
      "Ġjantar": 3005,
      "Ġocas": 3006,
      "ecer": 3007,
      "Ġdissera": 3008,
      "ĠpÃ¡s": 3009,
      "Ġdesp": 3010,
      "Ġexcla": 3011,
      "Ġfrequ": 3012,
      "Ġincl": 3013,
      "ork": 3014,
      "Ġsup": 3015,
      "Ġdessas": 3016,
      "Ġmensa": 3017,
      "Ġgritar": 3018,
      "lf": 3019,
      "ĠWil": 3020,
      "Ġparecendo": 3021,
      "ĠrÃ¡dio": 3022,
      "Ġimediatamente": 3023,
      "ub": 3024,
      "Ġcora": 3025,
      "Ġleste": 3026,
      "ĠespaÃ§o": 3027,
      "ĠTim": 3028,
      "ĠÃºltimos": 3029,
      "Ġassentiu": 3030,
      "Ġexplic": 3031,
      "Ġanim": 3032,
      "Ġmorre": 3033,
      "Ġsilen": 3034,
      "Ġesquerdo": 3035,
      "Ġdescobrir": 3036,
      "ĠhorrÃŃvel": 3037,
      "Ġprincipal": 3038,
      "Ġempre": 3039,
      "Ġsombras": 3040,
      "chas": 3041,
      "Ġjornal": 3042,
      "ĠimpressÃ£o": 3043,
      "turas": 3044,
      "ĠBow": 3045,
      "ĠmÃ¡quina": 3046,
      "dios": 3047,
      "Ġcigarro": 3048,
      "fi": 3049,
      "Ġgem": 3050,
      "Ġbarriga": 3051,
      "Ġesteja": 3052,
      "Ġsonhos": 3053,
      "ĠDave": 3054,
      "Ġmovimento": 3055,
      "Ġbreve": 3056,
      "istas": 3057,
      "ĠSei": 3058,
      "ĠMinha": 3059,
      "ticamente": 3060,
      "IS": 3061,
      "ĠnÃ©": 3062,
      "Ġcres": 3063,
      "Ġteto": 3064,
      "Ġsoltou": 3065,
      "ĠprÃ³ximo": 3066,
      "jam": 3067,
      "ian": 3068,
      "Ġcedo": 3069,
      "Ġlembrava": 3070,
      "dente": 3071,
      "irando": 3072,
      "stitu": 3073,
      "ĠGa": 3074,
      "Ġpassava": 3075,
      "ece": 3076,
      "Ġolhada": 3077,
      "Ã¡veis": 3078,
      "lhos": 3079,
      "ĠTodos": 3080,
      "ĠFred": 3081,
      "ĠmÃºsica": 3082,
      "TE": 3083,
      "Ġsaindo": 3084,
      "Al": 3085,
      "Ãªncias": 3086,
      "ĠTerra": 3087,
      "inava": 3088,
      "Ġpensamentos": 3089,
      "issÃ£o": 3090,
      "Ġenca": 3091,
      "Ġficado": 3092,
      "Ġbatendo": 3093,
      "Ġinterior": 3094,
      "Ġmanter": 3095,
      "ĠAssim": 3096,
      "ĠmÃ©dico": 3097,
      "besse": 3098,
      "Ġperguntas": 3099,
      "rara": 3100,
      "Ġobserva": 3101,
      "ĠYork": 3102,
      "Ġidiota": 3103,
      "Ã§ando": 3104,
      "Ġchefe": 3105,
      "tinha": 3106,
      "verno": 3107,
      "Ġaman": 3108,
      "Ġjogou": 3109,
      "Ġcopo": 3110,
      "ivera": 3111,
      "ump": 3112,
      "ĠCin": 3113,
      "Ãºn": 3114,
      "ĠcomeÃ§ando": 3115,
      "ander": 3116,
      "Ġcorreu": 3117,
      "sado": 3118,
      "Ġimagem": 3119,
      "Ġplaca": 3120,
      "ade": 3121,
      "ĠmÃ¡x": 3122,
      "ĠnegÃ³": 3123,
      "Ġapertou": 3124,
      "Ġrisa": 3125,
      "ĠBom": 3126,
      "Ġchorar": 3127,
      "Ġquisesse": 3128,
      "Ġdestru": 3129,
      "ireman": 3130,
      "ecido": 3131,
      "itando": 3132,
      "rus": 3133,
      "Ġrir": 3134,
      "ilidade": 3135,
      "Ġdistante": 3136,
      "Ġlago": 3137,
      "ĠLem": 3138,
      "Ġmortos": 3139,
      "jei": 3140,
      "Ġperna": 3141,
      "Ġcart": 3142,
      "Ġdegraus": 3143,
      "ĠMary": 3144,
      "bou": 3145,
      "ĠOh": 3146,
      "Ġdig": 3147,
      "ensÃ£o": 3148,
      "ĠcÃ©re": 3149,
      "Ġcostuma": 3150,
      "ĠBlaze": 3151,
      "vado": 3152,
      "ĠPois": 3153,
      "Ġsenhora": 3154,
      "bb": 3155,
      "ali": 3156,
      "Ġpat": 3157,
      "mÃ¡": 3158,
      "ĠMer": 3159,
      "Ġperder": 3160,
      "ĠGu": 3161,
      "hia": 3162,
      "Ġmotorista": 3163,
      "ocidade": 3164,
      "hes": 3165,
      "ĠObri": 3166,
      "Ġolhava": 3167,
      "iblioteca": 3168,
      "essie": 3169,
      "Ġcontinuar": 3170,
      "jos": 3171,
      "ĠCol": 3172,
      "ĠEsse": 3173,
      "tural": 3174,
      "Ġ5": 3175,
      "lava": 3176,
      "imas": 3177,
      "ulas": 3178,
      "Ġpassos": 3179,
      "eias": 3180,
      "ĠDor": 3181,
      "Ġesper": 3182,
      "ĠchapÃ©": 3183,
      "Ġprofunda": 3184,
      "Ġsegundos": 3185,
      "Ã³l": 3186,
      "ĠBro": 3187,
      "eza": 3188,
      "Ġmonte": 3189,
      "visÃ£o": 3190,
      "Ġdiminu": 3191,
      "Ġcomida": 3192,
      "Ġblo": 3193,
      "Ġsurpre": 3194,
      "raty": 3195,
      "Ġind": 3196,
      "Ġobri": 3197,
      "Ġbolsa": 3198,
      "ĠaviÃ£o": 3199,
      "Ġgros": 3200,
      "ciÃªncia": 3201,
      "anos": 3202,
      "ĠinÃŃcio": 3203,
      "lex": 3204,
      "Ã©rio": 3205,
      "Ġmachu": 3206,
      "Ã¢nico": 3207,
      "ĠvÃ¡rias": 3208,
      "ĠOnde": 3209,
      "ĠSegu": 3210,
      "Ġgarrafa": 3211,
      "Ġmaravil": 3212,
      "Ġador": 3213,
      "hava": 3214,
      "ĠVocÃªs": 3215,
      "ler": 3216,
      "ĠJam": 3217,
      "Ġsegurou": 3218,
      "Ġpessoal": 3219,
      "llie": 3220,
      "Ġhes": 3221,
      "ĠpÃ¡g": 3222,
      "RO": 3223,
      "zes": 3224,
      "Ġpermit": 3225,
      "Ġachar": 3226,
      "Ġligar": 3227,
      "ĠSen": 3228,
      "endendo": 3229,
      "ĠcaminhÃ£o": 3230,
      "Ġrio": 3231,
      "ĠcÃ¢": 3232,
      "Ġsap": 3233,
      "Ġrealidade": 3234,
      "Ġnegro": 3235,
      "Ġjor": 3236,
      "ĠAlice": 3237,
      "Ġtrinta": 3238,
      "bus": 3239,
      "fica": 3240,
      "ilar": 3241,
      "ĠBra": 3242,
      "Ãºrin": 3243,
      "Agora": 3244,
      "ĠcÃŃr": 3245,
      "ĠAquele": 3246,
      "ecei": 3247,
      "Ġigu": 3248,
      "bor": 3249,
      "ĠMaine": 3250,
      "Ġestacionamento": 3251,
      "Ġmin": 3252,
      "Ġfilme": 3253,
      "ĠBea": 3254,
      "ves": 3255,
      "dd": 3256,
      "Ġench": 3257,
      "lint": 3258,
      "Ġfloresta": 3259,
      "ĠbÃª": 3260,
      "Ġfiquei": 3261,
      "Ġconcordou": 3262,
      "gados": 3263,
      "Ġvestido": 3264,
      "Ġsex": 3265,
      "ĠcÃ©rebro": 3266,
      "Ġchegando": 3267,
      "Ġouvindo": 3268,
      "Ġgostaria": 3269,
      "Ġbrilho": 3270,
      "cel": 3271,
      "Ġamo": 3272,
      "Ġperdido": 3273,
      "Ġaum": 3274,
      "ĠAt": 3275,
      "ife": 3276,
      "ĠVi": 3277,
      "Ġpros": 3278,
      "Ġextrem": 3279,
      "Ġmex": 3280,
      "TA": 3281,
      "ĠTV": 3282,
      "Ġatra": 3283,
      "Ġinteressa": 3284,
      "rum": 3285,
      "Ġtendo": 3286,
      "ane": 3287,
      "Ġgiga": 3288,
      "Ġsemanas": 3289,
      "ĠprÃ©dio": 3290,
      "ĠGre": 3291,
      "Ġpreocupa": 3292,
      "Ġlateral": 3293,
      "Ġexemp": 3294,
      "Ġtempos": 3295,
      "Ġqueim": 3296,
      "Ġanima": 3297,
      "ĠseguranÃ§a": 3298,
      "En": 3299,
      "verly": 3300,
      "Ġpeso": 3301,
      "Ġvermelha": 3302,
      "Ġproblemas": 3303,
      "Ġestivera": 3304,
      "Ġbarra": 3305,
      "ĠQual": 3306,
      "damente": 3307,
      "Ġanda": 3308,
      "Ġtanta": 3309,
      "ĠcaÃŃdo": 3310,
      "dinha": 3311,
      "Ġdisp": 3312,
      "ĠpÃ´r": 3313,
      "Ġtotalmente": 3314,
      "fos": 3315,
      "Ġficaria": 3316,
      "Ġpodemos": 3317,
      "ĠÃ³culos": 3318,
      "Ġderru": 3319,
      "Foi": 3320,
      "Ġchega": 3321,
      "ĠTerry": 3322,
      "jado": 3323,
      "rante": 3324,
      "Ġperguntei": 3325,
      "ĠAc": 3326,
      "Ġpei": 3327,
      "ĠarmÃ¡rio": 3328,
      "ĠCam": 3329,
      "Ġputa": 3330,
      "Ġlevantar": 3331,
      "cional": 3332,
      "ĠTh": 3333,
      "ON": 3334,
      "ĠSra": 3335,
      "ĠprÃ³xima": 3336,
      "nÃ£o": 3337,
      "Ġdiss": 3338,
      "Ġpovo": 3339,
      "Ã³sito": 3340,
      "Ġfria": 3341,
      "Ġseguir": 3342,
      "Ġdado": 3343,
      "ĠVic": 3344,
      "Ġpistoleiro": 3345,
      "ÃŃpio": 3346,
      "Ġtocar": 3347,
      "Ġore": 3348,
      "Ġconsegui": 3349,
      "Ġvelocidade": 3350,
      "Ġlouco": 3351,
      "Ġpartir": 3352,
      "Ġident": 3353,
      "ĠCha": 3354,
      "Ġpodiam": 3355,
      "Ġchamava": 3356,
      "Ġcem": 3357,
      "ĠcÃ£o": 3358,
      "Ġgesto": 3359,
      "ĠBarbie": 3360,
      "ĠÃ¡rvore": 3361,
      "Ġcontrole": 3362,
      "tantes": 3363,
      "icamente": 3364,
      "gular": 3365,
      "ĠMorris": 3366,
      "uz": 3367,
      "ĠMat": 3368,
      "Ġsenti": 3369,
      "Ġexclamou": 3370,
      "Is": 3371,
      "Ġmun": 3372,
      "Ġhospital": 3373,
      "iÃµes": 3374,
      "Ġapre": 3375,
      "Ġtivessem": 3376,
      "cun": 3377,
      "hil": 3378,
      "Ġsussurrou": 3379,
      "ĠRock": 3380,
      "Ġimposs": 3381,
      "Ġdeixado": 3382,
      "Ġtempesta": 3383,
      "Ġpossa": 3384,
      "aso": 3385,
      "ĠmÃ¡ximo": 3386,
      "galha": 3387,
      "Ġare": 3388,
      "hada": 3389,
      "Ġpequenos": 3390,
      "Ġamp": 3391,
      "quinho": 3392,
      "ĠAbra": 3393,
      "Ġsoube": 3394,
      "ĠchapÃ©u": 3395,
      "Ed": 3396,
      "jas": 3397,
      "Ġcaminha": 3398,
      "ĠPrec": 3399,
      "ĠfazÃª": 3400,
      "Ġgritos": 3401,
      "ĠserviÃ§o": 3402,
      "ĠPosso": 3403,
      "ĠcomeÃ§o": 3404,
      "Ġinclinou": 3405,
      "Ha": 3406,
      "Ġvisita": 3407,
      "Ġlivre": 3408,
      "hÃ£o": 3409,
      "ĠlÃ¢m": 3410,
      "Ġrea": 3411,
      "Ġapan": 3412,
      "Ġexplos": 3413,
      "ĠEnquanto": 3414,
      "uda": 3415,
      "tÃ¡vel": 3416,
      "Ġpedras": 3417,
      "Ġescrito": 3418,
      "Ġdormindo": 3419,
      "Ġflores": 3420,
      "gÃ¡": 3421,
      "ky": 3422,
      "Ġpia": 3423,
      "tinho": 3424,
      "tores": 3425,
      "tt": 3426,
      "Ġ6": 3427,
      "ĠSent": 3428,
      "ĠNenh": 3429,
      "ĠÃ´": 3430,
      "Ġconse": 3431,
      "Ġachei": 3432,
      "ĠtÃªn": 3433,
      "Ġparedes": 3434,
      "Ġnove": 3435,
      "cava": 3436,
      "Ġlua": 3437,
      "Ġirri": 3438,
      "ff": 3439,
      "ĠEntre": 3440,
      "Ġsubiu": 3441,
      "lando": 3442,
      "Ġalu": 3443,
      "Ġespal": 3444,
      "Ġregist": 3445,
      "Ġnatural": 3446,
      "ĠesperanÃ§a": 3447,
      "wn": 3448,
      "Ġsecre": 3449,
      "ĠPat": 3450,
      "Ġtocou": 3451,
      "Ġculpa": 3452,
      "Ġvaranda": 3453,
      "Ġlembro": 3454,
      "Ġpreso": 3455,
      "gante": 3456,
      "Ġlanter": 3457,
      "Ġtiro": 3458,
      "ĠÃ´n": 3459,
      "iquei": 3460,
      "ĠAli": 3461,
      "Ġacontecido": 3462,
      "port": 3463,
      "Ġsuor": 3464,
      "Ġengan": 3465,
      "Ġaproxima": 3466,
      "sse": 3467,
      "Ġsoubesse": 3468,
      "ĠvÃ¡rios": 3469,
      "andalf": 3470,
      "Ġ7": 3471,
      "Ġcomun": 3472,
      "forme": 3473,
      "Ġjus": 3474,
      "ester": 3475,
      "ĠÃģ": 3476,
      "ĠcapitÃ£o": 3477,
      "ĠplÃ¡stico": 3478,
      "esus": 3479,
      "Ġmurmurou": 3480,
      "mado": 3481,
      "Ġouvidos": 3482,
      "ĠParece": 3483,
      "entando": 3484,
      "ĠNinguÃ©m": 3485,
      "Ġpoderiam": 3486,
      "Ġaleg": 3487,
      "ental": 3488,
      "Ġdescer": 3489,
      "ity": 3490,
      "ticos": 3491,
      "Ġpapai": 3492,
      "Ġapontou": 3493,
      "Ġarrega": 3494,
      "bara": 3495,
      "ibus": 3496,
      "Ġarrep": 3497,
      "Ġeleva": 3498,
      "Ġabaix": 3499,
      "Ġtomou": 3500,
      "ĠJe": 3501,
      "Ġhotel": 3502,
      "ĠNos": 3503,
      "ipp": 3504,
      "enha": 3505,
      "Ġnuvens": 3506,
      "Pe": 3507,
      "Ġjul": 3508,
      "Ã³g": 3509,
      "Ġjogar": 3510,
      "Ġcansa": 3511,
      "pis": 3512,
      "ĠBig": 3513,
      "ĠVÃ¡": 3514,
      "Ġchamou": 3515,
      "Ġprocurando": 3516,
      "Ġpoliciais": 3517,
      "bos": 3518,
      "leza": 3519,
      "ÃŃculo": 3520,
      "Ġans": 3521,
      "cente": 3522,
      "Ġbata": 3523,
      "inze": 3524,
      "Ġdesco": 3525,
      "Ġantigo": 3526,
      "Ġprinc": 3527,
      "aunt": 3528,
      "ĠSou": 3529,
      "ĠStan": 3530,
      "ĠJu": 3531,
      "Ġlugares": 3532,
      "Ġdesceu": 3533,
      "Ġpertur": 3534,
      "ĠSteve": 3535,
      "Ġgrava": 3536,
      "old": 3537,
      "ĠHe": 3538,
      "Ġameric": 3539,
      "Ġobje": 3540,
      "ĠSerÃ¡": 3541,
      "ĠMan": 3542,
      "ioso": 3543,
      "ĠcentÃŃ": 3544,
      "Ġsapatos": 3545,
      "?âĢĶ": 3546,
      "riam": 3547,
      "Ġpesade": 3548,
      "ĠpÃ´de": 3549,
      "Ġlhes": 3550,
      "ĠfaÃ§a": 3551,
      "Ġacer": 3552,
      "Ġserv": 3553,
      "Ġlam": 3554,
      "Ġconhecia": 3555,
      "Ġprecisar": 3556,
      "Depois": 3557,
      "ĠSenhor": 3558,
      "Ġinforma": 3559,
      "velo": 3560,
      "Ġcurva": 3561,
      "Ġperfeitamente": 3562,
      "ĠStre": 3563,
      "ĠprisÃ£o": 3564,
      "Ġassustado": 3565,
      "quenta": 3566,
      "Ġpensava": 3567,
      "Ġquebra": 3568,
      "Ġrei": 3569,
      "Ġgrama": 3570,
      "ĠES": 3571,
      "Ġmaca": 3572,
      "Ġfolhas": 3573,
      "ĠCerto": 3574,
      "ĠVol": 3575,
      "Ġareia": 3576,
      "ÃŃb": 3577,
      "ĠRus": 3578,
      "vendo": 3579,
      "Ġmul": 3580,
      "yn": 3581,
      "Ġdescul": 3582,
      "ĠRei": 3583,
      "cida": 3584,
      "ĠQuanto": 3585,
      "Ġinteiro": 3586,
      "cons": 3587,
      "elig": 3588,
      "Ġalmo": 3589,
      "Ġfotos": 3590,
      "Ġchance": 3591,
      "DO": 3592,
      "ĠNick": 3593,
      "ĠCu": 3594,
      "Ġrindo": 3595,
      "Ġdesses": 3596,
      "Ġparada": 3597,
      "Ġazu": 3598,
      "Ġfalava": 3599,
      "fas": 3600,
      "queles": 3601,
      "Ġentende": 3602,
      "deria": 3603,
      "Ġvale": 3604,
      "endido": 3605,
      "Ġfizeram": 3606,
      "Ġpena": 3607,
      "Ġgaragem": 3608,
      "ĠTra": 3609,
      "Ġvazia": 3610,
      "Ġadm": 3611,
      "Ralph": 3612,
      "camente": 3613,
      "lÃ¡": 3614,
      "mago": 3615,
      "Ġescura": 3616,
      "Ġtraz": 3617,
      "tidÃ£o": 3618,
      "ĠcÃ¢me": 3619,
      "Ġconv": 3620,
      "Ġligou": 3621,
      "Havia": 3622,
      "dados": 3623,
      "ribu": 3624,
      "ĠamanhÃ£": 3625,
      "Ġalar": 3626,
      "Ã§ada": 3627,
      "ĠGaunt": 3628,
      "Ġferro": 3629,
      "Ã³p": 3630,
      "deiras": 3631,
      "Ġdura": 3632,
      "ĠJun": 3633,
      "Ġparticular": 3634,
      "ĠaÃ§o": 3635,
      "mag": 3636,
      "iedade": 3637,
      "Ġvozes": 3638,
      "pete": 3639,
      "mer": 3640,
      "Ġdeixa": 3641,
      "ĠMcC": 3642,
      "Ġtrouxe": 3643,
      "OM": 3644,
      "Ġtoca": 3645,
      "ĠPol": 3646,
      "Ġmergu": 3647,
      "ÃŃss": 3648,
      "ĠprincÃŃpio": 3649,
      "ee": 3650,
      "ĠlÃŃ": 3651,
      "ĠStar": 3652,
      "metro": 3653,
      "Ġenfiou": 3654,
      "ĠRichards": 3655,
      "Ġterceiro": 3656,
      "ĠGandalf": 3657,
      "uÃŃ": 3658,
      "Ġdiria": 3659,
      "Ġsegre": 3660,
      "diÃ§Ã£o": 3661,
      "ĠJesus": 3662,
      "ĠÃ´nibus": 3663,
      "Ġdob": 3664,
      "ĠBur": 3665,
      "Ġpasse": 3666,
      "Ġinteiramente": 3667,
      "Ġbusca": 3668,
      "Ã³is": 3669,
      "Ġtrabalhar": 3670,
      "Ġantiga": 3671,
      "Ġperceber": 3672,
      "Ġflut": 3673,
      "ĠimpossÃŃvel": 3674,
      "cendo": 3675,
      "Ġpica": 3676,
      "Ġfres": 3677,
      "Ġvirar": 3678,
      "Ã©tr": 3679,
      "ĠOut": 3680,
      "Ġquerendo": 3681,
      "Ġneste": 3682,
      "Ġbil": 3683,
      "Ġtela": 3684,
      "Ġagarrou": 3685,
      "entas": 3686,
      "ĠSal": 3687,
      "ĠpedaÃ§os": 3688,
      "ÃŃvio": 3689,
      "Ġtempestade": 3690,
      "by": 3691,
      "ĠestÃº": 3692,
      "Ġpagar": 3693,
      "ĠBeverly": 3694,
      "feira": 3695,
      "Ġtio": 3696,
      "Ġinqu": 3697,
      "ĠAng": 3698,
      "Ġchamada": 3699,
      "ĠsÃ©rio": 3700,
      "ĠcomeÃ§ava": 3701,
      "garam": 3702,
      "ĠHu": 3703,
      "cesso": 3704,
      "Ġestrelas": 3705,
      "achel": 3706,
      "Ġlixo": 3707,
      "lhes": 3708,
      "uth": 3709,
      "ional": 3710,
      "ĠProvavelmente": 3711,
      "Ġagrade": 3712,
      "tras": 3713,
      "Ġzumb": 3714,
      "Ġdete": 3715,
      "lento": 3716,
      "Ġtorna": 3717,
      "Ġremo": 3718,
      "ĠFal": 3719,
      "Ġlembra": 3720,
      "ĠruÃŃdo": 3721,
      "ĠOlhou": 3722,
      "Ġdispara": 3723,
      "Ġdific": 3724,
      "estes": 3725,
      "ĠaparÃªncia": 3726,
      "ĠHow": 3727,
      "ĠZ": 3728,
      "Ġdiga": 3729,
      "ĠÃ¢": 3730,
      "Ġpronto": 3731,
      "Ġdaquelas": 3732,
      "idar": 3733,
      "ĠBre": 3734,
      "ĠEst": 3735,
      "IA": 3736,
      "Ġfix": 3737,
      "ĠGarraty": 3738,
      "Ġextra": 3739,
      "Ġchegaram": 3740,
      "rito": 3741,
      "Ġenro": 3742,
      "Ġflu": 3743,
      "Ġcorrente": 3744,
      "Ġquarenta": 3745,
      "Ġje": 3746,
      "Ġpaz": 3747,
      "ĠMort": 3748,
      "Ġfirme": 3749,
      "Ġcomprar": 3750,
      "ĠcalÃ§as": 3751,
      "Ġabandon": 3752,
      "Ġmaravilhos": 3753,
      "ĠmÃªs": 3754,
      "ivas": 3755,
      "ĠHouve": 3756,
      "Ġlevado": 3757,
      "Ġacabado": 3758,
      "Ġnormal": 3759,
      "Ġfechada": 3760,
      "Ġfigu": 3761,
      "Ġcavalo": 3762,
      "ĠportÃ£o": 3763,
      "Ġpediu": 3764,
      "Ġvie": 3765,
      "Ġterm": 3766,
      "ÃŃo": 3767,
      "ĠalÃŃvio": 3768,
      "Ġjard": 3769,
      "ĠJessie": 3770,
      "ĠÃ³timo": 3771,
      "tadas": 3772,
      "Ġmau": 3773,
      "Ġproje": 3774,
      "Ġfizera": 3775,
      "Ġaberto": 3776,
      "nd": 3777,
      "Ġambos": 3778,
      "Ġcump": 3779,
      "ĠWal": 3780,
      "Ġdr": 3781,
      "rador": 3782,
      "ĠEram": 3783,
      "Ġadorm": 3784,
      "cur": 3785,
      "Ġlembrou": 3786,
      "ĠCastle": 3787,
      "ĠmaÃ§": 3788,
      "Ġlata": 3789,
      "dÃªncia": 3790,
      "Ãģ": 3791,
      "ocou": 3792,
      "Ġencar": 3793,
      "ĠsuperfÃŃ": 3794,
      "Ġbrilhante": 3795,
      "Ġjeans": 3796,
      "Ġseco": 3797,
      "Ġmatou": 3798,
      "Ġcaindo": 3799,
      "Ġprazer": 3800,
      "greja": 3801,
      "Ġouvia": 3802,
      "ene": 3803,
      "Ġtopo": 3804,
      "Ġcinza": 3805,
      "Ġterminar": 3806,
      "Isso": 3807,
      "far": 3808,
      "ĠCur": 3809,
      "itaÃ§Ã£o": 3810,
      "ĠrespiraÃ§Ã£o": 3811,
      "Ġminuto": 3812,
      "Ġmostrar": 3813,
      "Ġbl": 3814,
      "Ġprofun": 3815,
      "ĠmamÃ£e": 3816,
      "Ġdireto": 3817,
      "Ġacreditava": 3818,
      "Ġprome": 3819,
      "Ġresul": 3820,
      "Ġchegado": 3821,
      "Ġresponder": 3822,
      "Ġcansado": 3823,
      "Ġcri": 3824,
      "ĠAch": 3825,
      "Eddie": 3826,
      "sou": 3827,
      "Ġexceto": 3828,
      "Ġprossegu": 3829,
      "tono": 3830,
      "bale": 3831,
      "Ġpequenas": 3832,
      "cal": 3833,
      "ui": 3834,
      "Ġsupor": 3835,
      "Ġdespe": 3836,
      "Ġfurios": 3837,
      "Ġafastou": 3838,
      "Ġamea": 3839,
      "ric": 3840,
      "ĠbalcÃ£o": 3841,
      "Ġcolocar": 3842,
      "Ġ9": 3843,
      "ĠSi": 3844,
      "java": 3845,
      "Ġavis": 3846,
      "Ġcinto": 3847,
      "Jo": 3848,
      "Ġinsist": 3849,
      "Ã´mago": 3850,
      "Ġataque": 3851,
      "rom": 3852,
      "andou": 3853,
      "Ġseguiu": 3854,
      "Ġcolina": 3855,
      "Ġmensagem": 3856,
      "ĠAquela": 3857,
      "ĠAqui": 3858,
      "iliar": 3859,
      "lhando": 3860,
      "Ġcinquenta": 3861,
      "ĠcalÃ§ada": 3862,
      "Ġterceira": 3863,
      "Ġcaus": 3864,
      "ĠTed": 3865,
      "Ġacidente": 3866,
      "ĠWill": 3867,
      "Ġcaras": 3868,
      "Ġapareceu": 3869,
      "vie": 3870,
      "endy": 3871,
      "Ġcontor": 3872,
      "ner": 3873,
      "ĠsÃ¡": 3874,
      "Ġindic": 3875,
      "ĠtelevisÃ£o": 3876,
      "Ġran": 3877,
      "Ġdali": 3878,
      "ĠbotÃ£o": 3879,
      "Ġ15": 3880,
      "Ġiam": 3881,
      "Ġdomin": 3882,
      "Ġpilha": 3883,
      "Ġmencion": 3884,
      "Ġrodo": 3885,
      "Ãĩ": 3886,
      "Ġterre": 3887,
      "ntava": 3888,
      "Ġcano": 3889,
      "ĠAlgum": 3890,
      "lico": 3891,
      "ĠAb": 3892,
      "ĠVal": 3893,
      "tivos": 3894,
      "Ġdeter": 3895,
      "Ġquinze": 3896,
      "Ġmarca": 3897,
      "Ġchor": 3898,
      "ĠestÃ´mago": 3899,
      "Ġintelig": 3900,
      "ĠAnder": 3901,
      "Ġadiante": 3902,
      "ĠesforÃ§o": 3903,
      "Ġcomb": 3904,
      "Ġprefer": 3905,
      "Ġafir": 3906,
      "ĠPedro": 3907,
      "Ġdevem": 3908,
      "Ġnossos": 3909,
      "rup": 3910,
      "Ġguerra": 3911,
      "Ġsurpreso": 3912,
      "ony": 3913,
      "Ġsentada": 3914,
      "Ġbrancos": 3915,
      "gro": 3916,
      "ĠdiferenÃ§a": 3917,
      "ĠcentÃŃmetros": 3918,
      "ĠMal": 3919,
      "Ġdup": 3920,
      "lac": 3921,
      "enso": 3922,
      "Ġmedida": 3923,
      "didos": 3924,
      "Ġpraia": 3925,
      "Ġinteira": 3926,
      "Ġfizesse": 3927,
      "Ġgato": 3928,
      "ĠTre": 3929,
      "Ã´s": 3930,
      "Ġmancha": 3931,
      "Ġpedir": 3932,
      "Ġpassagem": 3933,
      "ĠSabe": 3934,
      "Ġbara": 3935,
      "Ã´m": 3936,
      "Ġviram": 3937,
      "Ġsubindo": 3938,
      "ĠElas": 3939,
      "Ġseguro": 3940,
      "Ġmenina": 3941,
      "idez": 3942,
      "ĠObrigado": 3943,
      "Ġcomum": 3944,
      "onde": 3945,
      "Ġconseguisse": 3946,
      "ĠsÃ©rie": 3947,
      "Ġmud": 3948,
      "Ġcarrinho": 3949,
      "igas": 3950,
      "ĠTodd": 3951,
      "bilidade": 3952,
      "Ġtu": 3953,
      "Ġtiver": 3954,
      "ĠEi": 3955,
      "Ġencolh": 3956,
      "Ġmoe": 3957,
      "Ġ8": 3958,
      "Ġestra": 3959,
      "Ġouro": 3960,
      "ĠHomem": 3961,
      "ĠFo": 3962,
      "iqu": 3963,
      "Ġdiscu": 3964,
      "ington": 3965,
      "Ġimportava": 3966,
      "Ġacordo": 3967,
      "ificar": 3968,
      "iÃªncia": 3969,
      "ĠmÃ¡g": 3970,
      "bur": 3971,
      "tio": 3972,
      "Ġpresente": 3973,
      "Ġimagin": 3974,
      "Ġnoites": 3975,
      "Ġfaca": 3976,
      "ĠperÃŃo": 3977,
      "Ġroupa": 3978,
      "Ġespalha": 3979,
      "low": 3980,
      "ĠBer": 3981,
      "Ġinic": 3982,
      "ĠLiz": 3983,
      "Ġestivessem": 3984,
      "Ġconcent": 3985,
      "ĠsuperfÃŃcie": 3986,
      "Ric": 3987,
      "Ġperten": 3988,
      "inalmente": 3989,
      "Ġrodas": 3990,
      "Ġdesapareceu": 3991,
      "Ġdesliz": 3992,
      "ĠpÃ¡lido": 3993,
      "Ġprofess": 3994,
      "Ġprincipalmente": 3995,
      "ĠmÃ¡s": 3996,
      "semos": 3997,
      "ĠAcha": 3998,
      "ĠCarter": 3999,
      "Ġmonst": 4000,
      "igh": 4001,
      "itamente": 4002,
      "Ġmi": 4003,
      "Ġfur": 4004,
      "ĠDar": 4005,
      "ranja": 4006,
      "ĠRose": 4007,
      "Ġobservando": 4008,
      "ĠporÃ£o": 4009,
      "Ġloucura": 4010,
      "ĠGrande": 4011,
      "ĠQU": 4012,
      "Ġdevo": 4013,
      "hamos": 4014,
      "ntada": 4015,
      "Ġinteresse": 4016,
      "Ġposto": 4017,
      "ĠDisse": 4018,
      "Ġperdeu": 4019,
      "Ġboas": 4020,
      "Ġsente": 4021,
      "uss": 4022,
      "Ġdescan": 4023,
      "Ãį": 4024,
      "Ġmoc": 4025,
      "Ġestendeu": 4026,
      "Ã¢ne": 4027,
      "Ġbur": 4028,
      "Ġperig": 4029,
      "Ġarmas": 4030,
      "Ġbala": 4031,
      "Ġof": 4032,
      "Ġ20": 4033,
      "ĠEmb": 4034,
      "Ġrevel": 4035,
      "Ġcorda": 4036,
      "Ġcasas": 4037,
      "Ġirre": 4038,
      "olina": 4039,
      "Ġmetal": 4040,
      "Ġfechar": 4041,
      "gno": 4042,
      "Ġsequer": 4043,
      "Ġpers": 4044,
      "ĠLu": 4045,
      "ĠposiÃ§Ã£o": 4046,
      "rag": 4047,
      "Ġfaziam": 4048,
      "Ġviva": 4049,
      "Ġcriatura": 4050,
      "ĠRachel": 4051,
      "Ġgargalha": 4052,
      "ĠtÃªnis": 4053,
      "Ġcuidados": 4054,
      "fal": 4055,
      "grama": 4056,
      "Ġengol": 4057,
      "asc": 4058,
      "ĠSÃ£o": 4059,
      "Ġapren": 4060,
      "Ġrato": 4061,
      "Ġpassaram": 4062,
      "ĠregiÃ£o": 4063,
      "ville": 4064,
      "ĠligaÃ§Ã£o": 4065,
      "RE": 4066,
      "ĠpÃ¢nico": 4067,
      "Ġverdadeiro": 4068,
      "Ġrever": 4069,
      "Ġcalma": 4070,
      "Ġmontanhas": 4071,
      "ĠBrad": 4072,
      "Ġcarteira": 4073,
      "AM": 4074,
      "Ġmic": 4075,
      "Ġfum": 4076,
      "Ġvolante": 4077,
      "ĠelÃ©tr": 4078,
      "telo": 4079,
      "Ġcrim": 4080,
      "Ã³vel": 4081,
      "ĠVe": 4082,
      "ĠcÃŃrculo": 4083,
      "Ġazuis": 4084,
      "ĠPhil": 4085,
      "Ġdizem": 4086,
      "Ġconseguiria": 4087,
      "Como": 4088,
      "ÃŃcias": 4089,
      "Ġmudar": 4090,
      "Ġgram": 4091,
      "Ġhab": 4092,
      "ĠtrÃªm": 4093,
      "ĠcomeÃ§ado": 4094,
      "Ġimaginar": 4095,
      "Ġdeslig": 4096,
      "ĠStark": 4097,
      "rÃªs": 4098,
      "Ġtes": 4099,
      "Ġvit": 4100,
      "ÃŃda": 4101,
      "Ġcambale": 4102,
      "Ġdei": 4103,
      "ĠestÃ¡vamos": 4104,
      "imavera": 4105,
      "zo": 4106,
      "osos": 4107,
      "Ġbate": 4108,
      "Ġbeber": 4109,
      "ĠDale": 4110,
      "tch": 4111,
      "tland": 4112,
      "rais": 4113,
      "leiros": 4114,
      "Ġsemelha": 4115,
      "Ġtampa": 4116,
      "Ġlevava": 4117,
      "Ġamarela": 4118,
      "Ġxer": 4119,
      "Ġedi": 4120,
      "Ġcela": 4121,
      "Ġviver": 4122,
      "ĠAlguÃ©m": 4123,
      "Ġinquie": 4124,
      "Ġfita": 4125,
      "Ã¡vamos": 4126,
      "Ġdescar": 4127,
      "tive": 4128,
      "Ġsuger": 4129,
      "ĠPens": 4130,
      "goth": 4131,
      "Ġencontro": 4132,
      "dual": 4133,
      "Ġchoque": 4134,
      "Ġinverno": 4135,
      "Ġdeixe": 4136,
      "Ġdescobriu": 4137,
      "ntem": 4138,
      "Ġmandou": 4139,
      "ple": 4140,
      "Ġtelefon": 4141,
      "ĠCasa": 4142,
      "ĠmoÃ§a": 4143,
      "ĠpÃ¡tio": 4144,
      "Da": 4145,
      "Ġimport": 4146,
      "isebol": 4147,
      "Ġanimal": 4148,
      "gido": 4149,
      "Ġjogado": 4150,
      "Ġenormes": 4151,
      "Ġapavo": 4152,
      "Co": 4153,
      "Ġ'": 4154,
      "Ġbons": 4155,
      "Ġinterromp": 4156,
      "UL": 4157,
      "ĠHol": 4158,
      "inais": 4159,
      "Ġimpress": 4160,
      "ĠAlguns": 4161,
      "ĠsaÃŃram": 4162,
      "Ġfotogra": 4163,
      "ĠJer": 4164,
      "cular": 4165,
      "ood": 4166,
      "Ġtriste": 4167,
      "Ġqueixo": 4168,
      "Ġbos": 4169,
      "Ġron": 4170,
      "ings": 4171,
      "Ġinferno": 4172,
      "osas": 4173,
      "Ġris": 4174,
      "Ġfacil": 4175,
      "Ġterminou": 4176,
      "Ġlanterna": 4177,
      "ĠpoÃ§o": 4178,
      "Ġfalta": 4179,
      "ĠsofÃ¡": 4180,
      "ĠClint": 4181,
      "Ġponte": 4182,
      "hete": 4183,
      "Ġfazem": 4184,
      "Ġcertamente": 4185,
      "ĠprÃ³prios": 4186,
      "ergia": 4187,
      "Ġgent": 4188,
      "ĠLila": 4189,
      "Ġnegra": 4190,
      "ime": 4191,
      "omos": 4192,
      "Ġindi": 4193,
      "Ġsobrev": 4194,
      "tÃ³rios": 4195,
      "Ġassomb": 4196,
      "Po": 4197,
      "ĠX": 4198,
      "Ġcostumava": 4199,
      "Ġdeixava": 4200,
      "Ġchorando": 4201,
      "Ġretorn": 4202,
      "ĠcÃ¢mera": 4203,
      "rindo": 4204,
      "ĠEste": 4205,
      "Ġvaga": 4206,
      "Ġplane": 4207,
      "ĠmÃŃn": 4208,
      "Ġconversar": 4209,
      "Ġmaluco": 4210,
      "yer": 4211,
      "Ġbeisebol": 4212,
      "Ġul": 4213,
      "ĠOi": 4214,
      "itada": 4215,
      "Ġsabem": 4216,
      "Ġpraticamente": 4217,
      "ĠWireman": 4218,
      "Ġpretendia": 4219,
      "Ġcouro": 4220,
      "Ġexiste": 4221,
      "Ġpude": 4222,
      "ka": 4223,
      "ĠPolly": 4224,
      "unha": 4225,
      "Ġdesma": 4226,
      "Ġpontos": 4227,
      "Ġcamis": 4228,
      "nada": 4229,
      "ĠHarry": 4230,
      "ĠPu": 4231,
      "Ġacredito": 4232,
      "Ġdiferentes": 4233,
      "ĠnegÃ³cio": 4234,
      "Ġfut": 4235,
      "ranÃ§as": 4236,
      "Ġesquis": 4237,
      "Ġproprie": 4238,
      "Ġdificul": 4239,
      "Ġfio": 4240,
      "Ġsuave": 4241,
      "Ġsabendo": 4242,
      "ĠWendy": 4243,
      "Ġempurrou": 4244,
      "ĠBru": 4245,
      "Ġincomo": 4246,
      "Ġexib": 4247,
      "Ġresta": 4248,
      "Ġpuder": 4249,
      "Ġencontrado": 4250,
      "oston": 4251,
      "ĠCoisa": 4252,
      "ĠbÃªbado": 4253,
      "To": 4254,
      "ald": 4255,
      "ril": 4256,
      "Ġquerida": 4257,
      "ĠIsto": 4258,
      "Ġpossib": 4259,
      "Ã³lver": 4260,
      "Ġespelho": 4261,
      "Ġcompu": 4262,
      "Ġbebida": 4263,
      "ĠpÃºb": 4264,
      "Ġvom": 4265,
      "ĠQuase": 4266,
      "Ġbomb": 4267,
      "Ġsubstitu": 4268,
      "Ġdeta": 4269,
      "Ġfasc": 4270,
      "lhei": 4271,
      "rgu": 4272,
      "ilho": 4273,
      "ĠAlguma": 4274,
      "Ġviz": 4275,
      "Ġsorri": 4276,
      "final": 4277,
      "tta": 4278,
      "ÃŃm": 4279,
      "queta": 4280,
      "ĠnotÃŃcia": 4281,
      "EL": 4282,
      "lum": 4283,
      "Ġsentar": 4284,
      "ĠIr": 4285,
      "Ġconhecido": 4286,
      "reto": 4287,
      "sem": 4288,
      "eld": 4289,
      "ney": 4290,
      "Ġadvo": 4291,
      "Ġpalma": 4292,
      "ĠnotÃŃcias": 4293,
      "AL": 4294,
      "Ġsoc": 4295,
      "laÃ§Ã£o": 4296,
      "Ġbru": 4297,
      "ĠBoston": 4298,
      "cadas": 4299,
      "cola": 4300,
      "ĠgraÃ§a": 4301,
      "ĠrevÃ³lver": 4302,
      "sh": 4303,
      "eios": 4304,
      "Ġparecido": 4305,
      "Ġtrilha": 4306,
      "Ġarregalados": 4307,
      "Ġesto": 4308,
      "assou": 4309,
      "Ġreflet": 4310,
      "Ġquebrado": 4311,
      "Ã£os": 4312,
      "Ġlan": 4313,
      "ecia": 4314,
      "ĠRuth": 4315,
      "Ġproduz": 4316,
      "Ġamarelo": 4317,
      "Ġesquecer": 4318,
      "ĠrelaÃ§Ã£o": 4319,
      "ĠimportÃ¢ncia": 4320,
      "rimento": 4321,
      "ĠPra": 4322,
      "Ġcoloca": 4323,
      "RI": 4324,
      "bul": 4325,
      "Ġligeiramente": 4326,
      "ĠPensei": 4327,
      "Ġsilenci": 4328,
      "!\"": 4329,
      "erg": 4330,
      "ĠSeria": 4331,
      "Ġvoando": 4332,
      "Ġgosta": 4333,
      "Ġfugir": 4334,
      "Ġtraseiro": 4335,
      "Ġdemo": 4336,
      "Ġmercado": 4337,
      "gueira": 4338,
      "olos": 4339,
      "izada": 4340,
      "Ġmelhores": 4341,
      "Ġreceber": 4342,
      "tÃµes": 4343,
      "Ġossos": 4344,
      "Ġoutono": 4345,
      "Ġdever": 4346,
      "Ġ12": 4347,
      "ĠPop": 4348,
      "Ġala": 4349,
      "are": 4350,
      "Ġcabo": 4351,
      "Ġigreja": 4352,
      "Ġarro": 4353,
      "Ġsar": 4354,
      "legar": 4355,
      "vada": 4356,
      "ĠDia": 4357,
      "Ġteriam": 4358,
      "diam": 4359,
      "Ġfila": 4360,
      "Ġconclu": 4361,
      "Ġprocurar": 4362,
      "tina": 4363,
      "Ġfios": 4364,
      "Ġchamas": 4365,
      "ĠdÃºzia": 4366,
      "Ġapartamento": 4367,
      "Ġcomecei": 4368,
      "ĠAntes": 4369,
      "Ġdespre": 4370,
      "sava": 4371,
      "Ġexter": 4372,
      "vidas": 4373,
      "Ġsurgiu": 4374,
      "Ġfranz": 4375,
      "Ġsess": 4376,
      "osamente": 4377,
      "lagg": 4378,
      "ĠsaÃŃdo": 4379,
      "Ġnecessidade": 4380,
      "Ġgolpe": 4381,
      "An": 4382,
      "vern": 4383,
      "endente": 4384,
      "ĠperÃŃodo": 4385,
      "nton": 4386,
      "Ġletras": 4387,
      "Ġdesagra": 4388,
      "Ġaproximou": 4389,
      "Ġescapar": 4390,
      "Ġpunho": 4391,
      "urtz": 4392,
      "ĠsÃºb": 4393,
      "leo": 4394,
      "voa": 4395,
      "Ġchegava": 4396,
      "Ġdiabo": 4397,
      "Ġfolha": 4398,
      "Ġtel": 4399,
      "ĠTÃºrin": 4400,
      "Ġprimavera": 4401,
      "Ġmandar": 4402,
      "Ġordem": 4403,
      "Ġassassina": 4404,
      "ĠMill": 4405,
      "ĠOl": 4406,
      "ĠTa": 4407,
      "izo": 4408,
      "ĠDean": 4409,
      "ĠRusty": 4410,
      "ivel": 4411,
      "Ġ11": 4412,
      "Ġpulso": 4413,
      "gum": 4414,
      "Ġcontemp": 4415,
      "Ġtoque": 4416,
      "Ġpren": 4417,
      "Ġquadro": 4418,
      "Ġresist": 4419,
      "Ġescuros": 4420,
      "Ġfique": 4421,
      "Ġsuperior": 4422,
      "mando": 4423,
      "Ġ.": 4424,
      "ast": 4425,
      "enos": 4426,
      "guas": 4427,
      "Ġlin": 4428,
      "atura": 4429,
      "Ġcomprim": 4430,
      "Ġxerife": 4431,
      "?\"": 4432,
      "Ġsolu": 4433,
      "zar": 4434,
      "Ġsel": 4435,
      "ĠDud": 4436,
      "una": 4437,
      "Ġing": 4438,
      "ĠKen": 4439,
      "Ġmistura": 4440,
      ".)": 4441,
      "Dan": 4442,
      "Ġaj": 4443,
      "Ġofic": 4444,
      "Ġcoto": 4445,
      "Ġcartas": 4446,
      "ĠÃºm": 4447,
      "ĠPercy": 4448,
      "cl": 4449,
      "ird": 4450,
      "Ġenxer": 4451,
      "Ġimped": 4452,
      "Ġprofundo": 4453,
      "Ġplano": 4454,
      "ĠprovÃ¡vel": 4455,
      "CA": 4456,
      "ges": 4457,
      "Ġpan": 4458,
      "ĠJul": 4459,
      "Ġcuidar": 4460,
      "Ġalegre": 4461,
      "Ġbiblioteca": 4462,
      "respon": 4463,
      "Ġadmit": 4464,
      "Ġautor": 4465,
      "Ġsepara": 4466,
      "Ġacaso": 4467,
      "ĠincÃªn": 4468,
      "hÃµes": 4469,
      "Ġqueima": 4470,
      "ÃŃst": 4471,
      "ulto": 4472,
      "ĠLau": 4473,
      "Ġpub": 4474,
      "bido": 4475,
      "tir": 4476,
      "Ġps": 4477,
      "gaÃ§Ã£o": 4478,
      "vemente": 4479,
      "Ġopin": 4480,
      "DA": 4481,
      "hh": 4482,
      "ntal": 4483,
      "Ġvan": 4484,
      "hados": 4485,
      "Ġperde": 4486,
      "Ġarco": 4487,
      "orrer": 4488,
      "Ġprimeiros": 4489,
      "Ġencara": 4490,
      "Ġdet": 4491,
      "parou": 4492,
      "ĠgalpÃ£o": 4493,
      "ĠengraÃ§ado": 4494,
      "Ġbochechas": 4495,
      "Ġpiso": 4496,
      "Ã£es": 4497,
      "ĠfÃ©": 4498,
      "rivelmente": 4499,
      "ĠTe": 4500,
      "Ġtremendo": 4501,
      "Ġfamiliar": 4502,
      "Ġpicape": 4503,
      "teiro": 4504,
      "Ġdemon": 4505,
      "Ġpresa": 4506,
      "Ġbaixinho": 4507,
      "fÃŃcio": 4508,
      "ÃĬ": 4509,
      "Ġdem": 4510,
      "Ġesfre": 4511,
      "dam": 4512,
      "entei": 4513,
      "ĠSo": 4514,
      "ĠVo": 4515,
      "ĠcartÃ£o": 4516,
      "Ġsegurava": 4517,
      "Ġimpul": 4518,
      "ĠagradÃ¡vel": 4519,
      "Ġacrescentou": 4520,
      "Ġexemplo": 4521,
      "amo": 4522,
      "Ġacontece": 4523,
      "saros": 4524,
      "Ġvas": 4525,
      "Ã¡tico": 4526,
      "ixa": 4527,
      "Ġcoberto": 4528,
      "Ã©rci": 4529,
      "Ġevitar": 4530,
      "Ġcoragem": 4531,
      "Ġanimais": 4532,
      "Ġproc": 4533,
      "Ġprata": 4534,
      "ĠsaÃŃda": 4535,
      "Ġconvers": 4536,
      "ĠDois": 4537,
      "Ġcintura": 4538,
      "ĠOwen": 4539,
      "Ġdeste": 4540,
      "Ġtomando": 4541,
      "anÃ§ava": 4542,
      "Ġdescendo": 4543,
      "entu": 4544,
      "Ġempres": 4545,
      "Ġnota": 4546,
      "Ġprova": 4547,
      "Ġrecus": 4548,
      "Ġsinist": 4549,
      "Ġpesadelo": 4550,
      "ĠStreet": 4551,
      "Ġdoce": 4552,
      "Ġcant": 4553,
      "Ġconduz": 4554,
      "ĠAnderson": 4555,
      "icidade": 4556,
      "Ġandou": 4557,
      "ĠlembranÃ§a": 4558,
      "Ġbrinque": 4559,
      "Ġgasolina": 4560,
      "SÃ³": 4561,
      "bun": 4562,
      "ws": 4563,
      "Ġhe": 4564,
      "lente": 4565,
      "icha": 4566,
      "Ã³i": 4567,
      "Ġpenet": 4568,
      "Ġ196": 4569,
      "ĠMcG": 4570,
      "ĠApenas": 4571,
      "ĠmemÃ³ria": 4572,
      "Ġnossas": 4573,
      "Ġcasaco": 4574,
      "Ġroman": 4575,
      "Ġliber": 4576,
      "tin": 4577,
      "ennie": 4578,
      "Ġsuf": 4579,
      "Ġobservou": 4580,
      "Ġclara": 4581,
      "Ġdescober": 4582,
      "Ġterreno": 4583,
      "TI": 4584,
      "ĠlanÃ§ou": 4585,
      "ĠFicou": 4586,
      "tern": 4587,
      "Ġvoltando": 4588,
      "Ġincr": 4589,
      "Ġdevol": 4590,
      "Ġpobre": 4591,
      "Ġtorre": 4592,
      "Ġuni": 4593,
      "ivamente": 4594,
      "lon": 4595,
      "Ġatira": 4596,
      "Ġinsta": 4597,
      "Ġselva": 4598,
      "Ġabre": 4599,
      "ĠbalanÃ§ando": 4600,
      "pro": 4601,
      "Ġpec": 4602,
      "Ġfro": 4603,
      "ĠPrim": 4604,
      "ĠRes": 4605,
      "Ġvid": 4606,
      "Ġcoberta": 4607,
      "Ġenferm": 4608,
      "Ġ...": 4609,
      "Ġafastar": 4610,
      "dindo": 4611,
      "oria": 4612,
      "ĠOr": 4613,
      "ĠTony": 4614,
      "ĠpeÃ§a": 4615,
      "its": 4616,
      "Ġtornar": 4617,
      "Ġdescobri": 4618,
      "ĠmÃ¡scara": 4619,
      "Ġcamiseta": 4620,
      "ĠtÃª": 4621,
      "gadas": 4622,
      "Ġhaveria": 4623,
      "Ġsinto": 4624,
      "ÃŃnhamos": 4625,
      "ĠLee": 4626,
      "Ġesquecido": 4627,
      "ĠexplosÃ£o": 4628,
      "Ġpri": 4629,
      "Ġvar": 4630,
      "Ġnomes": 4631,
      "ĠTrÃªs": 4632,
      "Ġpont": 4633,
      "dits": 4634,
      "Ġencontrava": 4635,
      "Ġrapazes": 4636,
      "ps": 4637,
      "ĠJan": 4638,
      "Ã´mo": 4639,
      "Ġalegria": 4640,
      "ĠViu": 4641,
      "Ġrepent": 4642,
      "Ġrespondi": 4643,
      "art": 4644,
      "Ġater": 4645,
      "Ġigno": 4646,
      "Ġlevando": 4647,
      "Ġrostos": 4648,
      "ĠSta": 4649,
      "Ġcalc": 4650,
      "Ġesquina": 4651,
      "tivamente": 4652,
      "ĠDick": 4653,
      "Ġ10": 4654,
      "ĠmultidÃ£o": 4655,
      "pÃ§Ã£o": 4656,
      "Ġcento": 4657,
      "ision": 4658,
      "Ġcoch": 4659,
      "Ã§am": 4660,
      "Ġcurto": 4661,
      "ier": 4662,
      "rb": 4663,
      "Ġdelica": 4664,
      "laram": 4665,
      "Ġtapete": 4666,
      "ĠconfusÃ£o": 4667,
      "Ġabsolutamente": 4668,
      "ientes": 4669,
      "Ġpoeira": 4670,
      "Ġcruza": 4671,
      "Ġelfos": 4672,
      "Ġfeita": 4673,
      "ÃĢ": 4674,
      "ĠdÃ©": 4675,
      "Ġori": 4676,
      "Billy": 4677,
      "Le": 4678,
      "Sim": 4679,
      "Ġtest": 4680,
      "ries": 4681,
      "ĠCity": 4682,
      "Ġalim": 4683,
      "Ġenergia": 4684,
      "Ġparque": 4685,
      "Ġinfor": 4686,
      "ativa": 4687,
      "Ġmargem": 4688,
      "Ġaparecer": 4689,
      "Ġdeb": 4690,
      "Ġofe": 4691,
      "Ġbu": 4692,
      "Ġreve": 4693,
      "Ġlaranja": 4694,
      "we": 4695,
      "Ġdesespe": 4696,
      "ragÃ£o": 4697,
      "Ġvio": 4698,
      "Ġrumo": 4699,
      "Ġpolegar": 4700,
      "Ġperf": 4701,
      "Ġficara": 4702,
      "Ġsons": 4703,
      "Ġacordar": 4704,
      "xas": 4705,
      "Ġmato": 4706,
      "Ġinde": 4707,
      "ndeu": 4708,
      "Ġesconder": 4709,
      "ĠSho": 4710,
      "adores": 4711,
      "Ġmarcas": 4712,
      "Ġrelu": 4713,
      "ranha": 4714,
      "hares": 4715,
      "ĠDiz": 4716,
      "ĠversÃ£o": 4717,
      "Ġpesado": 4718,
      "ĠpÃ¡ssaros": 4719,
      "Ġigual": 4720,
      "ĠAchei": 4721,
      "ubro": 4722,
      "Ġdeitado": 4723,
      "ĠfÃº": 4724,
      "entro": 4725,
      "Ã¡gua": 4726,
      "ĠSara": 4727,
      "ivelmente": 4728,
      "pan": 4729,
      "Ġajo": 4730,
      "dada": 4731,
      "dela": 4732,
      "Ġemit": 4733,
      "ĠRadar": 4734,
      "ĠSuas": 4735,
      "gamente": 4736,
      "tter": 4737,
      "entada": 4738,
      "Ã¡tica": 4739,
      "Ġhip": 4740,
      "Ġarqu": 4741,
      "Ġduro": 4742,
      "ĠSadie": 4743,
      "Ġrepetiu": 4744,
      "lph": 4745,
      "vÃ´": 4746,
      "Ġfale": 4747,
      "ticas": 4748,
      "Ġceleiro": 4749,
      "Ġberrou": 4750,
      "louqu": 4751,
      "Ġemprego": 4752,
      "Ġsand": 4753,
      "Ġbro": 4754,
      "Ġjoelho": 4755,
      "Ġfilmes": 4756,
      "Ġcontato": 4757,
      "Ġgelo": 4758,
      "Ġvapor": 4759,
      "ĠNenhum": 4760,
      "ĠÃ¢n": 4761,
      "ĠfÃ´": 4762,
      "reza": 4763,
      "Ġseca": 4764,
      "Ġserem": 4765,
      "pee": 4766,
      "Ġcaixas": 4767,
      "vei": 4768,
      "Ġcader": 4769,
      "Ġmassa": 4770,
      "Ġdesconhec": 4771,
      "Ġterras": 4772,
      "Ġcorte": 4773,
      "Ġtivera": 4774,
      "ĠRoger": 4775,
      "Ġmaldito": 4776,
      "ĠPaul": 4777,
      "field": 4778,
      "Ã¡rias": 4779,
      "Ġdoente": 4780,
      "Ġnotas": 4781,
      "Ġgen": 4782,
      "Ġpeguei": 4783,
      "ath": 4784,
      "Ġassum": 4785,
      "Ġraio": 4786,
      "Ġficavam": 4787,
      "ĠLogo": 4788,
      "Ġefeito": 4789,
      "ĠPas": 4790,
      "Ġsozinha": 4791,
      "dez": 4792,
      "Ġleit": 4793,
      "ĠFlagg": 4794,
      "Ġparecem": 4795,
      "Ġface": 4796,
      "Ġnuvem": 4797,
      "Ġrecupe": 4798,
      "Ġcircun": 4799,
      "xou": 4800,
      "ĠÃĵ": 4801,
      "Ġdesaparecido": 4802,
      "ĠlenÃ§": 4803,
      "Ġquant": 4804,
      "Ġimpression": 4805,
      "ĠÃŃn": 4806,
      "ĠconsciÃªncia": 4807,
      "Ġbrinca": 4808,
      "Enquanto": 4809,
      "Ġjardim": 4810,
      "ĠOra": 4811,
      "beth": 4812,
      "Ġtrail": 4813,
      "Ġgarotas": 4814,
      "ĠopiniÃ£o": 4815,
      "vÃ£o": 4816,
      "Ġdispos": 4817,
      "Ġpreta": 4818,
      "jada": 4819,
      "Ġjovens": 4820,
      "ĠfrequÃªncia": 4821,
      "Ġexplicar": 4822,
      "ĠpÃ¡gina": 4823,
      "Do": 4824,
      "Ġpain": 4825,
      "ĠrÃ¡pida": 4826,
      "pouco": 4827,
      "Ġredo": 4828,
      "Ġeletr": 4829,
      "Ġher": 4830,
      "Ġhobb": 4831,
      "Ġpesada": 4832,
      "Ġbarba": 4833,
      "ĠPodia": 4834,
      "ĠNatal": 4835,
      "taque": 4836,
      "ilhas": 4837,
      "Ġcompanhia": 4838,
      "?,": 4839,
      "cidade": 4840,
      "Ġtare": 4841,
      "Ġbonita": 4842,
      "ĠMorgan": 4843,
      "Ġenferru": 4844,
      "Ġocorreu": 4845,
      "ussander": 4846,
      "Est": 4847,
      "int": 4848,
      "tte": 4849,
      "ĠAfinal": 4850,
      "ecu": 4851,
      "Ġestrem": 4852,
      "ĠTorre": 4853,
      "ĠFor": 4854,
      "Ġintens": 4855,
      "Ġrepres": 4856,
      "chado": 4857,
      "Ġsignificava": 4858,
      "disse": 4859,
      "Ġtru": 4860,
      "Ġfesta": 4861,
      "Ġbr": 4862,
      "Ġdiziam": 4863,
      "Ġpassara": 4864,
      "Ġvelhas": 4865,
      "ĠSempre": 4866,
      "Ġsegredo": 4867,
      "Ġcorpos": 4868,
      "nete": 4869,
      "Ġatravessar": 4870,
      "ĠJean": 4871,
      "ĠdÃª": 4872,
      "Ġdom": 4873,
      "cados": 4874,
      "Ġresponde": 4875,
      "Ġdesejo": 4876,
      "Ġbicic": 4877,
      "ĠCinza": 4878,
      "ĠEmbora": 4879,
      "OL": 4880,
      "Ġontem": 4881,
      "Ġdeserto": 4882,
      "tific": 4883,
      "portun": 4884,
      "centes": 4885,
      "Ġentra": 4886,
      "Ġprograma": 4887,
      "Ġbaixou": 4888,
      "Ġorgu": 4889,
      "Para": 4890,
      "Ġsho": 4891,
      "Ġvoltaram": 4892,
      "Ġtrabalhando": 4893,
      "ĠimaginaÃ§Ã£o": 4894,
      "ĠAquilo": 4895,
      "Ġentendeu": 4896,
      "Ġabsur": 4897,
      "Ġrepu": 4898,
      "Ġacaba": 4899,
      "Ġestranhos": 4900,
      "Ġvermelhos": 4901,
      "Ġenche": 4902,
      "ÃŃtulo": 4903,
      "Ġnervoso": 4904,
      "ĠDuddits": 4905,
      "ante": 4906,
      "kins": 4907,
      "Ġgira": 4908,
      "Ġgera": 4909,
      "Ġprato": 4910,
      "inger": 4911,
      "cobs": 4912,
      "Ġdecidiu": 4913,
      "Ġfirm": 4914,
      "ĠJunior": 4915,
      "fone": 4916,
      "way": 4917,
      "Ġdera": 4918,
      "ocar": 4919,
      "Ġaspec": 4920,
      "Ġrosa": 4921,
      "ĠTad": 4922,
      "Ġsobran": 4923,
      "Ġficam": 4924,
      "ĠdeixÃ¡": 4925,
      "ford": 4926,
      "Ġbonito": 4927,
      "Ġrisada": 4928,
      "Ġflutu": 4929,
      "Ġpista": 4930,
      "eros": 4931,
      "ĠSE": 4932,
      "ĠDO": 4933,
      "ĠDal": 4934,
      "Ġenlouqu": 4935,
      "ĠKurtz": 4936,
      "key": 4937,
      "IL": 4938,
      "Ġmos": 4939,
      "iava": 4940,
      "ĠEllie": 4941,
      "Ġcorria": 4942,
      "Que": 4943,
      "jante": 4944,
      "ĠDonna": 4945,
      "Ġinferior": 4946,
      "ĠincÃªndio": 4947,
      "Ġcoro": 4948,
      "ĠSol": 4949,
      "Ġmeninos": 4950,
      "Ġaula": 4951,
      "Ġaparentemente": 4952,
      "ĠCharles": 4953,
      "ĠdepÃ³sito": 4954,
      "Ġdroga": 4955,
      "Houve": 4956,
      "gara": 4957,
      "Ġpalha": 4958,
      "Ġdesenho": 4959,
      "Ġlegal": 4960,
      "Ġpavor": 4961,
      "Ġcareta": 4962,
      "Ã¢ncias": 4963,
      "Ġtrope": 4964,
      "cam": 4965,
      "Ġhon": 4966,
      "Ġexaus": 4967,
      "Ġade": 4968,
      "Ġria": 4969,
      "Ġinim": 4970,
      "ĠFiquei": 4971,
      "Ġficasse": 4972,
      "Ġtomado": 4973,
      "ĠremÃ©": 4974,
      "uncia": 4975,
      "Ġdesist": 4976,
      "Ġpersegu": 4977,
      "Ġcabine": 4978,
      "ĠLeva": 4979,
      "Ġganhar": 4980,
      "Ġgigantes": 4981,
      "wyer": 4982,
      "Ġdolor": 4983,
      "Ġnov": 4984,
      "ĠAce": 4985,
      "ĠSandy": 4986,
      "noite": 4987,
      "fant": 4988,
      "ĠbonÃ©": 4989,
      "Ġrecuou": 4990,
      "Ġobrigado": 4991,
      "Ġmonstro": 4992,
      "esa": 4993,
      "Ġcujo": 4994,
      "Ġpoltro": 4995,
      "Ġconhece": 4996,
      "Ġequil": 4997,
      "Ã©rcito": 4998,
      "rÃµes": 4999,
      "Ġbela": 5000,
      "Ġaliv": 5001,
      "Talvez": 5002,
      "Ġenvelo": 5003,
      "Ġsaia": 5004,
      "entaÃ§Ã£o": 5005,
      "Ġpassag": 5006,
      "Ġpin": 5007,
      "Ġoportun": 5008,
      "Ġdoc": 5009,
      "ÃŃdos": 5010,
      "ĠThe": 5011,
      "ĠBran": 5012,
      "ĠWest": 5013,
      "Ġsubitamente": 5014,
      "caram": 5015,
      "chos": 5016,
      "ĠCome": 5017,
      "Ġtido": 5018,
      "emas": 5019,
      "ons": 5020,
      "Ġfacul": 5021,
      "Ġator": 5022,
      "Ġconfir": 5023,
      "Ġborda": 5024,
      "Ġgave": 5025,
      "quil": 5026,
      "Ġmec": 5027,
      "Ġquie": 5028,
      "Ġinvis": 5029,
      "ĠJud": 5030,
      "Ġverdadeira": 5031,
      "Ġ195": 5032,
      "Ġequip": 5033,
      "ianÃ§a": 5034,
      "Bill": 5035,
      "fado": 5036,
      "Ġconte": 5037,
      "Ġsujo": 5038,
      "Ġasas": 5039,
      "izabeth": 5040,
      "Ġdestino": 5041,
      "ippin": 5042,
      "Ġadvogado": 5043,
      "bel": 5044,
      "ĠMamÃ£e": 5045,
      "lhar": 5046,
      "Ġdescia": 5047,
      "Ġfortes": 5048,
      "daria": 5049,
      "heÃ§o": 5050,
      "itÃ¡rio": 5051,
      "Ġescolh": 5052,
      "lÃ³": 5053,
      "mentos": 5054,
      "pul": 5055,
      "Ġdan": 5056,
      "ĠsaÃŃa": 5057,
      "Ġbilhete": 5058,
      "EI": 5059,
      "ĠTy": 5060,
      "Ġmudou": 5061,
      "itch": 5062,
      "ĠGil": 5063,
      "Ġmostrou": 5064,
      "more": 5065,
      "Mais": 5066,
      "pido": 5067,
      "Ġbotas": 5068,
      "angor": 5069,
      "Ġdificuldade": 5070,
      "ĠdesagradÃ¡vel": 5071,
      "Ġassassinato": 5072,
      "Ġfechado": 5073,
      "ĠOlha": 5074,
      "Ġencer": 5075,
      "udou": 5076,
      "ÃŃnio": 5077,
      "Ġmorrendo": 5078,
      "Ġpiada": 5079,
      "Ġsegurar": 5080,
      "ĠEstavam": 5081,
      "Ġfuturo": 5082,
      "obre": 5083,
      "Ġtij": 5084,
      "Ġcuja": 5085,
      "Ġsacudiu": 5086,
      "Ġcena": 5087,
      "ĠPrin": 5088,
      "ĠsalÃ£o": 5089,
      "Ġadoles": 5090,
      "bird": 5091,
      "Ġesma": 5092,
      "Ġnotur": 5093,
      "Ġdesvi": 5094,
      "Ġprestes": 5095,
      "Ġolhei": 5096,
      "ĠlevÃ¡": 5097,
      "ĠJimmy": 5098,
      "ĠnecessÃ¡rio": 5099,
      "Ġgarant": 5100,
      "rÃ¡rio": 5101,
      "uso": 5102,
      "Ġgrav": 5103,
      "ĠRennie": 5104,
      "ĠEstamos": 5105,
      "heira": 5106,
      "Ġonda": 5107,
      "Ġacal": 5108,
      "apai": 5109,
      "Ġsrta": 5110,
      "[âĢĶ": 5111,
      "mu": 5112,
      "tig": 5113,
      "ĠAlbert": 5114,
      "Ġsolo": 5115,
      "Ġpreocupado": 5116,
      "Ã´nica": 5117,
      "Ġgramado": 5118,
      "Ġcomputador": 5119,
      "Ġato": 5120,
      "ditch": 5121,
      "radores": 5122,
      "Ġbrancas": 5123,
      "Ġmicro": 5124,
      "su": 5125,
      "irÃ¡": 5126,
      "ĠcontrÃ¡rio": 5127,
      "Ġacredita": 5128,
      "Ġescritor": 5129,
      "Ġprateleira": 5130,
      "ĠAlgumas": 5131,
      "ĠmudanÃ§a": 5132,
      "Ġmetro": 5133,
      "ĠinÃº": 5134,
      "Ġverdes": 5135,
      "inados": 5136,
      "ĠpresenÃ§a": 5137,
      "ĠBowditch": 5138,
      "ah": 5139,
      "Ġbrilhantes": 5140,
      "ĠexperiÃªncia": 5141,
      "guÃ£o": 5142,
      "ĠImag": 5143,
      "iosa": 5144,
      "Ġgrave": 5145,
      "Ġacordou": 5146,
      "Ġnesta": 5147,
      "Ġlista": 5148,
      "ÃŃna": 5149,
      "dÃ¡ver": 5150,
      "Ġprofundamente": 5151,
      "Ġorelhas": 5152,
      "icar": 5153,
      "rid": 5154,
      "Ġpontas": 5155,
      "ĠEscu": 5156,
      "Ġvejo": 5157,
      "Ġfantasma": 5158,
      "Ġprofessor": 5159,
      "Ao": 5160,
      "quelas": 5161,
      "Ġnave": 5162,
      "itÃ©rio": 5163,
      "nais": 5164,
      "Ġvermelhas": 5165,
      "Ġsemelhante": 5166,
      "Ġpossibilidade": 5167,
      "Ãªme": 5168,
      "ĠPA": 5169,
      "ĠHan": 5170,
      "Ġseriam": 5171,
      "essem": 5172,
      "ĠpreÃ§o": 5173,
      "ĠTor": 5174,
      "Ġchaves": 5175,
      "Ġperguntando": 5176,
      "Ġexplica": 5177,
      "Ġfraco": 5178,
      "Ġpistola": 5179,
      "Ġzumbido": 5180,
      "Ġtap": 5181,
      "Ġmarcha": 5182,
      "Ġafo": 5183,
      "Ġquilos": 5184,
      "Vries": 5185,
      "ĠCara": 5186,
      "Ġalun": 5187,
      "ezer": 5188,
      "ĠPear": 5189,
      "Ġescure": 5190,
      "Ġantigos": 5191,
      "izaÃ§Ã£o": 5192,
      "ĠSlo": 5193,
      "ĠcadÃ¡ver": 5194,
      "ĠsaguÃ£o": 5195,
      "Ġbrincando": 5196,
      "ordan": 5197,
      "ragorn": 5198,
      "igu": 5199,
      "ste": 5200,
      "Ãĵ": 5201,
      "ore": 5202,
      "Ġcomentou": 5203,
      "Ġemb": 5204,
      "andolph": 5205,
      "Ġgirou": 5206,
      "ÃŃg": 5207,
      "Ġreduz": 5208,
      "Ġabrindo": 5209,
      "Ġtris": 5210,
      "Ġmorrido": 5211,
      "mun": 5212,
      "Ġava": 5213,
      "ĠHaven": 5214,
      "Ġfrase": 5215,
      "Ġhumano": 5216,
      "ĠpressÃ£o": 5217,
      "MA": 5218,
      "tudo": 5219,
      "ĠtÃŃnhamos": 5220,
      "iados": 5221,
      "Ġmuda": 5222,
      "ĠSabia": 5223,
      "Ġsuspirou": 5224,
      "Ġtesou": 5225,
      "irei": 5226,
      "Ġmomentos": 5227,
      "Ġdeviam": 5228,
      "Ġhumor": 5229,
      "ĠRober": 5230,
      "Ġcenta": 5231,
      "ĠTemos": 5232,
      "ĠlÃ¡pis": 5233,
      "Ġdeixara": 5234,
      "Ġcriaturas": 5235,
      "ĠFaz": 5236,
      "Ġperigoso": 5237,
      "anc": 5238,
      "Ġemerg": 5239,
      "gulo": 5240,
      "tebol": 5241,
      "ĠSh": 5242,
      "Ġruas": 5243,
      "Ġgostar": 5244,
      "ĠSau": 5245,
      "Ġmental": 5246,
      "Ġexplodiu": 5247,
      "Richard": 5248,
      "Ġdaria": 5249,
      "Ġbunda": 5250,
      "Ġlum": 5251,
      "ĠNet": 5252,
      "Ġperigo": 5253,
      "Ġacen": 5254,
      "Ġsomente": 5255,
      "Ġmis": 5256,
      "Ġrefei": 5257,
      "Ġassento": 5258,
      "Ġcasamento": 5259,
      "ĠWh": 5260,
      "Ġestranhas": 5261,
      "Ġnegros": 5262,
      "Ġdirigir": 5263,
      "Ġexperim": 5264,
      "ĠsanduÃŃ": 5265,
      "Ġbicicleta": 5266,
      "Ġeco": 5267,
      "quia": 5268,
      "Ġjun": 5269,
      "ĠVenha": 5270,
      "Ġleite": 5271,
      "Ġsabiam": 5272,
      "Ġamiga": 5273,
      "Ġconseguido": 5274,
      "Ġdiretamente": 5275,
      "Ġsang": 5276,
      "ĠSawyer": 5277,
      "Ġacordado": 5278,
      "OC": 5279,
      "ĠfÃ³s": 5280,
      "Ġdono": 5281,
      "Ġnovos": 5282,
      "ĠgÃ¡s": 5283,
      "Ġcheguei": 5284,
      "Ġrabo": 5285,
      "Ġpreocupar": 5286,
      "Ġrevista": 5287,
      "Ġtraseira": 5288,
      "ĠGage": 5289,
      "Ġresultado": 5290,
      "Ġatirar": 5291,
      "Ġrosn": 5292,
      "Ġcrescente": 5293,
      "dinho": 5294,
      "Ġdeus": 5295,
      "uais": 5296,
      "Ġmanda": 5297,
      "Ġondas": 5298,
      "dges": 5299,
      "rige": 5300,
      "ecas": 5301,
      "ciar": 5302,
      "Ġbochecha": 5303,
      "ĠnÃŃvel": 5304,
      "Ġorig": 5305,
      "Ġandava": 5306,
      "ffe": 5307,
      "saro": 5308,
      "ĠJacobs": 5309,
      "Ġelevador": 5310,
      "ue": 5311,
      "zentos": 5312,
      "Ġden": 5313,
      "arda": 5314,
      "Ġgr": 5315,
      "ĠCris": 5316,
      "ĠPippin": 5317,
      "icatri": 5318,
      "Ġjogando": 5319,
      "Ġcura": 5320,
      "Ġora": 5321,
      "inando": 5322,
      "Ġmata": 5323,
      "ĠNÃĥO": 5324,
      "Ġenfre": 5325,
      "ĠClau": 5326,
      "Ġmentira": 5327,
      "vaninha": 5328,
      "ÃŃssimo": 5329,
      "bada": 5330,
      "rann": 5331,
      "ĠGeral": 5332,
      "icky": 5333,
      "Ġtestem": 5334,
      "gam": 5335,
      "Ġgat": 5336,
      "Ġacendeu": 5337,
      "ĠFord": 5338,
      "ĠespÃŃ": 5339,
      "Ġart": 5340,
      "ĠchÃ¡": 5341,
      "Ġerrada": 5342,
      "Ġgeladeira": 5343,
      "ĠJulia": 5344,
      "Henry": 5345,
      "Ġadi": 5346,
      "Ġfina": 5347,
      "ĠBet": 5348,
      "Ġsorrir": 5349,
      "Ġpartida": 5350,
      "ĠfÃŃs": 5351,
      "lavam": 5352,
      "Ġpouquinho": 5353,
      "ĠintenÃ§Ã£o": 5354,
      "Ġcrep": 5355,
      "ÃŃcara": 5356,
      "Ġacost": 5357,
      "radamente": 5358,
      "ĠTodo": 5359,
      "Ġamericano": 5360,
      "ĠfÃºria": 5361,
      "Ġfaculdade": 5362,
      "bec": 5363,
      "Ġante": 5364,
      "Ġocul": 5365,
      "Ġfing": 5366,
      "Ġcompor": 5367,
      "pp": 5368,
      "Ġconfor": 5369,
      "Ġcorrespon": 5370,
      "Ġescor": 5371,
      "estre": 5372,
      "Ġusou": 5373,
      "vore": 5374,
      "Ġfutebol": 5375,
      "leiras": 5376,
      "Ġinvest": 5377,
      "bros": 5378,
      "ondo": 5379,
      "Ġrefer": 5380,
      "ĠpaÃŃs": 5381,
      "Ġlevanta": 5382,
      "Ġbomba": 5383,
      "Ġguard": 5384,
      "ĠChris": 5385,
      "buas": 5386,
      "Ġcompleto": 5387,
      "ĠAca": 5388,
      "ĠDiga": 5389,
      "ĠFez": 5390,
      "Ġabertos": 5391,
      "ĠMattie": 5392,
      "aneta": 5393,
      "Ġsuja": 5394,
      "Ġjulho": 5395,
      "ĠcabeÃ§as": 5396,
      "ĠsenÃ£o": 5397,
      "Ġconhecimento": 5398,
      "Ġescrivaninha": 5399,
      "Ġlargo": 5400,
      "Ġconcreto": 5401,
      "Ġescreveu": 5402,
      "Ġsumiu": 5403,
      "Ġgargalhada": 5404,
      "ĠfÃ³sfor": 5405,
      "brou": 5406,
      "ider": 5407,
      "pira": 5408,
      "ĠAragorn": 5409,
      "Ġpasta": 5410,
      "Ġimpro": 5411,
      "Ġbotar": 5412,
      "partamento": 5413,
      "Ġtocando": 5414,
      "Ġaparelho": 5415,
      "ĠBuick": 5416,
      "ĠtÃ©": 5417,
      "ama": 5418,
      "ĠSon": 5419,
      "Ġinex": 5420,
      "ĠFe": 5421,
      "Ġarbus": 5422,
      "Ġobjeto": 5423,
      "Ġvieram": 5424,
      "pando": 5425,
      "ĠpÃ³": 5426,
      "Ġlinhas": 5427,
      "Ġlendo": 5428,
      "Ġviol": 5429,
      "ĠestaÃ§Ã£o": 5430,
      "Ġvoltado": 5431,
      "rond": 5432,
      "Ġinteligente": 5433,
      "Ġdemonst": 5434,
      "ale": 5435,
      "ile": 5436,
      "Ġmus": 5437,
      "Ġvent": 5438,
      "ĠCer": 5439,
      "ĠMia": 5440,
      "Ġcinema": 5441,
      "ĠÃºltimas": 5442,
      "ette": 5443,
      "Ġinfeliz": 5444,
      "Ġfome": 5445,
      "ĠPou": 5446,
      "ĠDussander": 5447,
      "Ġcarona": 5448,
      "Ġcaminhar": 5449,
      "peedy": 5450,
      "cs": 5451,
      "Ġcicatri": 5452,
      "ĠBangor": 5453,
      "lorann": 5454,
      "ĠEspero": 5455,
      "Ġcomprido": 5456,
      "ĠcomeÃ§ara": 5457,
      "ĠBarbara": 5458,
      "Ġchegasse": 5459,
      "Ġatravessou": 5460,
      "ĠtÃ¡buas": 5461,
      "uck": 5462,
      "Ġpne": 5463,
      "Ġtentava": 5464,
      "Ġvende": 5465,
      "lec": 5466,
      "Ġencontraram": 5467,
      "Ġ198": 5468,
      "Ġaga": 5469,
      "ĠDA": 5470,
      "Ġriso": 5471,
      "itivo": 5472,
      "Ġconsul": 5473,
      "ĠpÃ¡ssaro": 5474,
      "11": 5475,
      "fin": 5476,
      "ĠdaÃŃ": 5477,
      "Ġge": 5478,
      "Ġesticou": 5479,
      "usive": 5480,
      "doso": 5481,
      "ater": 5482,
      "Ġvoltei": 5483,
      "padas": 5484,
      "Ġsuspei": 5485,
      "ĠmaÃ§aneta": 5486,
      "Ġtrailer": 5487,
      "ĠÃ¡s": 5488,
      "ĠAÃŃ": 5489,
      "Ġdesbo": 5490,
      "ĠKing": 5491,
      "Ġsubia": 5492,
      "ĠRay": 5493,
      "John": 5494,
      "Ġoportunidade": 5495,
      "Ġdoze": 5496,
      "Ġestilo": 5497,
      "Ġcantar": 5498,
      "Ġenvi": 5499,
      "Ġsentados": 5500,
      "Ġcruel": 5501,
      "ĠPare": 5502,
      "Ġsessenta": 5503,
      "Ġtristeza": 5504,
      "Ġfamos": 5505,
      "lego": 5506,
      "ĠSil": 5507,
      "ĠMun": 5508,
      "ceram": 5509,
      "ĠQueria": 5510,
      "Ġinteress": 5511,
      "Ġdefin": 5512,
      "ĠWilliam": 5513,
      "Ġuniforme": 5514,
      "Bem": 5515,
      "Ġrisco": 5516,
      "Ġpegando": 5517,
      "ĠLon": 5518,
      "Ġcortar": 5519,
      "Ġ18": 5520,
      "Ġpossu": 5521,
      "Ġhorizo": 5522,
      "Ġimpedir": 5523,
      "gamento": 5524,
      "tim": 5525,
      "rew": 5526,
      "Ġdisc": 5527,
      "ulos": 5528,
      "ĠDeve": 5529,
      "Ġvisse": 5530,
      "Ġnuca": 5531,
      "ĠocasiÃ£o": 5532,
      "ĠEntretanto": 5533,
      "Ou": 5534,
      "sor": 5535,
      "sha": 5536,
      "doma": 5537,
      "ĠAu": 5538,
      "Ġatirou": 5539,
      "Ġinst": 5540,
      "Ġtron": 5541,
      "Ġderram": 5542,
      "ĠIng": 5543,
      "Ġcircunst": 5544,
      "ared": 5545,
      "Ġpop": 5546,
      "Ġentendia": 5547,
      "Ġespero": 5548,
      "Ġsobren": 5549,
      "Ġbarco": 5550,
      "Ġmaiores": 5551,
      "Ġpercebi": 5552,
      "Ġatingiu": 5553,
      "Des": 5554,
      "wer": 5555,
      "Ġilha": 5556,
      "quis": 5557,
      "Ġneles": 5558,
      "Ġlei": 5559,
      "ĠEsper": 5560,
      "Ġrit": 5561,
      "atural": 5562,
      "Mar": 5563,
      "Ġram": 5564,
      "Ġfri": 5565,
      "ocado": 5566,
      "ĠCou": 5567,
      "Ġerro": 5568,
      "ĠMorgoth": 5569,
      "ĠKevin": 5570,
      "Ġnatu": 5571,
      "Ġaltos": 5572,
      "gavam": 5573,
      "Ġprom": 5574,
      "Ġsegura": 5575,
      "Ġchegada": 5576,
      "ĠÃ¡l": 5577,
      "Ġmarrom": 5578,
      "ĠimÃ³vel": 5579,
      "Ġpartiu": 5580,
      "itude": 5581,
      "Ġmaldita": 5582,
      "pu": 5583,
      "gui": 5584,
      "Ġoutubro": 5585,
      "Ġsomos": 5586,
      "ĠSinto": 5587,
      "Ġcuidadosamente": 5588,
      "ĠfÃ´lego": 5589,
      "Ġbrisa": 5590,
      "HA": 5591,
      "Ġdel": 5592,
      "Ġger": 5593,
      "Ġlama": 5594,
      "Ġcheios": 5595,
      "Ġbalas": 5596,
      "Ġpedido": 5597,
      "Ã´nia": 5598,
      "Ġvinham": 5599,
      "Ġbuscar": 5600,
      "Ġbloco": 5601,
      "Ġextremamente": 5602,
      "ĠsÃ¡bado": 5603,
      "El": 5604,
      "viu": 5605,
      "Ġevid": 5606,
      "Ġdobra": 5607,
      "Ġinse": 5608,
      "sada": 5609,
      "ĠHer": 5610,
      "ĠEstados": 5611,
      "Ġesteve": 5612,
      "ĠTommy": 5613,
      "ĠConsegu": 5614,
      "ĠxÃŃcara": 5615,
      "Ġinteressante": 5616,
      "Ġajoel": 5617,
      "Ġmater": 5618,
      "Ġdigo": 5619,
      "Ġinca": 5620,
      "ĠRandolph": 5621,
      "ates": 5622,
      "Ġroda": 5623,
      "Ġimpulso": 5624,
      "!,": 5625,
      "Roland": 5626,
      "Ġpano": 5627,
      "Ġqueda": 5628,
      "ĠOver": 5629,
      "Ġarris": 5630,
      "ĠgraÃ§as": 5631,
      "Ġretira": 5632,
      "Ġsatisfeito": 5633,
      "Ġtelhado": 5634,
      "hila": 5635,
      "tz": 5636,
      "Ãªnt": 5637,
      "Ġmad": 5638,
      "ĠCOM": 5639,
      "ĠDel": 5640,
      "Ġrum": 5641,
      "didas": 5642,
      "Ġfazenda": 5643,
      "ĠAnel": 5644,
      "licado": 5645,
      "Ġhumana": 5646,
      "ĠDeixe": 5647,
      "Ġpainel": 5648,
      "Ġenvelope": 5649,
      "Ġnatureza": 5650,
      "Ġthe": 5651,
      "ĠAd": 5652,
      "Ã§ados": 5653,
      "Ġacele": 5654,
      "Ġquerem": 5655,
      "Ġentregou": 5656,
      "ĠPreciso": 5657,
      "ies": 5658,
      "Ġsist": 5659,
      "Ġinva": 5660,
      "Ġformas": 5661,
      "Ġbeleza": 5662,
      "ĠNettie": 5663,
      "Don": 5664,
      "veiro": 5665,
      "icÃŃ": 5666,
      "ĠfaÃ§o": 5667,
      "uls": 5668,
      "Ġespor": 5669,
      "izou": 5670,
      "ĠIl": 5671,
      "Ġ197": 5672,
      "ĠRedoma": 5673,
      "Ġsobreviv": 5674,
      "ĠincrÃŃvel": 5675,
      "oter": 5676,
      "tÃŃvel": 5677,
      "xi": 5678,
      "Ġ,": 5679,
      "inbird": 5680,
      "Ġcondado": 5681,
      "rosa": 5682,
      "ĠUnidos": 5683,
      "Ġdesligou": 5684,
      "Ġretra": 5685,
      "ĠCra": 5686,
      "ĠMy": 5687,
      "Ġperm": 5688,
      "Ġseguindo": 5689,
      "Ġmelho": 5690,
      "bados": 5691,
      "Ġunivers": 5692,
      "Ġestranhamente": 5693,
      "cÃ¡": 5694,
      "iras": 5695,
      "mÃ£": 5696,
      "ror": 5697,
      "Ġinfant": 5698,
      "ĠHum": 5699,
      "Ġpoucas": 5700,
      "Ġguin": 5701,
      "Ġaproximando": 5702,
      "ĠdecisÃ£o": 5703,
      "ĠalmoÃ§o": 5704,
      "ĠHowie": 5705,
      "ĠdemÃ´n": 5706,
      "fada": 5707,
      "vando": 5708,
      "Ġvinho": 5709,
      "Ġbando": 5710,
      "ĠEv": 5711,
      "ĠterÃ¡": 5712,
      "ĠHill": 5713,
      "rugada": 5714,
      "Ġquintal": 5715,
      "ĠpÃ¡ginas": 5716,
      "ĠDurante": 5717,
      "unh": 5718,
      "Ġacesso": 5719,
      "ĠFar": 5720,
      "Ġprodu": 5721,
      "Ã¢nt": 5722,
      "Ġbatia": 5723,
      "Ġpatas": 5724,
      "fio": 5725,
      "ĠPapai": 5726,
      "Ġenvia": 5727,
      "Ġlad": 5728,
      "ĠNaquele": 5729,
      "Ġestup": 5730,
      "Ġcuriosidade": 5731,
      "lis": 5732,
      "Ġesgo": 5733,
      "Ġemo": 5734,
      "ĠTess": 5735,
      "Ġpartes": 5736,
      "Ġentrando": 5737,
      "Ġforn": 5738,
      "licou": 5739,
      "Ġorgan": 5740,
      "ĠDescul": 5741,
      "ĠSentia": 5742,
      "ĠEstrada": 5743,
      "gor": 5744,
      "Ġequi": 5745,
      "Ġsoou": 5746,
      "ĠJamie": 5747,
      "ĠdragÃ£o": 5748,
      "Ã§ava": 5749,
      "ĠFora": 5750,
      "cera": 5751,
      "Ġbolas": 5752,
      "Ġmonstru": 5753,
      "Ġcigarros": 5754,
      "ĠpÃºblico": 5755,
      "mÃ£o": 5756,
      "ritÃ³rios": 5757,
      "Ġtrabalha": 5758,
      "ĠrecÃ©m": 5759,
      "Ġcaval": 5760,
      "ĠPrimeiro": 5761,
      "DE": 5762,
      "ladas": 5763,
      "vaÃ§Ã£o": 5764,
      "Ġolharam": 5765,
      "Ãºsculo": 5766,
      "Ġpoltrona": 5767,
      "lÃ©": 5768,
      "ĠpÃ£o": 5769,
      "ĠvÃŃ": 5770,
      "Ġsug": 5771,
      "idado": 5772,
      "Ġperfeito": 5773,
      "Ġpensado": 5774,
      "Ġcolinas": 5775,
      "idÃ£o": 5776,
      "ĠexceÃ§Ã£o": 5777,
      "ĠBrutal": 5778,
      "bras": 5779,
      "fico": 5780,
      "xu": 5781,
      "ntaram": 5782,
      "Ġtec": 5783,
      "espero": 5784,
      "Ġbob": 5785,
      "Ã³veis": 5786,
      "Ġpercor": 5787,
      "dasse": 5788,
      "ĠFui": 5789,
      "ĠFinalmente": 5790,
      "Ġexecu": 5791,
      "Ġlevantando": 5792,
      "Ġah": 5793,
      "Ġestri": 5794,
      "dito": 5795,
      "ĠPorÃ©m": 5796,
      "ĠreuniÃ£o": 5797,
      "Ġquantidade": 5798,
      "resse": 5799,
      "ĠSha": 5800,
      "ĠBol": 5801,
      "Ã¢ncer": 5802,
      "Ġespecialmente": 5803,
      "ĠHelen": 5804,
      "Ġmochila": 5805,
      "Ġgentil": 5806,
      "ĠmÃŃnimo": 5807,
      "Ġderam": 5808,
      "ĠGos": 5809,
      "verna": 5810,
      "ĠDevore": 5811,
      "ĠPoderia": 5812,
      "Ġbeijo": 5813,
      "Ġrecome": 5814,
      "Ġesperou": 5815,
      "gente": 5816,
      "Ġdisseram": 5817,
      "Ġleu": 5818,
      "vert": 5819,
      "mba": 5820,
      "Ġsabemos": 5821,
      "Ġpudessem": 5822,
      "ĠveÃŃculo": 5823,
      "Ġfraca": 5824,
      "Ġderre": 5825,
      "Ġcintila": 5826,
      "ĠautomÃ¡": 5827,
      "Ġgigante": 5828,
      "ĠSloat": 5829,
      "Ah": 5830,
      "ĠcÃ´mo": 5831,
      "Ġset": 5832,
      "queÃ§a": 5833,
      "Ġapla": 5834,
      "Ġmole": 5835,
      "Ġcertas": 5836,
      "Ġinclu": 5837,
      "Ġagon": 5838,
      "Ġesqueceu": 5839,
      "Ġcro": 5840,
      "Ġcomendo": 5841,
      "Ġcadeiras": 5842,
      "ĠDeu": 5843,
      "Ġaro": 5844,
      "Ġprimeiras": 5845,
      "Ġrefle": 5846,
      "Ġsuspiro": 5847,
      "Ġsexta": 5848,
      "ĠpreocupaÃ§Ã£o": 5849,
      "gle": 5850,
      "Ġobe": 5851,
      "Ġbisco": 5852,
      "ĠRed": 5853,
      "Ġleg": 5854,
      "gacia": 5855,
      "Ġqueriam": 5856,
      "Ġtrazer": 5857,
      "Ġsoldados": 5858,
      "Ġusado": 5859,
      "Ġpercebe": 5860,
      "ĠsÃ©culo": 5861,
      "ĠMcVries": 5862,
      "Ġburacos": 5863,
      "Ġpendurada": 5864,
      "Ġjornais": 5865,
      "Ġorelha": 5866,
      "ĠÃŃ": 5867,
      "ince": 5868,
      "Ġsoltar": 5869,
      "Ġbolo": 5870,
      "Ġagente": 5871,
      "ĠcaÃŃram": 5872,
      "Ġretru": 5873,
      "Ã©rica": 5874,
      "ffey": 5875,
      "Sa": 5876,
      "deiro": 5877,
      "Ġmatado": 5878,
      "ĠCada": 5879,
      "ĠDou": 5880,
      "une": 5881,
      "ĠRos": 5882,
      "Ġinvesti": 5883,
      "Ġdissesse": 5884,
      "ls": 5885,
      "Ġcantos": 5886,
      "Ġencontra": 5887,
      "Ġpuxar": 5888,
      "Ġdivert": 5889,
      "ĠQUE": 5890,
      "10": 5891,
      "bando": 5892,
      "Ġmexer": 5893,
      "Ġdesf": 5894,
      "Ġentraram": 5895,
      "Ġiso": 5896,
      "Ġrestava": 5897,
      "Ġmoto": 5898,
      "Ġmover": 5899,
      "chou": 5900,
      "Ġgritava": 5901,
      "gonha": 5902,
      "Tom": 5903,
      "caria": 5904,
      "use": 5905,
      "ash": 5906,
      "ĠmatÃ¡": 5907,
      "Ġdiv": 5908,
      "ĠinfÃ¢ncia": 5909,
      "ĠnÃ©voa": 5910,
      "ĠTar": 5911,
      "ĠforÃ§as": 5912,
      "Ġcego": 5913,
      "Ġchegara": 5914,
      "ĠlenÃ§o": 5915,
      "celhas": 5916,
      "Ġextremidade": 5917,
      "Ġaus": 5918,
      "Ġcoz": 5919,
      "ranhas": 5920,
      "ĠrÃ©": 5921,
      "Ġpassei": 5922,
      "Ġpaco": 5923,
      "Ġencontrei": 5924,
      "ĠAtrÃ¡s": 5925,
      "itÃ¡ria": 5926,
      "viam": 5927,
      "ĠÃłquela": 5928,
      "Ġcompara": 5929,
      "Ġcompras": 5930,
      "terra": 5931,
      "Ġlivrar": 5932,
      "Ġguardar": 5933,
      "Ġrecebeu": 5934,
      "Ġdaquilo": 5935,
      "Ġsumido": 5936,
      "IC": 5937,
      "Ġnovas": 5938,
      "eci": 5939,
      "ĠOlhe": 5940,
      "Ġtirando": 5941,
      "Ġacontecia": 5942,
      "Ġ16": 5943,
      "Ġescuras": 5944,
      "ificado": 5945,
      "Assim": 5946,
      "Ġcrista": 5947,
      "Ġaluc": 5948,
      "Ġsobrancelhas": 5949,
      "gol": 5950,
      "rinha": 5951,
      "Ġcadeia": 5952,
      "omi": 5953,
      "Ġterno": 5954,
      "ĠJordan": 5955,
      "Ġpendurado": 5956,
      "Ap": 5957,
      "iri": 5958,
      "Ġpura": 5959,
      "Ġtoss": 5960,
      "aran": 5961,
      "Ġbelo": 5962,
      "Ġlas": 5963,
      "ĠMai": 5964,
      "ĠMerry": 5965,
      "Ġconso": 5966,
      "Ġarti": 5967,
      "look": 5968,
      "Ġpau": 5969,
      "Ġlongos": 5970,
      "Ġpint": 5971,
      "Ġclaramente": 5972,
      "ĠContudo": 5973,
      "Ġamava": 5974,
      "Ġdetetive": 5975,
      "Ġtiros": 5976,
      "Ġsentimento": 5977,
      "Ġseguido": 5978,
      "Ġtiras": 5979,
      "Ġvirado": 5980,
      "Ġfigura": 5981,
      "UN": 5982,
      "Ġnamo": 5983,
      "Ġcores": 5984,
      "inco": 5985,
      "ÃŃl": 5986,
      "Ġconce": 5987,
      "Ġconge": 5988,
      "diÃ§Ãµes": 5989,
      "Ġespada": 5990,
      "Ġgarotinha": 5991,
      "Ġcolocado": 5992,
      "ĠCondado": 5993,
      "Ġfuncionar": 5994,
      "Ġproteg": 5995,
      "ĠÃĵtimo": 5996,
      "lÃªs": 5997,
      "Ġconto": 5998,
      "Ã£s": 5999,
      "rens": 6000,
      "Ġdistra": 6001,
      "ĠBel": 6002,
      "Ġfaixa": 6003,
      "Ġantigas": 6004,
      "Ġbolsos": 6005,
      "Ġtenham": 6006,
      "ĠPergu": 6007,
      "Ġfechados": 6008,
      "Ġcavalos": 6009,
      "Ġlimpar": 6010,
      "ĠBeaver": 6011,
      "Ġconselho": 6012,
      "Ġfel": 6013,
      "ĠlanÃ§": 6014,
      "ĠCidade": 6015,
      "Ġlenta": 6016,
      "Ġarrum": 6017,
      "Ġpad": 6018,
      "Ġratos": 6019,
      "Ġlongas": 6020,
      "utch": 6021,
      "ĠCoffey": 6022,
      "ĠBobby": 6023,
      "Ġassassino": 6024,
      "Lo": 6025,
      "malmente": 6026,
      "ntemente": 6027,
      "ĠvÃŃt": 6028,
      "eitos": 6029,
      "Ġemba": 6030,
      "Ġexig": 6031,
      "Ġcere": 6032,
      "Ġbanho": 6033,
      "ĠHugh": 6034,
      "Ġgaveta": 6035,
      "ĠOverlook": 6036,
      "30": 6037,
      "dÃŃ": 6038,
      "wood": 6039,
      "nteira": 6040,
      "ĠgÃªme": 6041,
      "Ġreserva": 6042,
      "Ġconhecer": 6043,
      "Ġescolha": 6044,
      "Ġboneca": 6045,
      "volta": 6046,
      "ĠcrÃ¢n": 6047,
      "Ġbatalha": 6048,
      "Ġdocum": 6049,
      "Tudo": 6050,
      "gento": 6051,
      "Ġvesti": 6052,
      "Ġnotou": 6053,
      "ĠmetÃ¡": 6054,
      "Ġexci": 6055,
      "itais": 6056,
      "Ġdescre": 6057,
      "Ġfrag": 6058,
      "Ġjaqueta": 6059,
      "Ġpel": 6060,
      "Ġtig": 6061,
      "Ġtais": 6062,
      "Ġresmun": 6063,
      "Ġraios": 6064,
      "Ġvirando": 6065,
      "Ġenfiar": 6066,
      "Ġdrogas": 6067,
      "ĠAcredi": 6068,
      "consciente": 6069,
      "ĠPrincip": 6070,
      "pes": 6071,
      "well": 6072,
      "ĠdanÃ§a": 6073,
      "ĠSun": 6074,
      "aiu": 6075,
      "ĠHamp": 6076,
      "Ġcontando": 6077,
      "Ġinte": 6078,
      "Ġmanchas": 6079,
      "Ġsaltou": 6080,
      "Ġpulou": 6081,
      "Ġaproximar": 6082,
      "Ġtiveram": 6083,
      "ĠFreddy": 6084,
      "ĠcircunstÃ¢ncias": 6085,
      "ĠMicha": 6086,
      "ĠFique": 6087,
      "ĠLinda": 6088,
      "Ġcampos": 6089,
      "Ġdelegacia": 6090,
      "cula": 6091,
      "Ġouvira": 6092,
      "eropor": 6093,
      "Ġlouca": 6094,
      "Ġmontanha": 6095,
      "Ġbloque": 6096,
      "ĠCristo": 6097,
      "Ġseios": 6098,
      "letÃ³": 6099,
      "dades": 6100,
      "ĠSul": 6101,
      "Ġreme": 6102,
      "rans": 6103,
      "ĠpeÃ§as": 6104,
      "Ġespre": 6105,
      "Ġapontando": 6106,
      "Ġveja": 6107,
      "ĠPark": 6108,
      "essas": 6109,
      "Ġgrita": 6110,
      "Ġbrilhando": 6111,
      "Ã©ssemos": 6112,
      "ĠCarol": 6113,
      "Ġaspecto": 6114,
      "sen": 6115,
      "ĠAmb": 6116,
      "ĠSpeedy": 6117,
      "Ġextre": 6118,
      "Ġign": 6119,
      "tidos": 6120,
      "ĠAlgo": 6121,
      "Ġpalmas": 6122,
      "Ġdirigindo": 6123,
      "ĠBrown": 6124,
      "Ġfurioso": 6125,
      "ĠKenne": 6126,
      "Ġtum": 6127,
      "Ġvoltasse": 6128,
      "Ġimagens": 6129,
      "Ġmostrando": 6130,
      "ĠmÃ©dio": 6131,
      "Ġescondido": 6132,
      "ceiro": 6133,
      "hasse": 6134,
      "ind": 6135,
      "sona": 6136,
      "ĠGor": 6137,
      "ĠprÃ³prias": 6138,
      "Ġbatida": 6139,
      "ĠSteph": 6140,
      "Ġborra": 6141,
      "ĠinformaÃ§Ãµes": 6142,
      "wick": 6143,
      "Ġgl": 6144,
      "Ġcantando": 6145,
      "Ġentendo": 6146,
      "Ġprision": 6147,
      "Ġrespirar": 6148,
      "Ġmostrava": 6149,
      "Ġarbustos": 6150,
      "Ġpneus": 6151,
      "gil": 6152,
      "ko": 6153,
      "Ġtan": 6154,
      "Ġmala": 6155,
      "Ġexer": 6156,
      "Ġtex": 6157,
      "Ġacontecera": 6158,
      "posta": 6159,
      "Ġtantos": 6160,
      "Ġabertura": 6161,
      "Ġdesaparecer": 6162,
      "ĠApesar": 6163,
      "Ġgeralmente": 6164,
      "Ġinclusive": 6165,
      "Ġpropriedade": 6166,
      "heiros": 6167,
      "Ġdecla": 6168,
      "inn": 6169,
      "anÃ§o": 6170,
      "lay": 6171,
      "Ġreino": 6172,
      "Ġconvida": 6173,
      "ĠLester": 6174,
      "ĠpaletÃ³": 6175,
      "ĠHallorann": 6176,
      "alho": 6177,
      "albert": 6178,
      "ĠBiblioteca": 6179,
      "Ġanivers": 6180,
      "meu": 6181,
      "dere": 6182,
      "ĠWard": 6183,
      "Ġtinta": 6184,
      "cker": 6185,
      "Ġconcl": 6186,
      "Ġfantasmas": 6187,
      "Ġtornoz": 6188,
      "Ġfoc": 6189,
      "Ġalma": 6190,
      "Ġmortal": 6191,
      "ĠBarry": 6192,
      "Ġdetalhes": 6193,
      "Ġacon": 6194,
      "Ġovos": 6195,
      "Ġenso": 6196,
      "cidos": 6197,
      "Ġmorava": 6198,
      "Ġquerido": 6199,
      "Ġtate": 6200,
      "cador": 6201,
      "ĠEllen": 6202,
      "ĠfÃ©rias": 6203,
      "Ġtarefa": 6204,
      "Gard": 6205,
      "Meu": 6206,
      "born": 6207,
      "Ġtenta": 6208,
      "Ġvin": 6209,
      "icip": 6210,
      "ĠPres": 6211,
      "Ġatro": 6212,
      "tadores": 6213,
      "ĠBeezer": 6214,
      "ĠTomÃ¡s": 6215,
      "ĠHodges": 6216,
      "ADO": 6217,
      "icipal": 6218,
      "Ġfin": 6219,
      "Ġrevis": 6220,
      "diram": 6221,
      "Ġraste": 6222,
      "Ġgordo": 6223,
      "Ġocupa": 6224,
      "Ġbrincadeira": 6225,
      "rick": 6226,
      "Ġsede": 6227,
      "ĠNesse": 6228,
      "Ġmeninas": 6229,
      "ĠajudÃ¡": 6230,
      "ĠGraÃ§as": 6231,
      "Ġmexeu": 6232,
      "Ġmoedas": 6233,
      "Ġcentavos": 6234,
      "Ainda": 6235,
      "US": 6236,
      "rap": 6237,
      "Ġtime": 6238,
      "Ġfitou": 6239,
      "ĠNorris": 6240,
      "ĠPela": 6241,
      "ĠMA": 6242,
      "Ġconju": 6243,
      "Ġine": 6244,
      "ĠhÃ¡b": 6245,
      "Ġadul": 6246,
      "Ġtransforma": 6247,
      "Ġcurta": 6248,
      "Ġorden": 6249,
      "ĠEncont": 6250,
      "Ġsacola": 6251,
      "Ġdomingo": 6252,
      "Ġhobbits": 6253,
      "unt": 6254,
      "ĠtÃºn": 6255,
      "Ġacamp": 6256,
      "ĠGold": 6257,
      "Ġpretos": 6258,
      "Ġinsti": 6259,
      "ionado": 6260,
      "Ġagosto": 6261,
      "ĠNegra": 6262,
      "Estava": 6263,
      ".]": 6264,
      "15": 6265,
      "Dei": 6266,
      "Per": 6267,
      "Ġben": 6268,
      "ĠCava": 6269,
      "ĠFica": 6270,
      "Ãªnio": 6271,
      "Ġ17": 6272,
      "ĠTodas": 6273,
      "Ġplata": 6274,
      "ĠfurgÃ£o": 6275,
      "ĠespÃŃrito": 6276,
      "red": 6277,
      "ĠSentiu": 6278,
      "ramento": 6279,
      "ĠÃ¡guas": 6280,
      "Ġcurvou": 6281,
      "ĠBuck": 6282,
      "Ġamonto": 6283,
      "Ġpeixe": 6284,
      "Ġmaravilhoso": 6285,
      "Ġencolheu": 6286,
      "Ġfenda": 6287,
      "ĠEM": 6288,
      "quete": 6289,
      "ĠBal": 6290,
      "urar": 6291,
      "resso": 6292,
      "Ġmode": 6293,
      "Ġcasos": 6294,
      "Ġtampouco": 6295,
      "Ġraramente": 6296,
      "Ġtranspor": 6297,
      "ĠBoa": 6298,
      "Ġdecidir": 6299,
      "Ġcusp": 6300,
      "ning": 6301,
      "Ġpom": 6302,
      "ili": 6303,
      "ĠPr": 6304,
      "Ġpron": 6305,
      "Ġvolume": 6306,
      "ingol": 6307,
      "Ġconsider": 6308,
      "Ġcentral": 6309,
      "Ġvalor": 6310,
      "Ġnaturalmente": 6311,
      "lida": 6312,
      "Ġw": 6313,
      "Ġpilhas": 6314,
      "Ġlinda": 6315,
      "Ġcauda": 6316,
      "ĠCre": 6317,
      "ĠpegÃ¡": 6318,
      "Ġentendi": 6319,
      "ĠÃ³b": 6320,
      "ĠÃ³dio": 6321,
      "ĠlÃ¡bio": 6322,
      "Ġquebrar": 6323,
      "ĠcrÃ¢nio": 6324,
      "emor": 6325,
      "Ġgirando": 6326,
      "Ġreto": 6327,
      "Ġrestos": 6328,
      "inhar": 6329,
      "ĠnÃºmeros": 6330,
      "Ġabsoluta": 6331,
      "ULO": 6332,
      "eroporto": 6333,
      "aa": 6334,
      "bas": 6335,
      "ĠcÃ£es": 6336,
      "queiro": 6337,
      "laterra": 6338,
      "eman": 6339,
      "Ġfaces": 6340,
      "Ġide": 6341,
      "Ġarque": 6342,
      "Ġligado": 6343,
      "Ã¢mara": 6344,
      "Ġcontrolar": 6345,
      "ÃŃaco": 6346,
      "Ġencosta": 6347,
      "Ġrodovia": 6348,
      "ĠSt": 6349,
      "Ġestro": 6350,
      "Ġsupon": 6351,
      "ĠJared": 6352,
      "ĠFiz": 6353,
      "cialmente": 6354,
      "Ġdupla": 6355,
      "Ġadiv": 6356,
      "bs": 6357,
      "letas": 6358,
      "ĠCent": 6359,
      "Ġcorrida": 6360,
      "ĠfarÃ³is": 6361,
      "Ġsofre": 6362,
      "Ġgole": 6363,
      "Ġcreio": 6364,
      "Ġmadrugada": 6365,
      "rinhos": 6366,
      "ĠcÃ¢ncer": 6367,
      "Ġchamam": 6368,
      "Ġgarras": 6369,
      "Ġquebrou": 6370,
      "Ġlenha": 6371,
      "Ġcrime": 6372,
      "Ġjunho": 6373,
      "ĠInglaterra": 6374,
      "Ġmaterial": 6375,
      "Ġequipe": 6376,
      "II": 6377,
      "ube": 6378,
      "Ġcola": 6379,
      "Ġbrus": 6380,
      "Ġsust": 6381,
      "ĠQua": 6382,
      "ĠMarsha": 6383,
      "ĠpapÃ©is": 6384,
      "Ġerguer": 6385,
      "Ġmovendo": 6386,
      "ĠtÃªmpo": 6387,
      "ĠnegÃ³cios": 6388,
      "Ġaproximava": 6389,
      "ĠPearson": 6390,
      "ĠSan": 6391,
      "Ġarte": 6392,
      "Ġpergunt": 6393,
      "duras": 6394,
      "Ġsalto": 6395,
      "Ġnervos": 6396,
      "ĠabraÃ§ou": 6397,
      "Ġfacilidade": 6398,
      "ijo": 6399,
      "Ġedu": 6400,
      "Ġnaqueles": 6401,
      "Ġprog": 6402,
      "Ġpresidente": 6403,
      "Ġcurso": 6404,
      "Ġmostra": 6405,
      "Ġprecisou": 6406,
      "HO": 6407,
      "Sua": 6408,
      "gasse": 6409,
      "overn": 6410,
      "deado": 6411,
      "Ġestica": 6412,
      "Ġsupos": 6413,
      "ĠCap": 6414,
      "usos": 6415,
      "Ġdesli": 6416,
      "Ġpuxando": 6417,
      "Ġlimpa": 6418,
      "Ġarrastando": 6419,
      "Ġgelado": 6420,
      "Ġaceitar": 6421,
      "Ġsatisfa": 6422,
      "Ġsistema": 6423,
      "EC": 6424,
      "Ġades": 6425,
      "Ġcesta": 6426,
      "estava": 6427,
      "ĠSp": 6428,
      "ĠCurt": 6429,
      "ĠDol": 6430,
      "atia": 6431,
      "Ġcertos": 6432,
      "Ġbaba": 6433,
      "Ġabertas": 6434,
      "Ġ30": 6435,
      "ĠmÃºsculos": 6436,
      "Ġhorizonte": 6437,
      "Ja": 6438,
      "tia": 6439,
      "Ġreb": 6440,
      "Ġinespe": 6441,
      "ciou": 6442,
      "Ġinfin": 6443,
      "Ġgalhos": 6444,
      "Ġescorrendo": 6445,
      "brica": 6446,
      "Ġtornava": 6447,
      "Ġincapaz": 6448,
      "icÃŃdio": 6449,
      "ĠaniversÃ¡rio": 6450,
      "ii": 6451,
      "jet": 6452,
      "Ġsequ": 6453,
      "ĠDun": 6454,
      "ĠOeste": 6455,
      "Ġexc": 6456,
      "Ġlona": 6457,
      "ĠÃ³leo": 6458,
      "Ġmilhares": 6459,
      "Ġfedor": 6460,
      "ĠDuas": 6461,
      "ĠcemitÃ©rio": 6462,
      "ĠPARA": 6463,
      "Wireman": 6464,
      "ep": 6465,
      "lena": 6466,
      "Ġcomando": 6467,
      "Ġlit": 6468,
      "ocos": 6469,
      "Ġrede": 6470,
      "ĠColo": 6471,
      "rance": 6472,
      "ĠfogÃ£o": 6473,
      "Ġfazende": 6474,
      "ĠEstÃ£o": 6475,
      "Ġestadual": 6476,
      "Ġtentativa": 6477,
      "Ġtornara": 6478,
      "ĠterrÃŃveis": 6479,
      "Ġbosque": 6480,
      "Ġbai": 6481,
      "Ġembar": 6482,
      "ĠCob": 6483,
      "Ãµe": 6484,
      "Ġunhas": 6485,
      "Ġquarta": 6486,
      "Ġferram": 6487,
      "Ġpreocupe": 6488,
      "Ġvazias": 6489,
      "Ġcompanheiro": 6490,
      "Ġrestaurante": 6491,
      "Seu": 6492,
      "dora": 6493,
      "ismÃ£": 6494,
      "Ġfras": 6495,
      "Ġvac": 6496,
      "Ġvivos": 6497,
      "ĠDeke": 6498,
      "ĠinvisÃŃvel": 6499,
      "19": 6500,
      "hÃ¡": 6501,
      "ĠCan": 6502,
      "Ġvergonha": 6503,
      "ĠbalanÃ§a": 6504,
      "Ġsaberia": 6505,
      "Ġpassada": 6506,
      "Ġfizer": 6507,
      "Ġtransform": 6508,
      "Ġensino": 6509,
      "Ġservir": 6510,
      "ĠestÃºdio": 6511,
      "ĠtrÃªmula": 6512,
      "Ġultra": 6513,
      "ota": 6514,
      "pcion": 6515,
      "Ġaulas": 6516,
      "ĠTeria": 6517,
      "ross": 6518,
      "Ġcastan": 6519,
      "ĠNaquela": 6520,
      "Ġaviso": 6521,
      "Ã³rter": 6522,
      "Ġpunhos": 6523,
      "Ġlimpo": 6524,
      "Ġalcance": 6525,
      "ĠDenis": 6526,
      "ĠQualquer": 6527,
      "Cont": 6528,
      "Ġinterrompeu": 6529,
      "ĠHolmes": 6530,
      "Ġgrunh": 6531,
      "mÃµes": 6532,
      "Ġfino": 6533,
      "ĠlanÃ§a": 6534,
      "ĠSom": 6535,
      "Ġouve": 6536,
      "Ġaltas": 6537,
      "ussÃ£o": 6538,
      "Ġendere": 6539,
      "ĠRua": 6540,
      "Ġdeixei": 6541,
      "Ġpassavam": 6542,
      "ĠCarrie": 6543,
      "Ġprecisamos": 6544,
      "ĠReg": 6545,
      "ÃŃsque": 6546,
      "ĠsÃºbito": 6547,
      "gs": 6548,
      "Ġdemas": 6549,
      "Ġsinais": 6550,
      "ingu": 6551,
      "Ġpararam": 6552,
      "ondor": 6553,
      "Ġimpa": 6554,
      "Ġpermanec": 6555,
      "curso": 6556,
      "Andy": 6557,
      "Ġplataforma": 6558,
      "Bar": 6559,
      "pal": 6560,
      "arou": 6561,
      "reo": 6562,
      "haram": 6563,
      "Ġlite": 6564,
      "Ġcalado": 6565,
      "ĠCorre": 6566,
      "Ġdisparou": 6567,
      "Ġconser": 6568,
      "Ġcarregando": 6569,
      "Ġblusa": 6570,
      "Ġmoeda": 6571,
      "ĠDarcy": 6572,
      "Acho": 6573,
      "fun": 6574,
      "ow": 6575,
      "Ġcoment": 6576,
      "Ġconden": 6577,
      "Ã§adas": 6578,
      "Ġparentes": 6579,
      "Ġmoment": 6580,
      "Ġpedindo": 6581,
      "Ġreceb": 6582,
      "ĠMontan": 6583,
      "Ġcansada": 6584,
      "Ġreverendo": 6585,
      "Ġborracha": 6586,
      "Ġcess": 6587,
      "Ġtia": 6588,
      "ocais": 6589,
      "Ġ14": 6590,
      "ĠdÃºvidas": 6591,
      "Ġrouca": 6592,
      "ĠNorma": 6593,
      "ĠirmÃ£os": 6594,
      "Ġajudou": 6595,
      "ĠSauron": 6596,
      "rel": 6597,
      "ench": 6598,
      "ivemos": 6599,
      "ith": 6600,
      "ĠQuatro": 6601,
      "quila": 6602,
      "Ġdormia": 6603,
      "ĠTerritÃ³rios": 6604,
      "Ġmantinha": 6605,
      "Ġdirigiu": 6606,
      "SE": 6607,
      "uras": 6608,
      "Ġfomos": 6609,
      "Ġdisco": 6610,
      "ĠTho": 6611,
      "ĠRol": 6612,
      "Ġresid": 6613,
      "Ġvoltava": 6614,
      "Ġchar": 6615,
      "Ġrecla": 6616,
      "ĠJudy": 6617,
      "Ġdesculpas": 6618,
      "Ġburro": 6619,
      "isto": 6620,
      "ĠSto": 6621,
      "ĠTu": 6622,
      "ĠBil": 6623,
      "sados": 6624,
      "ĠHam": 6625,
      "Ġluvas": 6626,
      "Ġdeixaram": 6627,
      "Ġpenso": 6628,
      "Ġrocha": 6629,
      "Ġsujeira": 6630,
      "Ġestreita": 6631,
      "ĠDeix": 6632,
      "ĠalcanÃ§": 6633,
      "Ġenxergar": 6634,
      "sol": 6635,
      "Ã³rio": 6636,
      "ĠFlor": 6637,
      "Ġlatas": 6638,
      "Ġcarga": 6639,
      "Ġseguia": 6640,
      "Ġmenin": 6641,
      "ĠestarÃ¡": 6642,
      "Ġbaque": 6643,
      "Ġruins": 6644,
      "Ġquartei": 6645,
      "Ġviatura": 6646,
      "Ġempurrando": 6647,
      "Ġexplodir": 6648,
      "Ġbeijou": 6649,
      "Ġsaiba": 6650,
      "ĠinglÃªs": 6651,
      "Ġtijolos": 6652,
      "centos": 6653,
      "ĠtÃºm": 6654,
      "Ġfrou": 6655,
      "Ġemaran": 6656,
      "Ġestradas": 6657,
      "Ġpersona": 6658,
      "Ġmura": 6659,
      "Ġcontorn": 6660,
      "ĠGal": 6661,
      "ciam": 6662,
      "Ġvidas": 6663,
      "Ġquartos": 6664,
      "Ġcostum": 6665,
      "Ġrazo": 6666,
      "ĠGreen": 6667,
      "ight": 6668,
      "Ġhabita": 6669,
      "Ġacostum": 6670,
      "ĠMarshall": 6671,
      "LÃ¡": 6672,
      "Ġful": 6673,
      "ridas": 6674,
      "Ġentus": 6675,
      "ĠexÃ©rcito": 6676,
      "Ġportanto": 6677,
      "ĠrepÃ³rter": 6678,
      "Ã´nico": 6679,
      "Ġcompleta": 6680,
      "Ġcobertas": 6681,
      "ĠDesde": 6682,
      "Ġcinzento": 6683,
      "Ã³gica": 6684,
      "Ġfocinho": 6685,
      "ID": 6686,
      "tivas": 6687,
      "vocÃª": 6688,
      "Ġmagro": 6689,
      "Ġsucesso": 6690,
      "ĠMÃ©": 6691,
      "ĠRat": 6692,
      "Ġterem": 6693,
      "chando": 6694,
      "entais": 6695,
      "Ġconfuso": 6696,
      "ĠcaÃŃa": 6697,
      "Ġlargou": 6698,
      "Ġproteger": 6699,
      "Ġdesconfia": 6700,
      "ĠMaitland": 6701,
      "ĠaÃ§Ã£o": 6702,
      "sey": 6703,
      "Ġasfal": 6704,
      "Ġcomprida": 6705,
      "Ġcolor": 6706,
      "Ġbebe": 6707,
      "Ġtirado": 6708,
      "Ġtransformou": 6709,
      "Ġdoutor": 6710,
      "tembro": 6711,
      "Ġquinta": 6712,
      "ĠJames": 6713,
      "Ġcomprimidos": 6714,
      "ĠGerald": 6715,
      "ines": 6716,
      "Ġescutar": 6717,
      "ett": 6718,
      "Ġgostou": 6719,
      "Ġapertar": 6720,
      "ulaÃ§Ã£o": 6721,
      "Ġcinzenta": 6722,
      "Ġresolver": 6723,
      "Ġfotografia": 6724,
      "Ġritmo": 6725,
      "PÃį": 6726,
      "gin": 6727,
      "ĠcÃ³": 6728,
      "ĠEr": 6729,
      "Ġcaut": 6730,
      "ĠTur": 6731,
      "Ġentrado": 6732,
      "viamente": 6733,
      "Ãºva": 6734,
      "Ġracha": 6735,
      "Ġgarotinho": 6736,
      "Ġconstante": 6737,
      "Ġconsciente": 6738,
      "Ġatravessa": 6739,
      "ĠHarris": 6740,
      "ejo": 6741,
      "iel": 6742,
      "reira": 6743,
      "ÃŃculos": 6744,
      "ĠNan": 6745,
      "ĠDrew": 6746,
      "imples": 6747,
      "bate": 6748,
      "Ġord": 6749,
      "Ġchamavam": 6750,
      "ĠcaminhÃµes": 6751,
      "Ġsilencios": 6752,
      "ĠNossa": 6753,
      "ĠShooter": 6754,
      "dentes": 6755,
      "ien": 6756,
      "Ġaonde": 6757,
      "osco": 6758,
      "ĠDoc": 6759,
      "ĠTive": 6760,
      "Ġmesmos": 6761,
      "Ġbaru": 6762,
      "Ġcient": 6763,
      "Ġapertando": 6764,
      "ĠCons": 6765,
      "ĠuÃŃsque": 6766,
      "ĠTeddy": 6767,
      "Ġprocurou": 6768,
      "Che": 6769,
      "bran": 6770,
      "ĠSar": 6771,
      "ĠPOR": 6772,
      "ĠRu": 6773,
      "Ã¡stica": 6774,
      "ĠSeja": 6775,
      "Ġusa": 6776,
      "ĠavÃ´": 6777,
      "Ġchocola": 6778,
      "Ġexato": 6779,
      "Ġtribun": 6780,
      "Ġlareira": 6781,
      "ĠNorte": 6782,
      "Ġfeitos": 6783,
      "Ġcurioso": 6784,
      "TULO": 6785,
      "nis": 6786,
      "ĊĠ": 6787,
      "ĠdanÃ§ar": 6788,
      "Ġdeso": 6789,
      "Ġope": 6790,
      "Ġqueira": 6791,
      "emin": 6792,
      "icado": 6793,
      "Ġempo": 6794,
      "ÃŃram": 6795,
      "ĠconheÃ§o": 6796,
      "Ġinstru": 6797,
      "vidos": 6798,
      "ĠpolÃŃ": 6799,
      "GO": 6800,
      "iper": 6801,
      "win": 6802,
      "Ġconfer": 6803,
      "Ġsuavemente": 6804,
      "Ġcontei": 6805,
      "Ġanel": 6806,
      "neau": 6807,
      "Ġguardas": 6808,
      "Ġabrigo": 6809,
      "Ġbocado": 6810,
      "Ġperfeita": 6811,
      "ĠbarracÃ£o": 6812,
      "ĠNenhuma": 6813,
      "Ġbrinquedo": 6814,
      "Ġaterror": 6815,
      "dil": 6816,
      "Ġdeco": 6817,
      "Ġvender": 6818,
      "Ġsejam": 6819,
      "elh": 6820,
      "Ġgris": 6821,
      "Ġreta": 6822,
      "Ġestariam": 6823,
      "Ġtentei": 6824,
      "Ġbanda": 6825,
      "Ġtrabalhava": 6826,
      "Ġerguendo": 6827,
      "Ġencher": 6828,
      "Ġtestemun": 6829,
      "Ġsetenta": 6830,
      "Nada": 6831,
      "dica": 6832,
      "iÃ§Ãµes": 6833,
      "tima": 6834,
      "ĠnÃ¡": 6835,
      "Ġdesespero": 6836,
      "Ġfant": 6837,
      "Ġcontente": 6838,
      "ĠIm": 6839,
      "ĠprÃ³ximos": 6840,
      "ĠpropÃ³sito": 6841,
      "Ġcrescer": 6842,
      "Ġimprov": 6843,
      "fle": 6844,
      "fera": 6845,
      "tendo": 6846,
      "vÃª": 6847,
      "vÃŃamos": 6848,
      "ecendo": 6849,
      "ĠDesta": 6850,
      "Ġtermos": 6851,
      "Ġprotes": 6852,
      "Ġespanto": 6853,
      "ariamente": 6854,
      "ĠvisÃŃvel": 6855,
      "Ġarrancar": 6856,
      "ordin": 6857,
      "ĠlÃ¢mina": 6858,
      "Ġtruque": 6859,
      "PÃįTULO": 6860,
      "Sam": 6861,
      "zinhos": 6862,
      "Ġestendia": 6863,
      "ĠCad": 6864,
      "ĠBan": 6865,
      "dire": 6866,
      "Ġvisitar": 6867,
      "ĠencontrÃ¡": 6868,
      "Ġcalmo": 6869,
      "lice": 6870,
      "ĠmilhÃµes": 6871,
      "Ġagudo": 6872,
      "Ġlaterais": 6873,
      "ĠtÃ¡xi": 6874,
      "NÃ³s": 6875,
      "gie": 6876,
      "Ġaranha": 6877,
      "Ġodia": 6878,
      "Ġtecido": 6879,
      "ĠTina": 6880,
      "Ġlento": 6881,
      "Ġluta": 6882,
      "Ġvagamente": 6883,
      "mith": 6884,
      "Ġpalco": 6885,
      "Ġtrein": 6886,
      "ĠreaÃ§Ã£o": 6887,
      "ĠCraig": 6888,
      "Ġinfantil": 6889,
      "Ġentusias": 6890,
      "Be": 6891,
      "Sem": 6892,
      "uel": 6893,
      "imbo": 6894,
      "ĠDÃ¡": 6895,
      "ĠOllie": 6896,
      "obos": 6897,
      "Ġverificar": 6898,
      "inheiros": 6899,
      "ĠPortland": 6900,
      "Ġobra": 6901,
      "Ġrespons": 6902,
      "ĠEdgar": 6903,
      "ĠcanÃ§Ã£o": 6904,
      "ĠRainbird": 6905,
      "Ġbrilhava": 6906,
      "ĠinÃºtil": 6907,
      "Me": 6908,
      "yna": 6909,
      "Ġut": 6910,
      "Ã©gio": 6911,
      "ĠLor": 6912,
      "Ġestalo": 6913,
      "Ġpresos": 6914,
      "Ġcanal": 6915,
      "vembro": 6916,
      "Ġgraus": 6917,
      "Ġtrecho": 6918,
      "Ġabaixou": 6919,
      "Ġfresco": 6920,
      "Gardener": 6921,
      "lido": 6922,
      "Ġcai": 6923,
      "Ġenga": 6924,
      "Ġcaro": 6925,
      "Ġcamp": 6926,
      "Ġmortas": 6927,
      "ĠlembranÃ§as": 6928,
      "ostei": 6929,
      "ÃŃnas": 6930,
      "Ġimaginou": 6931,
      "endell": 6932,
      "Ġ200": 6933,
      "Ġvege": 6934,
      "Ġtremer": 6935,
      "ĠCalla": 6936,
      "itava": 6937,
      "ling": 6938,
      "od": 6939,
      "xes": 6940,
      "Ġcidades": 6941,
      "ĠcaÃ§a": 6942,
      "Ġprovas": 6943,
      "ĠGondor": 6944,
      "Ġluar": 6945,
      "inhou": 6946,
      "Ġtoma": 6947,
      "ĠLew": 6948,
      "Ġganhou": 6949,
      "Ġvenha": 6950,
      "ĠconstruÃ§Ã£o": 6951,
      "ĠinformaÃ§Ã£o": 6952,
      "ĠPensou": 6953,
      "ĠJerome": 6954,
      "Car": 6955,
      "Con": 6956,
      "arem": 6957,
      "rilha": 6958,
      "lhÃ£o": 6959,
      "ĠFec": 6960,
      "Ġprocesso": 6961,
      "Ġcasca": 6962,
      "Ġtorta": 6963,
      "Ġsoava": 6964,
      "Ġbanheira": 6965,
      "ĠpulmÃµes": 6966,
      "Ġmentir": 6967,
      "Ġsombrio": 6968,
      "ĠmistÃ©rio": 6969,
      "ĠmÃ©dicos": 6970,
      "ĠContinu": 6971,
      "Ġorgulho": 6972,
      "char": 6973,
      "pend": 6974,
      "Ġnavio": 6975,
      "ild": 6976,
      "ily": 6977,
      "oma": 6978,
      "Ġtempera": 6979,
      "ressa": 6980,
      "ĠWe": 6981,
      "ĠWar": 6982,
      "Ġinsp": 6983,
      "Ġcarregado": 6984,
      "Ġrefrige": 6985,
      "Ġdivertido": 6986,
      "Ġexplicou": 6987,
      "Ġgemeu": 6988,
      "ĠDesculpe": 6989,
      "Ch": 6990,
      "lete": 6991,
      "ĠBor": 6992,
      "Ġsalvar": 6993,
      "Ġtapa": 6994,
      "ĠBlack": 6995,
      "ĠlÃ¢mpada": 6996,
      "ĠCujo": 6997,
      "Ã¢nea": 6998,
      "Ġromance": 6999,
      "Ġviole": 7000,
      "Ġreluz": 7001,
      "OCÃĬ": 7002,
      "ecida": 7003,
      "Ġcach": 7004,
      "itiva": 7005,
      "ĠLar": 7006,
      "ĠNaomi": 7007,
      "arra": 7008,
      "gulares": 7009,
      "Ġreci": 7010,
      "ĠNO": 7011,
      "mava": 7012,
      "ĠEssas": 7013,
      "izados": 7014,
      "ĠDele": 7015,
      "Ġfuga": 7016,
      "Ġescrita": 7017,
      "Ġnegras": 7018,
      "ĠVern": 7019,
      "ĠlÃŃqu": 7020,
      "ĠelÃ©trica": 7021,
      "shire": 7022,
      "ĠBilbo": 7023,
      "Antes": 7024,
      "nia": 7025,
      "Âº": 7026,
      "iante": 7027,
      "ĠPes": 7028,
      "ĠBas": 7029,
      "ntados": 7030,
      "Ġacabara": 7031,
      "Ġtornado": 7032,
      "Ġabril": 7033,
      "Ġpermaneceu": 7034,
      "Ġ50": 7035,
      "Ġindica": 7036,
      "Ġhesitou": 7037,
      "Ġcaminhada": 7038,
      "Ġencarou": 7039,
      "ĠValar": 7040,
      "Ġencheu": 7041,
      "ĠtÃºnel": 7042,
      "rÃ©": 7043,
      "tente": 7044,
      "ute": 7045,
      "ynt": 7046,
      "Ġpilo": 7047,
      "Ġbuz": 7048,
      "Ġdavam": 7049,
      "Ġenfi": 7050,
      "Ġarrancou": 7051,
      "Ġdesajei": 7052,
      "Ġsombria": 7053,
      "ĠMelhor": 7054,
      "Ġextraordin": 7055,
      "ynthia": 7056,
      "uu": 7057,
      "rantes": 7058,
      "Ġpio": 7059,
      "iadas": 7060,
      "Ġperda": 7061,
      "cipe": 7062,
      "Ġentrei": 7063,
      "ingando": 7064,
      "Ġterminado": 7065,
      "Ġpiores": 7066,
      "Ġrapidez": 7067,
      "ĠRobert": 7068,
      "Ġobede": 7069,
      "Ġbron": 7070,
      "Ġgro": 7071,
      "Ġincom": 7072,
      "Ġachando": 7073,
      "Ġvoo": 7074,
      "Ġfileira": 7075,
      "ĠcaÃŃda": 7076,
      "Ġseguiram": 7077,
      "Ġsussurro": 7078,
      "Ġuso": 7079,
      "Ġcapacidade": 7080,
      "Ġdiscutir": 7081,
      "Ġdescoberto": 7082,
      "ÃĢs": 7083,
      "Ġseda": 7084,
      "Ġnovembro": 7085,
      "ĠSco": 7086,
      "ĠBus": 7087,
      "...\"": 7088,
      "Ġmotivos": 7089,
      "Ġcompart": 7090,
      "ĠbotÃµes": 7091,
      "Ġacontecesse": 7092,
      "Ġjuiz": 7093,
      "issem": 7094,
      "Ġimagino": 7095,
      "Ġ199": 7096,
      "Ġabriram": 7097,
      "ĠmÃ¡gico": 7098,
      "Ġbosques": 7099,
      "Ġadmitir": 7100,
      "Ġdeuses": 7101,
      "Ġvul": 7102,
      "ĠEast": 7103,
      "ĠmaÃ§o": 7104,
      "nteve": 7105,
      "Ġperigos": 7106,
      "ĠVÃ£o": 7107,
      "Ġlutar": 7108,
      "Ġsubst": 7109,
      "Ġtornando": 7110,
      "ĠconfianÃ§a": 7111,
      "ĠÃ³rb": 7112,
      "Ġdezesse": 7113,
      "Ġpalp": 7114,
      "Ġquadril": 7115,
      "Ġdesenvol": 7116,
      "Ġgatilho": 7117,
      "ualmente": 7118,
      "Ġmago": 7119,
      "uliar": 7120,
      "urado": 7121,
      "ĠLi": 7122,
      "Ġescul": 7123,
      "Ġvoou": 7124,
      "Ġsolta": 7125,
      "ĠruÃŃnas": 7126,
      "idge": 7127,
      "ĠOuvi": 7128,
      "Ġprecisam": 7129,
      "Ġenchar": 7130,
      "Ġfeitas": 7131,
      "Ġamedro": 7132,
      "Ġfumar": 7133,
      "Danny": 7134,
      "ĠlenÃ§ol": 7135,
      "DI": 7136,
      "cimento": 7137,
      "leg": 7138,
      "hadas": 7139,
      "ocando": 7140,
      "Ġtratava": 7141,
      "Ġtransmit": 7142,
      "ĠHoje": 7143,
      "Ġdecidido": 7144,
      "Ġoficial": 7145,
      "Ġalunos": 7146,
      "Ġsepul": 7147,
      "Ġcala": 7148,
      "ĠMon": 7149,
      "ĠMenos": 7150,
      "ult": 7151,
      "Ãºst": 7152,
      "Ġtrav": 7153,
      "Ġouviram": 7154,
      "Ġescadas": 7155,
      "Ġvazios": 7156,
      "ĠremÃ©dio": 7157,
      "Ġretrucou": 7158,
      "Louis": 7159,
      "ban": 7160,
      "Ġaeroporto": 7161,
      "Ġcil": 7162,
      "Ġfru": 7163,
      "ĠEvie": 7164,
      "Ġdistantes": 7165,
      "ĠHÃºrin": 7166,
      "Ġand": 7167,
      "cete": 7168,
      "Ġabria": 7169,
      "Ġnevo": 7170,
      "Ġplanos": 7171,
      "Ġaposento": 7172,
      "ĠKee": 7173,
      "ÃŃbrio": 7174,
      "Ġsilencioso": 7175,
      "agem": 7176,
      "Ġoh": 7177,
      "Ġfen": 7178,
      "Ġsetembro": 7179,
      "tom": 7180,
      "ĠdoenÃ§a": 7181,
      "ĠBud": 7182,
      "urch": 7183,
      "Ġmora": 7184,
      "Ġbotou": 7185,
      "Ġcontagem": 7186,
      "Ġexistia": 7187,
      "ĠComeÃ§ou": 7188,
      "ĠcrepÃºsculo": 7189,
      "Ġestrondo": 7190,
      "12": 7191,
      "pass": 7192,
      "ye": 7193,
      "Ġcic": 7194,
      "ĠcondiÃ§Ãµes": 7195,
      "vermel": 7196,
      "Ġcheias": 7197,
      "Ġradia": 7198,
      "Ġlevaria": 7199,
      "rine": 7200,
      "Ġcachorros": 7201,
      "Ġlimite": 7202,
      "ologia": 7203,
      "umont": 7204,
      "Ġabafado": 7205,
      "estion": 7206,
      "ĠsanduÃŃche": 7207,
      "Ġcicatriz": 7208,
      "ĠKennedy": 7209,
      "Char": 7210,
      "cÃª": 7211,
      "Ġpente": 7212,
      "ĠExa": 7213,
      "emo": 7214,
      "ĠgrÃ¡": 7215,
      "ilas": 7216,
      "Ġcortina": 7217,
      "ĠvovÃ´": 7218,
      "Ġtraje": 7219,
      "Ġtrazia": 7220,
      "Ġrecebe": 7221,
      "Ġescrevendo": 7222,
      "Ġhumanos": 7223,
      "ĠexistÃªncia": 7224,
      "Ġpression": 7225,
      "ĠEST": 7226,
      "taÃ§Ãµes": 7227,
      "Ġnotic": 7228,
      "Ġrecon": 7229,
      "Ġmeter": 7230,
      "terna": 7231,
      "Ġimpe": 7232,
      "curo": 7233,
      "ÃŃncipe": 7234,
      "ĠavanÃ§ou": 7235,
      "Ġcobertura": 7236,
      "Ġcompreender": 7237,
      "Ġalarme": 7238,
      "ĠBradley": 7239,
      "Ġpeculiar": 7240,
      "ĠÃ¢ngulo": 7241,
      "Ġpromessa": 7242,
      "ĠHampshire": 7243,
      "Ġtribunal": 7244,
      "Ġesva": 7245,
      "roix": 7246,
      "ĠSobre": 7247,
      "ĠDer": 7248,
      "ĠDez": 7249,
      "caÃ§Ã£o": 7250,
      "aixon": 7251,
      "Ġintro": 7252,
      "Ġestrela": 7253,
      "Ġconcorda": 7254,
      "Ġsincer": 7255,
      "Ġmister": 7256,
      "Ġapostar": 7257,
      "Ġpasseio": 7258,
      "Ġselvagem": 7259,
      "pra": 7260,
      "Ġdevido": 7261,
      "Ġestilha": 7262,
      "Ġalte": 7263,
      "Ġatual": 7264,
      "Ġveria": 7265,
      "Ġespuma": 7266,
      "Ġsobretudo": 7267,
      "ĠbalanÃ§o": 7268,
      "Ġfuz": 7269,
      "Ġtabu": 7270,
      "Ġaven": 7271,
      "Ġaux": 7272,
      "Ġorcs": 7273,
      "Ġrelacion": 7274,
      "Ġdecidi": 7275,
      "Ġcontinuavam": 7276,
      "ĠdiscussÃ£o": 7277,
      "Elizabeth": 7278,
      "Ġacampamento": 7279,
      "Ġmila": 7280,
      "ĠRec": 7281,
      "Ġsentira": 7282,
      "jantes": 7283,
      "tidas": 7284,
      "ĠKy": 7285,
      "Ġlevaram": 7286,
      "Ġchamando": 7287,
      "Ġsorria": 7288,
      "Ġcaneta": 7289,
      "Ġfebre": 7290,
      "Ġambas": 7291,
      "ĠGuerra": 7292,
      "Ġperturbado": 7293,
      "IM": 7294,
      "vÃ³": 7295,
      "lem": 7296,
      "Ġparados": 7297,
      "Ġosso": 7298,
      "Ġalvo": 7299,
      "Ġfonte": 7300,
      "Ġinci": 7301,
      "Ġincon": 7302,
      "Ġdose": 7303,
      "Ġabsor": 7304,
      "dial": 7305,
      "Ġrepara": 7306,
      "Ġlevemente": 7307,
      "Ġlarga": 7308,
      "ĠMcGovern": 7309,
      "Ġpacote": 7310,
      "LE": 7311,
      "encia": 7312,
      "Ġdona": 7313,
      "Ġconst": 7314,
      "Ġinda": 7315,
      "ĠVera": 7316,
      "itenta": 7317,
      "Ġhorre": 7318,
      "logo": 7319,
      "Ġfico": 7320,
      "Ġcard": 7321,
      "Ġcarn": 7322,
      "Ġdiretor": 7323,
      "tÃ¡ria": 7324,
      "ĠAnd": 7325,
      "Ġerguia": 7326,
      "Ġpular": 7327,
      "Ġzan": 7328,
      "Ġcaminhando": 7329,
      "Ã¢mpa": 7330,
      "Ġexistem": 7331,
      "Ġdigitais": 7332,
      "Ġdisposto": 7333,
      "Ġdescansar": 7334,
      "Ġequipamento": 7335,
      "enÃ§o": 7336,
      "Ã©u": 7337,
      "ĠAman": 7338,
      "veram": 7339,
      "Ġmudado": 7340,
      "Ġtranquil": 7341,
      "feita": 7342,
      "Ġgarrafas": 7343,
      "Ġcotovelo": 7344,
      "bres": 7345,
      "into": 7346,
      "Ġcobra": 7347,
      "orro": 7348,
      "ĠJalbert": 7349,
      "Ġpouca": 7350,
      "iosos": 7351,
      "Ġfare": 7352,
      "ĠquilÃ´metro": 7353,
      "ĠHomens": 7354,
      "Ġmacaco": 7355,
      "Ġflutuando": 7356,
      "Ġmicrofone": 7357,
      "fias": 7358,
      "Ġdece": 7359,
      "Ġcofre": 7360,
      "ĠDire": 7361,
      "ung": 7362,
      "Ġenver": 7363,
      "Ġcascal": 7364,
      "itante": 7365,
      "Ġconseguira": 7366,
      "Ġtroca": 7367,
      "Ġmaluca": 7368,
      "Claro": 7369,
      "ĠsÃŃ": 7370,
      "Ġvenda": 7371,
      "ĠAven": 7372,
      "Ġgirar": 7373,
      "iriam": 7374,
      "ĠNas": 7375,
      "Ġdeixaria": 7376,
      "Ġajude": 7377,
      "Ġcaminhou": 7378,
      "ĠAposto": 7379,
      "Ġmovim": 7380,
      "ĠVictor": 7381,
      "ĠmÃ¡gica": 7382,
      "ĠcorrespondÃªncia": 7383,
      "cn": 7384,
      "lito": 7385,
      "Ġodor": 7386,
      "Ġpromo": 7387,
      "Ġcastelo": 7388,
      "Ġclasse": 7389,
      "Ġuniver": 7390,
      "Ġapagar": 7391,
      "ĠJeanette": 7392,
      "Ben": 7393,
      "Ste": 7394,
      "aÃ§Ã£o": 7395,
      "nÃ§a": 7396,
      "Ġcomeu": 7397,
      "Ã§aram": 7398,
      "Ġlic": 7399,
      "ĠDis": 7400,
      "ĠVOCÃĬ": 7401,
      "gala": 7402,
      "Ġfechando": 7403,
      "Ġpressa": 7404,
      "Ġsorris": 7405,
      "ĠCoisas": 7406,
      "mond": 7407,
      "Ġturma": 7408,
      "ĠBeaumont": 7409,
      "Ġesquisito": 7410,
      "Ġvomitar": 7411,
      "ĠequilÃŃbrio": 7412,
      "Ġasfalto": 7413,
      "Gar": 7414,
      "wald": 7415,
      "Ġcoron": 7416,
      "Ġfone": 7417,
      "ĠesqueÃ§a": 7418,
      "ĠAud": 7419,
      "cante": 7420,
      "Ġperdendo": 7421,
      "ĠficÃ§Ã£o": 7422,
      "Ġcheira": 7423,
      "ĠWendell": 7424,
      "ĠJackie": 7425,
      "ĠgarÃ§": 7426,
      "Ġderra": 7427,
      "ĠtalismÃ£": 7428,
      "Ġcircu": 7429,
      "Ġtransformar": 7430,
      "Ġclareza": 7431,
      "ĠHoward": 7432,
      "Ġfazendeiro": 7433,
      "Ġchocolate": 7434,
      "lm": 7435,
      "Ġ0": 7436,
      "Ġdeitada": 7437,
      "erson": 7438,
      "ĠCON": 7439,
      "Ġdivid": 7440,
      "Ġlavar": 7441,
      "ĠGaro": 7442,
      "vers": 7443,
      "ĠDevia": 7444,
      "ĠKi": 7445,
      "Ġlembrando": 7446,
      "ĠPequ": 7447,
      "Ġtranquila": 7448,
      "Ġimediato": 7449,
      "ĠmÃ¡quinas": 7450,
      "ĠpÃ¡lida": 7451,
      "Ġofereceu": 7452,
      "ĠocasiÃµes": 7453,
      "Ġconversando": 7454,
      "Ġgrotes": 7455,
      "Alan": 7456,
      "BI": 7457,
      "Ġfemin": 7458,
      "ilando": 7459,
      "Ġengas": 7460,
      "ĠBri": 7461,
      "Ġpaci": 7462,
      "Ãºde": 7463,
      "ĠIN": 7464,
      "estra": 7465,
      "adre": 7466,
      "Ġ25": 7467,
      "Ġocupado": 7468,
      "mercado": 7469,
      "Ġoriginal": 7470,
      "Ġrevistas": 7471,
      "sent": 7472,
      "Ġcen": 7473,
      "Ġcoxas": 7474,
      "Ġtol": 7475,
      "ĠDessa": 7476,
      "Ġvoar": 7477,
      "ĠPortanto": 7478,
      "Ġlidar": 7479,
      "Ġfeia": 7480,
      "Ġparticip": 7481,
      "Ġbicho": 7482,
      "ĠLucy": 7483,
      "ĠpalhaÃ§o": 7484,
      "gamos": 7485,
      "lock": 7486,
      "ĠDr": 7487,
      "Ġpuro": 7488,
      "lavan": 7489,
      "minist": 7490,
      "Ġtrocar": 7491,
      "Ġquebrada": 7492,
      "Ġcinzentos": 7493,
      "Ġpegadas": 7494,
      "Ġjusto": 7495,
      "ĠemergÃªncia": 7496,
      "ĠconclusÃ£o": 7497,
      "Ġtemperatura": 7498,
      "Ġaut": 7499,
      "Ġodi": 7500,
      "mada": 7501,
      "Ġinje": 7502,
      "diÃ§o": 7503,
      "Ġenfiado": 7504,
      "Ġdegrau": 7505,
      "Ġmundos": 7506,
      "Ġeletricidade": 7507,
      "Ġfirmeza": 7508,
      "OU": 7509,
      "Out": 7510,
      "quem": 7511,
      "ĠOde": 7512,
      "ĠRon": 7513,
      "Ġlamp": 7514,
      "Ġjogos": 7515,
      "ĠOswald": 7516,
      "Ġergue": 7517,
      "ĠSab": 7518,
      "Ġdesenhos": 7519,
      "Ġquantos": 7520,
      "Ġencaix": 7521,
      "ÃĩÃĥO": 7522,
      "Ġbarato": 7523,
      "Ġriacho": 7524,
      "Ġnevoeiro": 7525,
      "gel": 7526,
      "Ġfla": 7527,
      "angu": 7528,
      "Ġlindo": 7529,
      "Ġmat": 7530,
      "ĠCA": 7531,
      "Ġpod": 7532,
      "Ã¢ns": 7533,
      "Ġbalde": 7534,
      "RAN": 7535,
      "angborn": 7536,
      "Ġcrescendo": 7537,
      "Ġdeslizou": 7538,
      "Ġdescanso": 7539,
      "Ġinstrum": 7540,
      "Ġsobrenatural": 7541,
      "implesmente": 7542,
      "zy": 7543,
      "ĠporÃ§Ã£o": 7544,
      "Ġdescont": 7545,
      "ĠRam": 7546,
      "Ġmoveu": 7547,
      "Ġpaciente": 7548,
      "Ġconsiga": 7549,
      "Ġtantas": 7550,
      "ĠBev": 7551,
      "Ġgancho": 7552,
      "ĠFaÃ§a": 7553,
      "Ġagarrar": 7554,
      "Ġexcelente": 7555,
      "Ġconvencer": 7556,
      "Ġtermina": 7557,
      "Ġindicador": 7558,
      "Ġshow": 7559,
      "ĠDallas": 7560,
      "Ġatordo": 7561,
      "ĠfÃ³sforo": 7562,
      "cina": 7563,
      "parec": 7564,
      "ĠEN": 7565,
      "ĠAqueles": 7566,
      "ocia": 7567,
      "Ġmanteve": 7568,
      "...?": 7569,
      "beÃ§a": 7570,
      "Ġseres": 7571,
      "Ġcamada": 7572,
      "Ġsoldado": 7573,
      "Ġinterrup": 7574,
      "Ġbebendo": 7575,
      "Ġestreito": 7576,
      "ĠRoberta": 7577,
      "ĠcombinaÃ§Ã£o": 7578,
      "Jake": 7579,
      "Ġconstran": 7580,
      "Mor": 7581,
      "Vol": 7582,
      "ldor": 7583,
      "pida": 7584,
      "Ġsexo": 7585,
      "entamente": 7586,
      "ĠNum": 7587,
      "ĠalÃ§a": 7588,
      "Ġsacos": 7589,
      "Ġtravesse": 7590,
      "Ġtranquilo": 7591,
      "Ġarreb": 7592,
      "ressal": 7593,
      "Ġestuda": 7594,
      "Ġmergulha": 7595,
      "Ġflutua": 7596,
      "Ã¢nsito": 7597,
      "roto": 7598,
      "alidade": 7599,
      "Ġparando": 7600,
      "Ġlocais": 7601,
      "ÃŃzes": 7602,
      "Ġdisfar": 7603,
      "Ġmascul": 7604,
      "lheiro": 7605,
      "Ġparda": 7606,
      "Ġcontos": 7607,
      "Ġreplicou": 7608,
      "chonete": 7609,
      "tÃ¡rio": 7610,
      "Ġpresentes": 7611,
      "Ġtrilhos": 7612,
      "Ġaprender": 7613,
      "Ġartigo": 7614,
      "ĠCarolyn": 7615,
      "Ġdemasiado": 7616,
      "Ġavenida": 7617,
      "sÃµes": 7618,
      "deus": 7619,
      "Ġlobo": 7620,
      "ĠSor": 7621,
      "ulÃ¢ncia": 7622,
      "ĠDelac": 7623,
      "Ġduzentos": 7624,
      "Ġrolou": 7625,
      "Ġresponsa": 7626,
      "ĠDay": 7627,
      "Ġapertado": 7628,
      "Ġbrincar": 7629,
      "Ġprosseguiu": 7630,
      "dezas": 7631,
      "ĠresponsÃ¡vel": 7632,
      "At": 7633,
      "ipa": 7634,
      "quinha": 7635,
      "Ġmira": 7636,
      "Ġcoelho": 7637,
      "ĠSander": 7638,
      "ĠTro": 7639,
      "ĠButch": 7640,
      "ĠtrÃ¡": 7641,
      "Ġvirei": 7642,
      "entados": 7643,
      "Ġtornaram": 7644,
      "Ġagir": 7645,
      "Ġcentenas": 7646,
      "Ġfracas": 7647,
      "Ġganha": 7648,
      "Ġfechadas": 7649,
      "izante": 7650,
      "Ġassustada": 7651,
      "ĠabraÃ§o": 7652,
      "Ġcolegas": 7653,
      "Ġdesconf": 7654,
      "Ġtocava": 7655,
      "ĠÃºmido": 7656,
      "Ġescorria": 7657,
      "ĠhÃ¡bito": 7658,
      "ĠDelacroix": 7659,
      "Re": 7660,
      "correr": 7661,
      "Ġregular": 7662,
      "ĠOlhei": 7663,
      "Ġapaixon": 7664,
      "Ġpesar": 7665,
      "Ġsotaque": 7666,
      "Ġafun": 7667,
      "ĠPeyna": 7668,
      "venen": 7669,
      "Estou": 7670,
      "ĠcrÃ©": 7671,
      "wendy": 7672,
      "brisa": 7673,
      "Ġcompanheiros": 7674,
      "Ġconsiderando": 7675,
      "Ġcruzou": 7676,
      "Ġchoro": 7677,
      "Ġadequ": 7678,
      "Olhou": 7679,
      "ipo": 7680,
      "Ġmaio": 7681,
      "Ġmagia": 7682,
      "ĠPla": 7683,
      "Ġintenso": 7684,
      "Ġvibra": 7685,
      "Ġestabe": 7686,
      "Ġsenso": 7687,
      "idando": 7688,
      "Ġadqui": 7689,
      "ĠToda": 7690,
      "ĠsaÃŃsse": 7691,
      "ĠChurch": 7692,
      "Ġchuveiro": 7693,
      "Ġurso": 7694,
      "Ġonze": 7695,
      "Ġenfermeira": 7696,
      "Ġferramentas": 7697,
      "bios": 7698,
      "Ġoitenta": 7699,
      "ĠSenho": 7700,
      "Ġasp": 7701,
      "ĠMestre": 7702,
      "ĠTÃ¡": 7703,
      "ĠVan": 7704,
      "ĠFer": 7705,
      "ĠFic": 7706,
      "Ġparecesse": 7707,
      "Ġcasal": 7708,
      "ĠtrÃ¢nsito": 7709,
      "Ġtentado": 7710,
      "live": 7711,
      "Ġferida": 7712,
      "Ġnormalmente": 7713,
      "Ġgalho": 7714,
      "rassem": 7715,
      "Ġpreparado": 7716,
      "Ġassistir": 7717,
      "Ġenterrado": 7718,
      "ĠLemb": 7719,
      "ĠcÃŃrculos": 7720,
      "Ġcachimbo": 7721,
      "dinhas": 7722,
      "tindo": 7723,
      "uga": 7724,
      "Ġmeias": 7725,
      "issa": 7726,
      "Ġviam": 7727,
      "ĠVia": 7728,
      "Ġpratos": 7729,
      "Ġsaltar": 7730,
      "Ġsalvo": 7731,
      "Ġsusto": 7732,
      "Ġprofiss": 7733,
      "Ġpisca": 7734,
      "Ġvirada": 7735,
      "Ġgemido": 7736,
      "Ġconcluiu": 7737,
      "ĠsubstÃ¢ncia": 7738,
      "Ġaura": 7739,
      "lagem": 7740,
      "Ġdisto": 7741,
      "Ġconforme": 7742,
      "ĠBrig": 7743,
      "Ġpodre": 7744,
      "Ġatre": 7745,
      "Ġacender": 7746,
      "Ġcontado": 7747,
      "Ġlava": 7748,
      "Ġcomprou": 7749,
      "Ġtrancada": 7750,
      "Ġgostos": 7751,
      "Ġtriun": 7752,
      "Ġagarrando": 7753,
      "Ġobservar": 7754,
      "Ã³gico": 7755,
      "ĠAngel": 7756,
      "EstÃ¡": 7757,
      "Pen": 7758,
      "fan": 7759,
      "pel": 7760,
      "plo": 7761,
      "quen": 7762,
      "Ġvic": 7763,
      "Ġnoldor": 7764,
      "Ġmapa": 7765,
      "Ġestive": 7766,
      "Ġoscil": 7767,
      "ĠPangborn": 7768,
      "ĠHou": 7769,
      "Ġproib": 7770,
      "Ġsoco": 7771,
      "net": 7772,
      "Ġtomada": 7773,
      "Ġgrade": 7774,
      "Ġferido": 7775,
      "feitos": 7776,
      "ĠRoad": 7777,
      "Ġjato": 7778,
      "Ġafastando": 7779,
      "Ġsupermercado": 7780,
      "Ġvigor": 7781,
      "Ġobservava": 7782,
      "ĠPatrick": 7783,
      "Ġobjetos": 7784,
      "Ġinteressado": 7785,
      "ĠFloresta": 7786,
      "Ġcautelos": 7787,
      "Ġordens": 7788,
      "Clay": 7789,
      "sy": 7790,
      "Ġlido": 7791,
      "Ġgin": 7792,
      "Ġgai": 7793,
      "Ġfalado": 7794,
      "ches": 7795,
      "Ġbande": 7796,
      "Ġescolher": 7797,
      "Ġarmaz": 7798,
      "ĠTinham": 7799,
      "ĠChev": 7800,
      "Ġinclinado": 7801,
      "Ġencostou": 7802,
      "Ġabandonado": 7803,
      "Ġcristal": 7804,
      "giu": 7805,
      "ansas": 7806,
      "rion": 7807,
      "Ġcortou": 7808,
      "Ġcorreio": 7809,
      "ĠusÃ¡": 7810,
      "press": 7811,
      "Ġmentindo": 7812,
      "Ġimportantes": 7813,
      "Ġtanque": 7814,
      "ĠsatisfaÃ§Ã£o": 7815,
      "uels": 7816,
      "tamos": 7817,
      "Ã©tico": 7818,
      "ĠSmith": 7819,
      "Ġprecip": 7820,
      "Ġsobressal": 7821,
      "Ġcertific": 7822,
      "Ġclique": 7823,
      "Ġobjet": 7824,
      "Ġimbec": 7825,
      "ĠtrovÃ£o": 7826,
      "Ġpreocupada": 7827,
      "Ġjazia": 7828,
      "Ġrecolh": 7829,
      "Ġempresa": 7830,
      "Ġbiscoitos": 7831,
      "ĠÃŃnt": 7832,
      "Ġvelo": 7833,
      "Ġvaso": 7834,
      "ĠCynthia": 7835,
      "Ġespiando": 7836,
      "Ġmont": 7837,
      "ĠDetta": 7838,
      "ĠAndre": 7839,
      "tual": 7840,
      "Ġpiscou": 7841,
      "Ġplacas": 7842,
      "ĠmacacÃ£o": 7843,
      "Tinha": 7844,
      "__": 7845,
      "cter": 7846,
      "delia": 7847,
      "Ġperple": 7848,
      "Ġlap": 7849,
      "Ġanuncia": 7850,
      "igamente": 7851,
      "ister": 7852,
      "Ġmanif": 7853,
      "Ġrom": 7854,
      "Ġtentasse": 7855,
      "Ġjuntas": 7856,
      "Ġcabec": 7857,
      "Ġgoverno": 7858,
      "Ġretribu": 7859,
      "Ġfelizes": 7860,
      "ĠAmeric": 7861,
      "Ġprofundezas": 7862,
      "bon": 7863,
      "dge": 7864,
      "vilha": 7865,
      "Ġquestion": 7866,
      "inci": 7867,
      "Ġdeserta": 7868,
      "ĠBÃŃb": 7869,
      "inah": 7870,
      "Ġmorce": 7871,
      "Ġrota": 7872,
      "Ġjuntou": 7873,
      "Ġacorda": 7874,
      "ĠrelÃ¢mpa": 7875,
      "ificaÃ§Ã£o": 7876,
      "ĠcomeÃ§avam": 7877,
      "ĠPolÃŃcia": 7878,
      "ĠrefeiÃ§Ã£o": 7879,
      "ĠdemÃ´nio": 7880,
      "ĠGostaria": 7881,
      "ĠtÃºmulo": 7882,
      "ĠCallahan": 7883,
      "45": 7884,
      "anor": 7885,
      "Ġretro": 7886,
      "ĠClar": 7887,
      "Ġsapa": 7888,
      "Ġhabil": 7889,
      "Ġcort": 7890,
      "Ġmenores": 7891,
      "Ġrespostas": 7892,
      "Ġconseguem": 7893,
      "Ġpense": 7894,
      "ĠPegou": 7895,
      "Ġconhecida": 7896,
      "Ġsofrimento": 7897,
      "ificou": 7898,
      "lett": 7899,
      "Ġclareira": 7900,
      "Ġdesviou": 7901,
      "tida": 7902,
      "uas": 7903,
      "Ġmag": 7904,
      "ÃŃcios": 7905,
      "ust": 7906,
      "ĠJen": 7907,
      "Ġtoalha": 7908,
      "Ġcareca": 7909,
      "ĠDeep": 7910,
      "Ġescan": 7911,
      "Ġsabor": 7912,
      "ĠWes": 7913,
      "Ġpoderoso": 7914,
      "Ġobviamente": 7915,
      "Ġcriado": 7916,
      "ĠavanÃ§": 7917,
      "Ġbateria": 7918,
      "visor": 7919,
      "Ġjaz": 7920,
      "Ġcarregar": 7921,
      "Ġsinistro": 7922,
      "Ġofegante": 7923,
      "Ġcascalho": 7924,
      "Ġuniverso": 7925,
      "GU": 7926,
      "grÃ¡": 7927,
      "Ġfeio": 7928,
      "reiro": 7929,
      "Ġparava": 7930,
      "Ġpedi": 7931,
      "Ġacar": 7932,
      "Ġentrava": 7933,
      "Ġescal": 7934,
      "ĠAllen": 7935,
      "Ġexpul": 7936,
      "Ġapodre": 7937,
      "ĠChuck": 7938,
      "ĠHora": 7939,
      "ĠPodemos": 7940,
      "ĠcrÃŃ": 7941,
      "Ġdourado": 7942,
      "Ġreconheceu": 7943,
      "20": 7944,
      "lig": 7945,
      "Ġcris": 7946,
      "Ġvulto": 7947,
      "Ġembr": 7948,
      "ĠShan": 7949,
      "Ġarrem": 7950,
      "Ġcamara": 7951,
      "tiÃ§a": 7952,
      "Ġromp": 7953,
      "Ġvaca": 7954,
      "ĠAnne": 7955,
      "ĠalgodÃ£o": 7956,
      "Ġacabaria": 7957,
      "Ġderro": 7958,
      "Ġpiquen": 7959,
      "Ġfuncionando": 7960,
      "ĠambulÃ¢ncia": 7961,
      "Ġfantasia": 7962,
      "Ġclaridade": 7963,
      "iath": 7964,
      "Ġfume": 7965,
      "gura": 7966,
      "ĠAmy": 7967,
      "ĠTex": 7968,
      "ntadas": 7969,
      "ĠAnnie": 7970,
      "ĠchamÃ¡": 7971,
      "ĠsaÃŃam": 7972,
      "Ġlimpou": 7973,
      "Ġraposa": 7974,
      "ĠextensÃ£o": 7975,
      "Ġmolhado": 7976,
      "ĠproteÃ§Ã£o": 7977,
      "ĠalcanÃ§ar": 7978,
      "Ġcobrir": 7979,
      "Ġformando": 7980,
      "Ġgrosso": 7981,
      "Ġqueimado": 7982,
      "ĠVeja": 7983,
      "Todos": 7984,
      "Ġpassageiro": 7985,
      "ĠtÃ©cn": 7986,
      "Ġpopular": 7987,
      "Ge": 7988,
      "ingar": 7989,
      "embora": 7990,
      "ÃŃfico": 7991,
      "ĠPam": 7992,
      "javam": 7993,
      "tion": 7994,
      "ĠesperanÃ§as": 7995,
      "Ġperceb": 7996,
      "ĠRich": 7997,
      "Ġgotas": 7998,
      "ĠBlaine": 7999,
      "Ġbrevemente": 8000,
      "ĠclarÃ£o": 8001,
      "Ġrevelando": 8002,
      "rguer": 8003,
      "Ġvidra": 8004,
      "hum": 8005,
      "Ġtim": 8006,
      "inoso": 8007,
      "Ã©tica": 8008,
      "elic": 8009,
      "Ġcaverna": 8010,
      "ĠPri": 8011,
      "ĠPass": 8012,
      "ĠME": 8013,
      "Ġparceiro": 8014,
      "Ġparecida": 8015,
      "Ġchame": 8016,
      "Ġvisitas": 8017,
      "Ġcoluna": 8018,
      "Ġimaginava": 8019,
      "Ġapagou": 8020,
      "Ġrecuar": 8021,
      "Ġoferecer": 8022,
      "ĠAmÃ©rica": 8023,
      "Ġcambaleou": 8024,
      "Ġsilenciosa": 8025,
      "Ġinsetos": 8026,
      "Ġignor": 8027,
      "ĠKeeton": 8028,
      "Holly": 8029,
      "hill": 8030,
      "ientemente": 8031,
      "ĠmatÃ©": 8032,
      "omin": 8033,
      "Ġsaud": 8034,
      "Ġino": 8035,
      "Ġpego": 8036,
      "Ġacus": 8037,
      "ĠVince": 8038,
      "mont": 8039,
      "Ġlamb": 8040,
      "inadas": 8041,
      "ntavam": 8042,
      "harton": 8043,
      "Ġirra": 8044,
      "Ġcalm": 8045,
      "Ġusavam": 8046,
      "ĠavanÃ§ar": 8047,
      "Ġpareceram": 8048,
      "mouth": 8049,
      "Ġcruzamento": 8050,
      "ĠAchava": 8051,
      "Ġfotografias": 8052,
      "ĠLaurel": 8053,
      "Ġnoventa": 8054,
      "Ġtexto": 8055,
      "ĠendereÃ§o": 8056,
      "Ra": 8057,
      "ak": 8058,
      "Ġnoj": 8059,
      "Ġinconsciente": 8060,
      "Ġacos": 8061,
      "Ġpronta": 8062,
      "Ãºrguer": 8063,
      "ĠpraÃ§a": 8064,
      "thy": 8065,
      "Ġgrau": 8066,
      "Ġolhavam": 8067,
      "Ġinfec": 8068,
      "Ã³rnia": 8069,
      "Ġtransformando": 8070,
      "Ġsacudindo": 8071,
      "ĠBaker": 8072,
      "Ġocorre": 8073,
      "Ġirritado": 8074,
      "Ġafirmou": 8075,
      "Ġexterior": 8076,
      "Ġconjunto": 8077,
      "Nenh": 8078,
      "bis": 8079,
      "ĠErgu": 8080,
      "deo": 8081,
      "ĠPassou": 8082,
      "Ġfais": 8083,
      "Ġmesas": 8084,
      "izando": 8085,
      "Ġassal": 8086,
      "Ġracional": 8087,
      "Ġsoltando": 8088,
      "ifÃ³rnia": 8089,
      "Ġcolocando": 8090,
      "ĠRoth": 8091,
      "Ġrifle": 8092,
      "Ġcobertor": 8093,
      "Ġreflex": 8094,
      "Ġdirigia": 8095,
      "Ġensangu": 8096,
      "Ġsurpreendeu": 8097,
      "Ġmachucar": 8098,
      "ĠWhite": 8099,
      "Ġaconse": 8100,
      "ĠBucky": 8101,
      "ĠDelevan": 8102,
      "Ar": 8103,
      "bÃ¡": 8104,
      "bio": 8105,
      "ventu": 8106,
      "Ġquentes": 8107,
      "ĠAla": 8108,
      "ĠMil": 8109,
      "Ġenxu": 8110,
      "Ġmorar": 8111,
      "Ġrespira": 8112,
      "Ġrespirando": 8113,
      "Ġrolando": 8114,
      "entavam": 8115,
      "Ġcaracter": 8116,
      "Ġcaminhonete": 8117,
      "ĠOuviu": 8118,
      "Ġpuxa": 8119,
      "Ġnervosa": 8120,
      "mÃ©dia": 8121,
      "Ġanimado": 8122,
      "Ġpesadelos": 8123,
      "Ġdeterm": 8124,
      "Ã´mito": 8125,
      "Ġvitrine": 8126,
      "Ġfranziu": 8127,
      "Ġintensidade": 8128,
      "Ġretrato": 8129,
      "Ġdesligar": 8130,
      "Mu": 8131,
      "ys": 8132,
      "Ġdeitou": 8133,
      "esas": 8134,
      "estas": 8135,
      "ĠfrÃ¡": 8136,
      "Ġlia": 8137,
      "Ġasse": 8138,
      "Ġdiscurso": 8139,
      "digo": 8140,
      "Ġterrivelmente": 8141,
      "Ġmalig": 8142,
      "Ġjuntar": 8143,
      "ĠcaixÃ£o": 8144,
      "Ġguardou": 8145,
      "Ġrelax": 8146,
      "Ġcapazes": 8147,
      "Ġfugiu": 8148,
      "ĠBrenda": 8149,
      "Ġapavorado": 8150,
      "Ġfacilmente": 8151,
      "ĠPasso": 8152,
      "Ġbabaca": 8153,
      "JÃ¡": 8154,
      "ceira": 8155,
      "fim": 8156,
      "set": 8157,
      "Ġsuc": 8158,
      "uscri": 8159,
      "Ġfogueira": 8160,
      "Ġesperto": 8161,
      "Ġmoder": 8162,
      "Ġpousou": 8163,
      "berto": 8164,
      "Ġaparece": 8165,
      "Ġdesejava": 8166,
      "Entre": 8167,
      "Ġempurrar": 8168,
      "ĠdÃ³lar": 8169,
      "Ġuiv": 8170,
      "David": 8171,
      "Ġquieto": 8172,
      "Ġadolescente": 8173,
      "Vamos": 8174,
      "ÃŃam": 8175,
      "ĠTal": 8176,
      "diz": 8177,
      "itÃ¡": 8178,
      "Ġanal": 8179,
      "terr": 8180,
      "ĠWor": 8181,
      "Ġconsta": 8182,
      "Ġescutando": 8183,
      "ĠavanÃ§a": 8184,
      "Ġescapou": 8185,
      "Ġfunciona": 8186,
      "Ġpreparando": 8187,
      "Ġacertou": 8188,
      "Ġdetermin": 8189,
      "ĠOlson": 8190,
      "Ġtronco": 8191,
      "Geor": 8192,
      "ffer": 8193,
      "Ġdrin": 8194,
      "Ġelo": 8195,
      "Ġtou": 8196,
      "Ġfle": 8197,
      "ĠAz": 8198,
      "ĠSimplesmente": 8199,
      "ĠPRO": 8200,
      "Ġenvenen": 8201,
      "Ġparei": 8202,
      "Ġmuro": 8203,
      "ĠVelho": 8204,
      "ceis": 8205,
      "Ġcortes": 8206,
      "Ġdiabos": 8207,
      "not": 8208,
      "Ġexpress": 8209,
      "Ġtalento": 8210,
      "Ġcidadezinha": 8211,
      "endida": 8212,
      "Ġpartido": 8213,
      "Ġquadris": 8214,
      "ENTE": 8215,
      "Ġmembros": 8216,
      "Ġacompanhar": 8217,
      "Ġcobria": 8218,
      "ĠWilma": 8219,
      "ĠsecretÃ¡ria": 8220,
      "Ġcriar": 8221,
      "Ġcadernos": 8222,
      "lÃ³rida": 8223,
      "Ġsangrando": 8224,
      "14": 8225,
      "ruma": 8226,
      "inny": 8227,
      "Ġnaquilo": 8228,
      "Ġdesor": 8229,
      "Ġdesvia": 8230,
      "Ġdesgra": 8231,
      "Ġcondu": 8232,
      "Ġfatos": 8233,
      "ĠFlÃ³rida": 8234,
      "Ġjoga": 8235,
      "Ġvoltara": 8236,
      "ĠKat": 8237,
      "Ġlevantei": 8238,
      "ĠPoder": 8239,
      "Ġvoltaria": 8240,
      "ĠArdelia": 8241,
      "ĠCinco": 8242,
      "ĠlÃ¢mpadas": 8243,
      "ĠsÃºbita": 8244,
      "CAPÃįTULO": 8245,
      "Ġpsic": 8246,
      "Ġinimigos": 8247,
      "ĠpermissÃ£o": 8248,
      "ĠBÃŃblia": 8249,
      "Vou": 8250,
      "can": 8251,
      "tua": 8252,
      "Ġparalis": 8253,
      "Ġlun": 8254,
      "Ġdestro": 8255,
      "ĠanÃºn": 8256,
      "Ġviesse": 8257,
      "Ġgrades": 8258,
      "ĠMarcy": 8259,
      "onete": 8260,
      "Ġempol": 8261,
      "Ġmilho": 8262,
      "Ġfechadura": 8263,
      "nteiras": 8264,
      "ĠPeterson": 8265,
      "ĠVermel": 8266,
      "ĠUnder": 8267,
      "Ġpreparar": 8268,
      "Ġfluxo": 8269,
      "Ġdescarga": 8270,
      "Ġdesmaiar": 8271,
      "ĠIrv": 8272,
      "Ġprivada": 8273,
      "ĠvÃ´mito": 8274,
      "rill": 8275,
      "Ġmatando": 8276,
      "ĠVen": 8277,
      "ĠRom": 8278,
      "Ġentendendo": 8279,
      "acredi": 8280,
      "Ġimper": 8281,
      "Ġduvida": 8282,
      "Ġreparou": 8283,
      "icker": 8284,
      "Ġapoiou": 8285,
      "Ġaprovei": 8286,
      "ĠMax": 8287,
      "Ġcarregava": 8288,
      "Naquela": 8289,
      "Ġgravata": 8290,
      "ĠSally": 8291,
      "Ġfamoso": 8292,
      "ĠgÃªmeos": 8293,
      "SO": 8294,
      "ug": 8295,
      "Ġpus": 8296,
      "Ġcimento": 8297,
      "Ġcoinci": 8298,
      "anie": 8299,
      "seu": 8300,
      "ĠCH": 8301,
      "Ġconosco": 8302,
      "Ġentor": 8303,
      "garia": 8304,
      "Ġpaisa": 8305,
      "ĠWharton": 8306,
      "Ġdores": 8307,
      "Ġinterva": 8308,
      "Ġbancada": 8309,
      "Ġfizemos": 8310,
      "Ġrelig": 8311,
      "Ġbrilhavam": 8312,
      "ĠObrigada": 8313,
      "ĠMcCar": 8314,
      "Ã¢neo": 8315,
      "Ġaliviado": 8316,
      "ĠcardÃŃaco": 8317,
      "Fran": 8318,
      "fando": 8319,
      "Ġetern": 8320,
      "Ġdeitar": 8321,
      "Ġtosse": 8322,
      "unas": 8323,
      "cidas": 8324,
      "obil": 8325,
      "ĠabenÃ§o": 8326,
      "Ġassent": 8327,
      "Ġcomprado": 8328,
      "ĠLeah": 8329,
      "Ġzom": 8330,
      "Ġretirou": 8331,
      "ĠprÃ©dios": 8332,
      "ĠpÃ¡lpe": 8333,
      "Ġexaminou": 8334,
      "Ġinclinada": 8335,
      "Ġsargento": 8336,
      "Ġaroma": 8337,
      "ĠvegetaÃ§Ã£o": 8338,
      "ĠcrÃ©dito": 8339,
      "Bob": 8340,
      "Pro": 8341,
      "dÃµes": 8342,
      "ĠnÃ³": 8343,
      "Ġesf": 8344,
      "ĠEver": 8345,
      "ĠNar": 8346,
      "ĠNell": 8347,
      "Ġinoc": 8348,
      "Ġmoradores": 8349,
      "Ġconseguiam": 8350,
      "Ġintermin": 8351,
      "Ġlojas": 8352,
      "ĠChip": 8353,
      "renÃ§a": 8354,
      "Ġcarreira": 8355,
      "Ġveneno": 8356,
      "Ġcircular": 8357,
      "Ġsingular": 8358,
      "Ġpretende": 8359,
      "Ġbeirada": 8360,
      "ĠCalifÃ³rnia": 8361,
      "Ġcobriu": 8362,
      "Ġ40": 8363,
      "ĠThingol": 8364,
      "ĠÃģrvor": 8365,
      "Ġadmira": 8366,
      "Ġdemorar": 8367,
      "ĠTeve": 8368,
      "Ġfronteira": 8369,
      "Ġcalcan": 8370,
      "Ġrecuperar": 8371,
      "ĠpossuÃŃa": 8372,
      "ĠEspere": 8373,
      "Ġideias": 8374,
      "ĠTexas": 8375,
      "17": 8376,
      "ĠmissÃ£o": 8377,
      "Ã§ador": 8378,
      "Ã©ter": 8379,
      "ĠAcontec": 8380,
      "teis": 8381,
      "Ġsuco": 8382,
      "ĠVie": 8383,
      "ĠGol": 8384,
      "ĠEsses": 8385,
      "gador": 8386,
      "Ġpresas": 8387,
      "Ġpercebido": 8388,
      "ĠMarty": 8389,
      "licar": 8390,
      "Ãªmio": 8391,
      "ĠlenÃ§Ã³is": 8392,
      "Ġinimigo": 8393,
      "ĠlÃŃquido": 8394,
      "Brian": 8395,
      "Minha": 8396,
      "guma": 8397,
      "ĠSU": 8398,
      "ilou": 8399,
      "Ġmur": 8400,
      "Ġprovid": 8401,
      "Ġserp": 8402,
      "ĠÃłquele": 8403,
      "Ġ(\"": 8404,
      "ĠWy": 8405,
      "ĠpoderÃ¡": 8406,
      "Ġinterna": 8407,
      "endesse": 8408,
      "Ġtransm": 8409,
      "ĠSub": 8410,
      "Ġaguentar": 8411,
      "Ġchegamos": 8412,
      "Ġconvencido": 8413,
      "bbins": 8414,
      "ĠPrecisa": 8415,
      "Ġespalhando": 8416,
      "Ġsegredos": 8417,
      "Ġcriou": 8418,
      "Ġajus": 8419,
      "ĠSenhora": 8420,
      "Ġacostamento": 8421,
      "13": 8422,
      "?\",": 8423,
      "cÃ³p": 8424,
      "ey": 8425,
      "gios": 8426,
      "ĠnÃŃt": 8427,
      "ĠApo": 8428,
      "Ġporco": 8429,
      "ĠCase": 8430,
      "ĠLou": 8431,
      "ciais": 8432,
      "Ġfren": 8433,
      "Ġtorres": 8434,
      "Ġbancos": 8435,
      "posiÃ§Ã£o": 8436,
      "Ġbebeu": 8437,
      "ĠDavis": 8438,
      "Ġpiscando": 8439,
      "Ġtrazido": 8440,
      "Ġviera": 8441,
      "Ġafirma": 8442,
      "ĠRatinho": 8443,
      "ure": 8444,
      "Ġdente": 8445,
      "Ġcovar": 8446,
      "ĠtÃŃtulo": 8447,
      "Ġfis": 8448,
      "Ġesgu": 8449,
      "tora": 8450,
      "ich": 8451,
      "ĠMac": 8452,
      "Ġalco": 8453,
      "Ġdesmor": 8454,
      "Ġleito": 8455,
      "itei": 8456,
      "ĠHilly": 8457,
      "ĠLand": 8458,
      "ĠKansas": 8459,
      "Ġantiqu": 8460,
      "Ġpulsa": 8461,
      "Ġmaravilhosa": 8462,
      "Ġextremo": 8463,
      "ĠlicenÃ§a": 8464,
      "ag": 8465,
      "nal": 8466,
      "Ġflex": 8467,
      "lake": 8468,
      "Ġcompe": 8469,
      "Ġbico": 8470,
      "ĠDava": 8471,
      "Ġaban": 8472,
      "tiram": 8473,
      "Ġtaco": 8474,
      "ipse": 8475,
      "tamentos": 8476,
      "ĠplanÃŃ": 8477,
      "Ġprovoca": 8478,
      "Ġidiotas": 8479,
      "Ġvivia": 8480,
      "Ġquinto": 8481,
      "Ġcabeceira": 8482,
      "kn": 8483,
      "inente": 8484,
      "Ġsecun": 8485,
      "lene": 8486,
      "ĠAnt": 8487,
      "ĠShar": 8488,
      "ĠFin": 8489,
      "Ġmontes": 8490,
      "ĠpaciÃªncia": 8491,
      "Ġfort": 8492,
      "Ġcampa": 8493,
      "Ã³spe": 8494,
      "Ġbasta": 8495,
      "Ġfolhe": 8496,
      "ĠApÃ³s": 8497,
      "ĠlÃŃder": 8498,
      "Ġcoroa": 8499,
      "Ġagonia": 8500,
      "Fiquei": 8501,
      "IV": 8502,
      "quando": 8503,
      "ostos": 8504,
      "Ġvimos": 8505,
      "daÃ§Ã£o": 8506,
      "amar": 8507,
      "ÃŃdas": 8508,
      "ĠDinah": 8509,
      "Ġdescu": 8510,
      "ĠVicky": 8511,
      "ĠRio": 8512,
      "riado": 8513,
      "Ġtemporada": 8514,
      "Ġconseguiram": 8515,
      "ĠAss": 8516,
      "Ġsurdo": 8517,
      "ĠrecepÃ§Ã£o": 8518,
      "ĠsÃ©ria": 8519,
      "ĠpalÃ¡": 8520,
      "ĠExce": 8521,
      "Ġansioso": 8522,
      "Ġsorridente": 8523,
      "Ġbrinquedos": 8524,
      "Ġgerador": 8525,
      "stein": 8526,
      "Ġbruscamente": 8527,
      "Ġbarulh": 8528,
      "Ġtreinador": 8529,
      "Ġtrajeto": 8530,
      "CI": 8531,
      "Ver": 8532,
      "mie": 8533,
      "pla": 8534,
      "umbo": 8535,
      "Ġvamp": 8536,
      "Ġbest": 8537,
      "Ġcata": 8538,
      "illac": 8539,
      "Ġdila": 8540,
      "Ġmesinha": 8541,
      "Ġsemelh": 8542,
      "Ġpretas": 8543,
      "ntagem": 8544,
      "Ġmanga": 8545,
      "culas": 8546,
      "Ġmartelo": 8547,
      "ĠÃ³tima": 8548,
      "Ġrid": 8549,
      "ĠParker": 8550,
      "Ġexistir": 8551,
      "Ġautom": 8552,
      "Ġpermitir": 8553,
      "Ġfumando": 8554,
      "ĠvÃŃtima": 8555,
      "Ġintegra": 8556,
      "ĠCadillac": 8557,
      "ĠsemelhanÃ§a": 8558,
      "gna": 8559,
      "Ġcoxa": 8560,
      "ÃŃper": 8561,
      "ÃŃfica": 8562,
      "ĠTentou": 8563,
      "Ġforas": 8564,
      "Ġentranhas": 8565,
      "Ġpregui": 8566,
      "ĠmarÃ§o": 8567,
      "Ġaconteceria": 8568,
      "Ġclube": 8569,
      "ĠKel": 8570,
      "Ġescuta": 8571,
      "ĠLey": 8572,
      "Ġaperto": 8573,
      "Ġassustador": 8574,
      "Ġconsequ": 8575,
      "ĠOutra": 8576,
      "ĠameaÃ§a": 8577,
      "Leva": 8578,
      "ĠLewis": 8579,
      "ĠridÃŃculo": 8580,
      "?)": 8581,
      "dra": 8582,
      "inter": 8583,
      "Ġnotar": 8584,
      "ĠNed": 8585,
      "Ġpresta": 8586,
      "Ġolhe": 8587,
      "Ġmesmas": 8588,
      "Ġidos": 8589,
      "ĠLiv": 8590,
      "mbar": 8591,
      "ĠraÃŃzes": 8592,
      "Ġfalso": 8593,
      "Ġvelh": 8594,
      "Ġinternet": 8595,
      "Ã§oso": 8596,
      "ĠespetÃ¡": 8597,
      "tropos": 8598,
      "rigan": 8599,
      "ĠidÃªnt": 8600,
      "ĠMuitos": 8601,
      "ĠGary": 8602,
      "Ġcartaz": 8603,
      "ĠBrett": 8604,
      "Ġenfrentar": 8605,
      "plex": 8606,
      "ĠĊ": 8607,
      "Ġdemor": 8608,
      "ĠBon": 8609,
      "Ġparcialmente": 8610,
      "Ġmanuscri": 8611,
      "ionais": 8612,
      "risse": 8613,
      "Ġsenhores": 8614,
      "Ġroubado": 8615,
      "Ġarmad": 8616,
      "Ġtremeu": 8617,
      "ĠElrond": 8618,
      "Ġberrando": 8619,
      "ĠpÃ´ster": 8620,
      "ĠMorrison": 8621,
      "ĠOutro": 8622,
      "Ġimaginando": 8623,
      "Ġempoeira": 8624,
      "adrez": 8625,
      "LA": 8626,
      "bl": 8627,
      "Ġfeno": 8628,
      "val": 8629,
      "omia": 8630,
      "Ġatmos": 8631,
      "Ġacid": 8632,
      "ĠRou": 8633,
      "Ġabat": 8634,
      "Ġsentimentos": 8635,
      "ĠchalÃ©": 8636,
      "Ġsens": 8637,
      "Ġvisual": 8638,
      "Ġbarreira": 8639,
      "ĠPeguei": 8640,
      "Ġsalva": 8641,
      "ĠChester": 8642,
      "Ġatingido": 8643,
      "ĠAliÃ¡s": 8644,
      "Ġavalia": 8645,
      "Ġacenou": 8646,
      "Ġbengala": 8647,
      "Ġtravesseiro": 8648,
      "AA": 8649,
      "hu": 8650,
      "mm": 8651,
      "Ġdepartamento": 8652,
      "ĠvÃªm": 8653,
      "lantes": 8654,
      "ĠlÃº": 8655,
      "ĠDÃª": 8656,
      "ĠVem": 8657,
      "ĠVirou": 8658,
      "cioso": 8659,
      "itz": 8660,
      "Ġespiou": 8661,
      "ĠGas": 8662,
      "Ã¡sio": 8663,
      "ĠavÃ³": 8664,
      "Ġchorava": 8665,
      "Ġadulto": 8666,
      "ĠanotaÃ§Ãµes": 8667,
      "ĠDool": 8668,
      "ĠFrankie": 8669,
      "Ġlimites": 8670,
      "ADA": 8671,
      "ĠNews": 8672,
      "ĠLembra": 8673,
      "ĠGuar": 8674,
      "ĠAbriu": 8675,
      "Ġvendedor": 8676,
      "ĠÃ³bvio": 8677,
      "ĠThomas": 8678,
      "Ġbandeja": 8679,
      "ĠDeepneau": 8680,
      "!\",": 8681,
      "Fa": 8682,
      "cro": 8683,
      "Ġajei": 8684,
      "anÃ§as": 8685,
      "icando": 8686,
      "Ġporcaria": 8687,
      "Ġmeteu": 8688,
      "ĠHÃ£": 8689,
      "Ġhaja": 8690,
      "Ġchin": 8691,
      "Ġamass": 8692,
      "acos": 8693,
      "esses": 8694,
      "Ġcolar": 8695,
      "Ġbriga": 8696,
      "Ġadminist": 8697,
      "fego": 8698,
      "seiras": 8699,
      "Ġlouro": 8700,
      "Ġrecebido": 8701,
      "Ġseguintes": 8702,
      "ĠMeus": 8703,
      "Ġpunhado": 8704,
      "Ġfantasmag": 8705,
      "Ġflorestas": 8706,
      "Ġansiedade": 8707,
      "Ġrodop": 8708,
      "ĠForam": 8709,
      "Ġdesconhecido": 8710,
      "Ġgarantir": 8711,
      "ĠexplicaÃ§Ã£o": 8712,
      "Ġcortinas": 8713,
      "Ġacaric": 8714,
      "',": 8715,
      "In": 8716,
      "neu": 8717,
      "Ġpip": 8718,
      "Ġflan": 8719,
      "Ġfitando": 8720,
      "ĠSA": 8721,
      "ĠTri": 8722,
      "Ġperdida": 8723,
      "ĠRoss": 8724,
      "gantes": 8725,
      "ĠhÃ³spe": 8726,
      "ĠLane": 8727,
      "Ġcortado": 8728,
      "tÃ¡veis": 8729,
      "Ġzona": 8730,
      "Ġtremor": 8731,
      "Ġencren": 8732,
      "Ġdesliga": 8733,
      "Seus": 8734,
      "ĠChef": 8735,
      "ĠDuke": 8736,
      "Ġmunicipal": 8737,
      "Ġprofessores": 8738,
      "Ġperigosa": 8739,
      "Ġrefletiu": 8740,
      "Ġestremeceu": 8741,
      "Ġluminos": 8742,
      "Ġodiava": 8743,
      "Ġsapato": 8744,
      "rul": 8745,
      "ĠsuicÃŃdio": 8746,
      "ĠTR": 8747,
      "ividade": 8748,
      "Ġaposto": 8749,
      "Ġabrup": 8750,
      "Ãºp": 8751,
      "Ġescar": 8752,
      "Ġchef": 8753,
      "Ġgritei": 8754,
      "Ġposte": 8755,
      "Ġtirei": 8756,
      "largo": 8757,
      "Ġacabei": 8758,
      "Ġrecente": 8759,
      "Ġpulo": 8760,
      "ĠbebÃªs": 8761,
      "Ġcaptura": 8762,
      "Ġsuficientemente": 8763,
      "Ġdesej": 8764,
      "ĠNorton": 8765,
      "ĠcompreensÃ£o": 8766,
      "ĠUnivers": 8767,
      "Ġdespensa": 8768,
      "Ġinicial": 8769,
      "Ġpassageiros": 8770,
      "ĠClaude": 8771,
      "ĠviolÃªncia": 8772,
      "ĠSilver": 8773,
      "ĠPescador": 8774,
      "Ġbronze": 8775,
      "ĠExatamente": 8776,
      "Ġenvergon": 8777,
      "lam": 8778,
      "ĠsuÃ©ter": 8779,
      "ĠRandy": 8780,
      "terior": 8781,
      "Ġintri": 8782,
      "ĠpoderÃŃamos": 8783,
      "Ġnega": 8784,
      "assei": 8785,
      "Ġlembrei": 8786,
      "ĠbaÃº": 8787,
      "Ġacham": 8788,
      "licos": 8789,
      "Ġbaixos": 8790,
      "Ġprecisaria": 8791,
      "Ġtremia": 8792,
      "ĠHarold": 8793,
      "Ġtrevas": 8794,
      "Ġaguda": 8795,
      "izade": 8796,
      "ĠDeixa": 8797,
      "ghlin": 8798,
      "Ġescorregou": 8799,
      "Ġcoloquei": 8800,
      "Ġespalhar": 8801,
      "ĠFeanor": 8802,
      "Ġuniversidade": 8803,
      "Ġreflexo": 8804,
      "lim": 8805,
      "Ġaram": 8806,
      "Ġdiscre": 8807,
      "Ġacum": 8808,
      "ĠHigh": 8809,
      "ĠserÃ£o": 8810,
      "Ġrainha": 8811,
      "Ġcueca": 8812,
      "Ġcujos": 8813,
      "endimento": 8814,
      "Ġliguei": 8815,
      "Ġacomo": 8816,
      "ĠFreeman": 8817,
      "Ġcomercial": 8818,
      "Ġpermanecia": 8819,
      "Ġaposentado": 8820,
      "ĠhorÃ¡rio": 8821,
      "ĠRobin": 8822,
      "Ġdesconfor": 8823,
      "Ġiluminado": 8824,
      "Ġmorreram": 8825,
      "Ġampla": 8826,
      "Ġcomuns": 8827,
      "ĠcansaÃ§o": 8828,
      "Ġvizinhos": 8829,
      "Ġhipnot": 8830,
      "ĠemoÃ§Ã£o": 8831,
      "Finalmente": 8832,
      "Ho": 8833,
      "eter": 8834,
      "sando": 8835,
      "ĠAN": 8836,
      "Ġnaquelas": 8837,
      "Ġreais": 8838,
      "ĠpoÃ§a": 8839,
      "Ġhar": 8840,
      "Ġespira": 8841,
      "Ġintensa": 8842,
      "ĠirÃ¡": 8843,
      "Ġlembre": 8844,
      "talvez": 8845,
      "Ġformato": 8846,
      "Ġbatidas": 8847,
      "Ġcavaleiros": 8848,
      "Ġguardava": 8849,
      "ĠMerrill": 8850,
      "Ġjulgar": 8851,
      "Ġprossegue": 8852,
      "ĠTorrance": 8853,
      "ĠClaudia": 8854,
      "ĠKyra": 8855,
      "Ġcalmamente": 8856,
      "NinguÃ©m": 8857,
      "pelo": 8858,
      "ĠÃª": 8859,
      "Ġpon": 8860,
      "Ġoce": 8861,
      "romp": 8862,
      "ĠdoÃŃa": 8863,
      "Ġparasse": 8864,
      "icial": 8865,
      "ridos": 8866,
      "Ġsupe": 8867,
      "cavam": 8868,
      "ĠLeste": 8869,
      "Ġargum": 8870,
      "Ġpreench": 8871,
      "Ġrestante": 8872,
      "ĠcomeÃ§asse": 8873,
      "Ġentregar": 8874,
      "duÃ§Ã£o": 8875,
      "Ġchamin": 8876,
      "Ġgargal": 8877,
      "Ġenfia": 8878,
      "ĠcolocÃ¡": 8879,
      "ĠpÃ©ss": 8880,
      "ĠSamuels": 8881,
      "Ġelim": 8882,
      "dÃ¡veis": 8883,
      "ĠfÃ¡brica": 8884,
      "ĠCorvo": 8885,
      "Ġacrescentar": 8886,
      "ĠPrecis": 8887,
      "Ġparticularmente": 8888,
      "Ġinsistiu": 8889,
      "pping": 8890,
      "George": 8891,
      "non": 8892,
      "comp": 8893,
      "Ġestru": 8894,
      "Ġapress": 8895,
      "Ġaborre": 8896,
      "ĠUM": 8897,
      "Ġcompra": 8898,
      "Ġentrela": 8899,
      "ĠsolitÃ¡rio": 8900,
      "Ã¢nica": 8901,
      "Ġbaga": 8902,
      "Ġescutou": 8903,
      "Ġconfusa": 8904,
      "ockste": 8905,
      "Ġatravessando": 8906,
      "ĠLake": 8907,
      "Ġxadrez": 8908,
      "Ġquantas": 8909,
      "Ġrecordar": 8910,
      "ĠCurwen": 8911,
      "Ġengoliu": 8912,
      "ĠSonny": 8913,
      "ĠautomÃ¡tica": 8914,
      "ĠMichaela": 8915,
      "ĠÃ³rbitas": 8916,
      "ockstetter": 8917,
      "Olhei": 8918,
      "ĠcÃ¢mara": 8919,
      "Ġnelas": 8920,
      "ory": 8921,
      "Ġensa": 8922,
      "Ġletra": 8923,
      "Ġsentisse": 8924,
      "Ġsegue": 8925,
      "Ġtrata": 8926,
      "teria": 8927,
      "Ġqualidade": 8928,
      "Ġtorcendo": 8929,
      "Ġpendia": 8930,
      "Ġrock": 8931,
      "Ġbarbe": 8932,
      "Ġsubterr": 8933,
      "Ġadvert": 8934,
      "Ġcontinuaram": 8935,
      "ĠmilhÃ£o": 8936,
      "ĠzÃŃper": 8937,
      "Ġhumil": 8938,
      "Ġgrupos": 8939,
      "Ġtransformado": 8940,
      "Ġoposto": 8941,
      "Ġigualmente": 8942,
      "Ġexemplar": 8943,
      "ĠestÃºpido": 8944,
      "ĠelÃ©trico": 8945,
      "Ġguardana": 8946,
      "ĠMontanhas": 8947,
      "Ġnotici": 8948,
      "ides": 8949,
      "rist": 8950,
      "Ġpneu": 8951,
      "Ġmina": 8952,
      "Ġbizar": 8953,
      "Ġlix": 8954,
      "ÃŃdu": 8955,
      "ĠMÃ£e": 8956,
      "ĠTig": 8957,
      "ĠBell": 8958,
      "Ġperdi": 8959,
      "ĠRosa": 8960,
      "Ġcontinha": 8961,
      "ĠEsp": 8962,
      "ĠDepartamento": 8963,
      "jados": 8964,
      "Ġrepro": 8965,
      "chada": 8966,
      "Ġconfiar": 8967,
      "Ġprofesso": 8968,
      "uddie": 8969,
      "ĠcaÃŃra": 8970,
      "Ġviraram": 8971,
      "ĠhorrÃŃveis": 8972,
      "Ġvestindo": 8973,
      "ĠmurmÃº": 8974,
      "ADE": 8975,
      "ĠsupÃ´s": 8976,
      "ĠLembro": 8977,
      "Ġqueimar": 8978,
      "Ġblocos": 8979,
      "Ġchorou": 8980,
      "Ġpertencia": 8981,
      "Ġirregular": 8982,
      "ĠfÃŃsica": 8983,
      "Ġdelic": 8984,
      "Ġfero": 8985,
      "Ġesbo": 8986,
      "Ġcombus": 8987,
      "ical": 8988,
      "come": 8989,
      "ĠCl": 8990,
      "ĠanÃµes": 8991,
      "Ġpastor": 8992,
      "Ġcarinho": 8993,
      "aroid": 8994,
      "jadas": 8995,
      "Ġmandado": 8996,
      "Ġvala": 8997,
      "ĠCox": 8998,
      "Ġenfim": 8999,
      "Ġencur": 9000,
      "Ġquadrado": 9001,
      "Ġcompreendeu": 9002,
      "Ġgolfe": 9003,
      "ANDO": 9004,
      "ĠMerce": 9005,
      "Ġcruzadas": 9006,
      "Ġabsurdo": 9007,
      "ĠremÃ©dios": 9008,
      "Ã¢ntano": 9009,
      "Jones": 9010,
      "ĠdanÃ§ando": 9011,
      "aste": 9012,
      "Ġnua": 9013,
      "leto": 9014,
      "Ġbigo": 9015,
      "ĠTw": 9016,
      "Ġabor": 9017,
      "ĠAlÃ´": 9018,
      "radora": 9019,
      "Ġduvido": 9020,
      "Ġcujas": 9021,
      "Ġbarcos": 9022,
      "Ġincrivelmente": 9023,
      "tude": 9024,
      "Ġveem": 9025,
      "Ġperguntava": 9026,
      "Ġsumir": 9027,
      "ĠCale": 9028,
      "ĠHall": 9029,
      "Ġperdera": 9030,
      "Ġremex": 9031,
      "Ġexerc": 9032,
      "vista": 9033,
      "Ġk": 9034,
      "raÃ§Ãµes": 9035,
      "isom": 9036,
      "Ġtat": 9037,
      "deau": 9038,
      "ĠCul": 9039,
      "ĠMundo": 9040,
      "unciou": 9041,
      "Ġapara": 9042,
      "ĠElaine": 9043,
      "ĠsolitÃ¡ria": 9044,
      "Ġcorredores": 9045,
      "Ġconsum": 9046,
      "Ġtranspar": 9047,
      "greme": 9048,
      "Ġpiscina": 9049,
      "ĠBarrens": 9050,
      "Ġsujeitos": 9051,
      "Ã³rico": 9052,
      "ĠKey": 9053,
      "Ġabsoluto": 9054,
      "ĠengraÃ§ada": 9055,
      "Ġrisadinha": 9056,
      "Ġgrossa": 9057,
      "ĠPolaroid": 9058,
      "Richie": 9059,
      "ĠMcGee": 9060,
      "Ġsufoca": 9061,
      "Ġcaderno": 9062,
      "ĠÃŃngreme": 9063,
      "ĠPouco": 9064,
      "ĠPrincipal": 9065,
      "Ġbaile": 9066,
      "ĠtrÃ¡fego": 9067,
      "Ġobjetivo": 9068,
      "Ġatmosfera": 9069,
      "Mc": 9070,
      "Ġit": 9071,
      "Ġecl": 9072,
      "Ġquinh": 9073,
      "lad": 9074,
      "Ġbam": 9075,
      "top": 9076,
      "gues": 9077,
      "Ġgostei": 9078,
      "eck": 9079,
      "ilmente": 9080,
      "Ġrevol": 9081,
      "ĠDur": 9082,
      "vete": 9083,
      "cabeÃ§a": 9084,
      "Ġatendeu": 9085,
      "...âĢĶ": 9086,
      "ĠGo": 9087,
      "ĠGri": 9088,
      "taruga": 9089,
      "Ġcampe": 9090,
      "inante": 9091,
      "randon": 9092,
      "iosamente": 9093,
      "ĠMartin": 9094,
      "Ġloucos": 9095,
      "Ġplantas": 9096,
      "Ġgota": 9097,
      "vanderia": 9098,
      "ĠChegou": 9099,
      "Ġsurgir": 9100,
      "Ġdeclar": 9101,
      "Ġrecomp": 9102,
      "ĠGrandes": 9103,
      "Ġprateleiras": 9104,
      "Ġsoprava": 9105,
      "Ġassistindo": 9106,
      "ĠDoriath": 9107,
      "Ġdiminuiu": 9108,
      "ĠWalter": 9109,
      "Ġdevemos": 9110,
      "ingsley": 9111,
      "ĠmÃŃnima": 9112,
      "ĠOdetta": 9113,
      "Ġprofissional": 9114,
      "Ġdesmoron": 9115,
      "teira": 9116,
      "reas": 9117,
      "ecta": 9118,
      "Ġestes": 9119,
      "ĠMad": 9120,
      "ĠThor": 9121,
      "Ġperu": 9122,
      "Ġatitude": 9123,
      "ĠRE": 9124,
      "ĠGwendy": 9125,
      "tero": 9126,
      "Ġ13": 9127,
      "Ġcutu": 9128,
      "Ġaudi": 9129,
      "ralmente": 9130,
      "ĠElizabeth": 9131,
      "Ġrastro": 9132,
      "Ġpermanecer": 9133,
      "Ġexaminar": 9134,
      "rust": 9135,
      "Ġsecreta": 9136,
      "Ġdobrou": 9137,
      "ĠDunning": 9138,
      "Ġpiquenique": 9139,
      "Frank": 9140,
      "cross": 9141,
      "iei": 9142,
      "jur": 9143,
      "Ãł": 9144,
      "Ġteste": 9145,
      "Ġembara": 9146,
      "Ġgatos": 9147,
      "ĠSoc": 9148,
      "Ġenla": 9149,
      "ĠsaÃºde": 9150,
      "ĠterÃ§a": 9151,
      "ĠFA": 9152,
      "Ġanc": 9153,
      "ĠLily": 9154,
      "Ġprendeu": 9155,
      "Ġimpren": 9156,
      "Ġimenso": 9157,
      "Ġprecisasse": 9158,
      "Ġesqueci": 9159,
      "Ġsuficientes": 9160,
      "ĠSupon": 9161,
      "Essa": 9162,
      "Ġdespertar": 9163,
      "Ġcumprir": 9164,
      "Ġsugeriu": 9165,
      "Ġcomportamento": 9166,
      "Ġestridente": 9167,
      "utela": 9168,
      "Mesmo": 9169,
      "cle": 9170,
      "ĠdÃ£o": 9171,
      "Ġsino": 9172,
      "ĠtensÃ£o": 9173,
      "inamente": 9174,
      "lazar": 9175,
      "ence": 9176,
      "gus": 9177,
      "ĠAcor": 9178,
      "Ġrez": 9179,
      "ĠNat": 9180,
      "Ġosci": 9181,
      "ĠDem": 9182,
      "Ġrico": 9183,
      "ramas": 9184,
      "Ġvolte": 9185,
      "Ġformar": 9186,
      "Ġlutando": 9187,
      "Ġintu": 9188,
      "Ġrepou": 9189,
      "Ġlevara": 9190,
      "Ġavent": 9191,
      "inete": 9192,
      "ĠsaÃŃra": 9193,
      "Ġcapim": 9194,
      "ĠHarrigan": 9195,
      "ulada": 9196,
      "Ġambiente": 9197,
      "Ġvencer": 9198,
      "Ġidentificar": 9199,
      "Ġtesouro": 9200,
      "Ġadultos": 9201,
      "ragia": 9202,
      "Ġshor": 9203,
      "erÃ¡ria": 9204,
      "Ġcoca": 9205,
      "estos": 9206,
      "anidade": 9207,
      "Ġdoces": 9208,
      "Ġemper": 9209,
      "ĠlÃ³gica": 9210,
      "col": 9211,
      "ĠDentro": 9212,
      "ĠFei": 9213,
      "Ġcordas": 9214,
      "Ġabismo": 9215,
      "Ġcaminhos": 9216,
      "Ġamal": 9217,
      "ĠsÃ³tÃ£o": 9218,
      "undou": 9219,
      "Ġentretanto": 9220,
      "Ġfilhas": 9221,
      "hecer": 9222,
      "Ġanoite": 9223,
      "ĠDES": 9224,
      "ĠNorth": 9225,
      "Ġrepetir": 9226,
      "Ġcaminhava": 9227,
      "Ġagradecer": 9228,
      "Ġgargalhadas": 9229,
      "Ġretornou": 9230,
      "ÃŃstica": 9231,
      "ĠhipÃ³": 9232,
      "golas": 9233,
      "Pensei": 9234,
      "HÃ¡": 9235,
      "estar": 9236,
      "rey": 9237,
      "alie": 9238,
      "iche": 9239,
      "ecimento": 9240,
      "Ġdesfa": 9241,
      "Ġene": 9242,
      "ĠBlu": 9243,
      "Ġlac": 9244,
      "ĠLud": 9245,
      "ĠGim": 9246,
      "Ġcorriam": 9247,
      "Ġluva": 9248,
      "Ġcomprimento": 9249,
      "Ġpassam": 9250,
      "chÃ£o": 9251,
      "Ġjogada": 9252,
[...]
