{"<|endoftext|>":0,"!":1,"\"":2,"#":3,"$":4,"%":5,"&":6,"'":7,"(":8,")":9,"*":10,"+":11,",":12,"-":13,".":14,"/":15,"0":16,"1":17,"2":18,"3":19,"4":20,"5":21,"6":22,"7":23,"8":24,"9":25,":":26,";":27,"<":28,"=":29,">":30,"?":31,"@":32,"A":33,"B":34,"C":35,"D":36,"E":37,"F":38,"G":39,"H":40,"I":41,"J":42,"K":43,"L":44,"M":45,"N":46,"O":47,"P":48,"Q":49,"R":50,"S":51,"T":52,"U":53,"V":54,"W":55,"X":56,"Y":57,"Z":58,"[":59,"\\":60,"]":61,"^":62,"_":63,"`":64,"a":65,"b":66,"c":67,"d":68,"e":69,"f":70,"g":71,"h":72,"i":73,"j":74,"k":75,"l":76,"m":77,"n":78,"o":79,"p":80,"q":81,"r":82,"s":83,"t":84,"u":85,"v":86,"w":87,"x":88,"y":89,"z":90,"{":91,"|":92,"}":93,"~":94,"¡":95,"¢":96,"£":97,"¤":98,"¥":99,"¦":100,"§":101,"¨":102,"©":103,"ª":104,"«":105,"¬":106,"®":107,"¯":108,"°":109,"±":110,"²":111,"³":112,"´":113,"µ":114,"¶":115,"·":116,"¸":117,"¹":118,"º":119,"»":120,"¼":121,"½":122,"¾":123,"¿":124,"À":125,"Á":126,"Â":127,"Ã":128,"Ä":129,"Å":130,"Æ":131,"Ç":132,"È":133,"É":134,"Ê":135,"Ë":136,"Ì":137,"Í":138,"Î":139,"Ï":140,"Ð":141,"Ñ":142,"Ò":143,"Ó":144,"Ô":145,"Õ":146,"Ö":147,"×":148,"Ø":149,"Ù":150,"Ú":151,"Û":152,"Ü":153,"Ý":154,"Þ":155,"ß":156,"à":157,"á":158,"â":159,"ã":160,"ä":161,"å":162,"æ":163,"ç":164,"è":165,"é":166,"ê":167,"ë":168,"ì":169,"í":170,"î":171,"ï":172,"ð":173,"ñ":174,"ò":175,"ó":176,"ô":177,"õ":178,"ö":179,"÷":180,"ø":181,"ù":182,"ú":183,"û":184,"ü":185,"ý":186,"þ":187,"ÿ":188,"Ā":189,"ā":190,"Ă":191,"ă":192,"Ą":193,"ą":194,"Ć":195,"ć":196,"Ĉ":197,"ĉ":198,"Ċ":199,"ċ":200,"Č":201,"č":202,"Ď":203,"ď":204,"Đ":205,"đ":206,"Ē":207,"ē":208,"Ĕ":209,"ĕ":210,"Ė":211,"ė":212,"Ę":213,"ę":214,"Ě":215,"ě":216,"Ĝ":217,"ĝ":218,"Ğ":219,"ğ":220,"Ġ":221,"ġ":222,"Ģ":223,"ģ":224,"Ĥ":225,"ĥ":226,"Ħ":227,"ħ":228,"Ĩ":229,"ĩ":230,"Ī":231,"ī":232,"Ĭ":233,"ĭ":234,"Į":235,"į":236,"İ":237,"ı":238,"Ĳ":239,"ĳ":240,"Ĵ":241,"ĵ":242,"Ķ":243,"ķ":244,"ĸ":245,"Ĺ":246,"ĺ":247,"Ļ":248,"ļ":249,"Ľ":250,"ľ":251,"Ŀ":252,"ŀ":253,"Ł":254,"ł":255,"Ń":256,"Ġd":257,"Ġe":258,"Ġa":259,"ra":260,"Ġp":261,"Ġc":262,"Ġde":263,"Ġs":264,"qu":265,"nt":266,"os":267,"Ġm":268,"er":269,"do":270,"as":271,"Ġn":272,"ar":273,"Ġqu":274,"Ġo":275,"is":276,"Ġco":277,"Ġt":278,"es":279,"Ã£":280,"in":281,"um":282,"Ã£o":283,"or":284,"Ġque":285,"ia":286,"Ġf":287,"âĢ":288,"âĢĶ":289,"Ġv":290,"ta":291,"re":292,"ou":293,"Ġse":294,"Ġum":295,"Ġes":296,"an":297,"le":298,"da":299,"la":300,"en":301,"ent":302,"va":303,"Ġcom":304,"ha":305,"Ã¡":306,"ara":307,"ro":308,"Ã§":309,"se":310,"Ġb":311,"to":312,"Ã©":313,"al":314,"ĠE":315,"de":316,"ĠâĢĶ":317,"im":318,"em":319,"Ġdo":320,"el":321,"Ġpara":322,"ic":323,"ei":324,"ĠnÃ£o":325,"Ġem":326,"gu":327,"ho":328,"ri":329,"Ġl":330,"Ġno":331,"ando":332,"Ġda":333,"ĠA":334,"Ġuma":335,"ente":336,"am":337,"Ãª":338,"co":339,"Ġg":340,"oc":341,"Ġna":342,"te":343,"so":344,"ec":345,"ĠS":346,"..":347,"Ġpor":348,"Ġma":349,"Ã³":350,"ÃŃ":351,"Ġest":352,"on":353,"ol":354,"Ġsu":355,"Ġca":356,"Ġas":357,"il":358,"ir":359,"inha":360,"tava":361,"Ġre":362,"Ġele":363,"ĠN":364,"Ġos":365,"ĠC":366,"ĠP":367,"ĠM":368,"ĠD":369,"Ġou":370,"Ġal":371,"ĠO":372,"us":373,"ran":374,"ado":375,"Ġdis":376,"Ġme":377,"Ġr":378,"ĠÃ":379,"Ġmas":380,"om":381,"ve":382,"lh":383,"po":384,"ida":385,"go":386,"que":387,"ĠT":388,"dos":389,"nte":390,"un":391,"Ġdi":392,"Ġestava":393,"Ġera":394,"Ġdes":395,"ocÃª":396,"Ġcon":397,"Ġen":398,"Ġj":399,"Ġsa":400,"ĠB":401,"mente":402,"ca":403,"Ġmais":404,"ma":405,"Ġcomo":406,"Ã§Ã£o":407,"ido":408,"Ġpo":409,"Ġfa":410,"ĠÃ©":411,"Ã§a":412,"Ġper":413,"Ġat":414,"Ġfo":415,"Ġpar":416,"Ġin":417,"sa":418,"Ġdisse":419,"ai":420,"di":421,"Ġmu":422,"Ġpe":423,"nto":424,"ul":425,"Ġac":426,"iv":427,"...":428,"ĠV":429,"ĠR":430,"Ġeu":431,"Ġter":432,"iu":433,"ci":434,"Ġent":435,"ĠJ":436,"ram":437,"he":438,"Ġap":439,"ĠvocÃª":440,"Ġpr":441,"ez":442,"Ġle":443,"Ġtinha":444,"ga":445,"Ġela":446,"Ã©m":447,"it":448,"ras":449,"ob":450,"via":451,"Ġolh":452,"das":453,"mo":454,"ĠH":455,"be":456,"ens":457,"ito":458,"isa":459,"ĠF":460,"gar":461,"ĠNÃ£o":462,"Ġis":463,"ento":464,"Ġver":465,"Ġex":466,"Ġpro":467,"Ġtem":468,"Ġser":469,"Ġao":470,"Ġmes":471,"ria":472,"Ġsua":473,"Ġcont":474,"esse":475,"les":476,"Ġh":477,"ur":478,"ĠÃł":479,"Ġesp":480,"Ġla":481,"ura":482,"Ġto":483,"endo":484,"Ġan":485,"Ġi":486,"Ġisso":487,"Ġseu":488,"ira":489,"Ġdos":490,"Ġho":491,"Ġquando":492,"ica":493,"res":494,"Ġsem":495,"me":496,"ros":497,"Ġout":498,"Ġfaz":499,"vel":500,"ĠL":501,"der":502,"ce":503,"Ġar":504,"Ġha":505,"ĠG":506,"Ġcor":507,"ĠestÃ¡":508,"lo":509,"Ġvez":510,"at":511,"ĠEle":512,"ima":513,"Ġpre":514,"Ġres":515,"elo":516,"Ġab":517,"tar":518,"Qu":519,"Ġsob":520,"uma":521,"Ġfoi":522,"ver":523,"ntes":524,"cia":525,"anto":526,"Ġdiz":527,"Ġpas":528,"ĠatÃ©":529,"ĠEs":530,"tou":531,"ix":532,"idade":533,"Ġparec":534,"eu":535,"ndo":536,"Ġmo":537,"iz":538,"ie":539,"Ġass":540,"pois":541,"Ġpa":542,"Ġfic":543,"Ġsent":544,"Ġcar":545,"io":546,"tas":547,"dia":548,"Ġsegu":549,"ig":550,"tos":551,"eira":552,"Ãº":553,"Ġcoisa":554,"eiro":555,"Ã§o":556,"Ġhavia":557,"imp":558,"Ġcas":559,"ĠDe":560,"Ġvol":561,"Ġmuito":562,"inda":563,"Ã¡s":564,"Ġfor":565,"indo":566,"cont":567,"ĠQu":568,"Ġesc":569,"Ġbem":570,"Ġmesmo":571,"Ġlu":572,"Ġcam":573,"ina":574,"Ġcer":575,"Ġmen":576,"mb":577,"gora":578,"rio":579,"Ġalg":580,"Ġnos":581,"Ġdas":582,"ĠlÃ¡":583,"pa":584,"nta":585,"Ġsobre":586,"ĠEu":587,"rar":588,"hor":589,"ita":590,"pe":591,"vam":592,"Ãµ":593,"Ġquer":594,"ru":595,"aro":596,"ist":597,"udo":598,"inho":599,"Ãµes":600,"vo":601,"iam":602,"Ġcome":603,"Ġch":604,"Ġvo":605,"Ġtr":606,"Ġpes":607,"Ġpens":608,"ĠU":609,"Ġdepois":610,"Ġtam":611,"Ġche":612,"segu":613,"Ġsab":614,"Ġainda":615,"aix":616,"Ġam":617,"ĠsÃ³":618,"Ġmor":619,"ja":620,"inh":621,"Ãªn":622,"Ġaqu":623,"Ġolhos":624,"Ġpelo":625,"vez":626,"Ġtra":627,"Ã´":628,"Ġra":629,"Ġcabe":630,"alvez":631,"Ġcha":632,"ĠmÃ£":633,"Ġtempo":634,"ac":635,"nde":636,"ĠMas":637,"ĠVocÃª":638,"Ġhom":639,"ase":640,"eito":641,"bÃ©m":642,"quele":643,"Ġpou":644,"Ġdele":645,"Ġpra":646,"Ġlado":647,"Ġcomp":648,"ico":649,"ĠcabeÃ§a":650,"ter":651,"Ġpergu":652,"ĠI":653,"na":654,"Ġint":655,"osto":656,"bo":657,"rou":658,"ĠSe":659,"ior":660,"rando":661,"Ġpass":662,"Ġfal":663,"Ġte":664,"vi":665,"Ġdia":666,"Ġagora":667,"ua":668,"Ġresp":669,"Ġimp":670,"Ġconsegu":671,"har":672,"eio":673,"Ġman":674,"aram":675,"ĠtambÃ©m":676,"Ġdeix":677,"dor":678,"Ġvai":679,"ivesse":680,"Ġvi":681,"ĠcomeÃ§":682,"Ġ(":683,"quela":684,"Ã¢":685,"Ġmeu":686,"ĠEla":687,"Ġir":688,"pre":689,"no":690,"Ġfazer":691,"aria":692,"Ġdois":693,"quer":694,"amos":695,"dade":696,"ĠmÃ£o":697,"ĠÃº":698,"ti":699,"ch":700,"ĠÃī":701,"Ġeles":702,"Ġcasa":703,"ĠjÃ¡":704,"Ġpela":705,"ntou":706,"Ġonde":707,"ess":708,"rada":709,"Ġquase":710,"ite":711,"Ġminha":712,"ĠAl":713,"oca":714,"amente":715,"Ġvel":716,"Ã³s":717,"gou":718,"Ġ\"":719,"Ġdire":720,"Ġantes":721,"ĠW":722,"lha":723,"Ġpu":724,"rado":725,"za":726,"enas":727,"Ġtudo":728,"Ġjo":729,"Ġseus":730,"Ġpoder":731,"orr":732,"Ġporta":733,"ge":734,"Ġesta":735,"Ġfre":736,"ĠtÃ£o":737,"ada":738,"Ġne":739,"ill":740,"Ġgri":741,"dar":742,"undo":743,"Ġpouco":744,"ĠPor":745,"Ġpos":746,"gem":747,"des":748,"mos":749,"Ġassim":750,"guÃ©m":751,"per":752,"Ġgran":753,"Ġqual":754,"Ġpode":755,"hos":756,"Ġvolta":757,"fer":758,"Ġvoz":759,"Ġmenos":760,"Ġoutro":761,"Ġprim":762,"Ġnada":763,"aixo":764,"ack":765,"tor":766,"Ġentre":767,"Ġdu":768,"Ġtor":769,"est":770,"Ġfil":771,"asse":772,"era":773,"ÃŃvel":774,"Ġlhe":775,"cul":776,"Ġfora":777,"Ġdizer":778,"Ġsen":779,"Ġti":780,"for":781,"Ġbo":782,"gra":783,"Ġpen":784,"cu":785,"Ġhomem":786,"--":787,"Ãªs":788,"ry":789,"tante":790,"Ġpesso":791,"arec":792,"ber":793,"st":794,"tamente":795,"osse":796,"inal":797,"Ġtalvez":798,"Ġestavam":799,"Ġro":800,"Ġsol":801,"Ġalgum":802,"Ġdela":803,"Ġvis":804,"ĠÃ¡":805,"Ġnas":806,"Ġnem":807,"Ġprec":808,"Ġanos":809,"contec":810,"enta":811,"inu":812,"las":813,"quanto":814,"Ġporque":815,"Ġrosto":816,"Ãªncia":817,"ela":818,"ĠCom":819,"unca":820,"ĠOs":821,"Ġso":822,"Ġmar":823,"Ġacontec":824,"ing":825,"ne":826,"Ġfosse":827,"Ġ1":828,"rem":829,"deu":830,"Ġparecia":831,"Ġfrente":832,"Ġencont":833,"igo":834,"isas":835,"Ġouv":836,"Ġsom":837,"Ġalguma":838,"Ġlugar":839,"fic":840,"ĠprÃ³":841,"Ġgaro":842,"lher":843,"Ġmel":844,"Ġapenas":845,"Ġexp":846,"ĠentÃ£o":847,"Ġnovo":848,"Ġestar":849,"Ġcal":850,"and":851,"con":852,"Ġrep":853,"has":854,"cos":855,"Ġcl":856,"Ġverdade":857,"ĠK":858,"Ele":859,"Ġob":860,"hec":861,"ĠmÃ£os":862,"Ġaqui":863,"Ġcorre":864,"Ġleva":865,"tado":866,"Ġtodos":867,"cho":868,"irou":869,"Ġten":870,"riu":871,"ĠJack":872,"Ġoutra":873,"enh":874,"Ã§Ãµes":875,"tÃ¡":876,"Ã¢n":877,"Ġlon":878,"Ġmeio":879,"Ġsido":880,"Ġtom":881,"Ġmom":882,"Ġcoisas":883,"Ã§as":884,"Ġnoite":885,"ĠEnt":886,"Ġmal":887,"Ġparte":888,"ais":889,"ĠEra":890,"ios":891,"iso":892,"Ġcol":893,"Ġcu":894,"imo":895,"Ġlemb":896,"Ġfez":897,"ino":898,"elas":899,"Ġtent":900,"Ġmelhor":901,"rava":902,"entos":903,"Ġba":904,"esta":905,"ost":906,"Ġmulher":907,"Ġenquanto":908,"Ġpodia":909,"Ġvezes":910,"Ġaf":911,"ĠpÃ©":912,"Ġnunca":913,"ke":914,"Ġdor":915,"Ġva":916,"Ġcons":917,"Ġbar":918,"Ġtivesse":919,"Ġer":920,"cion":921,"Ġali":922,"Ġeram":923,"Ġsabia":924,"bora":925,"rÃ¡s":926,"Ġsempre":927,"Ġgrande":928,"gue":929,"Ġus":930,"Ġviu":931,"rios":932,"Ġdent":933,"ut":934,"Ġinter":935,"Ġbom":936,"Ġcin":937,"dio":938,"Ġsub":939,"Ġpai":940,"vor":941,"Ġmim":942,"Ġrespon":943,"Ġduas":944,"Ġperguntou":945,"ba":946,"Ġins":947,"ĠJo":948,"tura":949,"Ġmomento":950,"Ġdentro":951,"dy":952,"ns":953,"bal":954,"ĠAs":955,"gado":956,"Ġnum":957,"die":958,"Ġpequ":959,"ĠPe":960,"ĠUm":961,"ph":962,"Ġgu":963,"ilo":964,"du":965,"osa":966,"Ġban":967,"ĠAn":968,"Ġtran":969,"Ġembora":970,"lt":971,"Ã¡rio":972,"Ġficar":973,"sÃ£o":974,"Ġinc":975,"Ġficou":976,"Ġcara":977,"Ġsabe":978,"Ġqualquer":979,"Ġcham":980,"ĠNo":981,"almente":982,"ivo":983,"Ġbra":984,"Ġsuas":985,"ĠatrÃ¡s":986,"ĠPo":987,"Ġcria":988,"Ġdisso":989,"Ġnenh":990,"Ġpoderia":991,"ĠcomeÃ§ou":992,"Ġcima":993,"ĠtrÃªs":994,"Ġson":995,"Ġescu":996,"bra":997,"car":998,"anÃ§":999,"amento":1000,"Ġluz":1001,"Ġju":1002,"Ġmundo":1003,"ĠÃłs":1004,"ista":1005,"iro":1006,"ĠÃºlt":1007,"teza":1008,"ĠmÃ£e":1009,"ĠEd":1010,"Ġdeu":1011,"gua":1012,"Ġsei":1013,"Ġmaior":1014,"pos":1015,"cor":1016,"Ġbe":1017,"ĠQuando":1018,"ĠBill":1019,"cio":1020,"Ġtrabal":1021,"Ġtinham":1022,"Ġolhou":1023,"Ġquanto":1024,"Ġaquele":1025,"Ġpensou":1026,"Ġlev":1027,"Ã§os":1028,"Ġvida":1029,"entes":1030,"imento":1031,"Ġacha":1032,"Ġpequen":1033,"Ġtodo":1034,"cha":1035,"ib":1036,"tando":1037,"Ġtar":1038,"ĠhÃ¡":1039,"Ġpol":1040,"lar":1041,"Ġcab":1042,"Ġsur":1043,"Ġlo":1044,"hou":1045,"Ġun":1046,"et":1047,"jo":1048,"ĠprÃ³p":1049,"ap":1050,"ava":1051,"Ġquem":1052,"Ġessa":1053,"Ġaca":1054,"Ġru":1055,"Ġdar":1056,"Ġfec":1057,"lav":1058,"Ġbal":1059,"Ġboca":1060,"redi":1061,"Ġolhar":1062,"Ġpessoas":1063,"Ġvelho":1064,"iga":1065,"cer":1066,"deira":1067,"Ã¡vel":1068,"ad":1069,"ĠIs":1070,"lu":1071,"Ġcerteza":1072,"velmente":1073,"tal":1074,"Ġliv":1075,"Ġquar":1076,"Ġsor":1077,"ĠDeus":1078,"ĠEntÃ£o":1079,"cas":1080,"mais":1081,"Ġgente":1082,"Ġforma":1083,"Ġfu":1084,"Ġpres":1085,"Ġcan":1086,"ĠNa":1087,"Ġdeles":1088,"Ġsi":1089,"ial":1090,"elos":1091,"Ġsal":1092,"Ġcarro":1093,"rav":1094,"je":1095,"Ġhist":1096,"ÃŃn":1097,"ard":1098,"rin":1099,"th":1100,"Ġespe":1101,"ny":1102,"Ġsan":1103,"Ġant":1104,"ĠEm":1105,"son":1106,"Ġqueria":1107,"ĠtrÃ¡s":1108,"rim":1109,"Ġnuma":1110,"lhe":1111,"Ela":1112,"Ã³ria":1113,"tic":1114,"Ġbol":1115,"mas":1116,"Ġbran":1117,"Ġalgo":1118,"Ġta":1119,"Ġpalav":1120,"Ġcontra":1121,"ntar":1122,"sas":1123,"Ġsim":1124,"oi":1125,"Ġcidade":1126,"ana":1127,"ĠsÃ£o":1128,"oso":1129,"Ġhora":1130,"raÃ§Ã£o":1131,"Ġaquela":1132,"id":1133,"Ġ--":1134,"Ġfun":1135,"alph":1136,"Ġesqu":1137,"ero":1138,"Ġvou":1139,"Ġsaber":1140,"Ġsorr":1141,"Ġcada":1142,"ntas":1143,"Ġestivesse":1144,"ip":1145,"ĠUma":1146,"ju":1147,"man":1148,"if":1149,"tes":1150,"Ġseria":1151,"eles":1152,"ton":1153,"Ġgos":1154,"Ġdemais":1155,"Ġfim":1156,"Ġesse":1157,"ĠnÃ³s":1158,"Ġteria":1159,"min":1160,"pres":1161,"Ġfica":1162,"los":1163,"Ġacab":1164,"ĠalguÃ©m":1165,"este":1166,"Ġnome":1167,"Ġgar":1168,"inhas":1169,"Ġacredi":1170,"vem":1171,"Ġtarde":1172,"ion":1173,"fa":1174,"Ġav":1175,"Ġsr":1176,"Ġacho":1177,"Ġtoda":1178,"Ġimpor":1179,"Ġestou":1180,"mel":1181,"Ġestran":1182,"ris":1183,"ĠCo":1184,"ĠHa":1185,"Ġima":1186,"Ġmer":1187,"ĠDa":1188,"idos":1189,"Ġped":1190,"end":1191,"ĠdireÃ§Ã£o":1192,"ly":1193,"ĠTalvez":1194,"por":1195,"tros":1196,"ick":1197,"Ġtele":1198,"hÃ£":1199,"ĠAcho":1200,"lho":1201,"ĠÃºn":1202,"guns":1203,"Ġci":1204,"Ġbat":1205,"Ġfilho":1206,"Ġaos":1207,"iver":1208,"ntos":1209,"Ġcho":1210,"Ġgra":1211,"ĠEddie":1212,"Ġperto":1213,"Ġia":1214,"Ġfalar":1215,"inguÃ©m":1216,"Ġmedo":1217,"ĠIsso":1218,"Ġim":1219,"ĠComo":1220,"iva":1221,"Ġconhec":1222,"Ġfi":1223,"rias":1224,"Ġbas":1225,"rir":1226,"Ġbri":1227,"Ġsenhor":1228,"Ġpassa":1229,"Ġclaro":1230,"deia":1231,"cada":1232,"Ġperce":1233,"ĠMar":1234,"Ġfinal":1235,"Ġoutros":1236,"ĠâĢĶ,":1237,"gando":1238,"Ġvia":1239,"Ġnova":1240,"hn":1241,"ĠSa":1242,"Ġolhando":1243,"Ġolha":1244,"ĠRic":1245,"nda":1246,"Ġposs":1247,"hado":1248,"Ġtorn":1249,"enry":1250,"),":1251,"Ġsus":1252,"vida":1253,"Ġad":1254,"Ġhomens":1255,"atro":1256,"Ġcaminho":1257,"mp":1258,"usa":1259,"Ġprimeiro":1260,"ĠRalph":1261,"NÃ£o":1262,"qui":1263,"ĠchÃ£o":1264,"ĠSÃ³":1265,"baixo":1266,"Ġprecisa":1267,"Ġesco":1268,"Ġconf":1269,"Ġmuit":1270,"urante":1271,"Ġag":1272,"Ġalto":1273,"ĠTo":1274,"paz":1275,"ĠestÃ£o":1276,"tÃ³":1277,"one":1278,"Ġprimeira":1279,"ass":1280,"Ġfiz":1281,"Ġenf":1282,"tu":1283,"par":1284,"Ġjan":1285,"Ġatrav":1286,"Ġcrian":1287,"vavelmente":1288,"cil":1289,"irar":1290,"Ġfazendo":1291,"Ġomb":1292,"emos":1293,"essa":1294,"rei":1295,"Ġtrans":1296,"Ġtro":1297,"ed":1298,"ĠAgora":1299,"Ġgaroto":1300,"tro":1301,"ĠcÃ©":1302,"Ġrespondeu":1303,"Ġgritou":1304,"lic":1305,"Ġescri":1306,"Ġcerto":1307,"Ã¢ncia":1308,"ĠrÃ¡":1309,"Ġsangue":1310,"ĠQue":1311,"ias":1312,"Ġprof":1313,"Ġbaixo":1314,"tra":1315,"Ġestrada":1316,"Ġaju":1317,"Ġexa":1318,"erv":1319,"para":1320,"ze":1321,"ĠdÃº":1322,"eria":1323,"cado":1324,"ine":1325,"Ġeste":1326,"Ġvermel":1327,"Ġcorpo":1328,"Ġsala":1329,"ĠsaÃŃ":1330,"cob":1331,"ĠHenry":1332,"Ġsou":1333,"Ġcontinu":1334,"ĠFoi":1335,"Ġdorm":1336,"ĠÃ³":1337,"Ġalguns":1338,"Ġtanto":1339,"lor":1340,"Ġnenhum":1341,"dÃ£o":1342,"veis":1343,"Ġpap":1344,"ĠpÃ¡":1345,"Ġrou":1346,"Ġpensar":1347,"ĠJohn":1348,"rig":1349,"fe":1350,"Ġapo":1351,"tÃ£o":1352,"ĠmÃ¡":1353,"Ġpare":1354,"Ã©s":1355,"ĠhistÃ³ria":1356,"Ġobs":1357,"eiros":1358,"Ġcur":1359,"isse":1360,"Ġmesma":1361,"gre":1362,"emente":1363,"Ġsimp":1364,"ĠÃ¡gua":1365,"ud":1366,"Ġtri":1367,"Ġtodas":1368,"Ġbon":1369,"Ġbaix":1370,"Ġforam":1371,"ide":1372,"dou":1373,"ĠEstava":1374,"Ġapro":1375,"Ġpis":1376,"Ġideia":1377,"lan":1378,"Ġimag":1379,"Ġquatro":1380,"Ġtipo":1381,"vis":1382,"tam":1383,"ĠEstÃ¡":1384,"zinha":1385,"ĠBe":1386,"ĠDepois":1387,"Ġdevia":1388,"Ġesquer":1389,"Ġlogo":1390,"ĠforÃ§a":1391,"Ġergu":1392,"lado":1393,"Ġacor":1394,"Ġsorriso":1395,"li":1396,"ble":1397,"ende":1398,"ĠmanhÃ£":1399,"Ġboa":1400,"Ġconta":1401,"ĠEles":1402,".âĢĶ":1403,"Ġano":1404,"ven":1405,"ĠpÃ´":1406,"ĠHavia":1407,"gan":1408,"Ġnaquele":1409,"fÃŃ":1410,"ĠOu":1411,"Ġtelef":1412,"Ġmente":1413,"dado":1414,"Ġaber":1415,"Ġquis":1416,"Ġpassou":1417,"Ãªm":1418,"lin":1419,"ĠGe":1420,"Ġcoloc":1421,"Ġau":1422,"Ġcaix":1423,"Ġvoltar":1424,"Ġemp":1425,"Ġhou":1426,"\",":1427,"Ġor":1428,"sei":1429,"len":1430,"Ġrua":1431,"Ġpois":1432,"Ġtenho":1433,"iar":1434,"Ġrepente":1435,"desse":1436,"nas":1437,"ĠTom":1438,"Ġce":1439,"lei":1440,"ĠDan":1441,"Ġsair":1442,"Ġminu":1443,"Eu":1444,"ĠbraÃ§o":1445,"ĠninguÃ©m":1446,"Ġguar":1447,"Ġquarto":1448,"Ġfalou":1449,"Ġchegar":1450,"Ġcinco":1451,"Ġ19":1452,"ĠMa":1453,"ĠMor":1454,"Ġtenha":1455,"Ġfer":1456,"Ġfeito":1457,"Ġpux":1458,"alha":1459,"bro":1460,"Ġparece":1461,"vol":1462,"sos":1463,"Ġlou":1464,"Ġmost":1465,"gas":1466,"ĠSim":1467,"ral":1468,"Ġmesa":1469,"Ġmil":1470,"ĠLe":1471,"gada":1472,"Ġaper":1473,"Ġdez":1474,"Ġtrabalho":1475,"mes":1476,"ĠCar":1477,"ressÃ£o":1478,"iente":1479,"ĠcaÃŃ":1480,"Ġproble":1481,"Ġpassar":1482,"rer":1483,"Ġneg":1484,"Ġuns":1485,"Ġterr":1486,"Ġmodo":1487,"ador":1488,"igos":1489,"Ġsimples":1490,"Ġ2":1491,"anÃ§a":1492,"ĠaÃŃ":1493,"Ġchama":1494,"ocu":1495,"ll":1496,"Ġaz":1497,"Ġdias":1498,"Ġcama":1499,"Ġcent":1500,"Ġprecis":1501,"iria":1502,"Mas":1503,"iÃ§Ã£o":1504,"endeu":1505,"ĠvocÃªs":1506,"Ġamar":1507,"aparec":1508,"Ġvirou":1509,"ostas":1510,"Ġrealmente":1511,"ĠTer":1512,"Ġrec":1513,"Ġconver":1514,"Ġpudesse":1515,"Ġtoc":1516,"inhos":1517,"ender":1518,"culo":1519,"enho":1520,"Ġapar":1521,"Ġnaquela":1522,"Ġpul":1523,"orre":1524,"ĠGeor":1525,"Ġdesc":1526,"dro":1527,"inas":1528,"Ġjeito":1529,"Ġvoltou":1530,"ĠCon":1531,"Ġpla":1532,"Ġlonge":1533,"Ġdurante":1534,"Ġprovavelmente":1535,"ila":1536,"Ġaquilo":1537,"imos":1538,"ÃŃcia":1539,"Ġbastante":1540,"guei":1541,"tico":1542,"quei":1543,"vera":1544,"Ġteve":1545,"vid":1546,"Ġnor":1547,"ĠRe":1548,"Ġbeb":1549,"Ġforte":1550,"Ġvira":1551,"ĠSr":1552,"cou":1553,"ilha":1554,"ley":1555,"ĠCh":1556,"ĠpÃ©s":1557,"diu":1558,"Ġdesde":1559,"Ġz":1560,"Ġrece":1561,"Ġdedos":1562,"ĠAr":1563,"ĠalÃ©m":1564,"Ġsegui":1565,"ÃŃs":1566,"ty":1567,"bu":1568,"ĠvÃ¡":1569,"Ġfazia":1570,"\".":1571,"tei":1572,"Ġprin":1573,"zia":1574,"Ġve":1575,"Ġli":1576,"ĠcoraÃ§Ã£o":1577,"orn":1578,"Ġsaiu":1579,"Ġseja":1580,"eta":1581,"Ġdeixar":1582,"Ġpelos":1583,"Ġpensa":1584,"Ġpegou":1585,"Ãºm":1586,"hard":1587,"ĠEn":1588,"Ġandar":1589,"Ġpalavras":1590,"fei":1591,"Ġdesaparec":1592,"Ġsentiu":1593,"Ġpreocu":1594,"au":1595,"Ġlar":1596,"ĠBar":1597,"Ġesquec":1598,"Ġnovamente":1599,"Ġponto":1600,"cip":1601,"inheiro":1602,"mou":1603,"dido":1604,"Ġarre":1605,"ĠPer":1606,"cie":1607,"Ġabriu":1608,"De":1609,"ados":1610,"ranÃ§a":1611,"Ġdescob":1612,"Ġtrem":1613,"ck":1614,"Ġdeve":1615,"Ġsuj":1616,"Ġterra":1617,"ĠrÃ¡p":1618,"Ġcap":1619,"Ġconseguia":1620,"osta":1621,"Ġhorr":1622,"ĠHo":1623,"Ã´n":1624,"vas":1625,"Ġfavor":1626,"ĠGeorge":1627,"Ġcomple":1628,"Ġouvir":1629,"ĠRo":1630,"Ġcabelo":1631,"teu":1632,"Ġposso":1633,"Ġaprox":1634,"Ġmeus":1635,"Ġvento":1636,"Ġcru":1637,"Ġarma":1638,"ular":1639,"Ġacima":1640,"Ġfra":1641,"Ġquero":1642,"Ġsufic":1643,"Ġaparec":1644,"lia":1645,"ĠquÃª":1646,"Ġirm":1647,"bi":1648,"Ġcheiro":1649,"gos":1650,"mit":1651,"Ġcostas":1652,"Ġconc":1653,"Ġmant":1654,"ĠTudo":1655,"ger":1656,"cura":1657,"Ġcaiu":1658,"Ġalgumas":1659,"ĠDo":1660,"Ġescre":1661,"Ġouvi":1662,"ĠsÃ©":1663,"ĠporÃ©m":1664,"ano":1665,"Ġdifer":1666,"Ġfundo":1667,"sur":1668,"Ġpart":1669,"ĠvÃ£o":1670,"iÃ£o":1671,"icos":1672,"oland":1673,"ĠdÃºvida":1674,"ĠParec":1675,"dura":1676,"tivo":1677,"ĠVamos":1678,"Ġarran":1679,"rie":1680,"rvor":1681,"tre":1682,"Ġenor":1683,"ĠEstou":1684,"ĠbraÃ§os":1685,"hando":1686,"tada":1687,"ĠcÃ©u":1688,"Ġder":1689,"Ġfala":1690,"ins":1691,"ren":1692,"Ġtermin":1693,"Ġnenhuma":1694,"zinho":1695,"Ġreal":1696,"tÃ³rio":1697,"Ġjanela":1698,"culos":1699,"Ġfato":1700,"pas":1701,"entou":1702,"enÃ§Ã£o":1703,"Ġhaviam":1704,"ĠTinha":1705,"ĠHar":1706,"Ãºs":1707,"dando":1708,"ĠJa":1709,"Ġpolic":1710,"ĠÃºltima":1711,"ones":1712,"Ġpeda":1713,"Ġenc":1714,"Ġnu":1715,"Ġdizia":1716,"Ġfam":1717,"beu":1718,"Ġgan":1719,"itar":1720,"Ġchegou":1721,"ĠvÃª":1722,"taria":1723,"Ġaconteceu":1724,"Ġamigo":1725,"Ġpequeno":1726,"Ġja":1727,"Ġsensa":1728,"lica":1729,"Ġpal":1730,"Ġhoras":1731,"gia":1732,"mar":1733,"ĠprÃ³x":1734,"Ġdese":1735,"resc":1736,"idas":1737,"olly":1738,"Ġafas":1739,"eliz":1740,"Ġvisto":1741,"ses":1742,"Ġri":1743,"Ġpessoa":1744,"Ġlig":1745,"Ġpensando":1746,"Ġesca":1747,"Ġpergunta":1748,"Ġinf":1749,"Ġelas":1750,"Ġconseguiu":1751,"Ġmaneira":1752,"Ġespec":1753,"xe":1754,"Ġparou":1755,"ĠCla":1756,"ĠTem":1757,"ĠChar":1758,"Ġespera":1759,"Ġminutos":1760,"sar":1761,"ceu":1762,"ores":1763,"ĠVou":1764,"Ġesquerda":1765,"Ġoutras":1766,"Ġfecha":1767,"Ġcava":1768,"anÃ§ou":1769,"ĠprÃ³prio":1770,"Ġcuida":1771,"Ġrela":1772,"Ġchu":1773,"Ġsentir":1774,"Ġpapel":1775,"Ġpegar":1776,"Ġfalando":1777,"Ġdesa":1778,"ĠPara":1779,"ĠBilly":1780,"ĠLo":1781,"Ġmeia":1782,"Ġcaso":1783,"Ġcaminh":1784,"Ġcober":1785,"Ġdesl":1786,"Ġrel":1787,"gio":1788,"Ġpareceu":1789,"ĠÃºnica":1790,"Ġachava":1791,"Ġsegundo":1792,"metros":1793,"Ġvamos":1794,"isso":1795,"Ġexatamente":1796,"Ġhum":1797,"Ġinstante":1798,"reu":1799,"ron":1800,"Ġmaioria":1801,"tÃ©":1802,"cias":1803,"Ġbrin":1804,"Ġmorto":1805,"Ġmenino":1806,"tica":1807,"ĠcalÃ§a":1808,"xa":1809,"RA":1810,"Ġid":1811,"elho":1812,"Ġparar":1813,"ĠSeu":1814,"Ġdizendo":1815,"ĠRa":1816,"ĠDE":1817,"Ġquil":1818,"Ġcarre":1819,"rÃ¡":1820,"Ġtre":1821,"Ġfar":1822,"ĠMc":1823,"Ġparede":1824,"Ġdeixou":1825,"ĠBob":1826,"ĠSam":1827,"Ġreg":1828,"ĠBo":1829,"Ġsuper":1830,"Ġficava":1831,"itu":1832,"Ġref":1833,"unda":1834,"Ġespa":1835,").":1836,"ĠÃ¡rvor":1837,"Ġouviu":1838,"Ġquad":1839,"ĠNe":1840,"Ġsil":1841,"Ġdaqu":1842,"Ġnar":1843,"ĠEl":1844,"Ġcaixa":1845,"ĠMe":1846,"inua":1847,"Ġras":1848,"Ġjunto":1849,"Ã§ou":1850,"Ġgal":1851,"ĠSu":1852,"gava":1853,"ĠFa":1854,"Os":1855,"ĠDes":1856,"tiva":1857,"enda":1858,"entemente":1859,"ĠBem":1860,"Ġtelefone":1861,"ĠpossÃŃvel":1862,"Ġsuficiente":1863,"Ġentrar":1864,"veria":1865,"Ġsentia":1866,"Ġpequena":1867,"esar":1868,"ĠPode":1869,"Ġtentando":1870,"duz":1871,"ĠY":1872,"ĠRichard":1873,"Ġpelas":1874,"ĠPro":1875,"ĠÃ©p":1876,"ign":1877,"ntando":1878,"Ġdaquele":1879,"Ġseis":1880,"laro":1881,"eral":1882,"ĠprÃ³pria":1883,"ĠPar":1884,"Ġcozinha":1885,"Ġembaixo":1886,"ĠlÃ¡b":1887,"Ġdireita":1888,"iado":1889,"Ġdinheiro":1890,"Ġgrandes":1891,"stru":1892,"Ġsof":1893,"Ent":1894,"Ġlivro":1895,"Ġcac":1896,"ifica":1897,"Ġpi":1898,"inos":1899,"ice":1900,"Ġcerta":1901,"entar":1902,"cando":1903,"Ġapa":1904,"endia":1905,"Ġagu":1906,"tavam":1907,"ĠmÃ©":1908,"Ġcheg":1909,"Ġmorte":1910,"Ġcontar":1911,"Ġlevantou":1912,"ĠRoland":1913,"ula":1914,"lie":1915,"ivos":1916,"Ġment":1917,"Ġproblema":1918,"Ġvelha":1919,"ĠIn":1920,"bre":1921,"idamente":1922,"ÃŃdo":1923,".\"":1924,"ĠCas":1925,"ces":1926,"Ġel":1927,"Ġflor":1928,"ĠsensaÃ§Ã£o":1929,"Ġestre":1930,"ĠdÃ¡":1931,"Ġmotor":1932,"tr":1933,"Ġale":1934,"iou":1935,"Ġempur":1936,"Ġpalavra":1937,"ĠÃ©poca":1938,"Ġaco":1939,"Ġlongo":1940,"ĠSte":1941,"Ġpior":1942,"Ġcadeira":1943,"Ġfogo":1944,"Ġagar":1945,"amais":1946,"Ġcachor":1947,"den":1948,"iza":1949,"Ãªncio":1950,"erry":1951,"Ġcorredor":1952,"iram":1953,"Ġvest":1954,"ĠJÃ¡":1955,"ĠAh":1956,"com":1957,"ĠcrianÃ§as":1958,"Ġseguinte":1959,"Ġtal":1960,"Ġsusp":1961,"Ġbrilha":1962,"tados":1963,"vil":1964,"Ġsentado":1965,"Ġfalei":1966,"Quando":1967,"Ġdeci":1968,"Ġassus":1969,"Ġfuncion":1970,"Ġfol":1971,"ĠNor":1972,"Ġfoto":1973,"Ġpareciam":1974,"rm":1975,"Ġcorrendo":1976,"Ġmerda":1977,"Ġdest":1978,"ĠSua":1979,"Ġbranco":1980,"Ġsendo":1981,"xo":1982,"Ġveio":1983,"Es":1984,"Por":1985,"Ġmuitos":1986,"Ġpassado":1987,"vido":1988,"Ġpernas":1989,"ntei":1990,"ĠBen":1991,"Ġsemana":1992,"ĠÃºltimo":1993,"Ġgo":1994,"tan":1995,"Ġplan":1996,"leiro":1997,"Ġdist":1998,"ĠÃĢ":1999,"Ġgru":2000,"Ġdiante":2001,"ĠMo":2002,"Ġhoje":2003,"Ġdentes":2004,"vesse":2005,"Ġfei":2006,"ĠMu":2007,"ĠAndy":2008,"ific":2009,"Ã§ado":2010,"Ġqueb":2011,"ĠnÃºm":2012,"ress":2013,"Ġprov":2014,"Ġombros":2015,"enÃ§a":2016,"Ġcontinua":2017,"Ġsorriu":2018,"zer":2019,"ĠFran":2020,"Ġbor":2021,"Ġencontrar":2022,"bado":2023,"ÃŃamos":2024,"Ġisto":2025,"Ġjovem":2026,"ĠAp":2027,"Ġaqueles":2028,"ĠPorque":2029,"bri":2030,"Ġga":2031,"oss":2032,"Ġbolso":2033,"Ġquente":2034,"Ã¡ria":2035,"ocal":2036,"bar":2037,"Ġsurpres":2038,"Ġcair":2039,"ĠexpressÃ£o":2040,"ĠMeu":2041,"lares":2042,"xer":2043,"Ġombro":2044,"ntade":2045,"dei":2046,"ER":2047,"Ġsimplesmente":2048,"ĠrÃ¡pido":2049,"nos":2050,"erto":2051,"ecess":2052,"ĠdÃ³":2053,"Ġcost":2054,"ĠsilÃªncio":2055,"ĠatravÃ©s":2056,"OS":2057,"Ġbura":2058,"nie":2059,"Ġmov":2060,"Ġtesta":2061,"Ġresto":2062,"heiro":2063,"Ġmon":2064,"Ġvontade":2065,"Ġfinalmente":2066,"itou":2067,"Ġpeito":2068,"ridÃ£o":2069,"Ġazul":2070,"dida":2071,"eram":2072,"forma":2073,"Ġjamais":2074,"Ġconseguir":2075,"ĠJim":2076,"Ġdaquela":2077,"hei":2078,"cy":2079,"ĠespÃ©":2080,"Ġvaz":2081,"ĠcomeÃ§a":2082,"hie":2083,"dic":2084,"Ġmuitas":2085,"vos":2086,"Ġsomb":2087,"Ġfe":2088,"Ġlimp":2089,"Ġnele":2090,"tel":2091,"tamento":2092,"ener":2093,"Ġcomigo":2094,"Ġverde":2095,"tur":2096,"iros":2097,"Ġrecu":2098,"inar":2099,"Ġraz":2100,"che":2101,"Ġenorme":2102,"Ġescada":2103,"ĠAinda":2104,"emp":2105,"Ã³r":2106,"Ġrap":2107,"Ġresposta":2108,"Ġmuita":2109,"ĠBla":2110,"conhec":2111,"ĠÃºnico":2112,"ike":2113,"ora":2114,"ell":2115,"Ġcausa":2116,"Ġret":2117,"ĠcomeÃ§ar":2118,"Ġlevar":2119,"ĠatenÃ§Ã£o":2120,"land":2121,"vamos":2122,"ixo":2123,"ĠlÃ¡bios":2124,"erva":2125,"Ġaproxim":2126,"obo":2127,"Ã¢m":2128,"Ġcamisa":2129,"Ġrapaz":2130,"Ġdireito":2131,"ĠDanny":2132,"Ġprincip":2133,"ĠSem":2134,"ouis":2135,"atos":2136,"ĠquilÃ´":2137,"ock":2138,"Ġconcor":2139,"Ġil":2140,"ĠtÃªm":2141,"Ġentrou":2142,"ĠdifÃŃ":2143,"Ġseguida":2144,"my":2145,"Ġleve":2146,"Ġnisso":2147,"Ġsaco":2148,"pon":2149,"Ġabri":2150,"Ġamor":2151,"Ġsonho":2152,"Ġdessa":2153,"Ġsussur":2154,"Ġdirig":2155,"cla":2156,"Ġnariz":2157,"ulho":2158,"Ġescuro":2159,"Ġvermelho":2160,"Ġamb":2161,"Ã©r":2162,"ĠescuridÃ£o":2163,"Ġponta":2164,"Ġrev":2165,"Ġpedra":2166,"Ġguarda":2167,"Ġnossa":2168,"Ġata":2169,"Com":2170,"veu":2171,"tis":2172,"Ġpesco":2173,"ĠGard":2174,"Ġtira":2175,"Ġvinha":2176,"ĠverÃ£o":2177,"ans":2178,"ĠcrianÃ§a":2179,"ema":2180,"ĠpolÃŃcia":2181,"ĠClaro":2182,"ntan":2183,"Ġdava":2184,"'s":2185,"bil":2186,"rido":2187,"Ġlevou":2188,"Ġsign":2189,"Ġcapaz":2190,"rea":2191,"elhos":2192,"Ġfir":2193,"ĠFrank":2194,"Ġpun":2195,"Ġachou":2196,"idades":2197,"Ġbateu":2198,"Ġu":2199,"Ġamigos":2200,"feito":2201,"ĠMais":2202,"ĠespÃ©cie":2203,"ÃŃveis":2204,"Ġprecisava":2205,"Ġboc":2206,"Ġcontro":2207,"ĠpescoÃ§o":2208,"Ġdelas":2209,"EntÃ£o":2210,"Ġber":2211,"Ġext":2212,"Ġolho":2213,"fÃ©":2214,"ĠFre":2215,"sim":2216,"ts":2217,"Ġmeta":2218,"cido":2219,"lada":2220,"Ġmetros":2221,"rian":2222,"vio":2223,"raram":2224,"ulo":2225,"Ġobserv":2226,"Ġacreditar":2227,"Ġinv":2228,"gens":2229,"Ġsum":2230,"ques":2231,"ĠJones":2232,"ona":2233,"Ġvinte":2234,"urou":2235,"Ġestacion":2236,"Ġpele":2237,"No":2238,"Ġescon":2239,"Ġergueu":2240,"Ġlate":2241,"Ġchamado":2242,"Ġven":2243,"cios":2244,"iada":2245,"Ġfeliz":2246,"itos":2247,"Ġfug":2248,"ĠJake":2249,"Ġusando":2250,"ĠQuem":2251,"Ġnecess":2252,"Ġsujeito":2253,"rasse":2254,"uro":2255,"Ġlen":2256,"Ã£e":2257,"Ġapesar":2258,"Ġtornou":2259,"Ġparado":2260,"ham":2261,"Ġesposa":2262,"Ġestado":2263,"Ġ3":2264,"Ġindo":2265,"gÃ£o":2266,"iste":2267,"Ġbus":2268,"inaÃ§Ã£o":2269,"oo":2270,"Ġalta":2271,"Ġlinha":2272,"Ġlembrar":2273,"Ġexce":2274,"EN":2275,"lou":2276,"As":2277,"cara":2278,"Ġlocal":2279,"Ġgarota":2280,"Ġexist":2281,"Ġcomer":2282,"ÃŃlia":2283,"Ġpolicial":2284,"cre":2285,"fo":2286,"Ġestranho":2287,"ĠdifÃŃcil":2288,"pado":2289,"amentos":2290,"Ġesperando":2291,"AR":2292,"Ġvidro":2293,"Ġpreciso":2294,"ĠterrÃŃvel":2295,"Ġabaixo":2296,"ntado":2297,"edia":2298,"ĠNÃ³s":2299,"ĠmÃºs":2300,"ntamente":2301,"jar":2302,"inado":2303,"Ġatravess":2304,"vens":2305,"ĠRichie":2306,"Ġexplo":2307,"entiu":2308,"Ġdormir":2309,"Ġcir":2310,"ĠCa":2311,"cÃ£o":2312,"Ġcr":2313,"Ġcul":2314,"Ġtentou":2315,"Ġagra":2316,"Ġdesse":2317,"dÃ¡":2318,"Ġliga":2319,"Ġessas":2320,"let":2321,"ena":2322,"ĠMike":2323,"Ġtirou":2324,"Ġvendo":2325,"OR":2326,"Se":2327,"Ġdesta":2328,"Ġneve":2329,"Ġcachorro":2330,"Ġcerca":2331,"Ġhouve":2332,"van":2333,"ĠPeter":2334,"ĠTenho":2335,"Ġmorrer":2336,"ĠJoe":2337,"Ġnosso":2338,"Ġbanco":2339,"ĠnÃºmero":2340,"Ġvir":2341,"Ġfantas":2342,"Ġassass":2343,"rados":2344,"Ġdebaixo":2345,"Ġcinz":2346,"veja":2347,"icas":2348,"Ġaltura":2349,"Ġentanto":2350,"Jack":2351,"ĠDon":2352,"rodo":2353,"ÃŃa":2354,"Ġterc":2355,"Ġtotal":2356,"Ġestu":2357,"Ġmol":2358,"Na":2359,"ÃŃcio":2360,"eiramente":2361,"Ġros":2362,"Ġmulheres":2363,"Ġestranha":2364,"Ġruim":2365,"00":2366,"Ġpercebeu":2367,"Ġsin":2368,"orris":2369,"lhou":2370,"Ġpisto":2371,"bol":2372,"Ġfui":2373,"ĠCharlie":2374,"ĠNem":2375,"Ġsegunda":2376,"Ġtive":2377,"Ġouvido":2378,"Ġdiver":2379,"ach":2380,"Ġtomar":2381,"Ġmetade":2382,"Ġadia":2383,"ĠGar":2384,"gal":2385,"esmo":2386,"ance":2387,"tasse":2388,"Ġado":2389,"Ġbre":2390,"ive":2391,"Ġsra":2392,"iais":2393,"Ġlim":2394,"ĠcafÃ©":2395,"dir":2396,"Ġsinal":2397,"Ġrepe":2398,"ĠquilÃ´metros":2399,"Ġtirar":2400,"ĠClay":2401,"ĠVer":2402,"var":2403,"Ġbranca":2404,"Ġestaria":2405,"Ġarras":2406,"Ġacontecer":2407,"ĠChe":2408,"grim":2409,"Ã¡rios":2410,"ĠLouis":2411,"Ġnorte":2412,"ÃŃt":2413,"nter":2414,"Ġlivros":2415,"Ġcigar":2416,"Ġcheio":2417,"Ġimedia":2418,"Ġfrio":2419,"Ġsorte":2420,"lio":2421,"Ġtentar":2422,"Ġburaco":2423,"Ġtransfor":2424,"Ġescola":2425,"ĠtÃ¡":2426,"ĠAlan":2427,"Ãī":2428,"ital":2429,"itas":2430,"Ġinclin":2431,"Ġcontinuou":2432,"Ġminhas":2433,"Ġinfer":2434,"Ãºb":2435,"Ġpensamento":2436,"ĠNada":2437,"Ġencos":2438,"bie":2439,"elha":2440,"Ġmurm":2441,"Ġgarga":2442,"ĠDei":2443,"usan":2444,"eno":2445,"Ġbanheiro":2446,"ĠdÃ³lares":2447,"wen":2448,"Ġpensei":2449,"fia":2450,"ĠfÃ¡":2451,"assem":2452,"Ġgarra":2453,"eric":2454,"dava":2455,"ĠQuer":2456,"mon":2457,"imentos":2458,"Ġbaixa":2459,"gh":2460,"Ġcompre":2461,"Ġgara":2462,"Ġ-":2463,"radas":2464,"ord":2465,"Ġprocura":2466,"Ġrespeito":2467,"grimas":2468,"ĠprÃ©":2469,"Ġescorre":2470,"Ġsit":2471,"Ġsurg":2472,"Ġfran":2473,"Ġsentindo":2474,"Ġclar":2475,"Ġgarganta":2476,"had":2477,"ĠAo":2478,"Ġperman":2479,"ensa":2480,"Um":2481,"Ġdaqui":2482,"pec":2483,"Ġgrito":2484,"Ġvindo":2485,"ĠEx":2486,"br":2487,"ĠJonesy":2488,"mal":2489,"Ġfilha":2490,"Ġmadeira":2491,"ĠserÃ¡":2492,"Ġpodem":2493,"Ġacabou":2494,"ĠVai":2495,"ĠFrodo":2496,"mor":2497,"Ġsombra":2498,"Ġcolocou":2499,"Ġcuidado":2500,"chu":2501,"Ġfuma":2502,"eiras":2503,"Ġdepres":2504,"ĠrelÃ³":2505,"Ġmist":2506,"ĠPre":2507,"Ġentrada":2508,"Ġnela":2509,"ex":2510,"Ġreun":2511,"ĠTam":2512,"olo":2513,"isÃ£o":2514,"Ġredor":2515,"ĠEsta":2516,"ique":2517,"ĠmÃ©d":2518,"Ġasso":2519,"Ġcanto":2520,"ume":2521,"Ã§ar":2522,"Ġsentido":2523,"Ġjoelhos":2524,"Ġsono":2525,"ĠfamÃŃlia":2526,"Ġriu":2527,"ÃŃr":2528,"irem":2529,"ĠSeus":2530,"ES":2531,"umo":2532,"Ġquiser":2533,"Ġpasso":2534,"ĠAlg":2535,"ĠÃ¡rvores":2536,"ele":2537,"Ġusar":2538,"ĠNova":2539,"anda":2540,"Ġtorno":2541,"urt":2542,"pÃ©":2543,"Ġconsigo":2544,"anas":2545,"Ġsitua":2546,"Ġprote":2547,"dre":2548,"til":2549,"icou":2550,"Ãĥ":2551,"riga":2552,"ĠrazÃ£o":2553,"como":2554,"ay":2555,"ĠDu":2556,"Ġassu":2557,"ĠHom":2558,"tido":2559,"Ġhouvesse":2560,"Ġhaver":2561,"Ġidio":2562,"ĠdistÃ¢ncia":2563,"Ġmaldi":2564,"Ġerrado":2565,"Ġoeste":2566,"Ġnerv":2567,"taram":2568,"eca":2569,"cial":2570,"Ġespecial":2571,"Ġdedo":2572,"Ġsegurando":2573,"nah":2574,"estÃ£o":2575,"Ġgol":2576,"Ġdeveria":2577,"Ġprop":2578,"Ġbei":2579,"mpan":2580,"Ġcerveja":2581,"osso":2582,"Ġaba":2583,"amÃ£e":2584,"Ġdito":2585,"anho":2586,"Ġconversa":2587,"ĠirmÃ£o":2588,"Ġperfei":2589,"gn":2590,"Ġdesen":2591,"ĠmÃ¡qu":2592,"timo":2593,"Ġsul":2594,"ÃŃp":2595,"Ġfundos":2596,"Ġmenor":2597,"Ġconsegue":2598,"ĠrelÃ³gio":2599,"Ġpret":2600,"Ġcint":2601,"lados":2602,"Ġmotivo":2603,"ers":2604,"ĠDavid":2605,"Ġmem":2606,"Ġop":2607,"ravam":2608,"Ġur":2609,"quilo":2610,"ĠpÃ¡l":2611,"umb":2612,"ĠlÃ¡grimas":2613,"esso":2614,"lhas":2615,"bert":2616,"ĠDerry":2617,"Ġating":2618,"rÃ£o":2619,"IN":2620,"inou":2621,"eceu":2622,"ĠSer":2623,"Ã³rias":2624,"Ġequ":2625,"Ġcompan":2626,"ĠParecia":2627,"Ġapos":2628,"fre":2629,"ĠapÃ³s":2630,"ĠMesmo":2631,"Ġcabelos":2632,"Ġdec":2633,"ouve":2634,"leta":2635,"leira":2636,"ĠHolly":2637,"ĠHal":2638,"Ġsozinho":2639,"ĠirmÃ£":2640,"Ġnot":2641,"dem":2642,"Ġajuda":2643,"entado":2644,"ĠpÃ´s":2645,"ose":2646,"ĠLa":2647,"Ġcheia":2648,"Ġpendura":2649,"ten":2650,"erior":2651,"Ġev":2652,"Ġanterior":2653,"Ġesses":2654,"Ġconside":2655,"usannah":2656,"Ġens":2657,"lante":2658,"AS":2659,"solu":2660,"Ġdeva":2661,"Ġdegra":2662,"amp":2663,"Ġchave":2664,"ĠKe":2665,"ĠCor":2666,"pada":2667,"Ġimporta":2668,"Ġcentro":2669,"VocÃª":2670,"Ġon":2671,"Ġpartic":2672,"pera":2673,"ĠJohnny":2674,"ĠescritÃ³rio":2675,"Ġcla":2676,"Ġhorror":2677,"gon":2678,"jou":2679,"ĠPa":2680,"ĠpedaÃ§o":2681,"ĠGardener":2682,"usÃ£o":2683,"han":2684,"Ġvara":2685,"Ġfilhos":2686,"Ġporra":2687,"Ġeng":2688,"idente":2689,"avam":2690,"Ġcre":2691,"Ġmatar":2692,"Ġsacu":2693,"Ġalc":2694,"Ġpress":2695,"ĠUn":2696,"Ġofer":2697,"ĠAtÃ©":2698,"Ġjogo":2699,"AD":2700,"entava":2701,"Ġcompletamente":2702,"ĠHÃ¡":2703,"Ġvista":2704,"anÃ§ando":2705,"Ġbic":2706,"ĠcomeÃ§aram":2707,"Ġconven":2708,"erta":2709,"ĠPelo":2710,"Ġcarne":2711,"Ġpassando":2712,"Ġexper":2713,"Ġprepara":2714,"ome":2715,"Ġcampo":2716,"Ġmorta":2717,"Ġdando":2718,"Ġcurios":2719,"ÃĥO":2720,"Ġval":2721,"dendo":2722,"Ġdesper":2723,"Ġabra":2724,"Ġficando":2725,"Ġdepressa":2726,"Ġandando":2727,"Ġfechou":2728,"Ġcruz":2729,"Ġgor":2730,"Ġaberta":2731,"esti":2732,"Ġgela":2733,"Ã©ia":2734,"ciente":2735,"Ġraiva":2736,"ismo":2737,"AN":2738,"Ġgeral":2739,"Ġarm":2740,"Ġesperar":2741,"Ġdef":2742,"Ġenvol":2743,"Ġiria":2744,"Ġdou":2745,"Ġsignifica":2746,"itado":2747,"Ġmarido":2748,"adas":2749,"ĠlÃŃn":2750,"ĠEssa":2751,"Ġacontecendo":2752,"Ġacompan":2753,"ĠMel":2754,"ĠBa":2755,"taÃ§Ã£o":2756,"Ġumas":2757,"ire":2758,"Ġbeira":2759,"QU":2760,"iss":2761,"Ġquerer":2762,"Ġcorrer":2763,"Em":2764,"ĠBu":2765,"Ġluzes":2766,"Ġcapa":2767,"Ġretor":2768,"Ġencontrou":2769,"Ġconstru":2770,"anÃ§ar":2771,"Ġauto":2772,"Ġpl":2773,"ĠCal":2774,"vin":2775,"osp":2776,"esto":2777,"Ġpreto":2778,"ise":2779,"iando":2780,"Ġesfor":2781,"Ġcarros":2782,"Ġchamar":2783,"Ġavi":2784,"Ġdep":2785,"Ġcob":2786,"Ġlentamente":2787,"ramente":2788,"Ġabrir":2789,"raria":2790,"Ġmorreu":2791,"ĠbalanÃ§ou":2792,"Ġaquelas":2793,"Ġ4":2794,"tanto":2795,"Ġsenho":2796,"Ġhor":2797,"Ġdeixando":2798,"ĠsituaÃ§Ã£o":2799,"Ġassunto":2800,"Ã¡stico":2801,"ĠTambÃ©m":2802,"Ġestamos":2803,"Ġmara":2804,"Ġinterro":2805,"ĠCont":2806,"Ġx":2807,"Ġbase":2808,"pou":2809,"Ġentender":2810,"vou":2811,"Ġido":2812,"ĠNunca":2813,"Ġdevagar":2814,"rinho":2815,"Ġoito":2816,"Ġcolo":2817,"ang":2818,"Ġreco":2819,"ĠAlÃ©m":2820,"Ġenfer":2821,"uros":2822,"inada":2823,"Ġgas":2824,"ĠRob":2825,"Ġgostava":2826,"ĠDen":2827,"Ġimportante":2828,"Ġnesse":2829,"izado":2830,"EM":2831,"erra":2832,"Ġabando":2833,"Ġmalu":2834,"ĠÃĢs":2835,"Ġcontinuava":2836,"Ġsete":2837,"endi":2838,"Ġacresc":2839,"tador":2840,"ĠPete":2841,"Ġexam":2842,"Ġparecer":2843,"iblio":2844,"Ġvem":2845,"Ġacei":2846,"Ġvelhos":2847,"Ġtrase":2848,"jando":2849,"Ġrapidamente":2850,"Ġreconhec":2851,"ĠbebÃª":2852,"ker":2853,"ĠvisÃ£o":2854,"Ġpuxou":2855,"ibliote":2856,"Ġfaria":2857,"Ġloja":2858,"Ġcel":2859,"Ġtemos":2860,"Ġapres":2861,"Ġportas":2862,"Ġcontou":2863,"iraÃ§Ã£o":2864,"Ġvig":2865,"ĠQuero":2866,"Ġtamanho":2867,"Ġtemp":2868,"Ġlados":2869,"Ġabsolu":2870,"ok":2871,"Ġtur":2872,"Ġcole":2873,"Ġsentou":2874,"ĠÃ¡rea":2875,"dÃ¡vel":2876,"Ġviv":2877,"Ġrepet":2878,"Ġjanelas":2879,"her":2880,"dores":2881,"rida":2882,"izar":2883,"ual":2884,"tle":2885,"Ġsai":2886,"Ġpausa":2887,"Ġajudar":2888,"Ġpais":2889,"cri":2890,"Ġgrupo":2891,"ites":2892,"Ġidade":2893,"ĠPen":2894,"ĠThad":2895,"Ġchuva":2896,"ĠfumaÃ§a":2897,"Ġdescon":2898,"gg":2899,"Ġsorrindo":2900,"Ġesperava":2901,"bia":2902,"Ġsatis":2903,"Ġgarotos":2904,"Ġestiver":2905,"Ġmontan":2906,"Ġbater":2907,"ĠNew":2908,"Ġmeses":2909,"ĠBrian":2910,"pero":2911,"Ġsurpresa":2912,"Uma":2913,"tem":2914,"Ġservi":2915,"mento":2916,"Ġenco":2917,"ĠGran":2918,"ĠlÃŃngua":2919,"ĠquestÃ£o":2920,"tie":2921,"ndos":2922,"Ġler":2923,"isco":2924,"Ġbola":2925,"Ġprate":2926,"Ġjuntos":2927,"Ġpega":2928,"Ġcresc":2929,"Ġvivo":2930,"Ġdro":2931,"Ġresol":2932,"Ġsop":2933,"Ġdim":2934,"Ġengra":2935,"Ġdiferente":2936,"Ġilum":2937,"Ġperguntar":2938,"tri":2939,"Ġtrou":2940,"ĠfÃ¡cil":2941,"tara":2942,"Ġficaram":2943,"Ġdaqueles":2944,"Ġqua":2945,"Ġocor":2946,"Ġfl":2947,"illy":2948,"pÃ£o":2949,"Ġacabar":2950,"ĠMuito":2951,"ĠGra":2952,"Ġgosto":2953,"Ġform":2954,"mÃ©":2955,"Ġqui":2956,"ornal":2957,"Ġafinal":2958,"Ġcelular":2959,"Era":2960,"Eles":2961,"Ġama":2962,"Ġusava":2963,"ĠidÃ©ia":2964,"ĠBobbi":2965,"Ġquais":2966,"Ġviagem":2967,"ĠSusannah":2968,"andy":2969,"Ġnessa":2970,"itÃ£o":2971,"Ġame":2972,"espe":2973,"Ġassist":2974,"Ġlonga":2975,"TO":2976,"Ġocu":2977,"ĠLÃ¡":2978,"Ġsubir":2979,"Ġgritando":2980,"ramos":2981,"ĠLobo":2982,"Ġbarulho":2983,"Ġcalor":2984,"Ġvazio":2985,"Ġcus":2986,"Ġprocu":2987,"Ġterror":2988,"Ġpoucos":2989,"ospital":2990,"Ġfossem":2991,"Ġescrever":2992,"Ġroupas":2993,"ĠLois":2994,"ivers":2995,"Ġbochec":2996,"ĠAm":2997,"Ġrecor":2998,"ĠhistÃ³rias":2999,"ĠcÃ¡":3000,"Ã©is":3001,"Ġcarta":3002,"Ġenter":3003,"Ġcontas":3004,"Ġjantar":3005,"Ġocas":3006,"ecer":3007,"Ġdissera":3008,"ĠpÃ¡s":3009,"Ġdesp":3010,"Ġexcla":3011,"Ġfrequ":3012,"Ġincl":3013,"ork":3014,"Ġsup":3015,"Ġdessas":3016,"Ġmensa":3017,"Ġgritar":3018,"lf":3019,"ĠWil":3020,"Ġparecendo":3021,"ĠrÃ¡dio":3022,"Ġimediatamente":3023,"ub":3024,"Ġcora":3025,"Ġleste":3026,"ĠespaÃ§o":3027,"ĠTim":3028,"ĠÃºltimos":3029,"Ġassentiu":3030,"Ġexplic":3031,"Ġanim":3032,"Ġmorre":3033,"Ġsilen":3034,"Ġesquerdo":3035,"Ġdescobrir":3036,"ĠhorrÃŃvel":3037,"Ġprincipal":3038,"Ġempre":3039,"Ġsombras":3040,"chas":3041,"Ġjornal":3042,"ĠimpressÃ£o":3043,"turas":3044,"ĠBow":3045,"ĠmÃ¡quina":3046,"dios":3047,"Ġcigarro":3048,"fi":3049,"Ġgem":3050,"Ġbarriga":3051,"Ġesteja":3052,"Ġsonhos":3053,"ĠDave":3054,"Ġmovimento":3055,"Ġbreve":3056,"istas":3057,"ĠSei":3058,"ĠMinha":3059,"ticamente":3060,"IS":3061,"ĠnÃ©":3062,"Ġcres":3063,"Ġteto":3064,"Ġsoltou":3065,"ĠprÃ³ximo":3066,"jam":3067,"ian":3068,"Ġcedo":3069,"Ġlembrava":3070,"dente":3071,"irando":3072,"stitu":3073,"ĠGa":3074,"Ġpassava":3075,"ece":3076,"Ġolhada":3077,"Ã¡veis":3078,"lhos":3079,"ĠTodos":3080,"ĠFred":3081,"ĠmÃºsica":3082,"TE":3083,"Ġsaindo":3084,"Al":3085,"Ãªncias":3086,"ĠTerra":3087,"inava":3088,"Ġpensamentos":3089,"issÃ£o":3090,"Ġenca":3091,"Ġficado":3092,"Ġbatendo":3093,"Ġinterior":3094,"Ġmanter":3095,"ĠAssim":3096,"ĠmÃ©dico":3097,"besse":3098,"Ġperguntas":3099,"rara":3100,"Ġobserva":3101,"ĠYork":3102,"Ġidiota":3103,"Ã§ando":3104,"Ġchefe":3105,"tinha":3106,"verno":3107,"Ġaman":3108,"Ġjogou":3109,"Ġcopo":3110,"ivera":3111,"ump":3112,"ĠCin":3113,"Ãºn":3114,"ĠcomeÃ§ando":3115,"ander":3116,"Ġcorreu":3117,"sado":3118,"Ġimagem":3119,"Ġplaca":3120,"ade":3121,"ĠmÃ¡x":3122,"ĠnegÃ³":3123,"Ġapertou":3124,"Ġrisa":3125,"ĠBom":3126,"Ġchorar":3127,"Ġquisesse":3128,"Ġdestru":3129,"ireman":3130,"ecido":3131,"itando":3132,"rus":3133,"Ġrir":3134,"ilidade":3135,"Ġdistante":3136,"Ġlago":3137,"ĠLem":3138,"Ġmortos":3139,"jei":3140,"Ġperna":3141,"Ġcart":3142,"Ġdegraus":3143,"ĠMary":3144,"bou":3145,"ĠOh":3146,"Ġdig":3147,"ensÃ£o":3148,"ĠcÃ©re":3149,"Ġcostuma":3150,"ĠBlaze":3151,"vado":3152,"ĠPois":3153,"Ġsenhora":3154,"bb":3155,"ali":3156,"Ġpat":3157,"mÃ¡":3158,"ĠMer":3159,"Ġperder":3160,"ĠGu":3161,"hia":3162,"Ġmotorista":3163,"ocidade":3164,"hes":3165,"ĠObri":3166,"Ġolhava":3167,"iblioteca":3168,"essie":3169,"Ġcontinuar":3170,"jos":3171,"ĠCol":3172,"ĠEsse":3173,"tural":3174,"Ġ5":3175,"lava":3176,"imas":3177,"ulas":3178,"Ġpassos":3179,"eias":3180,"ĠDor":3181,"Ġesper":3182,"ĠchapÃ©":3183,"Ġprofunda":3184,"Ġsegundos":3185,"Ã³l":3186,"ĠBro":3187,"eza":3188,"Ġmonte":3189,"visÃ£o":3190,"Ġdiminu":3191,"Ġcomida":3192,"Ġblo":3193,"Ġsurpre":3194,"raty":3195,"Ġind":3196,"Ġobri":3197,"Ġbolsa":3198,"ĠaviÃ£o":3199,"Ġgros":3200,"ciÃªncia":3201,"anos":3202,"ĠinÃŃcio":3203,"lex":3204,"Ã©rio":3205,"Ġmachu":3206,"Ã¢nico":3207,"ĠvÃ¡rias":3208,"ĠOnde":3209,"ĠSegu":3210,"Ġgarrafa":3211,"Ġmaravil":3212,"Ġador":3213,"hava":3214,"ĠVocÃªs":3215,"ler":3216,"ĠJam":3217,"Ġsegurou":3218,"Ġpessoal":3219,"llie":3220,"Ġhes":3221,"ĠpÃ¡g":3222,"RO":3223,"zes":3224,"Ġpermit":3225,"Ġachar":3226,"Ġligar":3227,"ĠSen":3228,"endendo":3229,"ĠcaminhÃ£o":3230,"Ġrio":3231,"ĠcÃ¢":3232,"Ġsap":3233,"Ġrealidade":3234,"Ġnegro":3235,"Ġjor":3236,"ĠAlice":3237,"Ġtrinta":3238,"bus":3239,"fica":3240,"ilar":3241,"ĠBra":3242,"Ãºrin":3243,"Agora":3244,"ĠcÃŃr":3245,"ĠAquele":3246,"ecei":3247,"Ġigu":3248,"bor":3249,"ĠMaine":3250,"Ġestacionamento":3251,"Ġmin":3252,"Ġfilme":3253,"ĠBea":3254,"ves":3255,"dd":3256,"Ġench":3257,"lint":3258,"Ġfloresta":3259,"ĠbÃª":3260,"Ġfiquei":3261,"Ġconcordou":3262,"gados":3263,"Ġvestido":3264,"Ġsex":3265,"ĠcÃ©rebro":3266,"Ġchegando":3267,"Ġouvindo":3268,"Ġgostaria":3269,"Ġbrilho":3270,"cel":3271,"Ġamo":3272,"Ġperdido":3273,"Ġaum":3274,"ĠAt":3275,"ife":3276,"ĠVi":3277,"Ġpros":3278,"Ġextrem":3279,"Ġmex":3280,"TA":3281,"ĠTV":3282,"Ġatra":3283,"Ġinteressa":3284,"rum":3285,"Ġtendo":3286,"ane":3287,"Ġgiga":3288,"Ġsemanas":3289,"ĠprÃ©dio":3290,"ĠGre":3291,"Ġpreocupa":3292,"Ġlateral":3293,"Ġexemp":3294,"Ġtempos":3295,"Ġqueim":3296,"Ġanima":3297,"ĠseguranÃ§a":3298,"En":3299,"verly":3300,"Ġpeso":3301,"Ġvermelha":3302,"Ġproblemas":3303,"Ġestivera":3304,"Ġbarra":3305,"ĠQual":3306,"damente":3307,"Ġanda":3308,"Ġtanta":3309,"ĠcaÃŃdo":3310,"dinha":3311,"Ġdisp":3312,"ĠpÃ´r":3313,"Ġtotalmente":3314,"fos":3315,"Ġficaria":3316,"Ġpodemos":3317,"ĠÃ³culos":3318,"Ġderru":3319,"Foi":3320,"Ġchega":3321,"ĠTerry":3322,"jado":3323,"rante":3324,"Ġperguntei":3325,"ĠAc":3326,"Ġpei":3327,"ĠarmÃ¡rio":3328,"ĠCam":3329,"Ġputa":3330,"Ġlevantar":3331,"cional":3332,"ĠTh":3333,"ON":3334,"ĠSra":3335,"ĠprÃ³xima":3336,"nÃ£o":3337,"Ġdiss":3338,"Ġpovo":3339,"Ã³sito":3340,"Ġfria":3341,"Ġseguir":3342,"Ġdado":3343,"ĠVic":3344,"Ġpistoleiro":3345,"ÃŃpio":3346,"Ġtocar":3347,"Ġore":3348,"Ġconsegui":3349,"Ġvelocidade":3350,"Ġlouco":3351,"Ġpartir":3352,"Ġident":3353,"ĠCha":3354,"Ġpodiam":3355,"Ġchamava":3356,"Ġcem":3357,"ĠcÃ£o":3358,"Ġgesto":3359,"ĠBarbie":3360,"ĠÃ¡rvore":3361,"Ġcontrole":3362,"tantes":3363,"icamente":3364,"gular":3365,"ĠMorris":3366,"uz":3367,"ĠMat":3368,"Ġsenti":3369,"Ġexclamou":3370,"Is":3371,"Ġmun":3372,"Ġhospital":3373,"iÃµes":3374,"Ġapre":3375,"Ġtivessem":3376,"cun":3377,"hil":3378,"Ġsussurrou":3379,"ĠRock":3380,"Ġimposs":3381,"Ġdeixado":3382,"Ġtempesta":3383,"Ġpossa":3384,"aso":3385,"ĠmÃ¡ximo":3386,"galha":3387,"Ġare":3388,"hada":3389,"Ġpequenos":3390,"Ġamp":3391,"quinho":3392,"ĠAbra":3393,"Ġsoube":3394,"ĠchapÃ©u":3395,"Ed":3396,"jas":3397,"Ġcaminha":3398,"ĠPrec":3399,"ĠfazÃª":3400,"Ġgritos":3401,"ĠserviÃ§o":3402,"ĠPosso":3403,"ĠcomeÃ§o":3404,"Ġinclinou":3405,"Ha":3406,"Ġvisita":3407,"Ġlivre":3408,"hÃ£o":3409,"ĠlÃ¢m":3410,"Ġrea":3411,"Ġapan":3412,"Ġexplos":3413,"ĠEnquanto":3414,"uda":3415,"tÃ¡vel":3416,"Ġpedras":3417,"Ġescrito":3418,"Ġdormindo":3419,"Ġflores":3420,"gÃ¡":3421,"ky":3422,"Ġpia":3423,"tinho":3424,"tores":3425,"tt":3426,"Ġ6":3427,"ĠSent":3428,"ĠNenh":3429,"ĠÃ´":3430,"Ġconse":3431,"Ġachei":3432,"ĠtÃªn":3433,"Ġparedes":3434,"Ġnove":3435,"cava":3436,"Ġlua":3437,"Ġirri":3438,"ff":3439,"ĠEntre":3440,"Ġsubiu":3441,"lando":3442,"Ġalu":3443,"Ġespal":3444,"Ġregist":3445,"Ġnatural":3446,"ĠesperanÃ§a":3447,"wn":3448,"Ġsecre":3449,"ĠPat":3450,"Ġtocou":3451,"Ġculpa":3452,"Ġvaranda":3453,"Ġlembro":3454,"Ġpreso":3455,"gante":3456,"Ġlanter":3457,"Ġtiro":3458,"ĠÃ´n":3459,"iquei":3460,"ĠAli":3461,"Ġacontecido":3462,"port":3463,"Ġsuor":3464,"Ġengan":3465,"Ġaproxima":3466,"sse":3467,"Ġsoubesse":3468,"ĠvÃ¡rios":3469,"andalf":3470,"Ġ7":3471,"Ġcomun":3472,"forme":3473,"Ġjus":3474,"ester":3475,"ĠÃģ":3476,"ĠcapitÃ£o":3477,"ĠplÃ¡stico":3478,"esus":3479,"Ġmurmurou":3480,"mado":3481,"Ġouvidos":3482,"ĠParece":3483,"entando":3484,"ĠNinguÃ©m":3485,"Ġpoderiam":3486,"Ġaleg":3487,"ental":3488,"Ġdescer":3489,"ity":3490,"ticos":3491,"Ġpapai":3492,"Ġapontou":3493,"Ġarrega":3494,"bara":3495,"ibus":3496,"Ġarrep":3497,"Ġeleva":3498,"Ġabaix":3499,"Ġtomou":3500,"ĠJe":3501,"Ġhotel":3502,"ĠNos":3503,"ipp":3504,"enha":3505,"Ġnuvens":3506,"Pe":3507,"Ġjul":3508,"Ã³g":3509,"Ġjogar":3510,"Ġcansa":3511,"pis":3512,"ĠBig":3513,"ĠVÃ¡":3514,"Ġchamou":3515,"Ġprocurando":3516,"Ġpoliciais":3517,"bos":3518,"leza":3519,"ÃŃculo":3520,"Ġans":3521,"cente":3522,"Ġbata":3523,"inze":3524,"Ġdesco":3525,"Ġantigo":3526,"Ġprinc":3527,"aunt":3528,"ĠSou":3529,"ĠStan":3530,"ĠJu":3531,"Ġlugares":3532,"Ġdesceu":3533,"Ġpertur":3534,"ĠSteve":3535,"Ġgrava":3536,"old":3537,"ĠHe":3538,"Ġameric":3539,"Ġobje":3540,"ĠSerÃ¡":3541,"ĠMan":3542,"ioso":3543,"ĠcentÃŃ":3544,"Ġsapatos":3545,"?âĢĶ":3546,"riam":3547,"Ġpesade":3548,"ĠpÃ´de":3549,"Ġlhes":3550,"ĠfaÃ§a":3551,"Ġacer":3552,"Ġserv":3553,"Ġlam":3554,"Ġconhecia":3555,"Ġprecisar":3556,"Depois":3557,"ĠSenhor":3558,"Ġinforma":3559,"velo":3560,"Ġcurva":3561,"Ġperfeitamente":3562,"ĠStre":3563,"ĠprisÃ£o":3564,"Ġassustado":3565,"quenta":3566,"Ġpensava":3567,"Ġquebra":3568,"Ġrei":3569,"Ġgrama":3570,"ĠES":3571,"Ġmaca":3572,"Ġfolhas":3573,"ĠCerto":3574,"ĠVol":3575,"Ġareia":3576,"ÃŃb":3577,"ĠRus":3578,"vendo":3579,"Ġmul":3580,"yn":3581,"Ġdescul":3582,"ĠRei":3583,"cida":3584,"ĠQuanto":3585,"Ġinteiro":3586,"cons":3587,"elig":3588,"Ġalmo":3589,"Ġfotos":3590,"Ġchance":3591,"DO":3592,"ĠNick":3593,"ĠCu":3594,"Ġrindo":3595,"Ġdesses":3596,"Ġparada":3597,"Ġazu":3598,"Ġfalava":3599,"fas":3600,"queles":3601,"Ġentende":3602,"deria":3603,"Ġvale":3604,"endido":3605,"Ġfizeram":3606,"Ġpena":3607,"Ġgaragem":3608,"ĠTra":3609,"Ġvazia":3610,"Ġadm":3611,"Ralph":3612,"camente":3613,"lÃ¡":3614,"mago":3615,"Ġescura":3616,"Ġtraz":3617,"tidÃ£o":3618,"ĠcÃ¢me":3619,"Ġconv":3620,"Ġligou":3621,"Havia":3622,"dados":3623,"ribu":3624,"ĠamanhÃ£":3625,"Ġalar":3626,"Ã§ada":3627,"ĠGaunt":3628,"Ġferro":3629,"Ã³p":3630,"deiras":3631,"Ġdura":3632,"ĠJun":3633,"Ġparticular":3634,"ĠaÃ§o":3635,"mag":3636,"iedade":3637,"Ġvozes":3638,"pete":3639,"mer":3640,"Ġdeixa":3641,"ĠMcC":3642,"Ġtrouxe":3643,"OM":3644,"Ġtoca":3645,"ĠPol":3646,"Ġmergu":3647,"ÃŃss":3648,"ĠprincÃŃpio":3649,"ee":3650,"ĠlÃŃ":3651,"ĠStar":3652,"metro":3653,"Ġenfiou":3654,"ĠRichards":3655,"Ġterceiro":3656,"ĠGandalf":3657,"uÃŃ":3658,"Ġdiria":3659,"Ġsegre":3660,"diÃ§Ã£o":3661,"ĠJesus":3662,"ĠÃ´nibus":3663,"Ġdob":3664,"ĠBur":3665,"Ġpasse":3666,"Ġinteiramente":3667,"Ġbusca":3668,"Ã³is":3669,"Ġtrabalhar":3670,"Ġantiga":3671,"Ġperceber":3672,"Ġflut":3673,"ĠimpossÃŃvel":3674,"cendo":3675,"Ġpica":3676,"Ġfres":3677,"Ġvirar":3678,"Ã©tr":3679,"ĠOut":3680,"Ġquerendo":3681,"Ġneste":3682,"Ġbil":3683,"Ġtela":3684,"Ġagarrou":3685,"entas":3686,"ĠSal":3687,"ĠpedaÃ§os":3688,"ÃŃvio":3689,"Ġtempestade":3690,"by":3691,"ĠestÃº":3692,"Ġpagar":3693,"ĠBeverly":3694,"feira":3695,"Ġtio":3696,"Ġinqu":3697,"ĠAng":3698,"Ġchamada":3699,"ĠsÃ©rio":3700,"ĠcomeÃ§ava":3701,"garam":3702,"ĠHu":3703,"cesso":3704,"Ġestrelas":3705,"achel":3706,"Ġlixo":3707,"lhes":3708,"uth":3709,"ional":3710,"ĠProvavelmente":3711,"Ġagrade":3712,"tras":3713,"Ġzumb":3714,"Ġdete":3715,"lento":3716,"Ġtorna":3717,"Ġremo":3718,"ĠFal":3719,"Ġlembra":3720,"ĠruÃŃdo":3721,"ĠOlhou":3722,"Ġdispara":3723,"Ġdific":3724,"estes":3725,"ĠaparÃªncia":3726,"ĠHow":3727,"ĠZ":3728,"Ġdiga":3729,"ĠÃ¢":3730,"Ġpronto":3731,"Ġdaquelas":3732,"idar":3733,"ĠBre":3734,"ĠEst":3735,"IA":3736,"Ġfix":3737,"ĠGarraty":3738,"Ġextra":3739,"Ġchegaram":3740,"rito":3741,"Ġenro":3742,"Ġflu":3743,"Ġcorrente":3744,"Ġquarenta":3745,"Ġje":3746,"Ġpaz":3747,"ĠMort":3748,"Ġfirme":3749,"Ġcomprar":3750,"ĠcalÃ§as":3751,"Ġabandon":3752,"Ġmaravilhos":3753,"ĠmÃªs":3754,"ivas":3755,"ĠHouve":3756,"Ġlevado":3757,"Ġacabado":3758,"Ġnormal":3759,"Ġfechada":3760,"Ġfigu":3761,"Ġcavalo":3762,"ĠportÃ£o":3763,"Ġpediu":3764,"Ġvie":3765,"Ġterm":3766,"ÃŃo":3767,"ĠalÃŃvio":3768,"Ġjard":3769,"ĠJessie":3770,"ĠÃ³timo":3771,"tadas":3772,"Ġmau":3773,"Ġproje":3774,"Ġfizera":3775,"Ġaberto":3776,"nd":3777,"Ġambos":3778,"Ġcump":3779,"ĠWal":3780,"Ġdr":3781,"rador":3782,"ĠEram":3783,"Ġadorm":3784,"cur":3785,"Ġlembrou":3786,"ĠCastle":3787,"ĠmaÃ§":3788,"Ġlata":3789,"dÃªncia":3790,"Ãģ":3791,"ocou":3792,"Ġencar":3793,"ĠsuperfÃŃ":3794,"Ġbrilhante":3795,"Ġjeans":3796,"Ġseco":3797,"Ġmatou":3798,"Ġcaindo":3799,"Ġprazer":3800,"greja":3801,"Ġouvia":3802,"ene":3803,"Ġtopo":3804,"Ġcinza":3805,"Ġterminar":3806,"Isso":3807,"far":3808,"ĠCur":3809,"itaÃ§Ã£o":3810,"ĠrespiraÃ§Ã£o":3811,"Ġminuto":3812,"Ġmostrar":3813,"Ġbl":3814,"Ġprofun":3815,"ĠmamÃ£e":3816,"Ġdireto":3817,"Ġacreditava":3818,"Ġprome":3819,"Ġresul":3820,"Ġchegado":3821,"Ġresponder":3822,"Ġcansado":3823,"Ġcri":3824,"ĠAch":3825,"Eddie":3826,"sou":3827,"Ġexceto":3828,"Ġprossegu":3829,"tono":3830,"bale":3831,"Ġpequenas":3832,"cal":3833,"ui":3834,"Ġsupor":3835,"Ġdespe":3836,"Ġfurios":3837,"Ġafastou":3838,"Ġamea":3839,"ric":3840,"ĠbalcÃ£o":3841,"Ġcolocar":3842,"Ġ9":3843,"ĠSi":3844,"java":3845,"Ġavis":3846,"Ġcinto":3847,"Jo":3848,"Ġinsist":3849,"Ã´mago":3850,"Ġataque":3851,"rom":3852,"andou":3853,"Ġseguiu":3854,"Ġcolina":3855,"Ġmensagem":3856,"ĠAquela":3857,"ĠAqui":3858,"iliar":3859,"lhando":3860,"Ġcinquenta":3861,"ĠcalÃ§ada":3862,"Ġterceira":3863,"Ġcaus":3864,"ĠTed":3865,"Ġacidente":3866,"ĠWill":3867,"Ġcaras":3868,"Ġapareceu":3869,"vie":3870,"endy":3871,"Ġcontor":3872,"ner":3873,"ĠsÃ¡":3874,"Ġindic":3875,"ĠtelevisÃ£o":3876,"Ġran":3877,"Ġdali":3878,"ĠbotÃ£o":3879,"Ġ15":3880,"Ġiam":3881,"Ġdomin":3882,"Ġpilha":3883,"Ġmencion":3884,"Ġrodo":3885,"Ãĩ":3886,"Ġterre":3887,"ntava":3888,"Ġcano":3889,"ĠAlgum":3890,"lico":3891,"ĠAb":3892,"ĠVal":3893,"tivos":3894,"Ġdeter":3895,"Ġquinze":3896,"Ġmarca":3897,"Ġchor":3898,"ĠestÃ´mago":3899,"Ġintelig":3900,"ĠAnder":3901,"Ġadiante":3902,"ĠesforÃ§o":3903,"Ġcomb":3904,"Ġprefer":3905,"Ġafir":3906,"ĠPedro":3907,"Ġdevem":3908,"Ġnossos":3909,"rup":3910,"Ġguerra":3911,"Ġsurpreso":3912,"ony":3913,"Ġsentada":3914,"Ġbrancos":3915,"gro":3916,"ĠdiferenÃ§a":3917,"ĠcentÃŃmetros":3918,"ĠMal":3919,"Ġdup":3920,"lac":3921,"enso":3922,"Ġmedida":3923,"didos":3924,"Ġpraia":3925,"Ġinteira":3926,"Ġfizesse":3927,"Ġgato":3928,"ĠTre":3929,"Ã´s":3930,"Ġmancha":3931,"Ġpedir":3932,"Ġpassagem":3933,"ĠSabe":3934,"Ġbara":3935,"Ã´m":3936,"Ġviram":3937,"Ġsubindo":3938,"ĠElas":3939,"Ġseguro":3940,"Ġmenina":3941,"idez":3942,"ĠObrigado":3943,"Ġcomum":3944,"onde":3945,"Ġconseguisse":3946,"ĠsÃ©rie":3947,"Ġmud":3948,"Ġcarrinho":3949,"igas":3950,"ĠTodd":3951,"bilidade":3952,"Ġtu":3953,"Ġtiver":3954,"ĠEi":3955,"Ġencolh":3956,"Ġmoe":3957,"Ġ8":3958,"Ġestra":3959,"Ġouro":3960,"ĠHomem":3961,"ĠFo":3962,"iqu":3963,"Ġdiscu":3964,"ington":3965,"Ġimportava":3966,"Ġacordo":3967,"ificar":3968,"iÃªncia":3969,"ĠmÃ¡g":3970,"bur":3971,"tio":3972,"Ġpresente":3973,"Ġimagin":3974,"Ġnoites":3975,"Ġfaca":3976,"ĠperÃŃo":3977,"Ġroupa":3978,"Ġespalha":3979,"low":3980,"ĠBer":3981,"Ġinic":3982,"ĠLiz":3983,"Ġestivessem":3984,"Ġconcent":3985,"ĠsuperfÃŃcie":3986,"Ric":3987,"Ġperten":3988,"inalmente":3989,"Ġrodas":3990,"Ġdesapareceu":3991,"Ġdesliz":3992,"ĠpÃ¡lido":3993,"Ġprofess":3994,"Ġprincipalmente":3995,"ĠmÃ¡s":3996,"semos":3997,"ĠAcha":3998,"ĠCarter":3999,"Ġmonst":4000,"igh":4001,"itamente":4002,"Ġmi":4003,"Ġfur":4004,"ĠDar":4005,"ranja":4006,"ĠRose":4007,"Ġobservando":4008,"ĠporÃ£o":4009,"Ġloucura":4010,"ĠGrande":4011,"ĠQU":4012,"Ġdevo":4013,"hamos":4014,"ntada":4015,"Ġinteresse":4016,"Ġposto":4017,"ĠDisse":4018,"Ġperdeu":4019,"Ġboas":4020,"Ġsente":4021,"uss":4022,"Ġdescan":4023,"Ãį":4024,"Ġmoc":4025,"Ġestendeu":4026,"Ã¢ne":4027,"Ġbur":4028,"Ġperig":4029,"Ġarmas":4030,"Ġbala":4031,"Ġof":4032,"Ġ20":4033,"ĠEmb":4034,"Ġrevel":4035,"Ġcorda":4036,"Ġcasas":4037,"Ġirre":4038,"olina":4039,"Ġmetal":4040,"Ġfechar":4041,"gno":4042,"Ġsequer":4043,"Ġpers":4044,"ĠLu":4045,"ĠposiÃ§Ã£o":4046,"rag":4047,"Ġfaziam":4048,"Ġviva":4049,"Ġcriatura":4050,"ĠRachel":4051,"Ġgargalha":4052,"ĠtÃªnis":4053,"Ġcuidados":4054,"fal":4055,"grama":4056,"Ġengol":4057,"asc":4058,"ĠSÃ£o":4059,"Ġapren":4060,"Ġrato":4061,"Ġpassaram":4062,"ĠregiÃ£o":4063,"ville":4064,"ĠligaÃ§Ã£o":4065,"RE":4066,"ĠpÃ¢nico":4067,"Ġverdadeiro":4068,"Ġrever":4069,"Ġcalma":4070,"Ġmontanhas":4071,"ĠBrad":4072,"Ġcarteira":4073,"AM":4074,"Ġmic":4075,"Ġfum":4076,"Ġvolante":4077,"ĠelÃ©tr":4078,"telo":4079,"Ġcrim":4080,"Ã³vel":4081,"ĠVe":4082,"ĠcÃŃrculo":4083,"Ġazuis":4084,"ĠPhil":4085,"Ġdizem":4086,"Ġconseguiria":4087,"Como":4088,"ÃŃcias":4089,"Ġmudar":4090,"Ġgram":4091,"Ġhab":4092,"ĠtrÃªm":4093,"ĠcomeÃ§ado":4094,"Ġimaginar":4095,"Ġdeslig":4096,"ĠStark":4097,"rÃªs":4098,"Ġtes":4099,"Ġvit":4100,"ÃŃda":4101,"Ġcambale":4102,"Ġdei":4103,"ĠestÃ¡vamos":4104,"imavera":4105,"zo":4106,"osos":4107,"Ġbate":4108,"Ġbeber":4109,"ĠDale":4110,"tch":4111,"tland":4112,"rais":4113,"leiros":4114,"Ġsemelha":4115,"Ġtampa":4116,"Ġlevava":4117,"Ġamarela":4118,"Ġxer":4119,"Ġedi":4120,"Ġcela":4121,"Ġviver":4122,"ĠAlguÃ©m":4123,"Ġinquie":4124,"Ġfita":4125,"Ã¡vamos":4126,"Ġdescar":4127,"tive":4128,"Ġsuger":4129,"ĠPens":4130,"goth":4131,"Ġencontro":4132,"dual":4133,"Ġchoque":4134,"Ġinverno":4135,"Ġdeixe":4136,"Ġdescobriu":4137,"ntem":4138,"Ġmandou":4139,"ple":4140,"Ġtelefon":4141,"ĠCasa":4142,"ĠmoÃ§a":4143,"ĠpÃ¡tio":4144,"Da":4145,"Ġimport":4146,"isebol":4147,"Ġanimal":4148,"gido":4149,"Ġjogado":4150,"Ġenormes":4151,"Ġapavo":4152,"Co":4153,"Ġ'":4154,"Ġbons":4155,"Ġinterromp":4156,"UL":4157,"ĠHol":4158,"inais":4159,"Ġimpress":4160,"ĠAlguns":4161,"ĠsaÃŃram":4162,"Ġfotogra":4163,"ĠJer":4164,"cular":4165,"ood":4166,"Ġtriste":4167,"Ġqueixo":4168,"Ġbos":4169,"Ġron":4170,"ings":4171,"Ġinferno":4172,"osas":4173,"Ġris":4174,"Ġfacil":4175,"Ġterminou":4176,"Ġlanterna":4177,"ĠpoÃ§o":4178,"Ġfalta":4179,"ĠsofÃ¡":4180,"ĠClint":4181,"Ġponte":4182,"hete":4183,"Ġfazem":4184,"Ġcertamente":4185,"ĠprÃ³prios":4186,"ergia":4187,"Ġgent":4188,"ĠLila":4189,"Ġnegra":4190,"ime":4191,"omos":4192,"Ġindi":4193,"Ġsobrev":4194,"tÃ³rios":4195,"Ġassomb":4196,"Po":4197,"ĠX":4198,"Ġcostumava":4199,"Ġdeixava":4200,"Ġchorando":4201,"Ġretorn":4202,"ĠcÃ¢mera":4203,"rindo":4204,"ĠEste":4205,"Ġvaga":4206,"Ġplane":4207,"ĠmÃŃn":4208,"Ġconversar":4209,"Ġmaluco":4210,"yer":4211,"Ġbeisebol":4212,"Ġul":4213,"ĠOi":4214,"itada":4215,"Ġsabem":4216,"Ġpraticamente":4217,"ĠWireman":4218,"Ġpretendia":4219,"Ġcouro":4220,"Ġexiste":4221,"Ġpude":4222,"ka":4223,"ĠPolly":4224,"unha":4225,"Ġdesma":4226,"Ġpontos":4227,"Ġcamis":4228,"nada":4229,"ĠHarry":4230,"ĠPu":4231,"Ġacredito":4232,"Ġdiferentes":4233,"ĠnegÃ³cio":4234,"Ġfut":4235,"ranÃ§as":4236,"Ġesquis":4237,"Ġproprie":4238,"Ġdificul":4239,"Ġfio":4240,"Ġsuave":4241,"Ġsabendo":4242,"ĠWendy":4243,"Ġempurrou":4244,"ĠBru":4245,"Ġincomo":4246,"Ġexib":4247,"Ġresta":4248,"Ġpuder":4249,"Ġencontrado":4250,"oston":4251,"ĠCoisa":4252,"ĠbÃªbado":4253,"To":4254,"ald":4255,"ril":4256,"Ġquerida":4257,"ĠIsto":4258,"Ġpossib":4259,"Ã³lver":4260,"Ġespelho":4261,"Ġcompu":4262,"Ġbebida":4263,"ĠpÃºb":4264,"Ġvom":4265,"ĠQuase":4266,"Ġbomb":4267,"Ġsubstitu":4268,"Ġdeta":4269,"Ġfasc":4270,"lhei":4271,"rgu":4272,"ilho":4273,"ĠAlguma":4274,"Ġviz":4275,"Ġsorri":4276,"final":4277,"tta":4278,"ÃŃm":4279,"queta":4280,"ĠnotÃŃcia":4281,"EL":4282,"lum":4283,"Ġsentar":4284,"ĠIr":4285,"Ġconhecido":4286,"reto":4287,"sem":4288,"eld":4289,"ney":4290,"Ġadvo":4291,"Ġpalma":4292,"ĠnotÃŃcias":4293,"AL":4294,"Ġsoc":4295,"laÃ§Ã£o":4296,"Ġbru":4297,"ĠBoston":4298,"cadas":4299,"cola":4300,"ĠgraÃ§a":4301,"ĠrevÃ³lver":4302,"sh":4303,"eios":4304,"Ġparecido":4305,"Ġtrilha":4306,"Ġarregalados":4307,"Ġesto":4308,"assou":4309,"Ġreflet":4310,"Ġquebrado":4311,"Ã£os":4312,"Ġlan":4313,"ecia":4314,"ĠRuth":4315,"Ġproduz":4316,"Ġamarelo":4317,"Ġesquecer":4318,"ĠrelaÃ§Ã£o":4319,"ĠimportÃ¢ncia":4320,"rimento":4321,"ĠPra":4322,"Ġcoloca":4323,"RI":4324,"bul":4325,"Ġligeiramente":4326,"ĠPensei":4327,"Ġsilenci":4328,"!\"":4329,"erg":4330,"ĠSeria":4331,"Ġvoando":4332,"Ġgosta":4333,"Ġfugir":4334,"Ġtraseiro":4335,"Ġdemo":4336,"Ġmercado":4337,"gueira":4338,"olos":4339,"izada":4340,"Ġmelhores":4341,"Ġreceber":4342,"tÃµes":4343,"Ġossos":4344,"Ġoutono":4345,"Ġdever":4346,"Ġ12":4347,"ĠPop":4348,"Ġala":4349,"are":4350,"Ġcabo":4351,"Ġigreja":4352,"Ġarro":4353,"Ġsar":4354,"legar":4355,"vada":4356,"ĠDia":4357,"Ġteriam":4358,"diam":4359,"Ġfila":4360,"Ġconclu":4361,"Ġprocurar":4362,"tina":4363,"Ġfios":4364,"Ġchamas":4365,"ĠdÃºzia":4366,"Ġapartamento":4367,"Ġcomecei":4368,"ĠAntes":4369,"Ġdespre":4370,"sava":4371,"Ġexter":4372,"vidas":4373,"Ġsurgiu":4374,"Ġfranz":4375,"Ġsess":4376,"osamente":4377,"lagg":4378,"ĠsaÃŃdo":4379,"Ġnecessidade":4380,"Ġgolpe":4381,"An":4382,"vern":4383,"endente":4384,"ĠperÃŃodo":4385,"nton":4386,"Ġletras":4387,"Ġdesagra":4388,"Ġaproximou":4389,"Ġescapar":4390,"Ġpunho":4391,"urtz":4392,"ĠsÃºb":4393,"leo":4394,"voa":4395,"Ġchegava":4396,"Ġdiabo":4397,"Ġfolha":4398,"Ġtel":4399,"ĠTÃºrin":4400,"Ġprimavera":4401,"Ġmandar":4402,"Ġordem":4403,"Ġassassina":4404,"ĠMill":4405,"ĠOl":4406,"ĠTa":4407,"izo":4408,"ĠDean":4409,"ĠRusty":4410,"ivel":4411,"Ġ11":4412,"Ġpulso":4413,"gum":4414,"Ġcontemp":4415,"Ġtoque":4416,"Ġpren":4417,"Ġquadro":4418,"Ġresist":4419,"Ġescuros":4420,"Ġfique":4421,"Ġsuperior":4422,"mando":4423,"Ġ.":4424,"ast":4425,"enos":4426,"guas":4427,"Ġlin":4428,"atura":4429,"Ġcomprim":4430,"Ġxerife":4431,"?\"":4432,"Ġsolu":4433,"zar":4434,"Ġsel":4435,"ĠDud":4436,"una":4437,"Ġing":4438,"ĠKen":4439,"Ġmistura":4440,".)":4441,"Dan":4442,"Ġaj":4443,"Ġofic":4444,"Ġcoto":4445,"Ġcartas":4446,"ĠÃºm":4447,"ĠPercy":4448,"cl":4449,"ird":4450,"Ġenxer":4451,"Ġimped":4452,"Ġprofundo":4453,"Ġplano":4454,"ĠprovÃ¡vel":4455,"CA":4456,"ges":4457,"Ġpan":4458,"ĠJul":4459,"Ġcuidar":4460,"Ġalegre":4461,"Ġbiblioteca":4462,"respon":4463,"Ġadmit":4464,"Ġautor":4465,"Ġsepara":4466,"Ġacaso":4467,"ĠincÃªn":4468,"hÃµes":4469,"Ġqueima":4470,"ÃŃst":4471,"ulto":4472,"ĠLau":4473,"Ġpub":4474,"bido":4475,"tir":4476,"Ġps":4477,"gaÃ§Ã£o":4478,"vemente":4479,"Ġopin":4480,"DA":4481,"hh":4482,"ntal":4483,"Ġvan":4484,"hados":4485,"Ġperde":4486,"Ġarco":4487,"orrer":4488,"Ġprimeiros":4489,"Ġencara":4490,"Ġdet":4491,"parou":4492,"ĠgalpÃ£o":4493,"ĠengraÃ§ado":4494,"Ġbochechas":4495,"Ġpiso":4496,"Ã£es":4497,"ĠfÃ©":4498,"rivelmente":4499,"ĠTe":4500,"Ġtremendo":4501,"Ġfamiliar":4502,"Ġpicape":4503,"teiro":4504,"Ġdemon":4505,"Ġpresa":4506,"Ġbaixinho":4507,"fÃŃcio":4508,"ÃĬ":4509,"Ġdem":4510,"Ġesfre":4511,"dam":4512,"entei":4513,"ĠSo":4514,"ĠVo":4515,"ĠcartÃ£o":4516,"Ġsegurava":4517,"Ġimpul":4518,"ĠagradÃ¡vel":4519,"Ġacrescentou":4520,"Ġexemplo":4521,"amo":4522,"Ġacontece":4523,"saros":4524,"Ġvas":4525,"Ã¡tico":4526,"ixa":4527,"Ġcoberto":4528,"Ã©rci":4529,"Ġevitar":4530,"Ġcoragem":4531,"Ġanimais":4532,"Ġproc":4533,"Ġprata":4534,"ĠsaÃŃda":4535,"Ġconvers":4536,"ĠDois":4537,"Ġcintura":4538,"ĠOwen":4539,"Ġdeste":4540,"Ġtomando":4541,"anÃ§ava":4542,"Ġdescendo":4543,"entu":4544,"Ġempres":4545,"Ġnota":4546,"Ġprova":4547,"Ġrecus":4548,"Ġsinist":4549,"Ġpesadelo":4550,"ĠStreet":4551,"Ġdoce":4552,"Ġcant":4553,"Ġconduz":4554,"ĠAnderson":4555,"icidade":4556,"Ġandou":4557,"ĠlembranÃ§a":4558,"Ġbrinque":4559,"Ġgasolina":4560,"SÃ³":4561,"bun":4562,"ws":4563,"Ġhe":4564,"lente":4565,"icha":4566,"Ã³i":4567,"Ġpenet":4568,"Ġ196":4569,"ĠMcG":4570,"ĠApenas":4571,"ĠmemÃ³ria":4572,"Ġnossas":4573,"Ġcasaco":4574,"Ġroman":4575,"Ġliber":4576,"tin":4577,"ennie":4578,"Ġsuf":4579,"Ġobservou":4580,"Ġclara":4581,"Ġdescober":4582,"Ġterreno":4583,"TI":4584,"ĠlanÃ§ou":4585,"ĠFicou":4586,"tern":4587,"Ġvoltando":4588,"Ġincr":4589,"Ġdevol":4590,"Ġpobre":4591,"Ġtorre":4592,"Ġuni":4593,"ivamente":4594,"lon":4595,"Ġatira":4596,"Ġinsta":4597,"Ġselva":4598,"Ġabre":4599,"ĠbalanÃ§ando":4600,"pro":4601,"Ġpec":4602,"Ġfro":4603,"ĠPrim":4604,"ĠRes":4605,"Ġvid":4606,"Ġcoberta":4607,"Ġenferm":4608,"Ġ...":4609,"Ġafastar":4610,"dindo":4611,"oria":4612,"ĠOr":4613,"ĠTony":4614,"ĠpeÃ§a":4615,"its":4616,"Ġtornar":4617,"Ġdescobri":4618,"ĠmÃ¡scara":4619,"Ġcamiseta":4620,"ĠtÃª":4621,"gadas":4622,"Ġhaveria":4623,"Ġsinto":4624,"ÃŃnhamos":4625,"ĠLee":4626,"Ġesquecido":4627,"ĠexplosÃ£o":4628,"Ġpri":4629,"Ġvar":4630,"Ġnomes":4631,"ĠTrÃªs":4632,"Ġpont":4633,"dits":4634,"Ġencontrava":4635,"Ġrapazes":4636,"ps":4637,"ĠJan":4638,"Ã´mo":4639,"Ġalegria":4640,"ĠViu":4641,"Ġrepent":4642,"Ġrespondi":4643,"art":4644,"Ġater":4645,"Ġigno":4646,"Ġlevando":4647,"Ġrostos":4648,"ĠSta":4649,"Ġcalc":4650,"Ġesquina":4651,"tivamente":4652,"ĠDick":4653,"Ġ10":4654,"ĠmultidÃ£o":4655,"pÃ§Ã£o":4656,"Ġcento":4657,"ision":4658,"Ġcoch":4659,"Ã§am":4660,"Ġcurto":4661,"ier":4662,"rb":4663,"Ġdelica":4664,"laram":4665,"Ġtapete":4666,"ĠconfusÃ£o":4667,"Ġabsolutamente":4668,"ientes":4669,"Ġpoeira":4670,"Ġcruza":4671,"Ġelfos":4672,"Ġfeita":4673,"ÃĢ":4674,"ĠdÃ©":4675,"Ġori":4676,"Billy":4677,"Le":4678,"Sim":4679,"Ġtest":4680,"ries":4681,"ĠCity":4682,"Ġalim":4683,"Ġenergia":4684,"Ġparque":4685,"Ġinfor":4686,"ativa":4687,"Ġmargem":4688,"Ġaparecer":4689,"Ġdeb":4690,"Ġofe":4691,"Ġbu":4692,"Ġreve":4693,"Ġlaranja":4694,"we":4695,"Ġdesespe":4696,"ragÃ£o":4697,"Ġvio":4698,"Ġrumo":4699,"Ġpolegar":4700,"Ġperf":4701,"Ġficara":4702,"Ġsons":4703,"Ġacordar":4704,"xas":4705,"Ġmato":4706,"Ġinde":4707,"ndeu":4708,"Ġesconder":4709,"ĠSho":4710,"adores":4711,"Ġmarcas":4712,"Ġrelu":4713,"ranha":4714,"hares":4715,"ĠDiz":4716,"ĠversÃ£o":4717,"Ġpesado":4718,"ĠpÃ¡ssaros":4719,"Ġigual":4720,"ĠAchei":4721,"ubro":4722,"Ġdeitado":4723,"ĠfÃº":4724,"entro":4725,"Ã¡gua":4726,"ĠSara":4727,"ivelmente":4728,"pan":4729,"Ġajo":4730,"dada":4731,"dela":4732,"Ġemit":4733,"ĠRadar":4734,"ĠSuas":4735,"gamente":4736,"tter":4737,"entada":4738,"Ã¡tica":4739,"Ġhip":4740,"Ġarqu":4741,"Ġduro":4742,"ĠSadie":4743,"Ġrepetiu":4744,"lph":4745,"vÃ´":4746,"Ġfale":4747,"ticas":4748,"Ġceleiro":4749,"Ġberrou":4750,"louqu":4751,"Ġemprego":4752,"Ġsand":4753,"Ġbro":4754,"Ġjoelho":4755,"Ġfilmes":4756,"Ġcontato":4757,"Ġgelo":4758,"Ġvapor":4759,"ĠNenhum":4760,"ĠÃ¢n":4761,"ĠfÃ´":4762,"reza":4763,"Ġseca":4764,"Ġserem":4765,"pee":4766,"Ġcaixas":4767,"vei":4768,"Ġcader":4769,"Ġmassa":4770,"Ġdesconhec":4771,"Ġterras":4772,"Ġcorte":4773,"Ġtivera":4774,"ĠRoger":4775,"Ġmaldito":4776,"ĠPaul":4777,"field":4778,"Ã¡rias":4779,"Ġdoente":4780,"Ġnotas":4781,"Ġgen":4782,"Ġpeguei":4783,"ath":4784,"Ġassum":4785,"Ġraio":4786,"Ġficavam":4787,"ĠLogo":4788,"Ġefeito":4789,"ĠPas":4790,"Ġsozinha":4791,"dez":4792,"Ġleit":4793,"ĠFlagg":4794,"Ġparecem":4795,"Ġface":4796,"Ġnuvem":4797,"Ġrecupe":4798,"Ġcircun":4799,"xou":4800,"ĠÃĵ":4801,"Ġdesaparecido":4802,"ĠlenÃ§":4803,"Ġquant":4804,"Ġimpression":4805,"ĠÃŃn":4806,"ĠconsciÃªncia":4807,"Ġbrinca":4808,"Enquanto":4809,"Ġjardim":4810,"ĠOra":4811,"beth":4812,"Ġtrail":4813,"Ġgarotas":4814,"ĠopiniÃ£o":4815,"vÃ£o":4816,"Ġdispos":4817,"Ġpreta":4818,"jada":4819,"Ġjovens":4820,"ĠfrequÃªncia":4821,"Ġexplicar":4822,"ĠpÃ¡gina":4823,"Do":4824,"Ġpain":4825,"ĠrÃ¡pida":4826,"pouco":4827,"Ġredo":4828,"Ġeletr":4829,"Ġher":4830,"Ġhobb":4831,"Ġpesada":4832,"Ġbarba":4833,"ĠPodia":4834,"ĠNatal":4835,"taque":4836,"ilhas":4837,"Ġcompanhia":4838,"?,":4839,"cidade":4840,"Ġtare":4841,"Ġbonita":4842,"ĠMorgan":4843,"Ġenferru":4844,"Ġocorreu":4845,"ussander":4846,"Est":4847,"int":4848,"tte":4849,"ĠAfinal":4850,"ecu":4851,"Ġestrem":4852,"ĠTorre":4853,"ĠFor":4854,"Ġintens":4855,"Ġrepres":4856,"chado":4857,"Ġsignificava":4858,"disse":4859,"Ġtru":4860,"Ġfesta":4861,"Ġbr":4862,"Ġdiziam":4863,"Ġpassara":4864,"Ġvelhas":4865,"ĠSempre":4866,"Ġsegredo":4867,"Ġcorpos":4868,"nete":4869,"Ġatravessar":4870,"ĠJean":4871,"ĠdÃª":4872,"Ġdom":4873,"cados":4874,"Ġresponde":4875,"Ġdesejo":4876,"Ġbicic":4877,"ĠCinza":4878,"ĠEmbora":4879,"OL":4880,"Ġontem":4881,"Ġdeserto":4882,"tific":4883,"portun":4884,"centes":4885,"Ġentra":4886,"Ġprograma":4887,"Ġbaixou":4888,"Ġorgu":4889,"Para":4890,"Ġsho":4891,"Ġvoltaram":4892,"Ġtrabalhando":4893,"ĠimaginaÃ§Ã£o":4894,"ĠAquilo":4895,"Ġentendeu":4896,"Ġabsur":4897,"Ġrepu":4898,"Ġacaba":4899,"Ġestranhos":4900,"Ġvermelhos":4901,"Ġenche":4902,"ÃŃtulo":4903,"Ġnervoso":4904,"ĠDuddits":4905,"ante":4906,"kins":4907,"Ġgira":4908,"Ġgera":4909,"Ġprato":4910,"inger":4911,"cobs":4912,"Ġdecidiu":4913,"Ġfirm":4914,"ĠJunior":4915,"fone":4916,"way":4917,"Ġdera":4918,"ocar":4919,"Ġaspec":4920,"Ġrosa":4921,"ĠTad":4922,"Ġsobran":4923,"Ġficam":4924,"ĠdeixÃ¡":4925,"ford":4926,"Ġbonito":4927,"Ġrisada":4928,"Ġflutu":4929,"Ġpista":4930,"eros":4931,"ĠSE":4932,"ĠDO":4933,"ĠDal":4934,"Ġenlouqu":4935,"ĠKurtz":4936,"key":4937,"IL":4938,"Ġmos":4939,"iava":4940,"ĠEllie":4941,"Ġcorria":4942,"Que":4943,"jante":4944,"ĠDonna":4945,"Ġinferior":4946,"ĠincÃªndio":4947,"Ġcoro":4948,"ĠSol":4949,"Ġmeninos":4950,"Ġaula":4951,"Ġaparentemente":4952,"ĠCharles":4953,"ĠdepÃ³sito":4954,"Ġdroga":4955,"Houve":4956,"gara":4957,"Ġpalha":4958,"Ġdesenho":4959,"Ġlegal":4960,"Ġpavor":4961,"Ġcareta":4962,"Ã¢ncias":4963,"Ġtrope":4964,"cam":4965,"Ġhon":4966,"Ġexaus":4967,"Ġade":4968,"Ġria":4969,"Ġinim":4970,"ĠFiquei":4971,"Ġficasse":4972,"Ġtomado":4973,"ĠremÃ©":4974,"uncia":4975,"Ġdesist":4976,"Ġpersegu":4977,"Ġcabine":4978,"ĠLeva":4979,"Ġganhar":4980,"Ġgigantes":4981,"wyer":4982,"Ġdolor":4983,"Ġnov":4984,"ĠAce":4985,"ĠSandy":4986,"noite":4987,"fant":4988,"ĠbonÃ©":4989,"Ġrecuou":4990,"Ġobrigado":4991,"Ġmonstro":4992,"esa":4993,"Ġcujo":4994,"Ġpoltro":4995,"Ġconhece":4996,"Ġequil":4997,"Ã©rcito":4998,"rÃµes":4999,"Ġbela":5000,"Ġaliv":5001,"Talvez":5002,"Ġenvelo":5003,"Ġsaia":5004,"entaÃ§Ã£o":5005,"Ġpassag":5006,"Ġpin":5007,"Ġoportun":5008,"Ġdoc":5009,"ÃŃdos":5010,"ĠThe":5011,"ĠBran":5012,"ĠWest":5013,"Ġsubitamente":5014,"caram":5015,"chos":5016,"ĠCome":5017,"Ġtido":5018,"emas":5019,"ons":5020,"Ġfacul":5021,"Ġator":5022,"Ġconfir":5023,"Ġborda":5024,"Ġgave":5025,"quil":5026,"Ġmec":5027,"Ġquie":5028,"Ġinvis":5029,"ĠJud":5030,"Ġverdadeira":5031,"Ġ195":5032,"Ġequip":5033,"ianÃ§a":5034,"Bill":5035,"fado":5036,"Ġconte":5037,"Ġsujo":5038,"Ġasas":5039,"izabeth":5040,"Ġdestino":5041,"ippin":5042,"Ġadvogado":5043,"bel":5044,"ĠMamÃ£e":5045,"lhar":5046,"Ġdescia":5047,"Ġfortes":5048,"daria":5049,"heÃ§o":5050,"itÃ¡rio":5051,"Ġescolh":5052,"lÃ³":5053,"mentos":5054,"pul":5055,"Ġdan":5056,"ĠsaÃŃa":5057,"Ġbilhete":5058,"EI":5059,"ĠTy":5060,"Ġmudou":5061,"itch":5062,"ĠGil":5063,"Ġmostrou":5064,"more":5065,"Mais":5066,"pido":5067,"Ġbotas":5068,"angor":5069,"Ġdificuldade":5070,"ĠdesagradÃ¡vel":5071,"Ġassassinato":5072,"Ġfechado":5073,"ĠOlha":5074,"Ġencer":5075,"udou":5076,"ÃŃnio":5077,"Ġmorrendo":5078,"Ġpiada":5079,"Ġsegurar":5080,"ĠEstavam":5081,"Ġfuturo":5082,"obre":5083,"Ġtij":5084,"Ġcuja":5085,"Ġsacudiu":5086,"Ġcena":5087,"ĠPrin":5088,"ĠsalÃ£o":5089,"Ġadoles":5090,"bird":5091,"Ġesma":5092,"Ġnotur":5093,"Ġdesvi":5094,"Ġprestes":5095,"Ġolhei":5096,"ĠlevÃ¡":5097,"ĠJimmy":5098,"ĠnecessÃ¡rio":5099,"Ġgarant":5100,"rÃ¡rio":5101,"uso":5102,"Ġgrav":5103,"ĠRennie":5104,"ĠEstamos":5105,"heira":5106,"Ġonda":5107,"Ġacal":5108,"apai":5109,"Ġsrta":5110,"[âĢĶ":5111,"mu":5112,"tig":5113,"ĠAlbert":5114,"Ġsolo":5115,"Ġpreocupado":5116,"Ã´nica":5117,"Ġgramado":5118,"Ġcomputador":5119,"Ġato":5120,"ditch":5121,"radores":5122,"Ġbrancas":5123,"Ġmicro":5124,"su":5125,"irÃ¡":5126,"ĠcontrÃ¡rio":5127,"Ġacredita":5128,"Ġescritor":5129,"Ġprateleira":5130,"ĠAlgumas":5131,"ĠmudanÃ§a":5132,"Ġmetro":5133,"ĠinÃº":5134,"Ġverdes":5135,"inados":5136,"ĠpresenÃ§a":5137,"ĠBowditch":5138,"ah":5139,"Ġbrilhantes":5140,"ĠexperiÃªncia":5141,"guÃ£o":5142,"ĠImag":5143,"iosa":5144,"Ġgrave":5145,"Ġacordou":5146,"Ġnesta":5147,"Ġlista":5148,"ÃŃna":5149,"dÃ¡ver":5150,"Ġprofundamente":5151,"Ġorelhas":5152,"icar":5153,"rid":5154,"Ġpontas":5155,"ĠEscu":5156,"Ġvejo":5157,"Ġfantasma":5158,"Ġprofessor":5159,"Ao":5160,"quelas":5161,"Ġnave":5162,"itÃ©rio":5163,"nais":5164,"Ġvermelhas":5165,"Ġsemelhante":5166,"Ġpossibilidade":5167,"Ãªme":5168,"ĠPA":5169,"ĠHan":5170,"Ġseriam":5171,"essem":5172,"ĠpreÃ§o":5173,"ĠTor":5174,"Ġchaves":5175,"Ġperguntando":5176,"Ġexplica":5177,"Ġfraco":5178,"Ġpistola":5179,"Ġzumbido":5180,"Ġtap":5181,"Ġmarcha":5182,"Ġafo":5183,"Ġquilos":5184,"Vries":5185,"ĠCara":5186,"Ġalun":5187,"ezer":5188,"ĠPear":5189,"Ġescure":5190,"Ġantigos":5191,"izaÃ§Ã£o":5192,"ĠSlo":5193,"ĠcadÃ¡ver":5194,"ĠsaguÃ£o":5195,"Ġbrincando":5196,"ordan":5197,"ragorn":5198,"igu":5199,"ste":5200,"Ãĵ":5201,"ore":5202,"Ġcomentou":5203,"Ġemb":5204,"andolph":5205,"Ġgirou":5206,"ÃŃg":5207,"Ġreduz":5208,"Ġabrindo":5209,"Ġtris":5210,"Ġmorrido":5211,"mun":5212,"Ġava":5213,"ĠHaven":5214,"Ġfrase":5215,"Ġhumano":5216,"ĠpressÃ£o":5217,"MA":5218,"tudo":5219,"ĠtÃŃnhamos":5220,"iados":5221,"Ġmuda":5222,"ĠSabia":5223,"Ġsuspirou":5224,"Ġtesou":5225,"irei":5226,"Ġmomentos":5227,"Ġdeviam":5228,"Ġhumor":5229,"ĠRober":5230,"Ġcenta":5231,"ĠTemos":5232,"ĠlÃ¡pis":5233,"Ġdeixara":5234,"Ġcriaturas":5235,"ĠFaz":5236,"Ġperigoso":5237,"anc":5238,"Ġemerg":5239,"gulo":5240,"tebol":5241,"ĠSh":5242,"Ġruas":5243,"Ġgostar":5244,"ĠSau":5245,"Ġmental":5246,"Ġexplodiu":5247,"Richard":5248,"Ġdaria":5249,"Ġbunda":5250,"Ġlum":5251,"ĠNet":5252,"Ġperigo":5253,"Ġacen":5254,"Ġsomente":5255,"Ġmis":5256,"Ġrefei":5257,"Ġassento":5258,"Ġcasamento":5259,"ĠWh":5260,"Ġestranhas":5261,"Ġnegros":5262,"Ġdirigir":5263,"Ġexperim":5264,"ĠsanduÃŃ":5265,"Ġbicicleta":5266,"Ġeco":5267,"quia":5268,"Ġjun":5269,"ĠVenha":5270,"Ġleite":5271,"Ġsabiam":5272,"Ġamiga":5273,"Ġconseguido":5274,"Ġdiretamente":5275,"Ġsang":5276,"ĠSawyer":5277,"Ġacordado":5278,"OC":5279,"ĠfÃ³s":5280,"Ġdono":5281,"Ġnovos":5282,"ĠgÃ¡s":5283,"Ġcheguei":5284,"Ġrabo":5285,"Ġpreocupar":5286,"Ġrevista":5287,"Ġtraseira":5288,"ĠGage":5289,"Ġresultado":5290,"Ġatirar":5291,"Ġrosn":5292,"Ġcrescente":5293,"dinho":5294,"Ġdeus":5295,"uais":5296,"Ġmanda":5297,"Ġondas":5298,"dges":5299,"rige":5300,"ecas":5301,"ciar":5302,"Ġbochecha":5303,"ĠnÃŃvel":5304,"Ġorig":5305,"Ġandava":5306,"ffe":5307,"saro":5308,"ĠJacobs":5309,"Ġelevador":5310,"ue":5311,"zentos":5312,"Ġden":5313,"arda":5314,"Ġgr":5315,"ĠCris":5316,"ĠPippin":5317,"icatri":5318,"Ġjogando":5319,"Ġcura":5320,"Ġora":5321,"inando":5322,"Ġmata":5323,"ĠNÃĥO":5324,"Ġenfre":5325,"ĠClau":5326,"Ġmentira":5327,"vaninha":5328,"ÃŃssimo":5329,"bada":5330,"rann":5331,"ĠGeral":5332,"icky":5333,"Ġtestem":5334,"gam":5335,"Ġgat":5336,"Ġacendeu":5337,"ĠFord":5338,"ĠespÃŃ":5339,"Ġart":5340,"ĠchÃ¡":5341,"Ġerrada":5342,"Ġgeladeira":5343,"ĠJulia":5344,"Henry":5345,"Ġadi":5346,"Ġfina":5347,"ĠBet":5348,"Ġsorrir":5349,"Ġpartida":5350,"ĠfÃŃs":5351,"lavam":5352,"Ġpouquinho":5353,"ĠintenÃ§Ã£o":5354,"Ġcrep":5355,"ÃŃcara":5356,"Ġacost":5357,"radamente":5358,"ĠTodo":5359,"Ġamericano":5360,"ĠfÃºria":5361,"Ġfaculdade":5362,"bec":5363,"Ġante":5364,"Ġocul":5365,"Ġfing":5366,"Ġcompor":5367,"pp":5368,"Ġconfor":5369,"Ġcorrespon":5370,"Ġescor":5371,"estre":5372,"Ġusou":5373,"vore":5374,"Ġfutebol":5375,"leiras":5376,"Ġinvest":5377,"bros":5378,"ondo":5379,"Ġrefer":5380,"ĠpaÃŃs":5381,"Ġlevanta":5382,"Ġbomba":5383,"Ġguard":5384,"ĠChris":5385,"buas":5386,"Ġcompleto":5387,"ĠAca":5388,"ĠDiga":5389,"ĠFez":5390,"Ġabertos":5391,"ĠMattie":5392,"aneta":5393,"Ġsuja":5394,"Ġjulho":5395,"ĠcabeÃ§as":5396,"ĠsenÃ£o":5397,"Ġconhecimento":5398,"Ġescrivaninha":5399,"Ġlargo":5400,"Ġconcreto":5401,"Ġescreveu":5402,"Ġsumiu":5403,"Ġgargalhada":5404,"ĠfÃ³sfor":5405,"brou":5406,"ider":5407,"pira":5408,"ĠAragorn":5409,"Ġpasta":5410,"Ġimpro":5411,"Ġbotar":5412,"partamento":5413,"Ġtocando":5414,"Ġaparelho":5415,"ĠBuick":5416,"ĠtÃ©":5417,"ama":5418,"ĠSon":5419,"Ġinex":5420,"ĠFe":5421,"Ġarbus":5422,"Ġobjeto":5423,"Ġvieram":5424,"pando":5425,"ĠpÃ³":5426,"Ġlinhas":5427,"Ġlendo":5428,"Ġviol":5429,"ĠestaÃ§Ã£o":5430,"Ġvoltado":5431,"rond":5432,"Ġinteligente":5433,"Ġdemonst":5434,"ale":5435,"ile":5436,"Ġmus":5437,"Ġvent":5438,"ĠCer":5439,"ĠMia":5440,"Ġcinema":5441,"ĠÃºltimas":5442,"ette":5443,"Ġinfeliz":5444,"Ġfome":5445,"ĠPou":5446,"ĠDussander":5447,"Ġcarona":5448,"Ġcaminhar":5449,"peedy":5450,"cs":5451,"Ġcicatri":5452,"ĠBangor":5453,"lorann":5454,"ĠEspero":5455,"Ġcomprido":5456,"ĠcomeÃ§ara":5457,"ĠBarbara":5458,"Ġchegasse":5459,"Ġatravessou":5460,"ĠtÃ¡buas":5461,"uck":5462,"Ġpne":5463,"Ġtentava":5464,"Ġvende":5465,"lec":5466,"Ġencontraram":5467,"Ġ198":5468,"Ġaga":5469,"ĠDA":5470,"Ġriso":5471,"itivo":5472,"Ġconsul":5473,"ĠpÃ¡ssaro":5474,"11":5475,"fin":5476,"ĠdaÃŃ":5477,"Ġge":5478,"Ġesticou":5479,"usive":5480,"doso":5481,"ater":5482,"Ġvoltei":5483,"padas":5484,"Ġsuspei":5485,"ĠmaÃ§aneta":5486,"Ġtrailer":5487,"ĠÃ¡s":5488,"ĠAÃŃ":5489,"Ġdesbo":5490,"ĠKing":5491,"Ġsubia":5492,"ĠRay":5493,"John":5494,"Ġoportunidade":5495,"Ġdoze":5496,"Ġestilo":5497,"Ġcantar":5498,"Ġenvi":5499,"Ġsentados":5500,"Ġcruel":5501,"ĠPare":5502,"Ġsessenta":5503,"Ġtristeza":5504,"Ġfamos":5505,"lego":5506,"ĠSil":5507,"ĠMun":5508,"ceram":5509,"ĠQueria":5510,"Ġinteress":5511,"Ġdefin":5512,"ĠWilliam":5513,"Ġuniforme":5514,"Bem":5515,"Ġrisco":5516,"Ġpegando":5517,"ĠLon":5518,"Ġcortar":5519,"Ġ18":5520,"Ġpossu":5521,"Ġhorizo":5522,"Ġimpedir":5523,"gamento":5524,"tim":5525,"rew":5526,"Ġdisc":5527,"ulos":5528,"ĠDeve":5529,"Ġvisse":5530,"Ġnuca":5531,"ĠocasiÃ£o":5532,"ĠEntretanto":5533,"Ou":5534,"sor":5535,"sha":5536,"doma":5537,"ĠAu":5538,"Ġatirou":5539,"Ġinst":5540,"Ġtron":5541,"Ġderram":5542,"ĠIng":5543,"Ġcircunst":5544,"ared":5545,"Ġpop":5546,"Ġentendia":5547,"Ġespero":5548,"Ġsobren":5549,"Ġbarco":5550,"Ġmaiores":5551,"Ġpercebi":5552,"Ġatingiu":5553,"Des":5554,"wer":5555,"Ġilha":5556,"quis":5557,"Ġneles":5558,"Ġlei":5559,"ĠEsper":5560,"Ġrit":5561,"atural":5562,"Mar":5563,"Ġram":5564,"Ġfri":5565,"ocado":5566,"ĠCou":5567,"Ġerro":5568,"ĠMorgoth":5569,"ĠKevin":5570,"Ġnatu":5571,"Ġaltos":5572,"gavam":5573,"Ġprom":5574,"Ġsegura":5575,"Ġchegada":5576,"ĠÃ¡l":5577,"Ġmarrom":5578,"ĠimÃ³vel":5579,"Ġpartiu":5580,"itude":5581,"Ġmaldita":5582,"pu":5583,"gui":5584,"Ġoutubro":5585,"Ġsomos":5586,"ĠSinto":5587,"Ġcuidadosamente":5588,"ĠfÃ´lego":5589,"Ġbrisa":5590,"HA":5591,"Ġdel":5592,"Ġger":5593,"Ġlama":5594,"Ġcheios":5595,"Ġbalas":5596,"Ġpedido":5597,"Ã´nia":5598,"Ġvinham":5599,"Ġbuscar":5600,"Ġbloco":5601,"Ġextremamente":5602,"ĠsÃ¡bado":5603,"El":5604,"viu":5605,"Ġevid":5606,"Ġdobra":5607,"Ġinse":5608,"sada":5609,"ĠHer":5610,"ĠEstados":5611,"Ġesteve":5612,"ĠTommy":5613,"ĠConsegu":5614,"ĠxÃŃcara":5615,"Ġinteressante":5616,"Ġajoel":5617,"Ġmater":5618,"Ġdigo":5619,"Ġinca":5620,"ĠRandolph":5621,"ates":5622,"Ġroda":5623,"Ġimpulso":5624,"!,":5625,"Roland":5626,"Ġpano":5627,"Ġqueda":5628,"ĠOver":5629,"Ġarris":5630,"ĠgraÃ§as":5631,"Ġretira":5632,"Ġsatisfeito":5633,"Ġtelhado":5634,"hila":5635,"tz":5636,"Ãªnt":5637,"Ġmad":5638,"ĠCOM":5639,"ĠDel":5640,"Ġrum":5641,"didas":5642,"Ġfazenda":5643,"ĠAnel":5644,"licado":5645,"Ġhumana":5646,"ĠDeixe":5647,"Ġpainel":5648,"Ġenvelope":5649,"Ġnatureza":5650,"Ġthe":5651,"ĠAd":5652,"Ã§ados":5653,"Ġacele":5654,"Ġquerem":5655,"Ġentregou":5656,"ĠPreciso":5657,"ies":5658,"Ġsist":5659,"Ġinva":5660,"Ġformas":5661,"Ġbeleza":5662,"ĠNettie":5663,"Don":5664,"veiro":5665,"icÃŃ":5666,"ĠfaÃ§o":5667,"uls":5668,"Ġespor":5669,"izou":5670,"ĠIl":5671,"Ġ197":5672,"ĠRedoma":5673,"Ġsobreviv":5674,"ĠincrÃŃvel":5675,"oter":5676,"tÃŃvel":5677,"xi":5678,"Ġ,":5679,"inbird":5680,"Ġcondado":5681,"rosa":5682,"ĠUnidos":5683,"Ġdesligou":5684,"Ġretra":5685,"ĠCra":5686,"ĠMy":5687,"Ġperm":5688,"Ġseguindo":5689,"Ġmelho":5690,"bados":5691,"Ġunivers":5692,"Ġestranhamente":5693,"cÃ¡":5694,"iras":5695,"mÃ£":5696,"ror":5697,"Ġinfant":5698,"ĠHum":5699,"Ġpoucas":5700,"Ġguin":5701,"Ġaproximando":5702,"ĠdecisÃ£o":5703,"ĠalmoÃ§o":5704,"ĠHowie":5705,"ĠdemÃ´n":5706,"fada":5707,"vando":5708,"Ġvinho":5709,"Ġbando":5710,"ĠEv":5711,"ĠterÃ¡":5712,"ĠHill":5713,"rugada":5714,"Ġquintal":5715,"ĠpÃ¡ginas":5716,"ĠDurante":5717,"unh":5718,"Ġacesso":5719,"ĠFar":5720,"Ġprodu":5721,"Ã¢nt":5722,"Ġbatia":5723,"Ġpatas":5724,"fio":5725,"ĠPapai":5726,"Ġenvia":5727,"Ġlad":5728,"ĠNaquele":5729,"Ġestup":5730,"Ġcuriosidade":5731,"lis":5732,"Ġesgo":5733,"Ġemo":5734,"ĠTess":5735,"Ġpartes":5736,"Ġentrando":5737,"Ġforn":5738,"licou":5739,"Ġorgan":5740,"ĠDescul":5741,"ĠSentia":5742,"ĠEstrada":5743,"gor":5744,"Ġequi":5745,"Ġsoou":5746,"ĠJamie":5747,"ĠdragÃ£o":5748,"Ã§ava":5749,"ĠFora":5750,"cera":5751,"Ġbolas":5752,"Ġmonstru":5753,"Ġcigarros":5754,"ĠpÃºblico":5755,"mÃ£o":5756,"ritÃ³rios":5757,"Ġtrabalha":5758,"ĠrecÃ©m":5759,"Ġcaval":5760,"ĠPrimeiro":5761,"DE":5762,"ladas":5763,"vaÃ§Ã£o":5764,"Ġolharam":5765,"Ãºsculo":5766,"Ġpoltrona":5767,"lÃ©":5768,"ĠpÃ£o":5769,"ĠvÃŃ":5770,"Ġsug":5771,"idado":5772,"Ġperfeito":5773,"Ġpensado":5774,"Ġcolinas":5775,"idÃ£o":5776,"ĠexceÃ§Ã£o":5777,"ĠBrutal":5778,"bras":5779,"fico":5780,"xu":5781,"ntaram":5782,"Ġtec":5783,"espero":5784,"Ġbob":5785,"Ã³veis":5786,"Ġpercor":5787,"dasse":5788,"ĠFui":5789,"ĠFinalmente":5790,"Ġexecu":5791,"Ġlevantando":5792,"Ġah":5793,"Ġestri":5794,"dito":5795,"ĠPorÃ©m":5796,"ĠreuniÃ£o":5797,"Ġquantidade":5798,"resse":5799,"ĠSha":5800,"ĠBol":5801,"Ã¢ncer":5802,"Ġespecialmente":5803,"ĠHelen":5804,"Ġmochila":5805,"Ġgentil":5806,"ĠmÃŃnimo":5807,"Ġderam":5808,"ĠGos":5809,"verna":5810,"ĠDevore":5811,"ĠPoderia":5812,"Ġbeijo":5813,"Ġrecome":5814,"Ġesperou":5815,"gente":5816,"Ġdisseram":5817,"Ġleu":5818,"vert":5819,"mba":5820,"Ġsabemos":5821,"Ġpudessem":5822,"ĠveÃŃculo":5823,"Ġfraca":5824,"Ġderre":5825,"Ġcintila":5826,"ĠautomÃ¡":5827,"Ġgigante":5828,"ĠSloat":5829,"Ah":5830,"ĠcÃ´mo":5831,"Ġset":5832,"queÃ§a":5833,"Ġapla":5834,"Ġmole":5835,"Ġcertas":5836,"Ġinclu":5837,"Ġagon":5838,"Ġesqueceu":5839,"Ġcro":5840,"Ġcomendo":5841,"Ġcadeiras":5842,"ĠDeu":5843,"Ġaro":5844,"Ġprimeiras":5845,"Ġrefle":5846,"Ġsuspiro":5847,"Ġsexta":5848,"ĠpreocupaÃ§Ã£o":5849,"gle":5850,"Ġobe":5851,"Ġbisco":5852,"ĠRed":5853,"Ġleg":5854,"gacia":5855,"Ġqueriam":5856,"Ġtrazer":5857,"Ġsoldados":5858,"Ġusado":5859,"Ġpercebe":5860,"ĠsÃ©culo":5861,"ĠMcVries":5862,"Ġburacos":5863,"Ġpendurada":5864,"Ġjornais":5865,"Ġorelha":5866,"ĠÃŃ":5867,"ince":5868,"Ġsoltar":5869,"Ġbolo":5870,"Ġagente":5871,"ĠcaÃŃram":5872,"Ġretru":5873,"Ã©rica":5874,"ffey":5875,"Sa":5876,"deiro":5877,"Ġmatado":5878,"ĠCada":5879,"ĠDou":5880,"une":5881,"ĠRos":5882,"Ġinvesti":5883,"Ġdissesse":5884,"ls":5885,"Ġcantos":5886,"Ġencontra":5887,"Ġpuxar":5888,"Ġdivert":5889,"ĠQUE":5890,"10":5891,"bando":5892,"Ġmexer":5893,"Ġdesf":5894,"Ġentraram":5895,"Ġiso":5896,"Ġrestava":5897,"Ġmoto":5898,"Ġmover":5899,"chou":5900,"Ġgritava":5901,"gonha":5902,"Tom":5903,"caria":5904,"use":5905,"ash":5906,"ĠmatÃ¡":5907,"Ġdiv":5908,"ĠinfÃ¢ncia":5909,"ĠnÃ©voa":5910,"ĠTar":5911,"ĠforÃ§as":5912,"Ġcego":5913,"Ġchegara":5914,"ĠlenÃ§o":5915,"celhas":5916,"Ġextremidade":5917,"Ġaus":5918,"Ġcoz":5919,"ranhas":5920,"ĠrÃ©":5921,"Ġpassei":5922,"Ġpaco":5923,"Ġencontrei":5924,"ĠAtrÃ¡s":5925,"itÃ¡ria":5926,"viam":5927,"ĠÃłquela":5928,"Ġcompara":5929,"Ġcompras":5930,"terra":5931,"Ġlivrar":5932,"Ġguardar":5933,"Ġrecebeu":5934,"Ġdaquilo":5935,"Ġsumido":5936,"IC":5937,"Ġnovas":5938,"eci":5939,"ĠOlhe":5940,"Ġtirando":5941,"Ġacontecia":5942,"Ġ16":5943,"Ġescuras":5944,"ificado":5945,"Assim":5946,"Ġcrista":5947,"Ġaluc":5948,"Ġsobrancelhas":5949,"gol":5950,"rinha":5951,"Ġcadeia":5952,"omi":5953,"Ġterno":5954,"ĠJordan":5955,"Ġpendurado":5956,"Ap":5957,"iri":5958,"Ġpura":5959,"Ġtoss":5960,"aran":5961,"Ġbelo":5962,"Ġlas":5963,"ĠMai":5964,"ĠMerry":5965,"Ġconso":5966,"Ġarti":5967,"look":5968,"Ġpau":5969,"Ġlongos":5970,"Ġpint":5971,"Ġclaramente":5972,"ĠContudo":5973,"Ġamava":5974,"Ġdetetive":5975,"Ġtiros":5976,"Ġsentimento":5977,"Ġseguido":5978,"Ġtiras":5979,"Ġvirado":5980,"Ġfigura":5981,"UN":5982,"Ġnamo":5983,"Ġcores":5984,"inco":5985,"ÃŃl":5986,"Ġconce":5987,"Ġconge":5988,"diÃ§Ãµes":5989,"Ġespada":5990,"Ġgarotinha":5991,"Ġcolocado":5992,"ĠCondado":5993,"Ġfuncionar":5994,"Ġproteg":5995,"ĠÃĵtimo":5996,"lÃªs":5997,"Ġconto":5998,"Ã£s":5999,"rens":6000,"Ġdistra":6001,"ĠBel":6002,"Ġfaixa":6003,"Ġantigas":6004,"Ġbolsos":6005,"Ġtenham":6006,"ĠPergu":6007,"Ġfechados":6008,"Ġcavalos":6009,"Ġlimpar":6010,"ĠBeaver":6011,"Ġconselho":6012,"Ġfel":6013,"ĠlanÃ§":6014,"ĠCidade":6015,"Ġlenta":6016,"Ġarrum":6017,"Ġpad":6018,"Ġratos":6019,"Ġlongas":6020,"utch":6021,"ĠCoffey":6022,"ĠBobby":6023,"Ġassassino":6024,"Lo":6025,"malmente":6026,"ntemente":6027,"ĠvÃŃt":6028,"eitos":6029,"Ġemba":6030,"Ġexig":6031,"Ġcere":6032,"Ġbanho":6033,"ĠHugh":6034,"Ġgaveta":6035,"ĠOverlook":6036,"30":6037,"dÃŃ":6038,"wood":6039,"nteira":6040,"ĠgÃªme":6041,"Ġreserva":6042,"Ġconhecer":6043,"Ġescolha":6044,"Ġboneca":6045,"volta":6046,"ĠcrÃ¢n":6047,"Ġbatalha":6048,"Ġdocum":6049,"Tudo":6050,"gento":6051,"Ġvesti":6052,"Ġnotou":6053,"ĠmetÃ¡":6054,"Ġexci":6055,"itais":6056,"Ġdescre":6057,"Ġfrag":6058,"Ġjaqueta":6059,"Ġpel":6060,"Ġtig":6061,"Ġtais":6062,"Ġresmun":6063,"Ġraios":6064,"Ġvirando":6065,"Ġenfiar":6066,"Ġdrogas":6067,"ĠAcredi":6068,"consciente":6069,"ĠPrincip":6070,"pes":6071,"well":6072,"ĠdanÃ§a":6073,"ĠSun":6074,"aiu":6075,"ĠHamp":6076,"Ġcontando":6077,"Ġinte":6078,"Ġmanchas":6079,"Ġsaltou":6080,"Ġpulou":6081,"Ġaproximar":6082,"Ġtiveram":6083,"ĠFreddy":6084,"ĠcircunstÃ¢ncias":6085,"ĠMicha":6086,"ĠFique":6087,"ĠLinda":6088,"Ġcampos":6089,"Ġdelegacia":6090,"cula":6091,"Ġouvira":6092,"eropor":6093,"Ġlouca":6094,"Ġmontanha":6095,"Ġbloque":6096,"ĠCristo":6097,"Ġseios":6098,"letÃ³":6099,"dades":6100,"ĠSul":6101,"Ġreme":6102,"rans":6103,"ĠpeÃ§as":6104,"Ġespre":6105,"Ġapontando":6106,"Ġveja":6107,"ĠPark":6108,"essas":6109,"Ġgrita":6110,"Ġbrilhando":6111,"Ã©ssemos":6112,"ĠCarol":6113,"Ġaspecto":6114,"sen":6115,"ĠAmb":6116,"ĠSpeedy":6117,"Ġextre":6118,"Ġign":6119,"tidos":6120,"ĠAlgo":6121,"Ġpalmas":6122,"Ġdirigindo":6123,"ĠBrown":6124,"Ġfurioso":6125,"ĠKenne":6126,"Ġtum":6127,"Ġvoltasse":6128,"Ġimagens":6129,"Ġmostrando":6130,"ĠmÃ©dio":6131,"Ġescondido":6132,"ceiro":6133,"hasse":6134,"ind":6135,"sona":6136,"ĠGor":6137,"ĠprÃ³prias":6138,"Ġbatida":6139,"ĠSteph":6140,"Ġborra":6141,"ĠinformaÃ§Ãµes":6142,"wick":6143,"Ġgl":6144,"Ġcantando":6145,"Ġentendo":6146,"Ġprision":6147,"Ġrespirar":6148,"Ġmostrava":6149,"Ġarbustos":6150,"Ġpneus":6151,"gil":6152,"ko":6153,"Ġtan":6154,"Ġmala":6155,"Ġexer":6156,"Ġtex":6157,"Ġacontecera":6158,"posta":6159,"Ġtantos":6160,"Ġabertura":6161,"Ġdesaparecer":6162,"ĠApesar":6163,"Ġgeralmente":6164,"Ġinclusive":6165,"Ġpropriedade":6166,"heiros":6167,"Ġdecla":6168,"inn":6169,"anÃ§o":6170,"lay":6171,"Ġreino":6172,"Ġconvida":6173,"ĠLester":6174,"ĠpaletÃ³":6175,"ĠHallorann":6176,"alho":6177,"albert":6178,"ĠBiblioteca":6179,"Ġanivers":6180,"meu":6181,"dere":6182,"ĠWard":6183,"Ġtinta":6184,"cker":6185,"Ġconcl":6186,"Ġfantasmas":6187,"Ġtornoz":6188,"Ġfoc":6189,"Ġalma":6190,"Ġmortal":6191,"ĠBarry":6192,"Ġdetalhes":6193,"Ġacon":6194,"Ġovos":6195,"Ġenso":6196,"cidos":6197,"Ġmorava":6198,"Ġquerido":6199,"Ġtate":6200,"cador":6201,"ĠEllen":6202,"ĠfÃ©rias":6203,"Ġtarefa":6204,"Gard":6205,"Meu":6206,"born":6207,"Ġtenta":6208,"Ġvin":6209,"icip":6210,"ĠPres":6211,"Ġatro":6212,"tadores":6213,"ĠBeezer":6214,"ĠTomÃ¡s":6215,"ĠHodges":6216,"ADO":6217,"icipal":6218,"Ġfin":6219,"Ġrevis":6220,"diram":6221,"Ġraste":6222,"Ġgordo":6223,"Ġocupa":6224,"Ġbrincadeira":6225,"rick":6226,"Ġsede":6227,"ĠNesse":6228,"Ġmeninas":6229,"ĠajudÃ¡":6230,"ĠGraÃ§as":6231,"Ġmexeu":6232,"Ġmoedas":6233,"Ġcentavos":6234,"Ainda":6235,"US":6236,"rap":6237,"Ġtime":6238,"Ġfitou":6239,"ĠNorris":6240,"ĠPela":6241,"ĠMA":6242,"Ġconju":6243,"Ġine":6244,"ĠhÃ¡b":6245,"Ġadul":6246,"Ġtransforma":6247,"Ġcurta":6248,"Ġorden":6249,"ĠEncont":6250,"Ġsacola":6251,"Ġdomingo":6252,"Ġhobbits":6253,"unt":6254,"ĠtÃºn":6255,"Ġacamp":6256,"ĠGold":6257,"Ġpretos":6258,"Ġinsti":6259,"ionado":6260,"Ġagosto":6261,"ĠNegra":6262,"Estava":6263,".]":6264,"15":6265,"Dei":6266,"Per":6267,"Ġben":6268,"ĠCava":6269,"ĠFica":6270,"Ãªnio":6271,"Ġ17":6272,"ĠTodas":6273,"Ġplata":6274,"ĠfurgÃ£o":6275,"ĠespÃŃrito":6276,"red":6277,"ĠSentiu":6278,"ramento":6279,"ĠÃ¡guas":6280,"Ġcurvou":6281,"ĠBuck":6282,"Ġamonto":6283,"Ġpeixe":6284,"Ġmaravilhoso":6285,"Ġencolheu":6286,"Ġfenda":6287,"ĠEM":6288,"quete":6289,"ĠBal":6290,"urar":6291,"resso":6292,"Ġmode":6293,"Ġcasos":6294,"Ġtampouco":6295,"Ġraramente":6296,"Ġtranspor":6297,"ĠBoa":6298,"Ġdecidir":6299,"Ġcusp":6300,"ning":6301,"Ġpom":6302,"ili":6303,"ĠPr":6304,"Ġpron":6305,"Ġvolume":6306,"ingol":6307,"Ġconsider":6308,"Ġcentral":6309,"Ġvalor":6310,"Ġnaturalmente":6311,"lida":6312,"Ġw":6313,"Ġpilhas":6314,"Ġlinda":6315,"Ġcauda":6316,"ĠCre":6317,"ĠpegÃ¡":6318,"Ġentendi":6319,"ĠÃ³b":6320,"ĠÃ³dio":6321,"ĠlÃ¡bio":6322,"Ġquebrar":6323,"ĠcrÃ¢nio":6324,"emor":6325,"Ġgirando":6326,"Ġreto":6327,"Ġrestos":6328,"inhar":6329,"ĠnÃºmeros":6330,"Ġabsoluta":6331,"ULO":6332,"eroporto":6333,"aa":6334,"bas":6335,"ĠcÃ£es":6336,"queiro":6337,"laterra":6338,"eman":6339,"Ġfaces":6340,"Ġide":6341,"Ġarque":6342,"Ġligado":6343,"Ã¢mara":6344,"Ġcontrolar":6345,"ÃŃaco":6346,"Ġencosta":6347,"Ġrodovia":6348,"ĠSt":6349,"Ġestro":6350,"Ġsupon":6351,"ĠJared":6352,"ĠFiz":6353,"cialmente":6354,"Ġdupla":6355,"Ġadiv":6356,"bs":6357,"letas":6358,"ĠCent":6359,"Ġcorrida":6360,"ĠfarÃ³is":6361,"Ġsofre":6362,"Ġgole":6363,"Ġcreio":6364,"Ġmadrugada":6365,"rinhos":6366,"ĠcÃ¢ncer":6367,"Ġchamam":6368,"Ġgarras":6369,"Ġquebrou":6370,"Ġlenha":6371,"Ġcrime":6372,"Ġjunho":6373,"ĠInglaterra":6374,"Ġmaterial":6375,"Ġequipe":6376,"II":6377,"ube":6378,"Ġcola":6379,"Ġbrus":6380,"Ġsust":6381,"ĠQua":6382,"ĠMarsha":6383,"ĠpapÃ©is":6384,"Ġerguer":6385,"Ġmovendo":6386,"ĠtÃªmpo":6387,"ĠnegÃ³cios":6388,"Ġaproximava":6389,"ĠPearson":6390,"ĠSan":6391,"Ġarte":6392,"Ġpergunt":6393,"duras":6394,"Ġsalto":6395,"Ġnervos":6396,"ĠabraÃ§ou":6397,"Ġfacilidade":6398,"ijo":6399,"Ġedu":6400,"Ġnaqueles":6401,"Ġprog":6402,"Ġpresidente":6403,"Ġcurso":6404,"Ġmostra":6405,"Ġprecisou":6406,"HO":6407,"Sua":6408,"gasse":6409,"overn":6410,"deado":6411,"Ġestica":6412,"Ġsupos":6413,"ĠCap":6414,"usos":6415,"Ġdesli":6416,"Ġpuxando":6417,"Ġlimpa":6418,"Ġarrastando":6419,"Ġgelado":6420,"Ġaceitar":6421,"Ġsatisfa":6422,"Ġsistema":6423,"EC":6424,"Ġades":6425,"Ġcesta":6426,"estava":6427,"ĠSp":6428,"ĠCurt":6429,"ĠDol":6430,"atia":6431,"Ġcertos":6432,"Ġbaba":6433,"Ġabertas":6434,"Ġ30":6435,"ĠmÃºsculos":6436,"Ġhorizonte":6437,"Ja":6438,"tia":6439,"Ġreb":6440,"Ġinespe":6441,"ciou":6442,"Ġinfin":6443,"Ġgalhos":6444,"Ġescorrendo":6445,"brica":6446,"Ġtornava":6447,"Ġincapaz":6448,"icÃŃdio":6449,"ĠaniversÃ¡rio":6450,"ii":6451,"jet":6452,"Ġsequ":6453,"ĠDun":6454,"ĠOeste":6455,"Ġexc":6456,"Ġlona":6457,"ĠÃ³leo":6458,"Ġmilhares":6459,"Ġfedor":6460,"ĠDuas":6461,"ĠcemitÃ©rio":6462,"ĠPARA":6463,"Wireman":6464,"ep":6465,"lena":6466,"Ġcomando":6467,"Ġlit":6468,"ocos":6469,"Ġrede":6470,"ĠColo":6471,"rance":6472,"ĠfogÃ£o":6473,"Ġfazende":6474,"ĠEstÃ£o":6475,"Ġestadual":6476,"Ġtentativa":6477,"Ġtornara":6478,"ĠterrÃŃveis":6479,"Ġbosque":6480,"Ġbai":6481,"Ġembar":6482,"ĠCob":6483,"Ãµe":6484,"Ġunhas":6485,"Ġquarta":6486,"Ġferram":6487,"Ġpreocupe":6488,"Ġvazias":6489,"Ġcompanheiro":6490,"Ġrestaurante":6491,"Seu":6492,"dora":6493,"ismÃ£":6494,"Ġfras":6495,"Ġvac":6496,"Ġvivos":6497,"ĠDeke":6498,"ĠinvisÃŃvel":6499,"19":6500,"hÃ¡":6501,"ĠCan":6502,"Ġvergonha":6503,"ĠbalanÃ§a":6504,"Ġsaberia":6505,"Ġpassada":6506,"Ġfizer":6507,"Ġtransform":6508,"Ġensino":6509,"Ġservir":6510,"ĠestÃºdio":6511,"ĠtrÃªmula":6512,"Ġultra":6513,"ota":6514,"pcion":6515,"Ġaulas":6516,"ĠTeria":6517,"ross":6518,"Ġcastan":6519,"ĠNaquela":6520,"Ġaviso":6521,"Ã³rter":6522,"Ġpunhos":6523,"Ġlimpo":6524,"Ġalcance":6525,"ĠDenis":6526,"ĠQualquer":6527,"Cont":6528,"Ġinterrompeu":6529,"ĠHolmes":6530,"Ġgrunh":6531,"mÃµes":6532,"Ġfino":6533,"ĠlanÃ§a":6534,"ĠSom":6535,"Ġouve":6536,"Ġaltas":6537,"ussÃ£o":6538,"Ġendere":6539,"ĠRua":6540,"Ġdeixei":6541,"Ġpassavam":6542,"ĠCarrie":6543,"Ġprecisamos":6544,"ĠReg":6545,"ÃŃsque":6546,"ĠsÃºbito":6547,"gs":6548,"Ġdemas":6549,"Ġsinais":6550,"ingu":6551,"Ġpararam":6552,"ondor":6553,"Ġimpa":6554,"Ġpermanec":6555,"curso":6556,"Andy":6557,"Ġplataforma":6558,"Bar":6559,"pal":6560,"arou":6561,"reo":6562,"haram":6563,"Ġlite":6564,"Ġcalado":6565,"ĠCorre":6566,"Ġdisparou":6567,"Ġconser":6568,"Ġcarregando":6569,"Ġblusa":6570,"Ġmoeda":6571,"ĠDarcy":6572,"Acho":6573,"fun":6574,"ow":6575,"Ġcoment":6576,"Ġconden":6577,"Ã§adas":6578,"Ġparentes":6579,"Ġmoment":6580,"Ġpedindo":6581,"Ġreceb":6582,"ĠMontan":6583,"Ġcansada":6584,"Ġreverendo":6585,"Ġborracha":6586,"Ġcess":6587,"Ġtia":6588,"ocais":6589,"Ġ14":6590,"ĠdÃºvidas":6591,"Ġrouca":6592,"ĠNorma":6593,"ĠirmÃ£os":6594,"Ġajudou":6595,"ĠSauron":6596,"rel":6597,"ench":6598,"ivemos":6599,"ith":6600,"ĠQuatro":6601,"quila":6602,"Ġdormia":6603,"ĠTerritÃ³rios":6604,"Ġmantinha":6605,"Ġdirigiu":6606,"SE":6607,"uras":6608,"Ġfomos":6609,"Ġdisco":6610,"ĠTho":6611,"ĠRol":6612,"Ġresid":6613,"Ġvoltava":6614,"Ġchar":6615,"Ġrecla":6616,"ĠJudy":6617,"Ġdesculpas":6618,"Ġburro":6619,"isto":6620,"ĠSto":6621,"ĠTu":6622,"ĠBil":6623,"sados":6624,"ĠHam":6625,"Ġluvas":6626,"Ġdeixaram":6627,"Ġpenso":6628,"Ġrocha":6629,"Ġsujeira":6630,"Ġestreita":6631,"ĠDeix":6632,"ĠalcanÃ§":6633,"Ġenxergar":6634,"sol":6635,"Ã³rio":6636,"ĠFlor":6637,"Ġlatas":6638,"Ġcarga":6639,"Ġseguia":6640,"Ġmenin":6641,"ĠestarÃ¡":6642,"Ġbaque":6643,"Ġruins":6644,"Ġquartei":6645,"Ġviatura":6646,"Ġempurrando":6647,"Ġexplodir":6648,"Ġbeijou":6649,"Ġsaiba":6650,"ĠinglÃªs":6651,"Ġtijolos":6652,"centos":6653,"ĠtÃºm":6654,"Ġfrou":6655,"Ġemaran":6656,"Ġestradas":6657,"Ġpersona":6658,"Ġmura":6659,"Ġcontorn":6660,"ĠGal":6661,"ciam":6662,"Ġvidas":6663,"Ġquartos":6664,"Ġcostum":6665,"Ġrazo":6666,"ĠGreen":6667,"ight":6668,"Ġhabita":6669,"Ġacostum":6670,"ĠMarshall":6671,"LÃ¡":6672,"Ġful":6673,"ridas":6674,"Ġentus":6675,"ĠexÃ©rcito":6676,"Ġportanto":6677,"ĠrepÃ³rter":6678,"Ã´nico":6679,"Ġcompleta":6680,"Ġcobertas":6681,"ĠDesde":6682,"Ġcinzento":6683,"Ã³gica":6684,"Ġfocinho":6685,"ID":6686,"tivas":6687,"vocÃª":6688,"Ġmagro":6689,"Ġsucesso":6690,"ĠMÃ©":6691,"ĠRat":6692,"Ġterem":6693,"chando":6694,"entais":6695,"Ġconfuso":6696,"ĠcaÃŃa":6697,"Ġlargou":6698,"Ġproteger":6699,"Ġdesconfia":6700,"ĠMaitland":6701,"ĠaÃ§Ã£o":6702,"sey":6703,"Ġasfal":6704,"Ġcomprida":6705,"Ġcolor":6706,"Ġbebe":6707,"Ġtirado":6708,"Ġtransformou":6709,"Ġdoutor":6710,"tembro":6711,"Ġquinta":6712,"ĠJames":6713,"Ġcomprimidos":6714,"ĠGerald":6715,"ines":6716,"Ġescutar":6717,"ett":6718,"Ġgostou":6719,"Ġapertar":6720,"ulaÃ§Ã£o":6721,"Ġcinzenta":6722,"Ġresolver":6723,"Ġfotografia":6724,"Ġritmo":6725,"PÃį":6726,"gin":6727,"ĠcÃ³":6728,"ĠEr":6729,"Ġcaut":6730,"ĠTur":6731,"Ġentrado":6732,"viamente":6733,"Ãºva":6734,"Ġracha":6735,"Ġgarotinho":6736,"Ġconstante":6737,"Ġconsciente":6738,"Ġatravessa":6739,"ĠHarris":6740,"ejo":6741,"iel":6742,"reira":6743,"ÃŃculos":6744,"ĠNan":6745,"ĠDrew":6746,"imples":6747,"bate":6748,"Ġord":6749,"Ġchamavam":6750,"ĠcaminhÃµes":6751,"Ġsilencios":6752,"ĠNossa":6753,"ĠShooter":6754,"dentes":6755,"ien":6756,"Ġaonde":6757,"osco":6758,"ĠDoc":6759,"ĠTive":6760,"Ġmesmos":6761,"Ġbaru":6762,"Ġcient":6763,"Ġapertando":6764,"ĠCons":6765,"ĠuÃŃsque":6766,"ĠTeddy":6767,"Ġprocurou":6768,"Che":6769,"bran":6770,"ĠSar":6771,"ĠPOR":6772,"ĠRu":6773,"Ã¡stica":6774,"ĠSeja":6775,"Ġusa":6776,"ĠavÃ´":6777,"Ġchocola":6778,"Ġexato":6779,"Ġtribun":6780,"Ġlareira":6781,"ĠNorte":6782,"Ġfeitos":6783,"Ġcurioso":6784,"TULO":6785,"nis":6786,"ĊĠ":6787,"ĠdanÃ§ar":6788,"Ġdeso":6789,"Ġope":6790,"Ġqueira":6791,"emin":6792,"icado":6793,"Ġempo":6794,"ÃŃram":6795,"ĠconheÃ§o":6796,"Ġinstru":6797,"vidos":6798,"ĠpolÃŃ":6799,"GO":6800,"iper":6801,"win":6802,"Ġconfer":6803,"Ġsuavemente":6804,"Ġcontei":6805,"Ġanel":6806,"neau":6807,"Ġguardas":6808,"Ġabrigo":6809,"Ġbocado":6810,"Ġperfeita":6811,"ĠbarracÃ£o":6812,"ĠNenhuma":6813,"Ġbrinquedo":6814,"Ġaterror":6815,"dil":6816,"Ġdeco":6817,"Ġvender":6818,"Ġsejam":6819,"elh":6820,"Ġgris":6821,"Ġreta":6822,"Ġestariam":6823,"Ġtentei":6824,"Ġbanda":6825,"Ġtrabalhava":6826,"Ġerguendo":6827,"Ġencher":6828,"Ġtestemun":6829,"Ġsetenta":6830,"Nada":6831,"dica":6832,"iÃ§Ãµes":6833,"tima":6834,"ĠnÃ¡":6835,"Ġdesespero":6836,"Ġfant":6837,"Ġcontente":6838,"ĠIm":6839,"ĠprÃ³ximos":6840,"ĠpropÃ³sito":6841,"Ġcrescer":6842,"Ġimprov":6843,"fle":6844,"fera":6845,"tendo":6846,"vÃª":6847,"vÃŃamos":6848,"ecendo":6849,"ĠDesta":6850,"Ġtermos":6851,"Ġprotes":6852,"Ġespanto":6853,"ariamente":6854,"ĠvisÃŃvel":6855,"Ġarrancar":6856,"ordin":6857,"ĠlÃ¢mina":6858,"Ġtruque":6859,"PÃįTULO":6860,"Sam":6861,"zinhos":6862,"Ġestendia":6863,"ĠCad":6864,"ĠBan":6865,"dire":6866,"Ġvisitar":6867,"ĠencontrÃ¡":6868,"Ġcalmo":6869,"lice":6870,"ĠmilhÃµes":6871,"Ġagudo":6872,"Ġlaterais":6873,"ĠtÃ¡xi":6874,"NÃ³s":6875,"gie":6876,"Ġaranha":6877,"Ġodia":6878,"Ġtecido":6879,"ĠTina":6880,"Ġlento":6881,"Ġluta":6882,"Ġvagamente":6883,"mith":6884,"Ġpalco":6885,"Ġtrein":6886,"ĠreaÃ§Ã£o":6887,"ĠCraig":6888,"Ġinfantil":6889,"Ġentusias":6890,"Be":6891,"Sem":6892,"uel":6893,"imbo":6894,"ĠDÃ¡":6895,"ĠOllie":6896,"obos":6897,"Ġverificar":6898,"inheiros":6899,"ĠPortland":6900,"Ġobra":6901,"Ġrespons":6902,"ĠEdgar":6903,"ĠcanÃ§Ã£o":6904,"ĠRainbird":6905,"Ġbrilhava":6906,"ĠinÃºtil":6907,"Me":6908,"yna":6909,"Ġut":6910,"Ã©gio":6911,"ĠLor":6912,"Ġestalo":6913,"Ġpresos":6914,"Ġcanal":6915,"vembro":6916,"Ġgraus":6917,"Ġtrecho":6918,"Ġabaixou":6919,"Ġfresco":6920,"Gardener":6921,"lido":6922,"Ġcai":6923,"Ġenga":6924,"Ġcaro":6925,"Ġcamp":6926,"Ġmortas":6927,"ĠlembranÃ§as":6928,"ostei":6929,"ÃŃnas":6930,"Ġimaginou":6931,"endell":6932,"Ġ200":6933,"Ġvege":6934,"Ġtremer":6935,"ĠCalla":6936,"itava":6937,"ling":6938,"od":6939,"xes":6940,"Ġcidades":6941,"ĠcaÃ§a":6942,"Ġprovas":6943,"ĠGondor":6944,"Ġluar":6945,"inhou":6946,"Ġtoma":6947,"ĠLew":6948,"Ġganhou":6949,"Ġvenha":6950,"ĠconstruÃ§Ã£o":6951,"ĠinformaÃ§Ã£o":6952,"ĠPensou":6953,"ĠJerome":6954,"Car":6955,"Con":6956,"arem":6957,"rilha":6958,"lhÃ£o":6959,"ĠFec":6960,"Ġprocesso":6961,"Ġcasca":6962,"Ġtorta":6963,"Ġsoava":6964,"Ġbanheira":6965,"ĠpulmÃµes":6966,"Ġmentir":6967,"Ġsombrio":6968,"ĠmistÃ©rio":6969,"ĠmÃ©dicos":6970,"ĠContinu":6971,"Ġorgulho":6972,"char":6973,"pend":6974,"Ġnavio":6975,"ild":6976,"ily":6977,"oma":6978,"Ġtempera":6979,"ressa":6980,"ĠWe":6981,"ĠWar":6982,"Ġinsp":6983,"Ġcarregado":6984,"Ġrefrige":6985,"Ġdivertido":6986,"Ġexplicou":6987,"Ġgemeu":6988,"ĠDesculpe":6989,"Ch":6990,"lete":6991,"ĠBor":6992,"Ġsalvar":6993,"Ġtapa":6994,"ĠBlack":6995,"ĠlÃ¢mpada":6996,"ĠCujo":6997,"Ã¢nea":6998,"Ġromance":6999,"Ġviole":7000,"Ġreluz":7001,"OCÃĬ":7002,"ecida":7003,"Ġcach":7004,"itiva":7005,"ĠLar":7006,"ĠNaomi":7007,"arra":7008,"gulares":7009,"Ġreci":7010,"ĠNO":7011,"mava":7012,"ĠEssas":7013,"izados":7014,"ĠDele":7015,"Ġfuga":7016,"Ġescrita":7017,"Ġnegras":7018,"ĠVern":7019,"ĠlÃŃqu":7020,"ĠelÃ©trica":7021,"shire":7022,"ĠBilbo":7023,"Antes":7024,"nia":7025,"Âº":7026,"iante":7027,"ĠPes":7028,"ĠBas":7029,"ntados":7030,"Ġacabara":7031,"Ġtornado":7032,"Ġabril":7033,"Ġpermaneceu":7034,"Ġ50":7035,"Ġindica":7036,"Ġhesitou":7037,"Ġcaminhada":7038,"Ġencarou":7039,"ĠValar":7040,"Ġencheu":7041,"ĠtÃºnel":7042,"rÃ©":7043,"tente":7044,"ute":7045,"ynt":7046,"Ġpilo":7047,"Ġbuz":7048,"Ġdavam":7049,"Ġenfi":7050,"Ġarrancou":7051,"Ġdesajei":7052,"Ġsombria":7053,"ĠMelhor":7054,"Ġextraordin":7055,"ynthia":7056,"uu":7057,"rantes":7058,"Ġpio":7059,"iadas":7060,"Ġperda":7061,"cipe":7062,"Ġentrei":7063,"ingando":7064,"Ġterminado":7065,"Ġpiores":7066,"Ġrapidez":7067,"ĠRobert":7068,"Ġobede":7069,"Ġbron":7070,"Ġgro":7071,"Ġincom":7072,"Ġachando":7073,"Ġvoo":7074,"Ġfileira":7075,"ĠcaÃŃda":7076,"Ġseguiram":7077,"Ġsussurro":7078,"Ġuso":7079,"Ġcapacidade":7080,"Ġdiscutir":7081,"Ġdescoberto":7082,"ÃĢs":7083,"Ġseda":7084,"Ġnovembro":7085,"ĠSco":7086,"ĠBus":7087,"...\"":7088,"Ġmotivos":7089,"Ġcompart":7090,"ĠbotÃµes":7091,"Ġacontecesse":7092,"Ġjuiz":7093,"issem":7094,"Ġimagino":7095,"Ġ199":7096,"Ġabriram":7097,"ĠmÃ¡gico":7098,"Ġbosques":7099,"Ġadmitir":7100,"Ġdeuses":7101,"Ġvul":7102,"ĠEast":7103,"ĠmaÃ§o":7104,"nteve":7105,"Ġperigos":7106,"ĠVÃ£o":7107,"Ġlutar":7108,"Ġsubst":7109,"Ġtornando":7110,"ĠconfianÃ§a":7111,"ĠÃ³rb":7112,"Ġdezesse":7113,"Ġpalp":7114,"Ġquadril":7115,"Ġdesenvol":7116,"Ġgatilho":7117,"ualmente":7118,"Ġmago":7119,"uliar":7120,"urado":7121,"ĠLi":7122,"Ġescul":7123,"Ġvoou":7124,"Ġsolta":7125,"ĠruÃŃnas":7126,"idge":7127,"ĠOuvi":7128,"Ġprecisam":7129,"Ġenchar":7130,"Ġfeitas":7131,"Ġamedro":7132,"Ġfumar":7133,"Danny":7134,"ĠlenÃ§ol":7135,"DI":7136,"cimento":7137,"leg":7138,"hadas":7139,"ocando":7140,"Ġtratava":7141,"Ġtransmit":7142,"ĠHoje":7143,"Ġdecidido":7144,"Ġoficial":7145,"Ġalunos":7146,"Ġsepul":7147,"Ġcala":7148,"ĠMon":7149,"ĠMenos":7150,"ult":7151,"Ãºst":7152,"Ġtrav":7153,"Ġouviram":7154,"Ġescadas":7155,"Ġvazios":7156,"ĠremÃ©dio":7157,"Ġretrucou":7158,"Louis":7159,"ban":7160,"Ġaeroporto":7161,"Ġcil":7162,"Ġfru":7163,"ĠEvie":7164,"Ġdistantes":7165,"ĠHÃºrin":7166,"Ġand":7167,"cete":7168,"Ġabria":7169,"Ġnevo":7170,"Ġplanos":7171,"Ġaposento":7172,"ĠKee":7173,"ÃŃbrio":7174,"Ġsilencioso":7175,"agem":7176,"Ġoh":7177,"Ġfen":7178,"Ġsetembro":7179,"tom":7180,"ĠdoenÃ§a":7181,"ĠBud":7182,"urch":7183,"Ġmora":7184,"Ġbotou":7185,"Ġcontagem":7186,"Ġexistia":7187,"ĠComeÃ§ou":7188,"ĠcrepÃºsculo":7189,"Ġestrondo":7190,"12":7191,"pass":7192,"ye":7193,"Ġcic":7194,"ĠcondiÃ§Ãµes":7195,"vermel":7196,"Ġcheias":7197,"Ġradia":7198,"Ġlevaria":7199,"rine":7200,"Ġcachorros":7201,"Ġlimite":7202,"ologia":7203,"umont":7204,"Ġabafado":7205,"estion":7206,"ĠsanduÃŃche":7207,"Ġcicatriz":7208,"ĠKennedy":7209,"Char":7210,"cÃª":7211,"Ġpente":7212,"ĠExa":7213,"emo":7214,"ĠgrÃ¡":7215,"ilas":7216,"Ġcortina":7217,"ĠvovÃ´":7218,"Ġtraje":7219,"Ġtrazia":7220,"Ġrecebe":7221,"Ġescrevendo":7222,"Ġhumanos":7223,"ĠexistÃªncia":7224,"Ġpression":7225,"ĠEST":7226,"taÃ§Ãµes":7227,"Ġnotic":7228,"Ġrecon":7229,"Ġmeter":7230,"terna":7231,"Ġimpe":7232,"curo":7233,"ÃŃncipe":7234,"ĠavanÃ§ou":7235,"Ġcobertura":7236,"Ġcompreender":7237,"Ġalarme":7238,"ĠBradley":7239,"Ġpeculiar":7240,"ĠÃ¢ngulo":7241,"Ġpromessa":7242,"ĠHampshire":7243,"Ġtribunal":7244,"Ġesva":7245,"roix":7246,"ĠSobre":7247,"ĠDer":7248,"ĠDez":7249,"caÃ§Ã£o":7250,"aixon":7251,"Ġintro":7252,"Ġestrela":7253,"Ġconcorda":7254,"Ġsincer":7255,"Ġmister":7256,"Ġapostar":7257,"Ġpasseio":7258,"Ġselvagem":7259,"pra":7260,"Ġdevido":7261,"Ġestilha":7262,"Ġalte":7263,"Ġatual":7264,"Ġveria":7265,"Ġespuma":7266,"Ġsobretudo":7267,"ĠbalanÃ§o":7268,"Ġfuz":7269,"Ġtabu":7270,"Ġaven":7271,"Ġaux":7272,"Ġorcs":7273,"Ġrelacion":7274,"Ġdecidi":7275,"Ġcontinuavam":7276,"ĠdiscussÃ£o":7277,"Elizabeth":7278,"Ġacampamento":7279,"Ġmila":7280,"ĠRec":7281,"Ġsentira":7282,"jantes":7283,"tidas":7284,"ĠKy":7285,"Ġlevaram":7286,"Ġchamando":7287,"Ġsorria":7288,"Ġcaneta":7289,"Ġfebre":7290,"Ġambas":7291,"ĠGuerra":7292,"Ġperturbado":7293,"IM":7294,"vÃ³":7295,"lem":7296,"Ġparados":7297,"Ġosso":7298,"Ġalvo":7299,"Ġfonte":7300,"Ġinci":7301,"Ġincon":7302,"Ġdose":7303,"Ġabsor":7304,"dial":7305,"Ġrepara":7306,"Ġlevemente":7307,"Ġlarga":7308,"ĠMcGovern":7309,"Ġpacote":7310,"LE":7311,"encia":7312,"Ġdona":7313,"Ġconst":7314,"Ġinda":7315,"ĠVera":7316,"itenta":7317,"Ġhorre":7318,"logo":7319,"Ġfico":7320,"Ġcard":7321,"Ġcarn":7322,"Ġdiretor":7323,"tÃ¡ria":7324,"ĠAnd":7325,"Ġerguia":7326,"Ġpular":7327,"Ġzan":7328,"Ġcaminhando":7329,"Ã¢mpa":7330,"Ġexistem":7331,"Ġdigitais":7332,"Ġdisposto":7333,"Ġdescansar":7334,"Ġequipamento":7335,"enÃ§o":7336,"Ã©u":7337,"ĠAman":7338,"veram":7339,"Ġmudado":7340,"Ġtranquil":7341,"feita":7342,"Ġgarrafas":7343,"Ġcotovelo":7344,"bres":7345,"into":7346,"Ġcobra":7347,"orro":7348,"ĠJalbert":7349,"Ġpouca":7350,"iosos":7351,"Ġfare":7352,"ĠquilÃ´metro":7353,"ĠHomens":7354,"Ġmacaco":7355,"Ġflutuando":7356,"Ġmicrofone":7357,"fias":7358,"Ġdece":7359,"Ġcofre":7360,"ĠDire":7361,"ung":7362,"Ġenver":7363,"Ġcascal":7364,"itante":7365,"Ġconseguira":7366,"Ġtroca":7367,"Ġmaluca":7368,"Claro":7369,"ĠsÃŃ":7370,"Ġvenda":7371,"ĠAven":7372,"Ġgirar":7373,"iriam":7374,"ĠNas":7375,"Ġdeixaria":7376,"Ġajude":7377,"Ġcaminhou":7378,"ĠAposto":7379,"Ġmovim":7380,"ĠVictor":7381,"ĠmÃ¡gica":7382,"ĠcorrespondÃªncia":7383,"cn":7384,"lito":7385,"Ġodor":7386,"Ġpromo":7387,"Ġcastelo":7388,"Ġclasse":7389,"Ġuniver":7390,"Ġapagar":7391,"ĠJeanette":7392,"Ben":7393,"Ste":7394,"aÃ§Ã£o":7395,"nÃ§a":7396,"Ġcomeu":7397,"Ã§aram":7398,"Ġlic":7399,"ĠDis":7400,"ĠVOCÃĬ":7401,"gala":7402,"Ġfechando":7403,"Ġpressa":7404,"Ġsorris":7405,"ĠCoisas":7406,"mond":7407,"Ġturma":7408,"ĠBeaumont":7409,"Ġesquisito":7410,"Ġvomitar":7411,"ĠequilÃŃbrio":7412,"Ġasfalto":7413,"Gar":7414,"wald":7415,"Ġcoron":7416,"Ġfone":7417,"ĠesqueÃ§a":7418,"ĠAud":7419,"cante":7420,"Ġperdendo":7421,"ĠficÃ§Ã£o":7422,"Ġcheira":7423,"ĠWendell":7424,"ĠJackie":7425,"ĠgarÃ§":7426,"Ġderra":7427,"ĠtalismÃ£":7428,"Ġcircu":7429,"Ġtransformar":7430,"Ġclareza":7431,"ĠHoward":7432,"Ġfazendeiro":7433,"Ġchocolate":7434,"lm":7435,"Ġ0":7436,"Ġdeitada":7437,"erson":7438,"ĠCON":7439,"Ġdivid":7440,"Ġlavar":7441,"ĠGaro":7442,"vers":7443,"ĠDevia":7444,"ĠKi":7445,"Ġlembrando":7446,"ĠPequ":7447,"Ġtranquila":7448,"Ġimediato":7449,"ĠmÃ¡quinas":7450,"ĠpÃ¡lida":7451,"Ġofereceu":7452,"ĠocasiÃµes":7453,"Ġconversando":7454,"Ġgrotes":7455,"Alan":7456,"BI":7457,"Ġfemin":7458,"ilando":7459,"Ġengas":7460,"ĠBri":7461,"Ġpaci":7462,"Ãºde":7463,"ĠIN":7464,"estra":7465,"adre":7466,"Ġ25":7467,"Ġocupado":7468,"mercado":7469,"Ġoriginal":7470,"Ġrevistas":7471,"sent":7472,"Ġcen":7473,"Ġcoxas":7474,"Ġtol":7475,"ĠDessa":7476,"Ġvoar":7477,"ĠPortanto":7478,"Ġlidar":7479,"Ġfeia":7480,"Ġparticip":7481,"Ġbicho":7482,"ĠLucy":7483,"ĠpalhaÃ§o":7484,"gamos":7485,"lock":7486,"ĠDr":7487,"Ġpuro":7488,"lavan":7489,"minist":7490,"Ġtrocar":7491,"Ġquebrada":7492,"Ġcinzentos":7493,"Ġpegadas":7494,"Ġjusto":7495,"ĠemergÃªncia":7496,"ĠconclusÃ£o":7497,"Ġtemperatura":7498,"Ġaut":7499,"Ġodi":7500,"mada":7501,"Ġinje":7502,"diÃ§o":7503,"Ġenfiado":7504,"Ġdegrau":7505,"Ġmundos":7506,"Ġeletricidade":7507,"Ġfirmeza":7508,"OU":7509,"Out":7510,"quem":7511,"ĠOde":7512,"ĠRon":7513,"Ġlamp":7514,"Ġjogos":7515,"ĠOswald":7516,"Ġergue":7517,"ĠSab":7518,"Ġdesenhos":7519,"Ġquantos":7520,"Ġencaix":7521,"ÃĩÃĥO":7522,"Ġbarato":7523,"Ġriacho":7524,"Ġnevoeiro":7525,"gel":7526,"Ġfla":7527,"angu":7528,"Ġlindo":7529,"Ġmat":7530,"ĠCA":7531,"Ġpod":7532,"Ã¢ns":7533,"Ġbalde":7534,"RAN":7535,"angborn":7536,"Ġcrescendo":7537,"Ġdeslizou":7538,"Ġdescanso":7539,"Ġinstrum":7540,"Ġsobrenatural":7541,"implesmente":7542,"zy":7543,"ĠporÃ§Ã£o":7544,"Ġdescont":7545,"ĠRam":7546,"Ġmoveu":7547,"Ġpaciente":7548,"Ġconsiga":7549,"Ġtantas":7550,"ĠBev":7551,"Ġgancho":7552,"ĠFaÃ§a":7553,"Ġagarrar":7554,"Ġexcelente":7555,"Ġconvencer":7556,"Ġtermina":7557,"Ġindicador":7558,"Ġshow":7559,"ĠDallas":7560,"Ġatordo":7561,"ĠfÃ³sforo":7562,"cina":7563,"parec":7564,"ĠEN":7565,"ĠAqueles":7566,"ocia":7567,"Ġmanteve":7568,"...?":7569,"beÃ§a":7570,"Ġseres":7571,"Ġcamada":7572,"Ġsoldado":7573,"Ġinterrup":7574,"Ġbebendo":7575,"Ġestreito":7576,"ĠRoberta":7577,"ĠcombinaÃ§Ã£o":7578,"Jake":7579,"Ġconstran":7580,"Mor":7581,"Vol":7582,"ldor":7583,"pida":7584,"Ġsexo":7585,"entamente":7586,"ĠNum":7587,"ĠalÃ§a":7588,"Ġsacos":7589,"Ġtravesse":7590,"Ġtranquilo":7591,"Ġarreb":7592,"ressal":7593,"Ġestuda":7594,"Ġmergulha":7595,"Ġflutua":7596,"Ã¢nsito":7597,"roto":7598,"alidade":7599,"Ġparando":7600,"Ġlocais":7601,"ÃŃzes":7602,"Ġdisfar":7603,"Ġmascul":7604,"lheiro":7605,"Ġparda":7606,"Ġcontos":7607,"Ġreplicou":7608,"chonete":7609,"tÃ¡rio":7610,"Ġpresentes":7611,"Ġtrilhos":7612,"Ġaprender":7613,"Ġartigo":7614,"ĠCarolyn":7615,"Ġdemasiado":7616,"Ġavenida":7617,"sÃµes":7618,"deus":7619,"Ġlobo":7620,"ĠSor":7621,"ulÃ¢ncia":7622,"ĠDelac":7623,"Ġduzentos":7624,"Ġrolou":7625,"Ġresponsa":7626,"ĠDay":7627,"Ġapertado":7628,"Ġbrincar":7629,"Ġprosseguiu":7630,"dezas":7631,"ĠresponsÃ¡vel":7632,"At":7633,"ipa":7634,"quinha":7635,"Ġmira":7636,"Ġcoelho":7637,"ĠSander":7638,"ĠTro":7639,"ĠButch":7640,"ĠtrÃ¡":7641,"Ġvirei":7642,"entados":7643,"Ġtornaram":7644,"Ġagir":7645,"Ġcentenas":7646,"Ġfracas":7647,"Ġganha":7648,"Ġfechadas":7649,"izante":7650,"Ġassustada":7651,"ĠabraÃ§o":7652,"Ġcolegas":7653,"Ġdesconf":7654,"Ġtocava":7655,"ĠÃºmido":7656,"Ġescorria":7657,"ĠhÃ¡bito":7658,"ĠDelacroix":7659,"Re":7660,"correr":7661,"Ġregular":7662,"ĠOlhei":7663,"Ġapaixon":7664,"Ġpesar":7665,"Ġsotaque":7666,"Ġafun":7667,"ĠPeyna":7668,"venen":7669,"Estou":7670,"ĠcrÃ©":7671,"wendy":7672,"brisa":7673,"Ġcompanheiros":7674,"Ġconsiderando":7675,"Ġcruzou":7676,"Ġchoro":7677,"Ġadequ":7678,"Olhou":7679,"ipo":7680,"Ġmaio":7681,"Ġmagia":7682,"ĠPla":7683,"Ġintenso":7684,"Ġvibra":7685,"Ġestabe":7686,"Ġsenso":7687,"idando":7688,"Ġadqui":7689,"ĠToda":7690,"ĠsaÃŃsse":7691,"ĠChurch":7692,"Ġchuveiro":7693,"Ġurso":7694,"Ġonze":7695,"Ġenfermeira":7696,"Ġferramentas":7697,"bios":7698,"Ġoitenta":7699,"ĠSenho":7700,"Ġasp":7701,"ĠMestre":7702,"ĠTÃ¡":7703,"ĠVan":7704,"ĠFer":7705,"ĠFic":7706,"Ġparecesse":7707,"Ġcasal":7708,"ĠtrÃ¢nsito":7709,"Ġtentado":7710,"live":7711,"Ġferida":7712,"Ġnormalmente":7713,"Ġgalho":7714,"rassem":7715,"Ġpreparado":7716,"Ġassistir":7717,"Ġenterrado":7718,"ĠLemb":7719,"ĠcÃŃrculos":7720,"Ġcachimbo":7721,"dinhas":7722,"tindo":7723,"uga":7724,"Ġmeias":7725,"issa":7726,"Ġviam":7727,"ĠVia":7728,"Ġpratos":7729,"Ġsaltar":7730,"Ġsalvo":7731,"Ġsusto":7732,"Ġprofiss":7733,"Ġpisca":7734,"Ġvirada":7735,"Ġgemido":7736,"Ġconcluiu":7737,"ĠsubstÃ¢ncia":7738,"Ġaura":7739,"lagem":7740,"Ġdisto":7741,"Ġconforme":7742,"ĠBrig":7743,"Ġpodre":7744,"Ġatre":7745,"Ġacender":7746,"Ġcontado":7747,"Ġlava":7748,"Ġcomprou":7749,"Ġtrancada":7750,"Ġgostos":7751,"Ġtriun":7752,"Ġagarrando":7753,"Ġobservar":7754,"Ã³gico":7755,"ĠAngel":7756,"EstÃ¡":7757,"Pen":7758,"fan":7759,"pel":7760,"plo":7761,"quen":7762,"Ġvic":7763,"Ġnoldor":7764,"Ġmapa":7765,"Ġestive":7766,"Ġoscil":7767,"ĠPangborn":7768,"ĠHou":7769,"Ġproib":7770,"Ġsoco":7771,"net":7772,"Ġtomada":7773,"Ġgrade":7774,"Ġferido":7775,"feitos":7776,"ĠRoad":7777,"Ġjato":7778,"Ġafastando":7779,"Ġsupermercado":7780,"Ġvigor":7781,"Ġobservava":7782,"ĠPatrick":7783,"Ġobjetos":7784,"Ġinteressado":7785,"ĠFloresta":7786,"Ġcautelos":7787,"Ġordens":7788,"Clay":7789,"sy":7790,"Ġlido":7791,"Ġgin":7792,"Ġgai":7793,"Ġfalado":7794,"ches":7795,"Ġbande":7796,"Ġescolher":7797,"Ġarmaz":7798,"ĠTinham":7799,"ĠChev":7800,"Ġinclinado":7801,"Ġencostou":7802,"Ġabandonado":7803,"Ġcristal":7804,"giu":7805,"ansas":7806,"rion":7807,"Ġcortou":7808,"Ġcorreio":7809,"ĠusÃ¡":7810,"press":7811,"Ġmentindo":7812,"Ġimportantes":7813,"Ġtanque":7814,"ĠsatisfaÃ§Ã£o":7815,"uels":7816,"tamos":7817,"Ã©tico":7818,"ĠSmith":7819,"Ġprecip":7820,"Ġsobressal":7821,"Ġcertific":7822,"Ġclique":7823,"Ġobjet":7824,"Ġimbec":7825,"ĠtrovÃ£o":7826,"Ġpreocupada":7827,"Ġjazia":7828,"Ġrecolh":7829,"Ġempresa":7830,"Ġbiscoitos":7831,"ĠÃŃnt":7832,"Ġvelo":7833,"Ġvaso":7834,"ĠCynthia":7835,"Ġespiando":7836,"Ġmont":7837,"ĠDetta":7838,"ĠAndre":7839,"tual":7840,"Ġpiscou":7841,"Ġplacas":7842,"ĠmacacÃ£o":7843,"Tinha":7844,"__":7845,"cter":7846,"delia":7847,"Ġperple":7848,"Ġlap":7849,"Ġanuncia":7850,"igamente":7851,"ister":7852,"Ġmanif":7853,"Ġrom":7854,"Ġtentasse":7855,"Ġjuntas":7856,"Ġcabec":7857,"Ġgoverno":7858,"Ġretribu":7859,"Ġfelizes":7860,"ĠAmeric":7861,"Ġprofundezas":7862,"bon":7863,"dge":7864,"vilha":7865,"Ġquestion":7866,"inci":7867,"Ġdeserta":7868,"ĠBÃŃb":7869,"inah":7870,"Ġmorce":7871,"Ġrota":7872,"Ġjuntou":7873,"Ġacorda":7874,"ĠrelÃ¢mpa":7875,"ificaÃ§Ã£o":7876,"ĠcomeÃ§avam":7877,"ĠPolÃŃcia":7878,"ĠrefeiÃ§Ã£o":7879,"ĠdemÃ´nio":7880,"ĠGostaria":7881,"ĠtÃºmulo":7882,"ĠCallahan":7883,"45":7884,"anor":7885,"Ġretro":7886,"ĠClar":7887,"Ġsapa":7888,"Ġhabil":7889,"Ġcort":7890,"Ġmenores":7891,"Ġrespostas":7892,"Ġconseguem":7893,"Ġpense":7894,"ĠPegou":7895,"Ġconhecida":7896,"Ġsofrimento":7897,"ificou":7898,"lett":7899,"Ġclareira":7900,"Ġdesviou":7901,"tida":7902,"uas":7903,"Ġmag":7904,"ÃŃcios":7905,"ust":7906,"ĠJen":7907,"Ġtoalha":7908,"Ġcareca":7909,"ĠDeep":7910,"Ġescan":7911,"Ġsabor":7912,"ĠWes":7913,"Ġpoderoso":7914,"Ġobviamente":7915,"Ġcriado":7916,"ĠavanÃ§":7917,"Ġbateria":7918,"visor":7919,"Ġjaz":7920,"Ġcarregar":7921,"Ġsinistro":7922,"Ġofegante":7923,"Ġcascalho":7924,"Ġuniverso":7925,"GU":7926,"grÃ¡":7927,"Ġfeio":7928,"reiro":7929,"Ġparava":7930,"Ġpedi":7931,"Ġacar":7932,"Ġentrava":7933,"Ġescal":7934,"ĠAllen":7935,"Ġexpul":7936,"Ġapodre":7937,"ĠChuck":7938,"ĠHora":7939,"ĠPodemos":7940,"ĠcrÃŃ":7941,"Ġdourado":7942,"Ġreconheceu":7943,"20":7944,"lig":7945,"Ġcris":7946,"Ġvulto":7947,"Ġembr":7948,"ĠShan":7949,"Ġarrem":7950,"Ġcamara":7951,"tiÃ§a":7952,"Ġromp":7953,"Ġvaca":7954,"ĠAnne":7955,"ĠalgodÃ£o":7956,"Ġacabaria":7957,"Ġderro":7958,"Ġpiquen":7959,"Ġfuncionando":7960,"ĠambulÃ¢ncia":7961,"Ġfantasia":7962,"Ġclaridade":7963,"iath":7964,"Ġfume":7965,"gura":7966,"ĠAmy":7967,"ĠTex":7968,"ntadas":7969,"ĠAnnie":7970,"ĠchamÃ¡":7971,"ĠsaÃŃam":7972,"Ġlimpou":7973,"Ġraposa":7974,"ĠextensÃ£o":7975,"Ġmolhado":7976,"ĠproteÃ§Ã£o":7977,"ĠalcanÃ§ar":7978,"Ġcobrir":7979,"Ġformando":7980,"Ġgrosso":7981,"Ġqueimado":7982,"ĠVeja":7983,"Todos":7984,"Ġpassageiro":7985,"ĠtÃ©cn":7986,"Ġpopular":7987,"Ge":7988,"ingar":7989,"embora":7990,"ÃŃfico":7991,"ĠPam":7992,"javam":7993,"tion":7994,"ĠesperanÃ§as":7995,"Ġperceb":7996,"ĠRich":7997,"Ġgotas":7998,"ĠBlaine":7999,"Ġbrevemente":8000,"ĠclarÃ£o":8001,"Ġrevelando":8002,"rguer":8003,"Ġvidra":8004,"hum":8005,"Ġtim":8006,"inoso":8007,"Ã©tica":8008,"elic":8009,"Ġcaverna":8010,"ĠPri":8011,"ĠPass":8012,"ĠME":8013,"Ġparceiro":8014,"Ġparecida":8015,"Ġchame":8016,"Ġvisitas":8017,"Ġcoluna":8018,"Ġimaginava":8019,"Ġapagou":8020,"Ġrecuar":8021,"Ġoferecer":8022,"ĠAmÃ©rica":8023,"Ġcambaleou":8024,"Ġsilenciosa":8025,"Ġinsetos":8026,"Ġignor":8027,"ĠKeeton":8028,"Holly":8029,"hill":8030,"ientemente":8031,"ĠmatÃ©":8032,"omin":8033,"Ġsaud":8034,"Ġino":8035,"Ġpego":8036,"Ġacus":8037,"ĠVince":8038,"mont":8039,"Ġlamb":8040,"inadas":8041,"ntavam":8042,"harton":8043,"Ġirra":8044,"Ġcalm":8045,"Ġusavam":8046,"ĠavanÃ§ar":8047,"Ġpareceram":8048,"mouth":8049,"Ġcruzamento":8050,"ĠAchava":8051,"Ġfotografias":8052,"ĠLaurel":8053,"Ġnoventa":8054,"Ġtexto":8055,"ĠendereÃ§o":8056,"Ra":8057,"ak":8058,"Ġnoj":8059,"Ġinconsciente":8060,"Ġacos":8061,"Ġpronta":8062,"Ãºrguer":8063,"ĠpraÃ§a":8064,"thy":8065,"Ġgrau":8066,"Ġolhavam":8067,"Ġinfec":8068,"Ã³rnia":8069,"Ġtransformando":8070,"Ġsacudindo":8071,"ĠBaker":8072,"Ġocorre":8073,"Ġirritado":8074,"Ġafirmou":8075,"Ġexterior":8076,"Ġconjunto":8077,"Nenh":8078,"bis":8079,"ĠErgu":8080,"deo":8081,"ĠPassou":8082,"Ġfais":8083,"Ġmesas":8084,"izando":8085,"Ġassal":8086,"Ġracional":8087,"Ġsoltando":8088,"ifÃ³rnia":8089,"Ġcolocando":8090,"ĠRoth":8091,"Ġrifle":8092,"Ġcobertor":8093,"Ġreflex":8094,"Ġdirigia":8095,"Ġensangu":8096,"Ġsurpreendeu":8097,"Ġmachucar":8098,"ĠWhite":8099,"Ġaconse":8100,"ĠBucky":8101,"ĠDelevan":8102,"Ar":8103,"bÃ¡":8104,"bio":8105,"ventu":8106,"Ġquentes":8107,"ĠAla":8108,"ĠMil":8109,"Ġenxu":8110,"Ġmorar":8111,"Ġrespira":8112,"Ġrespirando":8113,"Ġrolando":8114,"entavam":8115,"Ġcaracter":8116,"Ġcaminhonete":8117,"ĠOuviu":8118,"Ġpuxa":8119,"Ġnervosa":8120,"mÃ©dia":8121,"Ġanimado":8122,"Ġpesadelos":8123,"Ġdeterm":8124,"Ã´mito":8125,"Ġvitrine":8126,"Ġfranziu":8127,"Ġintensidade":8128,"Ġretrato":8129,"Ġdesligar":8130,"Mu":8131,"ys":8132,"Ġdeitou":8133,"esas":8134,"estas":8135,"ĠfrÃ¡":8136,"Ġlia":8137,"Ġasse":8138,"Ġdiscurso":8139,"digo":8140,"Ġterrivelmente":8141,"Ġmalig":8142,"Ġjuntar":8143,"ĠcaixÃ£o":8144,"Ġguardou":8145,"Ġrelax":8146,"Ġcapazes":8147,"Ġfugiu":8148,"ĠBrenda":8149,"Ġapavorado":8150,"Ġfacilmente":8151,"ĠPasso":8152,"Ġbabaca":8153,"JÃ¡":8154,"ceira":8155,"fim":8156,"set":8157,"Ġsuc":8158,"uscri":8159,"Ġfogueira":8160,"Ġesperto":8161,"Ġmoder":8162,"Ġpousou":8163,"berto":8164,"Ġaparece":8165,"Ġdesejava":8166,"Entre":8167,"Ġempurrar":8168,"ĠdÃ³lar":8169,"Ġuiv":8170,"David":8171,"Ġquieto":8172,"Ġadolescente":8173,"Vamos":8174,"ÃŃam":8175,"ĠTal":8176,"diz":8177,"itÃ¡":8178,"Ġanal":8179,"terr":8180,"ĠWor":8181,"Ġconsta":8182,"Ġescutando":8183,"ĠavanÃ§a":8184,"Ġescapou":8185,"Ġfunciona":8186,"Ġpreparando":8187,"Ġacertou":8188,"Ġdetermin":8189,"ĠOlson":8190,"Ġtronco":8191,"Geor":8192,"ffer":8193,"Ġdrin":8194,"Ġelo":8195,"Ġtou":8196,"Ġfle":8197,"ĠAz":8198,"ĠSimplesmente":8199,"ĠPRO":8200,"Ġenvenen":8201,"Ġparei":8202,"Ġmuro":8203,"ĠVelho":8204,"ceis":8205,"Ġcortes":8206,"Ġdiabos":8207,"not":8208,"Ġexpress":8209,"Ġtalento":8210,"Ġcidadezinha":8211,"endida":8212,"Ġpartido":8213,"Ġquadris":8214,"ENTE":8215,"Ġmembros":8216,"Ġacompanhar":8217,"Ġcobria":8218,"ĠWilma":8219,"ĠsecretÃ¡ria":8220,"Ġcriar":8221,"Ġcadernos":8222,"lÃ³rida":8223,"Ġsangrando":8224,"14":8225,"ruma":8226,"inny":8227,"Ġnaquilo":8228,"Ġdesor":8229,"Ġdesvia":8230,"Ġdesgra":8231,"Ġcondu":8232,"Ġfatos":8233,"ĠFlÃ³rida":8234,"Ġjoga":8235,"Ġvoltara":8236,"ĠKat":8237,"Ġlevantei":8238,"ĠPoder":8239,"Ġvoltaria":8240,"ĠArdelia":8241,"ĠCinco":8242,"ĠlÃ¢mpadas":8243,"ĠsÃºbita":8244,"CAPÃįTULO":8245,"Ġpsic":8246,"Ġinimigos":8247,"ĠpermissÃ£o":8248,"ĠBÃŃblia":8249,"Vou":8250,"can":8251,"tua":8252,"Ġparalis":8253,"Ġlun":8254,"Ġdestro":8255,"ĠanÃºn":8256,"Ġviesse":8257,"Ġgrades":8258,"ĠMarcy":8259,"onete":8260,"Ġempol":8261,"Ġmilho":8262,"Ġfechadura":8263,"nteiras":8264,"ĠPeterson":8265,"ĠVermel":8266,"ĠUnder":8267,"Ġpreparar":8268,"Ġfluxo":8269,"Ġdescarga":8270,"Ġdesmaiar":8271,"ĠIrv":8272,"Ġprivada":8273,"ĠvÃ´mito":8274,"rill":8275,"Ġmatando":8276,"ĠVen":8277,"ĠRom":8278,"Ġentendendo":8279,"acredi":8280,"Ġimper":8281,"Ġduvida":8282,"Ġreparou":8283,"icker":8284,"Ġapoiou":8285,"Ġaprovei":8286,"ĠMax":8287,"Ġcarregava":8288,"Naquela":8289,"Ġgravata":8290,"ĠSally":8291,"Ġfamoso":8292,"ĠgÃªmeos":8293,"SO":8294,"ug":8295,"Ġpus":8296,"Ġcimento":8297,"Ġcoinci":8298,"anie":8299,"seu":8300,"ĠCH":8301,"Ġconosco":8302,"Ġentor":8303,"garia":8304,"Ġpaisa":8305,"ĠWharton":8306,"Ġdores":8307,"Ġinterva":8308,"Ġbancada":8309,"Ġfizemos":8310,"Ġrelig":8311,"Ġbrilhavam":8312,"ĠObrigada":8313,"ĠMcCar":8314,"Ã¢neo":8315,"Ġaliviado":8316,"ĠcardÃŃaco":8317,"Fran":8318,"fando":8319,"Ġetern":8320,"Ġdeitar":8321,"Ġtosse":8322,"unas":8323,"cidas":8324,"obil":8325,"ĠabenÃ§o":8326,"Ġassent":8327,"Ġcomprado":8328,"ĠLeah":8329,"Ġzom":8330,"Ġretirou":8331,"ĠprÃ©dios":8332,"ĠpÃ¡lpe":8333,"Ġexaminou":8334,"Ġinclinada":8335,"Ġsargento":8336,"Ġaroma":8337,"ĠvegetaÃ§Ã£o":8338,"ĠcrÃ©dito":8339,"Bob":8340,"Pro":8341,"dÃµes":8342,"ĠnÃ³":8343,"Ġesf":8344,"ĠEver":8345,"ĠNar":8346,"ĠNell":8347,"Ġinoc":8348,"Ġmoradores":8349,"Ġconseguiam":8350,"Ġintermin":8351,"Ġlojas":8352,"ĠChip":8353,"renÃ§a":8354,"Ġcarreira":8355,"Ġveneno":8356,"Ġcircular":8357,"Ġsingular":8358,"Ġpretende":8359,"Ġbeirada":8360,"ĠCalifÃ³rnia":8361,"Ġcobriu":8362,"Ġ40":8363,"ĠThingol":8364,"ĠÃģrvor":8365,"Ġadmira":8366,"Ġdemorar":8367,"ĠTeve":8368,"Ġfronteira":8369,"Ġcalcan":8370,"Ġrecuperar":8371,"ĠpossuÃŃa":8372,"ĠEspere":8373,"Ġideias":8374,"ĠTexas":8375,"17":8376,"ĠmissÃ£o":8377,"Ã§ador":8378,"Ã©ter":8379,"ĠAcontec":8380,"teis":8381,"Ġsuco":8382,"ĠVie":8383,"ĠGol":8384,"ĠEsses":8385,"gador":8386,"Ġpresas":8387,"Ġpercebido":8388,"ĠMarty":8389,"licar":8390,"Ãªmio":8391,"ĠlenÃ§Ã³is":8392,"Ġinimigo":8393,"ĠlÃŃquido":8394,"Brian":8395,"Minha":8396,"guma":8397,"ĠSU":8398,"ilou":8399,"Ġmur":8400,"Ġprovid":8401,"Ġserp":8402,"ĠÃłquele":8403,"Ġ(\"":8404,"ĠWy":8405,"ĠpoderÃ¡":8406,"Ġinterna":8407,"endesse":8408,"Ġtransm":8409,"ĠSub":8410,"Ġaguentar":8411,"Ġchegamos":8412,"Ġconvencido":8413,"bbins":8414,"ĠPrecisa":8415,"Ġespalhando":8416,"Ġsegredos":8417,"Ġcriou":8418,"Ġajus":8419,"ĠSenhora":8420,"Ġacostamento":8421,"13":8422,"?\",":8423,"cÃ³p":8424,"ey":8425,"gios":8426,"ĠnÃŃt":8427,"ĠApo":8428,"Ġporco":8429,"ĠCase":8430,"ĠLou":8431,"ciais":8432,"Ġfren":8433,"Ġtorres":8434,"Ġbancos":8435,"posiÃ§Ã£o":8436,"Ġbebeu":8437,"ĠDavis":8438,"Ġpiscando":8439,"Ġtrazido":8440,"Ġviera":8441,"Ġafirma":8442,"ĠRatinho":8443,"ure":8444,"Ġdente":8445,"Ġcovar":8446,"ĠtÃŃtulo":8447,"Ġfis":8448,"Ġesgu":8449,"tora":8450,"ich":8451,"ĠMac":8452,"Ġalco":8453,"Ġdesmor":8454,"Ġleito":8455,"itei":8456,"ĠHilly":8457,"ĠLand":8458,"ĠKansas":8459,"Ġantiqu":8460,"Ġpulsa":8461,"Ġmaravilhosa":8462,"Ġextremo":8463,"ĠlicenÃ§a":8464,"ag":8465,"nal":8466,"Ġflex":8467,"lake":8468,"Ġcompe":8469,"Ġbico":8470,"ĠDava":8471,"Ġaban":8472,"tiram":8473,"Ġtaco":8474,"ipse":8475,"tamentos":8476,"ĠplanÃŃ":8477,"Ġprovoca":8478,"Ġidiotas":8479,"Ġvivia":8480,"Ġquinto":8481,"Ġcabeceira":8482,"kn":8483,"inente":8484,"Ġsecun":8485,"lene":8486,"ĠAnt":8487,"ĠShar":8488,"ĠFin":8489,"Ġmontes":8490,"ĠpaciÃªncia":8491,"Ġfort":8492,"Ġcampa":8493,"Ã³spe":8494,"Ġbasta":8495,"Ġfolhe":8496,"ĠApÃ³s":8497,"ĠlÃŃder":8498,"Ġcoroa":8499,"Ġagonia":8500,"Fiquei":8501,"IV":8502,"quando":8503,"ostos":8504,"Ġvimos":8505,"daÃ§Ã£o":8506,"amar":8507,"ÃŃdas":8508,"ĠDinah":8509,"Ġdescu":8510,"ĠVicky":8511,"ĠRio":8512,"riado":8513,"Ġtemporada":8514,"Ġconseguiram":8515,"ĠAss":8516,"Ġsurdo":8517,"ĠrecepÃ§Ã£o":8518,"ĠsÃ©ria":8519,"ĠpalÃ¡":8520,"ĠExce":8521,"Ġansioso":8522,"Ġsorridente":8523,"Ġbrinquedos":8524,"Ġgerador":8525,"stein":8526,"Ġbruscamente":8527,"Ġbarulh":8528,"Ġtreinador":8529,"Ġtrajeto":8530,"CI":8531,"Ver":8532,"mie":8533,"pla":8534,"umbo":8535,"Ġvamp":8536,"Ġbest":8537,"Ġcata":8538,"illac":8539,"Ġdila":8540,"Ġmesinha":8541,"Ġsemelh":8542,"Ġpretas":8543,"ntagem":8544,"Ġmanga":8545,"culas":8546,"Ġmartelo":8547,"ĠÃ³tima":8548,"Ġrid":8549,"ĠParker":8550,"Ġexistir":8551,"Ġautom":8552,"Ġpermitir":8553,"Ġfumando":8554,"ĠvÃŃtima":8555,"Ġintegra":8556,"ĠCadillac":8557,"ĠsemelhanÃ§a":8558,"gna":8559,"Ġcoxa":8560,"ÃŃper":8561,"ÃŃfica":8562,"ĠTentou":8563,"Ġforas":8564,"Ġentranhas":8565,"Ġpregui":8566,"ĠmarÃ§o":8567,"Ġaconteceria":8568,"Ġclube":8569,"ĠKel":8570,"Ġescuta":8571,"ĠLey":8572,"Ġaperto":8573,"Ġassustador":8574,"Ġconsequ":8575,"ĠOutra":8576,"ĠameaÃ§a":8577,"Leva":8578,"ĠLewis":8579,"ĠridÃŃculo":8580,"?)":8581,"dra":8582,"inter":8583,"Ġnotar":8584,"ĠNed":8585,"Ġpresta":8586,"Ġolhe":8587,"Ġmesmas":8588,"Ġidos":8589,"ĠLiv":8590,"mbar":8591,"ĠraÃŃzes":8592,"Ġfalso":8593,"Ġvelh":8594,"Ġinternet":8595,"Ã§oso":8596,"ĠespetÃ¡":8597,"tropos":8598,"rigan":8599,"ĠidÃªnt":8600,"ĠMuitos":8601,"ĠGary":8602,"Ġcartaz":8603,"ĠBrett":8604,"Ġenfrentar":8605,"plex":8606,"ĠĊ":8607,"Ġdemor":8608,"ĠBon":8609,"Ġparcialmente":8610,"Ġmanuscri":8611,"ionais":8612,"risse":8613,"Ġsenhores":8614,"Ġroubado":8615,"Ġarmad":8616,"Ġtremeu":8617,"ĠElrond":8618,"Ġberrando":8619,"ĠpÃ´ster":8620,"ĠMorrison":8621,"ĠOutro":8622,"Ġimaginando":8623,"Ġempoeira":8624,"adrez":8625,"LA":8626,"bl":8627,"Ġfeno":8628,"val":8629,"omia":8630,"Ġatmos":8631,"Ġacid":8632,"ĠRou":8633,"Ġabat":8634,"Ġsentimentos":8635,"ĠchalÃ©":8636,"Ġsens":8637,"Ġvisual":8638,"Ġbarreira":8639,"ĠPeguei":8640,"Ġsalva":8641,"ĠChester":8642,"Ġatingido":8643,"ĠAliÃ¡s":8644,"Ġavalia":8645,"Ġacenou":8646,"Ġbengala":8647,"Ġtravesseiro":8648,"AA":8649,"hu":8650,"mm":8651,"Ġdepartamento":8652,"ĠvÃªm":8653,"lantes":8654,"ĠlÃº":8655,"ĠDÃª":8656,"ĠVem":8657,"ĠVirou":8658,"cioso":8659,"itz":8660,"Ġespiou":8661,"ĠGas":8662,"Ã¡sio":8663,"ĠavÃ³":8664,"Ġchorava":8665,"Ġadulto":8666,"ĠanotaÃ§Ãµes":8667,"ĠDool":8668,"ĠFrankie":8669,"Ġlimites":8670,"ADA":8671,"ĠNews":8672,"ĠLembra":8673,"ĠGuar":8674,"ĠAbriu":8675,"Ġvendedor":8676,"ĠÃ³bvio":8677,"ĠThomas":8678,"Ġbandeja":8679,"ĠDeepneau":8680,"!\",":8681,"Fa":8682,"cro":8683,"Ġajei":8684,"anÃ§as":8685,"icando":8686,"Ġporcaria":8687,"Ġmeteu":8688,"ĠHÃ£":8689,"Ġhaja":8690,"Ġchin":8691,"Ġamass":8692,"acos":8693,"esses":8694,"Ġcolar":8695,"Ġbriga":8696,"Ġadminist":8697,"fego":8698,"seiras":8699,"Ġlouro":8700,"Ġrecebido":8701,"Ġseguintes":8702,"ĠMeus":8703,"Ġpunhado":8704,"Ġfantasmag":8705,"Ġflorestas":8706,"Ġansiedade":8707,"Ġrodop":8708,"ĠForam":8709,"Ġdesconhecido":8710,"Ġgarantir":8711,"ĠexplicaÃ§Ã£o":8712,"Ġcortinas":8713,"Ġacaric":8714,"',":8715,"In":8716,"neu":8717,"Ġpip":8718,"Ġflan":8719,"Ġfitando":8720,"ĠSA":8721,"ĠTri":8722,"Ġperdida":8723,"ĠRoss":8724,"gantes":8725,"ĠhÃ³spe":8726,"ĠLane":8727,"Ġcortado":8728,"tÃ¡veis":8729,"Ġzona":8730,"Ġtremor":8731,"Ġencren":8732,"Ġdesliga":8733,"Seus":8734,"ĠChef":8735,"ĠDuke":8736,"Ġmunicipal":8737,"Ġprofessores":8738,"Ġperigosa":8739,"Ġrefletiu":8740,"Ġestremeceu":8741,"Ġluminos":8742,"Ġodiava":8743,"Ġsapato":8744,"rul":8745,"ĠsuicÃŃdio":8746,"ĠTR":8747,"ividade":8748,"Ġaposto":8749,"Ġabrup":8750,"Ãºp":8751,"Ġescar":8752,"Ġchef":8753,"Ġgritei":8754,"Ġposte":8755,"Ġtirei":8756,"largo":8757,"Ġacabei":8758,"Ġrecente":8759,"Ġpulo":8760,"ĠbebÃªs":8761,"Ġcaptura":8762,"Ġsuficientemente":8763,"Ġdesej":8764,"ĠNorton":8765,"ĠcompreensÃ£o":8766,"ĠUnivers":8767,"Ġdespensa":8768,"Ġinicial":8769,"Ġpassageiros":8770,"ĠClaude":8771,"ĠviolÃªncia":8772,"ĠSilver":8773,"ĠPescador":8774,"Ġbronze":8775,"ĠExatamente":8776,"Ġenvergon":8777,"lam":8778,"ĠsuÃ©ter":8779,"ĠRandy":8780,"terior":8781,"Ġintri":8782,"ĠpoderÃŃamos":8783,"Ġnega":8784,"assei":8785,"Ġlembrei":8786,"ĠbaÃº":8787,"Ġacham":8788,"licos":8789,"Ġbaixos":8790,"Ġprecisaria":8791,"Ġtremia":8792,"ĠHarold":8793,"Ġtrevas":8794,"Ġaguda":8795,"izade":8796,"ĠDeixa":8797,"ghlin":8798,"Ġescorregou":8799,"Ġcoloquei":8800,"Ġespalhar":8801,"ĠFeanor":8802,"Ġuniversidade":8803,"Ġreflexo":8804,"lim":8805,"Ġaram":8806,"Ġdiscre":8807,"Ġacum":8808,"ĠHigh":8809,"ĠserÃ£o":8810,"Ġrainha":8811,"Ġcueca":8812,"Ġcujos":8813,"endimento":8814,"Ġliguei":8815,"Ġacomo":8816,"ĠFreeman":8817,"Ġcomercial":8818,"Ġpermanecia":8819,"Ġaposentado":8820,"ĠhorÃ¡rio":8821,"ĠRobin":8822,"Ġdesconfor":8823,"Ġiluminado":8824,"Ġmorreram":8825,"Ġampla":8826,"Ġcomuns":8827,"ĠcansaÃ§o":8828,"Ġvizinhos":8829,"Ġhipnot":8830,"ĠemoÃ§Ã£o":8831,"Finalmente":8832,"Ho":8833,"eter":8834,"sando":8835,"ĠAN":8836,"Ġnaquelas":8837,"Ġreais":8838,"ĠpoÃ§a":8839,"Ġhar":8840,"Ġespira":8841,"Ġintensa":8842,"ĠirÃ¡":8843,"Ġlembre":8844,"talvez":8845,"Ġformato":8846,"Ġbatidas":8847,"Ġcavaleiros":8848,"Ġguardava":8849,"ĠMerrill":8850,"Ġjulgar":8851,"Ġprossegue":8852,"ĠTorrance":8853,"ĠClaudia":8854,"ĠKyra":8855,"Ġcalmamente":8856,"NinguÃ©m":8857,"pelo":8858,"ĠÃª":8859,"Ġpon":8860,"Ġoce":8861,"romp":8862,"ĠdoÃŃa":8863,"Ġparasse":8864,"icial":8865,"ridos":8866,"Ġsupe":8867,"cavam":8868,"ĠLeste":8869,"Ġargum":8870,"Ġpreench":8871,"Ġrestante":8872,"ĠcomeÃ§asse":8873,"Ġentregar":8874,"duÃ§Ã£o":8875,"Ġchamin":8876,"Ġgargal":8877,"Ġenfia":8878,"ĠcolocÃ¡":8879,"ĠpÃ©ss":8880,"ĠSamuels":8881,"Ġelim":8882,"dÃ¡veis":8883,"ĠfÃ¡brica":8884,"ĠCorvo":8885,"Ġacrescentar":8886,"ĠPrecis":8887,"Ġparticularmente":8888,"Ġinsistiu":8889,"pping":8890,"George":8891,"non":8892,"comp":8893,"Ġestru":8894,"Ġapress":8895,"Ġaborre":8896,"ĠUM":8897,"Ġcompra":8898,"Ġentrela":8899,"ĠsolitÃ¡rio":8900,"Ã¢nica":8901,"Ġbaga":8902,"Ġescutou":8903,"Ġconfusa":8904,"ockste":8905,"Ġatravessando":8906,"ĠLake":8907,"Ġxadrez":8908,"Ġquantas":8909,"Ġrecordar":8910,"ĠCurwen":8911,"Ġengoliu":8912,"ĠSonny":8913,"ĠautomÃ¡tica":8914,"ĠMichaela":8915,"ĠÃ³rbitas":8916,"ockstetter":8917,"Olhei":8918,"ĠcÃ¢mara":8919,"Ġnelas":8920,"ory":8921,"Ġensa":8922,"Ġletra":8923,"Ġsentisse":8924,"Ġsegue":8925,"Ġtrata":8926,"teria":8927,"Ġqualidade":8928,"Ġtorcendo":8929,"Ġpendia":8930,"Ġrock":8931,"Ġbarbe":8932,"Ġsubterr":8933,"Ġadvert":8934,"Ġcontinuaram":8935,"ĠmilhÃ£o":8936,"ĠzÃŃper":8937,"Ġhumil":8938,"Ġgrupos":8939,"Ġtransformado":8940,"Ġoposto":8941,"Ġigualmente":8942,"Ġexemplar":8943,"ĠestÃºpido":8944,"ĠelÃ©trico":8945,"Ġguardana":8946,"ĠMontanhas":8947,"Ġnotici":8948,"ides":8949,"rist":8950,"Ġpneu":8951,"Ġmina":8952,"Ġbizar":8953,"Ġlix":8954,"ÃŃdu":8955,"ĠMÃ£e":8956,"ĠTig":8957,"ĠBell":8958,"Ġperdi":8959,"ĠRosa":8960,"Ġcontinha":8961,"ĠEsp":8962,"ĠDepartamento":8963,"jados":8964,"Ġrepro":8965,"chada":8966,"Ġconfiar":8967,"Ġprofesso":8968,"uddie":8969,"ĠcaÃŃra":8970,"Ġviraram":8971,"ĠhorrÃŃveis":8972,"Ġvestindo":8973,"ĠmurmÃº":8974,"ADE":8975,"ĠsupÃ´s":8976,"ĠLembro":8977,"Ġqueimar":8978,"Ġblocos":8979,"Ġchorou":8980,"Ġpertencia":8981,"Ġirregular":8982,"ĠfÃŃsica":8983,"Ġdelic":8984,"Ġfero":8985,"Ġesbo":8986,"Ġcombus":8987,"ical":8988,"come":8989,"ĠCl":8990,"ĠanÃµes":8991,"Ġpastor":8992,"Ġcarinho":8993,"aroid":8994,"jadas":8995,"Ġmandado":8996,"Ġvala":8997,"ĠCox":8998,"Ġenfim":8999,"Ġencur":9000,"Ġquadrado":9001,"Ġcompreendeu":9002,"Ġgolfe":9003,"ANDO":9004,"ĠMerce":9005,"Ġcruzadas":9006,"Ġabsurdo":9007,"ĠremÃ©dios":9008,"Ã¢ntano":9009,"Jones":9010,"ĠdanÃ§ando":9011,"aste":9012,"Ġnua":9013,"leto":9014,"Ġbigo":9015,"ĠTw":9016,"Ġabor":9017,"ĠAlÃ´":9018,"radora":9019,"Ġduvido":9020,"Ġcujas":9021,"Ġbarcos":9022,"Ġincrivelmente":9023,"tude":9024,"Ġveem":9025,"Ġperguntava":9026,"Ġsumir":9027,"ĠCale":9028,"ĠHall":9029,"Ġperdera":9030,"Ġremex":9031,"Ġexerc":9032,"vista":9033,"Ġk":9034,"raÃ§Ãµes":9035,"isom":9036,"Ġtat":9037,"deau":9038,"ĠCul":9039,"ĠMundo":9040,"unciou":9041,"Ġapara":9042,"ĠElaine":9043,"ĠsolitÃ¡ria":9044,"Ġcorredores":9045,"Ġconsum":9046,"Ġtranspar":9047,"greme":9048,"Ġpiscina":9049,"ĠBarrens":9050,"Ġsujeitos":9051,"Ã³rico":9052,"ĠKey":9053,"Ġabsoluto":9054,"ĠengraÃ§ada":9055,"Ġrisadinha":9056,"Ġgrossa":9057,"ĠPolaroid":9058,"Richie":9059,"ĠMcGee":9060,"Ġsufoca":9061,"Ġcaderno":9062,"ĠÃŃngreme":9063,"ĠPouco":9064,"ĠPrincipal":9065,"Ġbaile":9066,"ĠtrÃ¡fego":9067,"Ġobjetivo":9068,"Ġatmosfera":9069,"Mc":9070,"Ġit":9071,"Ġecl":9072,"Ġquinh":9073,"lad":9074,"Ġbam":9075,"top":9076,"gues":9077,"Ġgostei":9078,"eck":9079,"ilmente":9080,"Ġrevol":9081,"ĠDur":9082,"vete":9083,"cabeÃ§a":9084,"Ġatendeu":9085,"...âĢĶ":9086,"ĠGo":9087,"ĠGri":9088,"taruga":9089,"Ġcampe":9090,"inante":9091,"randon":9092,"iosamente":9093,"ĠMartin":9094,"Ġloucos":9095,"Ġplantas":9096,"Ġgota":9097,"vanderia":9098,"ĠChegou":9099,"Ġsurgir":9100,"Ġdeclar":9101,"Ġrecomp":9102,"ĠGrandes":9103,"Ġprateleiras":9104,"Ġsoprava":9105,"Ġassistindo":9106,"ĠDoriath":9107,"Ġdiminuiu":9108,"ĠWalter":9109,"Ġdevemos":9110,"ingsley":9111,"ĠmÃŃnima":9112,"ĠOdetta":9113,"Ġprofissional":9114,"Ġdesmoron":9115,"teira":9116,"reas":9117,"ecta":9118,"Ġestes":9119,"ĠMad":9120,"ĠThor":9121,"Ġperu":9122,"Ġatitude":9123,"ĠRE":9124,"ĠGwendy":9125,"tero":9126,"Ġ13":9127,"Ġcutu":9128,"Ġaudi":9129,"ralmente":9130,"ĠElizabeth":9131,"Ġrastro":9132,"Ġpermanecer":9133,"Ġexaminar":9134,"rust":9135,"Ġsecreta":9136,"Ġdobrou":9137,"ĠDunning":9138,"Ġpiquenique":9139,"Frank":9140,"cross":9141,"iei":9142,"jur":9143,"Ãł":9144,"Ġteste":9145,"Ġembara":9146,"Ġgatos":9147,"ĠSoc":9148,"Ġenla":9149,"ĠsaÃºde":9150,"ĠterÃ§a":9151,"ĠFA":9152,"Ġanc":9153,"ĠLily":9154,"Ġprendeu":9155,"Ġimpren":9156,"Ġimenso":9157,"Ġprecisasse":9158,"Ġesqueci":9159,"Ġsuficientes":9160,"ĠSupon":9161,"Essa":9162,"Ġdespertar":9163,"Ġcumprir":9164,"Ġsugeriu":9165,"Ġcomportamento":9166,"Ġestridente":9167,"utela":9168,"Mesmo":9169,"cle":9170,"ĠdÃ£o":9171,"Ġsino":9172,"ĠtensÃ£o":9173,"inamente":9174,"lazar":9175,"ence":9176,"gus":9177,"ĠAcor":9178,"Ġrez":9179,"ĠNat":9180,"Ġosci":9181,"ĠDem":9182,"Ġrico":9183,"ramas":9184,"Ġvolte":9185,"Ġformar":9186,"Ġlutando":9187,"Ġintu":9188,"Ġrepou":9189,"Ġlevara":9190,"Ġavent":9191,"inete":9192,"ĠsaÃŃra":9193,"Ġcapim":9194,"ĠHarrigan":9195,"ulada":9196,"Ġambiente":9197,"Ġvencer":9198,"Ġidentificar":9199,"Ġtesouro":9200,"Ġadultos":9201,"ragia":9202,"Ġshor":9203,"erÃ¡ria":9204,"Ġcoca":9205,"estos":9206,"anidade":9207,"Ġdoces":9208,"Ġemper":9209,"ĠlÃ³gica":9210,"col":9211,"ĠDentro":9212,"ĠFei":9213,"Ġcordas":9214,"Ġabismo":9215,"Ġcaminhos":9216,"Ġamal":9217,"ĠsÃ³tÃ£o":9218,"undou":9219,"Ġentretanto":9220,"Ġfilhas":9221,"hecer":9222,"Ġanoite":9223,"ĠDES":9224,"ĠNorth":9225,"Ġrepetir":9226,"Ġcaminhava":9227,"Ġagradecer":9228,"Ġgargalhadas":9229,"Ġretornou":9230,"ÃŃstica":9231,"ĠhipÃ³":9232,"golas":9233,"Pensei":9234,"HÃ¡":9235,"estar":9236,"rey":9237,"alie":9238,"iche":9239,"ecimento":9240,"Ġdesfa":9241,"Ġene":9242,"ĠBlu":9243,"Ġlac":9244,"ĠLud":9245,"ĠGim":9246,"Ġcorriam":9247,"Ġluva":9248,"Ġcomprimento":9249,"Ġpassam":9250,"chÃ£o":9251,"Ġjogada":9252,"Ġsurra":9253,"Porque":9254,"Ġcinzas":9255,"Ġsupunha":9256,"Ġmencionar":9257,"Ġeditor":9258,"Ġcampainha":9259,"ĠespetÃ¡culo":9260,"GA":9261,"uta":9262,"Ġcosta":9263,"inz":9264,"Ġvim":9265,"valho":9266,"tera":9267,"Ġrefor":9268,"Ġperplex":9269,"Ġmorro":9270,"inhando":9271,"Ġmanche":9272,"ĠruÃŃdos":9273,"Ġgostam":9274,"Ġtransfer":9275,"Ġbaixas":9276,"Ġpedac":9277,"Ġmovimentos":9278,"ĠEstadual":9279,"Ġ60":9280,"Peter":9281,"Ġexausto":9282,"Ġfragmentos":9283,"Ġatrope":9284,"ĠCavaleiros":9285,"Ġemaranhado":9286,"ĠmatÃ©ria":9287,"Ora":9288,"Thad":9289,"kor":9290,"inÃ¡rio":9291,"reta":9292,"encial":9293,"Ġmaj":9294,"Ġcautela":9295,"ĠOS":9296,"ĠraÃ§a":9297,"Ġralo":9298,"Ġsonhando":9299,"ĠbalanÃ§ava":9300,"ĠpercepÃ§Ã£o":9301,"Ġchegaria":9302,"ĠArroto":9303,"Ġmantendo":9304,"Ġgelada":9305,"criÃ§Ã£o":9306,"Ġapanhou":9307,"Ġsuportar":9308,"Ġdeslizando":9309,"Ġprender":9310,"timamente":9311,"ĠIlse":9312,"ventude":9313,"raz":9314,"lamento":9315,"Ġdata":9316,"Ġestas":9317,"Ġcadela":9318,"irley":9319,"Ġrecom":9320,"ĠTirou":9321,"Ġacusa":9322,"ĠFico":9323,"Ġpropor":9324,"urada":9325,"ĠGib":9326,"Ġsentidos":9327,"Ġamizade":9328,"ĠsÃ³b":9329,"Ġoutrora":9330,"Ġimportar":9331,"ĠBeleg":9332,"ĠcaÃŃsse":9333,"Ġdesejar":9334,"Ġcobertos":9335,"bril":9336,"Ġmolho":9337,"Ġsenhoras":9338,"ĠCurtis":9339,"Ġoficina":9340,"Ġliberdade":9341,"Ġleitura":9342,"Ġsequest":9343,"ĠSanders":9344,"ĠPassolargo":9345,"Parec":9346,"ki":9347,"Ġox":9348,"Ġtivemos":9349,"Ġvaria":9350,"Ġdoido":9351,"Ġrele":9352,"ĠCoca":9353,"Ġrus":9354,"Ġconter":9355,"Quem":9356,"Ġcheque":9357,"ĠSeis":9358,"Ġdeixasse":9359,"Ġiriam":9360,"Ġnascer":9361,"ĠJacky":9362,"Ġantigamente":9363,"Ġempilha":9364,"ĠdiversÃ£o":9365,"Ġconsiderar":9366,"Ġondu":9367,"ĠWillett":9368,"ĠÃģtropos":9369,"ĠImagino":9370,"Ġmuralhas":9371,"Ġmilagre":9372,"Ġresponsabilidade":9373,"ĠpÃ¡lpebras":9374,"cÃªs":9375,"dis":9376,"geiro":9377,"ary":9378,"eso":9379,"Ġvos":9380,"Ġemoc":9381,"Ã³tico":9382,"Ġfogos":9383,"ivil":9384,"ivÃ©ssemos":9385,"ĠVale":9386,"itinho":9387,"ĠLos":9388,"ĠLen":9389,"Ã´metro":9390,"Ġgrana":9391,"Ġrochas":9392,"Ġsopa":9393,"Ġcalar":9394,"utter":9395,"Ġolhares":9396,"ĠpÃ¡ra":9397,"Ġapoio":9398,"ignifica":9399,"brindo":9400,"ĠCamber":9401,"Ġenganado":9402,"Ġbatatas":9403,"Ġrevelou":9404,"Ġdelicadamente":9405,"Barbie":9406,"Ġveloz":9407,"Ġimprensa":9408,"Nos":9409,"Susannah":9410,"een":9411,"joso":9412,"reria":9413,"ares":9414,"Ġfral":9415,"lain":9416,"Ã¡culos":9417,"ĠVa":9418,"Ġtemer":9419,"Ġladeira":9420,"Ġhamb":9421,"Ġpesqu":9422,"Ġtipos":9423,"ĠveÃŃculos":9424,"Ġdesaparecera":9425,"ĠPerce":9426,"ĠpapelÃ£o":9427,"ĠFazia":9428,"ĠYune":9429,"ĠStebbins":9430,"ĠBenny":9431,"Ġprovocou":9432,"Ġsurpreendente":9433,"ĠSegundo":9434,"ĠbÃªbados":9435,"Ġencarar":9436,"Ġescurecer":9437,"Ġpardais":9438,"ĠDooling":9439,"Durante":9440,"tÃŃ":9441,"Ġves":9442,"alhas":9443,"ĠEU":9444,"embro":9445,"icion":9446,"ĠAL":9447,"ĠAndo":9448,"Ġestendendo":9449,"Ġenjo":9450,"Ġhero":9451,"Ġsenta":9452,"pados":9453,"ruz":9454,"Ġfalsa":9455,"berta":9456,"Ġencontramos":9457,"Ġestarem":9458,"ĠcolÃ©gio":9459,"utÃ¢ncia":9460,"Ġficarem":9461,"Ġroubar":9462,"Ġhouver":9463,"ĠNorcross":9464,"Ġestacionado":9465,"Ġderrubou":9466,"Ġdescoberta":9467,"ĠSarah":9468,"ĠDalton":9469,"ILL":9470,"Richards":9471,"Ġrampa":9472,"ĠquarteirÃ£o":9473,"antes":9474,"uÃ§Ã£o":9475,"vimento":9476,"yd":9477,"Ġtolo":9478,"escuro":9479,"umbra":9480,"Ġcadeado":9481,"Ġinvas":9482,"ĠInter":9483,"essou":9484,"Ġtortura":9485,"grafia":9486,"Ġtrancado":9487,"sass":9488,"Ġtelep":9489,"llman":9490,"Ġligando":9491,"tempo":9492,"ĠcoraÃ§Ãµes":9493,"ĠVinte":9494,"Ġencarre":9495,"Ġespalhados":9496,"Ġbombas":9497,"Ġrepentina":9498,"Ġorigem":9499,"Ġequilib":9500,"Ġpaisagem":9501,"rulha":9502,"16":9503,"22":9504,"Ro":9505,"dÃ¡rio":9506,"nor":9507,"up":9508,"Ġqueijo":9509,"rons":9510,"guem":9511,"ĠnoÃ§Ã£o":9512,"Ġmaus":9513,"Ġalerta":9514,"ĠBat":9515,"Ġatender":9516,"ĠRidge":9517,"isada":9518,"urÃ£o":9519,"Ġespiada":9520,"loto":9521,"Ãºr":9522,"Ġradio":9523,"Ġpassasse":9524,"estÃµes":9525,"Ġrolar":9526,"Ġ100":9527,"Ġexpecta":9528,"andro":9529,"Ġobst":9530,"Ġfundam":9531,"Ġexage":9532,"ĠrelutÃ¢ncia":9533,"Ġgola":9534,"heila":9535,"Ġfugindo":9536,"Ġabajur":9537,"Ġchegavam":9538,"Ġaprende":9539,"ĠFalou":9540,"Ġlanchonete":9541,"Ġdesprezo":9542,"Ġdebru":9543,"Ġperfume":9544,"Ġnamorada":9545,"ĠWesley":9546,"ĠamaldiÃ§o":9547,"Fui":9548,"Morris":9549,"UM":9550,"ld":9551,"tha":9552,"xim":9553,"Ġecon":9554,"ĠpÃªn":9555,"dore":9556,"Ġvela":9557,"Ġdoer":9558,"ĠNÃºm":9559,"omir":9560,"garo":9561,"Ġprolon":9562,"Ġalgemas":9563,"Ġpuse":9564,"ĠmarÃ©":9565,"Ġencontraria":9566,"correu":9567,"Ġcabana":9568,"Ġciente":9569,"rench":9570,"ĠInc":9571,"Ġfuncionava":9572,"Ġmolhada":9573,"Ġarrastar":9574,"ĠMelkor":9575,"ĠSegunda":9576,"ilares":9577,"Ġlanternas":9578,"Ġcomunica":9579,"ĠOld":9580,"ĠLaurie":9581,"ĠDiretor":9582,"humo":9583,"ulado":9584,"Ġalavan":9585,"quÃª":9586,"Ġviria":9587,"hador":9588,"ĠAC":9589,"ĠAi":9590,"ĠMim":9591,"ĠFrench":9592,"Ġexpe":9593,"ĠEsqu":9594,"ĠcomeÃ§am":9595,"Ġobriga":9596,"Ġsubiram":9597,"Ġacabaram":9598,"Ġpossivelmente":9599,"hadores":9600,"ornou":9601,"ĠMuitas":9602,"Ġescorrega":9603,"Ġcresceu":9604,"muito":9605,"ĠladrÃ£o":9606,"Ġpintura":9607,"ĠfrÃ¡gil":9608,"Ġarame":9609,"AtÃ©":9610,"Cap":9611,"dÃª":9612,"Ġka":9613,"ĠpÃµe":9614,"Ġdevesse":9615,"Ġcolher":9616,"Ġcopos":9617,"inville":9618,"ĠlanÃ§ando":9619,"ÃŃlio":9620,"ĠPiper":9621,"ĠMen":9622,"ĠTÃ£o":9623,"cid":9624,"Ġhavido":9625,"iote":9626,"ĠUr":9627,"Ġimplo":9628,"Ġbagu":9629,"bral":9630,"Ġchoram":9631,"Ġimens":9632,"Ġimensa":9633,"ĠmonÃ³":9634,"ĠreuniÃµes":9635,"ÃŃssima":9636,"Ġcumprim":9637,"ĠtrÃªmulo":9638,"Ġindifer":9639,"Ġultimamente":9640,"Ġmoscas":9641,"Ġdocumentos":9642,"ĠColorado":9643,"Ex":9644,"TER":9645,"tru":9646,"teiros":9647,"lenta":9648,"ĠSob":9649,"ĠBrandon":9650,"Ġmestre":9651,"Ġespingar":9652,"ĠEspe":9653,"Ġteia":9654,"Ġencontrara":9655,"Ġconserva":9656,"Ġescute":9657,"Ġbatido":9658,"enderam":9659,"ĠMordor":9660,"Ġpuxado":9661,"Ġsignificado":9662,"Ġassassin":9663,"Ġarrastou":9664,"Ġgorda":9665,"Ġabandonada":9666,"Ġdiminuir":9667,"Ġdisser":9668,"ĠSenti":9669,"Ġbombeiros":9670,"Ġembria":9671,"brough":9672,"Ġentusiasmo":9673,"!âĢĶ":9674,"entara":9675,"elhas":9676,"teran":9677,"ĠSai":9678,"ĠOlÃ¡":9679,"ĠObs":9680,"ĠanÃ©is":9681,"Ġbota":9682,"Ġrolo":9683,"Ġguia":9684,"ther":9685,"Ġacordada":9686,"Ġpintado":9687,"Ġfolga":9688,"Come":9689,"Ġpunha":9690,"quesis":9691,"Ġcreme":9692,"Ġvivas":9693,"ĠcartÃµes":9694,"ĠAcima":9695,"Ġlampe":9696,"Ġenferrujado":9697,"Ġconfirmou":9698,"Ġinvestig":9699,"ĠRolando":9700,"ĠrazoÃ¡vel":9701,"Garraty":9702,"ĠErgueu":9703,"ĠcombustÃŃvel":9704,"Jonesy":9705,".,":9706,"Mike":9707,"TOS":9708,"jus":9709,"pens":9710,"wson":9711,"Ġdeca":9712,"doria":9713,"Ġesbu":9714,"tola":9715,"ĠPel":9716,"ĠPesso":9717,"Ġfoder":9718,"Ġservia":9719,"Ġlavanderia":9720,"Ġresga":9721,"ĠvovÃ³":9722,"Ġtambor":9723,"Ġboquia":9724,"Ġcorrentes":9725,"Ġlevant":9726,"ĠaliÃ¡s":9727,"Ġpossam":9728,"Ġfecharam":9729,"Ġagulha":9730,"Ġquebrando":9731,"ĠKeene":9732,"ĠBalazar":9733,"Ġdeprim":9734,"Ġsoprou":9735,"Ġaumentou":9736,"ĠOutros":9737,"Ġtubo":9738,"bury":9739,"ĠStephen":9740,"ĠtÃªmporas":9741,"Ġutil":9742,"Ġretrovisor":9743,"Nesse":9744,"Par":9745,"bua":9746,"idi":9747,"ks":9748,"rica":9749,"zie":9750,"ĠaÃ©":9751,"inam":9752,"Ġatras":9753,"ĠprÃŃncipe":9754,"ĠFri":9755,"Ġserve":9756,"Ġarru":9757,"Ġsentei":9758,"Ġamas":9759,"Ġtraseiras":9760,"ĠÃºtil":9761,"ĠEntendeu":9762,"corre":9763,"fadas":9764,"licas":9765,"Ġaparecia":9766,"Ġaconte":9767,"Ġvenen":9768,"Ġ45":9769,"Ġhabitu":9770,"Ġsemelhantes":9771,"Ġsobreviver":9772,"Ġdetalhe":9773,"ĠoperaÃ§Ã£o":9774,"ĠGimli":9775,"ĠhambÃºrguer":9776,"TRA":9777,"jÃ£o":9778,"Ġave":9779,"all":9780,"imado":9781,"Ġdadas":9782,"ame":9783,"Ġmagn":9784,"ĠTentei":9785,"Ġperdo":9786,"Ġlentes":9787,"ensivo":9788,"ĠLiga":9789,"Ġcerim":9790,"Ġvelas":9791,"Ġsozinhos":9792,"choque":9793,"Ġsalp":9794,"Ġfileiras":9795,"Ġviajar":9796,"Ġconfun":9797,"Ġobstante":9798,"Ġzela":9799,"ĠprÃ³ximas":9800,"Ġaguar":9801,"Ġbordo":9802,"Ġatacar":9803,"lette":9804,"Ġamplo":9805,"Ġofus":9806,"Ġrevelar":9807,"Ġajoelhou":9808,"Ġsorrisinho":9809,"ĠRothstein":9810,"ĠMercedes":9811,"!)":9812,"cei":9813,"mi":9814,"ola":9815,"Ġpinheiros":9816,"ison":9817,"Ġcop":9818,"Ġtente":9819,"deral":9820,"Ġdesceram":9821,"Ġachasse":9822,"Ġhos":9823,"Ġmovia":9824,"ĠWat":9825,"Ġencontravam":9826,"ĠJackson":9827,"Ġbeco":9828,"ĠÃºnicos":9829,"ilante":9830,"Ġarranjar":9831,"Ġnarinas":9832,"tassem":9833,"Ġmembro":9834,"Ġoferec":9835,"Ġtroux":9836,"Ġdespen":9837,"ĠBowie":9838,"Ġacertar":9839,"Ġdesculpa":9840,"Ġfixamente":9841,"Ġadormecido":9842,"Ġevidente":9843,"Ġtornozelo":9844,"Ġarmadilha":9845,"Ġdeclarou":9846,"Oh":9847,"bom":9848,"grado":9849,"ismos":9850,"tane":9851,"Ġumidade":9852,"del":9853,"queza":9854,"Ġhabilidade":9855,"Ġconseguindo":9856,"ĠWash":9857,"Ġvago":9858,"Ġapoiado":9859,"Ġferimento":9860,"Ġdescal":9861,"Ġlargos":9862,"ĠParou":9863,"ĠVerdade":9864,"Ġprocurava":9865,"Ġregistros":9866,"Ġamericana":9867,"ĠedifÃŃcio":9868,"Ġmelhorar":9869,"Ġsilenciosamente":9870,"ĠsaudÃ¡vel":9871,"ĠcoincidÃªncia":9872,"eg":9873,"gen":9874,"rt":9875,"ĠaÃ§":9876,"Ġvilar":9877,"ances":9878,"Ġempa":9879,"Ġgener":9880,"ÃŃqu":9881,"ĠMeio":9882,"Ġdivi":9883,"Ġatirando":9884,"ĠEstre":9885,"Ġforno":9886,"itados":9887,"Ġchumbo":9888,"Ġhomen":9889,"essos":9890,"ficos":9891,"Ġafunda":9892,"ĠJoy":9893,"ĠToo":9894,"Ġcontinuasse":9895,"dicionado":9896,"Ġfebril":9897,"Ġencostas":9898,"Ġreconhecer":9899,"Ġcolega":9900,"Ġencant":9901,"ĠGreg":9902,"ĠBurny":9903,"ĠAchou":9904,"Ġadolescentes":9905,"Ġantebra":9906,"ĠemoÃ§Ãµes":9907,"Ġmodelo":9908,"Ġimbecil":9909,"Ġdeterminado":9910,"Ġdemorou":9911,"ĠUniversidade":9912,"ĠquÃŃm":9913,"ĠbÃ¡s":9914,"Ġnotado":9915,"ĠSente":9916,"ÃŃra":9917,"Ġrecos":9918,"ĠPai":9919,"Ġenru":9920,"Ġsauda":9921,"ulsa":9922,"Ġarruma":9923,"mbio":9924,"Ġguer":9925,"Ġrugido":9926,"Ġesperado":9927,"Ġpercebia":9928,"Ġobsc":9929,"ĠCarl":9930,"Ġdescans":9931,"Ġpensativo":9932,"Ġriram":9933,"ĠProf":9934,"Ġpijam":9935,"Ġtirava":9936,"aneamente":9937,"ĠBeren":9938,"Ġcambaleando":9939,"Ġesfregando":9940,"Ġtornozelos":9941,"ĠÃªx":9942,"18":9943,"?]":9944,"Ġdetes":9945,"Ġdecom":9946,"arro":9947,"ĠquÃ£o":9948,"Ġcobrindo":9949,"lara":9950,"Ġenvel":9951,"Ġsac":9952,"Ãºl":9953,"Ġchei":9954,"Ġchico":9955,"Ġamigas":9956,"tifica":9957,"cheira":9958,"Ġduvi":9959,"grafo":9960,"Ġgostando":9961,"Ġestrangu":9962,"mesmo":9963,"ĠRoy":9964,"Ġdeslizar":9965,"ĠopÃ§Ã£o":9966,"ĠMerda":9967,"Ġfresca":9968,"Ġmonstros":9969,"gothrond":9970,"Ġfirmemente":9971,"Ġhonra":9972,"ĠinvestigaÃ§Ã£o":9973,"Ġbuzina":9974,"ĠcenÃ¡rio":9975,"ĠNargothrond":9976,"CapÃŃtulo":9977,"CH":9978,"zas":9979,"Ġcida":9980,"ish":9981,"Ã¡ticos":9982,"ĠDi":9983,"Ġdisti":9984,"ĠÃ©ramos":9985,"icago":9986,"Ġpaga":9987,"Ġsentava":9988,"ĠDevo":9989,"ntac":9990,"Ġrabis":9991,"Ġmangas":9992,"Ġpoderosa":9993,"ĠCompre":9994,"Ġafrou":9995,"Ġinstantes":9996,"Ġ24":9997,"Ġamargo":9998,"Ġpulando":9999,"Ġsujas":10000,"Ġespantado":10001,"Ġvestir":10002,"Ġdistingu":10003,"Ġanteriores":10004,"Ġensinar":10005,"ĠBowers":10006,"Ġhesitante":10007,"Ġaprecia":10008,"Ġrang":10009,"Ġrepentino":10010,"ĠCoughlin":10011,"ĠQuantos":10012,"ĠginÃ¡sio":10013,"Ġoxig":10014,"Tim":10015,"cinha":10016,"pper":10017,"ratura":10018,"Ġpondo":10019,"dom":10020,"Ġbin":10021,"Ã©us":10022,"Ġcaip":10023,"Ġren":10024,"Ġreis":10025,"ĠPon":10026,"ĠTher":10027,"Ġespinha":10028,"ĠLei":10029,"Ġprende":10030,"Ġpadre":10031,"Ġcerve":10032,"Ġimpre":10033,"ĠPorra":10034,"estrada":10035,"Ġnasceu":10036,"Ġinchado":10037,"Ġachado":10038,"Ġdormiu":10039,"Ġamarelos":10040,"ĠChicago":10041,"ĠClaire":10042,"ĠfuncionÃ¡rio":10043,"Ġprovar":10044,"Ġcuriosa":10045,"ĠDenbrough":10046,"Ġresolveu":10047,"Ġenterro":10048,"Ġespalhou":10049,"Ġassustadora":10050,"Ġpersist":10051,"Ġdeveriam":10052,"Ġdesesperado":10053,"ĠrecomeÃ§ou":10054,"Ġprisioneiro":10055,"Ġsuponho":10056,"Ġpiloto":10057,"Ġperplexo":10058,"ĠEverett":10059,"CO":10060,"lumb":10061,"tinhos":10062,"xos":10063,"Ġvinda":10064,"ĠAS":10065,"ĠMiss":10066,"ĠOx":10067,"ĠcondiÃ§Ã£o":10068,"vernas":10069,"Ġroxo":10070,"Ġlevei":10071,"endÃª":10072,"Ġtrono":10073,"Ġestejam":10074,"Ġpiscar":10075,"Ġguardado":10076,"ĠHoff":10077,"Ġescrevi":10078,"ĠParte":10079,"ĠNorrie":10080,"Ġcostumavam":10081,"Ġapanhar":10082,"ĠVoltou":10083,"ĠCuidado":10084,"ĠTrabal":10085,"Ġfuriosa":10086,"Ġjogador":10087,"Ġretornar":10088,"Ġalegremente":10089,"Ġdesviar":10090,"Ġhabitantes":10091,"ĠBoromir":10092,"ATI":10093,"inte":10094,"ileza":10095,"Ġfura":10096,"anha":10097,"deza":10098,"teia":10099,"ĠDuma":10100,"ĠOndo":10101,"Ġdesas":10102,"Ġendire":10103,"Ġcercado":10104,"essar":10105,"entadas":10106,"Ġobras":10107,"Ġmalas":10108,"Ġbandeira":10109,"Ġtrabalhos":10110,"Ġsanidade":10111,"Ġhouvera":10112,"izadas":10113,"Ã§adores":10114,"Ġcirur":10115,"Segu":10116,"Ġencostado":10117,"Ġpressent":10118,"ĠBeav":10119,"ĠtropeÃ§ou":10120,"Ġ1958":10121,"Ġmomentaneamente":10122,"Ġpersonagem":10123,"ĠsÃŃmb":10124,"Ġoceano":10125,"Ġprofessora":10126,"Ġferoz":10127,"Ġalavanca":10128,"Tem":10129,"tho":10130,"Ġnit":10131,"Ġnessas":10132,"Ġfision":10133,"entaram":10134,"ĠScho":10135,"Ã³leo":10136,"Ġaspira":10137,"Ġretar":10138,"ĠPAR":10139,"ĠTif":10140,"unciar":10141,"Ġina":10142,"ull":10143,"ĠHospital":10144,"Ġtema":10145,"vereiro":10146,"Ãºdo":10147,"ĠWilly":10148,"Ġmarcado":10149,"Ġcliente":10150,"Ġafe":10151,"Ġalien":10152,"Ġprecisavam":10153,"Ġcega":10154,"ĠMay":10155,"Ġ22":10156,"Ġrecebi":10157,"Ġarrancado":10158,"Ġquadros":10159,"ĠilusÃ£o":10160,"anscom":10161,"ĠtÃ¡bua":10162,"Ġensin":10163,"Ġsexual":10164,"Ġvisitante":10165,"Ġquebradas":10166,"Ġmergulhou":10167,"Ġronco":10168,"Ġenviar":10169,"Charlie":10170,"fany":10171,"ĠAndrew":10172,"ĠpalÃ¡cio":10173,"Ġestrutura":10174,"Ġeclipse":10175,"OO":10176,"bem":10177,"bei":10178,"Ġdeli":10179,"iscons":10180,"inor":10181,"indro":10182,"rene":10183,"dalhÃ£o":10184,"ĠlÃª":10185,"ĠAmar":10186,"ĠCath":10187,"Ġatentamente":10188,"Ġcontava":10189,"Ġesprem":10190,"Ġidoso":10191,"Ġcorrig":10192,"Ġficamos":10193,"ĠUsava":10194,"pergu":10195,"strid":10196,"ĠcarroÃ§a":10197,"ĠavanÃ§ando":10198,"Ġmerece":10199,"Ġagentes":10200,"ĠcapÃ´":10201,"ĠHogan":10202,"Ġmentalmente":10203,"onato":10204,"malas":10205,"Ġdespertou":10206,"Ġexame":10207,"Ġinclina":10208,"Ġrisadas":10209,"Ġfixos":10210,"ĠTrent":10211,"Ġresistir":10212,"Ġsinistra":10213,"wsky":10214,"Ġdensa":10215,"Ġfelicidade":10216,"ĠAvenida":10217,"elicÃ³p":10218,"Ġanoitecer":10219,"ĠaconteÃ§a":10220,"bum":10221,"mem":10222,"sia":10223,"Ġplen":10224,"Ġteu":10225,"ĠtirÃ¡":10226,"Ġfrust":10227,"Ġbel":10228,"icho":10229,"Ġlist":10230,"ÃŃzo":10231,"Ġestendi":10232,"usÃµes":10233,"Ġconvi":10234,"Ġinacredi":10235,"Ġlabora":10236,"Ġcortada":10237,"Ġcamisas":10238,"Ġcompridas":10239,"cure":10240,"Ġsolto":10241,"Ġvagar":10242,"Ġconsist":10243,"Ġbarras":10244,"ĠbalanÃ§ar":10245,"Ġsorvete":10246,"Ġfuneral":10247,"ĠBeach":10248,"ĠCarver":10249,"Ġdescri":10250,"ĠHomer":10251,"Ġparticipa":10252,"Ġmortais":10253,"Ġdourada":10254,"Ġmaravilha":10255,"Ġmexendo":10256,"Ġinformou":10257,"Ġarquivo":10258,"ĠfÃ³sforos":10259,"Ġtroncos":10260,"ĠCreio":10261,"ĠgrÃ¡vida":10262,"Ġinterruptor":10263,"Ġaspir":10264,"Ġcertificar":10265,"Big":10266,"Ser":10267,"zinhas":10268,"Ġpir":10269,"Ġesvoa":10270,"enÃ§as":10271,"Ġnause":10272,"Ġassegu":10273,"ĠCele":10274,"Ġfadas":10275,"Ġtemia":10276,"less":10277,"Ġespir":10278,"Ġsobe":10279,"Ãºcia":10280,"Ã¡ssemos":10281,"ĠUllman":10282,"Ġchapa":10283,"ĠIa":10284,"ĠWay":10285,"ĠComecei":10286,"Ġconheci":10287,"Ġdesapareceram":10288,"Ġsujos":10289,"Ġregras":10290,"Ġdistribu":10291,"Ġvaler":10292,"ĠminÃºs":10293,"Ġperspec":10294,"Ġpublica":10295,"ĠherÃ³i":10296,"ĠLevantou":10297,"ĠÃ¡spero":10298,"ĠvÃŃdeo":10299,"ĠAmberson":10300,"Ġignorou":10301,"ĠUnderhill":10302,"didade":10303,"fou":10304,"Ġaze":10305,"Ġtua":10306,"Ġfon":10307,"Ã¡l":10308,"Ġparal":10309,"ĠSac":10310,"Ġmachado":10311,"illa":10312,"Ġmedi":10313,"Ġdesan":10314,"ulando":10315,"urras":10316,"velos":10317,"igra":10318,"nados":10319,"Ġtorto":10320,"nside":10321,"ĠAssass":10322,"Ġbalsa":10323,"Ġpresum":10324,"ĠcaÃŃdos":10325,"Ġamarelas":10326,"Ġdescida":10327,"Ġbebia":10328,"ĠSrta":10329,"Ġmurmura":10330,"Ġassuntos":10331,"Ġgolfo":10332,"Ġdespeito":10333,"Ġencantado":10334,"ĠAngeles":10335,"Ġemitiu":10336,"Ġtigre":10337,"Ġsupostamente":10338,"Alice":10339,"cem":10340,"dim":10341,"Ġcos":10342,"Ġcera":10343,"osiÃ§Ã£o":10344,"Ġmelo":10345,"orta":10346,"elido":10347,"Ġmaci":10348,"Ġreca":10349,"ĠCho":10350,"Ġatribu":10351,"dias":10352,"ĠhelicÃ³p":10353,"Ġsemic":10354,"ĠhavÃŃamos":10355,"Ġvolum":10356,"Ġvoltas":10357,"ĠQuar":10358,"Ġtenso":10359,"ĠbalÃ£o":10360,"Ġacreditou":10361,"Ġapagado":10362,"Ġdestran":10363,"ĠinvÃ©s":10364,"Ġ35":10365,"ĠExÃ©rcito":10366,"Ġfrequentemente":10367,"ĠBrook":10368,"ÃĩA":10369,"Ġinquieto":10370,"Ġgentileza":10371,"ĠsanduÃŃches":10372,"ĠcÃ´moda":10373,"ĠRosalie":10374,"Ġconsertar":10375,"Ġrefrigerante":10376,"Ġcilindro":10377,"isomem":10378,"ĠhipÃ³tes":10379,"Ġesbugalha":10380,"Rus":10381,"iana":10382,"Ġventos":10383,"leia":10384,"laÃ§Ãµes":10385,"Ã©dia":10386,"Ġdoendo":10387,"ĠSusan":10388,"ĠJas":10389,"ĠJose":10390,"ĠHockstetter":10391,"ĠFO":10392,"meda":10393,"Ġchap":10394,"Ġcalou":10395,"Ġtomava":10396,"Ġinspe":10397,"ĠRealmente":10398,"Ġhorrores":10399,"Ġescondida":10400,"Ġmorrera":10401,"Ġdesculpe":10402,"ĠconcentraÃ§Ã£o":10403,"Ġdevolveu":10404,"ĠEscute":10405,"Johnny":10406,"ĠEastlake":10407,"ĠBuddy":10408,"Ġestabele":10409,"ĠClark":10410,"Ġembrul":10411,"NA":10412,"iÃ¡":10413,"urando":10414,"Ġpingando":10415,"Ã¡r":10416,"ĠErin":10417,"ĠSheila":10418,"ĠNÃ³":10419,"ĠMou":10420,"Ġpoema":10421,"Ġperver":10422,"Ġfoda":10423,"Ġpegado":10424,"Ġintes":10425,"Ġrestavam":10426,"aramir":10427,"Ġvistos":10428,"Ġsolen":10429,"Ġacontecimentos":10430,"Ġcorreram":10431,"Ġlevasse":10432,"Ġfalam":10433,"Ġdesaf":10434,"Ġespant":10435,"ĠPronto":10436,"ĠProme":10437,"Ġsignific":10438,"Ġassistente":10439,"Ġdurar":10440,"Ġprofundidade":10441,"Ġcausar":10442,"Ġcotovelos":10443,"ĠJanice":10444,"Ġnamorado":10445,"ĠAcredito":10446,"Ġinev":10447,"ĠSangue":10448,"Ġcompartimento":10449,"ĠhÃ³spedes":10450,"ĠcÃŃ":10451,"ĠvÃ´":10452,"Ġcomido":10453,"Ġsaem":10454,"mail":10455,"mante":10456,"cies":10457,"ĠprÃªmio":10458,"Ġpropa":10459,"ĠcontÃŃn":10460,"Ġlat":10461,"Ġcorvo":10462,"Ãºth":10463,"ĠdireÃ§Ãµes":10464,"Ġmargens":10465,"Ġcuidando":10466,"ĠNove":10467,"postas":10468,"Ġcaneca":10469,"Ġacabasse":10470,"Ġdezenas":10471,"ĠPerkins":10472,"ĠmantÃª":10473,"Ġdeseja":10474,"Ġquadra":10475,"Ġlimpando":10476,"Ġqueimando":10477,"Ġsecreto":10478,"ĠStreeter":10479,"Ġmencionou":10480,"Ġmosca":10481,"ĠcomparaÃ§Ã£o":10482,"Ġensola":10483,"ĠCentral":10484,"ĠÃģrvore":10485,"ĠnoticiÃ¡rio":10486,"Ġintest":10487,"Pa":10488,"pl":10489,"ward":10490,"ĠcÃ³p":10491,"Ġol":10492,"Ġton":10493,"ĠtÃŃp":10494,"ĠvÃ©s":10495,"decker":10496,"ĠMassa":10497,"nava":10498,"Ġdeixam":10499,"ĠMarina":10500,"Ġtrom":10501,"Ġconversas":10502,"ĠrelatÃ³rio":10503,"ĠhaverÃ¡":10504,"Ġpendurados":10505,"Ġconsiderava":10506,"Pete":10507,"ĠValinor":10508,"Ġbateram":10509,"Ġaluno":10510,"Ġvestidos":10511,"Ġvacas":10512,"ĠimprovÃ¡vel":10513,"ĠgarÃ§onete":10514,"Ġlaptop":10515,"Ġduvidava":10516,"Ġtatua":10517,"Ġespingarda":10518,"ĠWashington":10519,"\"?":10520,"CIA":10521,"VA":10522,"jÃ¡":10523,"ĠÃŃm":10524,"Ġpenas":10525,"letes":10526,"Ġcoma":10527,"guarda":10528,"Ġrejei":10529,"ĠNA":10530,"Ġmete":10531,"ĠTO":10532,"Ġindes":10533,"Ġaceno":10534,"ĠRan":10535,"Ġentendido":10536,"ĠFaramir":10537,"riault":10538,"Ġira":10539,"Ġcortando":10540,"Ġrespei":10541,"Ġmangueira":10542,"ĠWiscons":10543,"Ġcaramba":10544,"carre":10545,"ĠcanÃ§Ãµes":10546,"Ġrouco":10547,"ĠrÃ¡pidos":10548,"ĠproprietÃ¡rio":10549,"Ġcontemplou":10550,"ĠShirley":10551,"ĠmetÃ¡lico":10552,"ĠStephanie":10553,"Ġimpaciente":10554,"Ġpalpite":10555,"Ġcamarada":10556,"ĠRommie":10557,"Ġforasteiro":10558,"ĠGasher":10559,"ĠOndowsky":10560,"VE":10561,"dico":10562,"gÃŃn":10563,"param":10564,"vindo":10565,"ya":10566,"Ġsib":10567,"Ġoc":10568,"ĠAM":10569,"cool":10570,"coisa":10571,"Ġgre":10572,"Ġdesfi":10573,"ciosa":10574,"Ġintac":10575,"Ġassin":10576,"Ġcompar":10577,"Ġintim":10578,"deste":10579,"Ġentreol":10580,"Ġlevavam":10581,"Ġsalvou":10582,"ĠMarinville":10583,"ĠSaia":10584,"tral":10585,"Ġbebidas":10586,"ĠFalei":10587,"Ġcostelas":10588,"Ġestudos":10589,"Ġocorrido":10590,"ĠdestruÃŃdo":10591,"ĠmudanÃ§as":10592,"ÃŃstico":10593,"Ġrecusou":10594,"Ġtapinha":10595,"ĠPrincipalmente":10596,"kov":10597,"ĠcomentÃ¡rio":10598,"ĠinstruÃ§Ãµes":10599,"ĠAmerican":10600,"Ġserpente":10601,"ĠmurmÃºrio":10602,"ĠlaboratÃ³rio":10603,"Ãºthien":10604,"iÃªncias":10605,"men":10606,"Ġcra":10607,"ĠcrenÃ§a":10608,"ĠSy":10609,"Ã³rios":10610,"Ġreno":10611,"Ġrecado":10612,"Ġserra":10613,"Ġmontar":10614,"ĠcarvÃ£o":10615,"Ã¡ss":10616,"Ġrespirou":10617,"now":10618,"Ġposterior":10619,"Ġmarcada":10620,"Ġbair":10621,"ĠPegue":10622,"ĠfunÃ§Ã£o":10623,"Ġenfiando":10624,"ĠcÃ©us":10625,"Ġpistas":10626,"ĠtelefÃ´nica":10627,"Ġ23":10628,"Ġnormais":10629,"ÃŃsse":10630,"Ġandares":10631,"Ġespeciais":10632,"Ġsofreu":10633,"Ġchegam":10634,"ĠMulher":10635,"Ġborbo":10636,"ĠdifÃŃceis":10637,"Ġadorava":10638,"elhados":10639,"ĠDeixou":10640,"Ġclare":10641,"Ġbichos":10642,"rariamente":10643,"AlÃ©m":10644,"Ġenrolado":10645,"Joe":10646,"Ġengolir":10647,"ĠÃºmida":10648,"Ġconsolo":10649,"Ġgrisalho":10650,"ĠBuster":10651,"Ġtriunfo":10652,"ĠJoyland":10653,"Tenho":10654,"av":10655,"gÃªncia":10656,"pol":10657,"tres":10658,"Ġovo":10659,"Ġcois":10660,"esp":10661,"Ġvital":10662,"lador":10663,"Ġbibliote":10664,"Ġdiscos":10665,"Ġcontudo":10666,"Ġcontribu":10667,"Ġmoda":10668,"izava":10669,"undon":10670,"Ġentrega":10671,"Ġentrevista":10672,"ĠhÃ¡lito":10673,"Ġenfei":10674,"Ġinflu":10675,"Ġeldar":10676,"Ġfevereiro":10677,"emato":10678,"Ġuivo":10679,"Ġlendas":10680,"Ġprateado":10681,"ĠGrace":10682,"Ġamanhecer":10683,"Ġdestruir":10684,"Ġgrossas":10685,"Ġiguais":10686,"Ġenchendo":10687,"Ġdissip":10688,"Ġjogadores":10689,"Ġsofrendo":10690,"ĠRonnie":10691,"ĠalcoÃ³":10692,"Ab":10693,"Nem":10694,"band":10695,"fat":10696,"iÃ§o":10697,"tÃ³ria":10698,"asso":10699,"Ġnisto":10700,"eiga":10701,"Ġcaub":10702,"maÃ§Ã£o":10703,"ressar":10704,"Ġcoru":10705,"ĠmenÃ§Ã£o":10706,"Ġchances":10707,"Ġchurras":10708,"Ġtrin":10709,"Ġtratar":10710,"Ġvive":10711,"forth":10712,"Ġpessoalmente":10713,"Ġvislumb":10714,"lass":10715,"Ġclientes":10716,"utei":10717,"Ġcabos":10718,"jeta":10719,"ĠavanÃ§ava":10720,"ĠMain":10721,"ĠReino":10722,"ĠRover":10723,"ĠPareciam":10724,"Ġencam":10725,"Ġfariam":10726,"Ġadiantou":10727,"INHA":10728,"Ġacompanhou":10729,"Ġturno":10730,"Ġobrigada":10731,"Ġmachucado":10732,"Ġarrepio":10733,"pisÃ³":10734,"Ġvizinho":10735,"Ġestojo":10736,"Ġcalcinha":10737,"Ġshopping":10738,"Ġnoturno":10739,"Ġartista":10740,"Lois":10741,"Ġpronuncia":10742,"ĠtÃªmpora":10743,"Ġcalcanhares":10744,"Ġcovarde":10745,"Ġcervejas":10746,"ĠJoseph":10747,"bit":10748,"ston":10749,"trans":10750,"Ġcobre":10751,"Ġteias":10752,"ĠtÃŃm":10753,"ĠlanÃ§ar":10754,"ĠAlec":10755,"ilhos":10756,"Ġelegante":10757,"ĠMinas":10758,"Ġdistor":10759,"Ġconcha":10760,"Ġpote":10761,"savam":10762,"ĠHuddie":10763,"ĠHanscom":10764,"Ġespiar":10765,"Ġforta":10766,"essÃ£o":10767,"Ġveludo":10768,"Ġfreio":10769,"Ġrode":10770,"ĠcolchÃ£o":10771,"minas":10772,"Ġgalo":10773,"ĠYan":10774,"Ġmentiras":10775,"Ġsoprando":10776,"Ġquaisquer":10777,"ĠdestruiÃ§Ã£o":10778,"Ġespere":10779,"celana":10780,"ĠadmiraÃ§Ã£o":10781,"ĠFalls":10782,"Ġtelefonema":10783,"Ġexibindo":10784,"Ġcuspiu":10785,"Ġadesivo":10786,"ĠoxigÃªnio":10787,"ĠTherriault":10788,"Pre":10789,"uto":10790,"Ġada":10791,"Ġcens":10792,"Ġdepos":10793,"Ġesquele":10794,"entÃ¡":10795,"ocas":10796,"Ġmacia":10797,"omer":10798,"Ġdesenh":10799,"Ġincont":10800,"ĠHem":10801,"Ġobter":10802,"Ġinterpre":10803,"Ġunha":10804,"Ġformavam":10805,"Ġmedon":10806,"Ġviagens":10807,"Ġbaixar":10808,"Ġ29":10809,"ĠCharity":10810,"Ġdesapo":10811,"ĠSammy":10812,"ĠInim":10813,"Ġconsiderado":10814,"Ġsacudir":10815,"Ġaceitou":10816,"ĠÃ¡lcool":10817,"ĠdemÃ´nios":10818,"Ġultrapass":10819,"ĠWarwick":10820,"ĠMcCarthy":10821,"ĠvÃ©spera":10822,"Bom":10823,"PE":10824,"cra":10825,"wor":10826,"Ġcand":10827,"Ġbobo":10828,"Ġlisa":10829,"ĠSher":10830,"Ġrelan":10831,"ĠNel":10832,"ĠCat":10833,"ĠMus":10834,"ĠMaria":10835,"ĠBou":10836,"Ġisqueiro":10837,"loyd":10838,"Ġtratamento":10839,"ĠtevÃª":10840,"berg":10841,"Ġinsu":10842,"Ġavental":10843,"Ġmerecia":10844,"ĠJohnson":10845,"Ġmilitar":10846,"Ġaperta":10847,"Ġrecei":10848,"Ġzero":10849,"Deus":10850,"Ġculpado":10851,"Ġatingir":10852,"Ġpenduradas":10853,"Ġcobras":10854,"Ġdisparar":10855,"Ġhein":10856,"Ġacalmar":10857,"Ġrumores":10858,"Ġtigela":10859,"Ġinstrumentos":10860,"ociaÃ§Ã£o":10861,"Ġdrinque":10862,"ĠLewiston":10863,"Ġancest":10864,"Ġvilarejo":10865,"Lobo":10866,"SA":10867,"ab":10868,"ainda":10869,"ipe":10870,"vÃ¡":10871,"vÃµes":10872,"Ġplena":10873,"ĠpÃ¢ntano":10874,"Ġsinu":10875,"eson":10876,"Ġfos":10877,"remos":10878,"Ġseio":10879,"ĠMach":10880,"Ġatualmente":10881,"Ġhemato":10882,"Ġsentiria":10883,"Ġmorresse":10884,"ĠSelena":10885,"Ġpassaria":10886,"tiÃ§Ã£o":10887,"Ġsoar":10888,"Ġmaldade":10889,"Ġervas":10890,"Ġguitar":10891,"Ġsabedoria":10892,"ĠEmp":10893,"ĠÃ³r":10894,"Ġchegarem":10895,"ĠHotel":10896,"ĠdÃ³i":10897,"Ġsurgiram":10898,"ĠirmÃ£s":10899,"hany":10900,"ĠiluminaÃ§Ã£o":10901,"Ġiluminou":10902,"Ġindis":10903,"Ġserviu":10904,"Ġprofundas":10905,"ĠinteligÃªncia":10906,"Ġselvagens":10907,"ĠdÃ©cada":10908,"Ġtarefas":10909,"ĠcÃ´modo":10910,"ÃŃlias":10911,"Ġresmungou":10912,"Ġcalaf":10913,"Ġquinhentos":10914,"Ġpijama":10915,"igrafia":10916,"IX":10917,"larec":10918,"sua":10919,"ĠepisÃ³":10920,"Ġcelas":10921,"Ġode":10922,"Ġtili":10923,"esia":10924,"ĠAper":10925,"Ġcatre":10926,"ulou":10927,"ulsÃ£o":10928,"ĠRip":10929,"ĠFl":10930,"ĠLÃºthien":10931,"Ġressa":10932,"Ġparecera":10933,"Ġesclarec":10934,"Ġamost":10935,"Ġmanob":10936,"condicionado":10937,"luvas":10938,"Ġconfro":10939,"licidade":10940,"Ġroubou":10941,"Ġtelefones":10942,"Ġprecisando":10943,"Ġpulsos":10944,"Ġarregal":10945,"Ġrelva":10946,"Ġnarra":10947,"Ġrevira":10948,"Ġuiva":10949,"ĠChega":10950,"Ġcruzar":10951,"Ġdefesa":10952,"Ġacompanha":10953,"ĠBurke":10954,"Ġesquisita":10955,"Ġinexp":10956,"Mary":10957,"ĠErnie":10958,"setts":10959,"Ġzelador":10960,"ĠdecomposiÃ§Ã£o":10961,"ATIE":10962,"ĠTiffany":10963,"gir":10964,"inta":10965,"jamos":10966,"sal":10967,"tn":10968,"ĠtÃ©r":10969,"Ġfixo":10970,"Ã©ns":10971,"ĠAstrid":10972,"ĠMost":10973,"Ġdespo":10974,"Ġsacri":10975,"ĠBaix":10976,"Ġfabul":10977,"Quanto":10978,"Ġrajada":10979,"Ġtemporariamente":10980,"Ġvantagem":10981,"Ġsangre":10982,"Ġacredite":10983,"Ġassustou":10984,"ĠfeiÃ§Ãµes":10985,"pecial":10986,"Ġsopro":10987,"ĠColocou":10988,"Ġidentidade":10989,"ĠcÃ¢meras":10990,"Ġgigantesco":10991,"ĠcadÃ¡veres":10992,"ĠCertamente":10993,"Ġarriscar":10994,"Ġliteratura":10995,"ĠStone":10996,"ĠAndrea":10997,"ĠanÃºncio":10998,"Ġbesteira":10999,"Ġmanuscrito":11000,"Ġabruptamente":11001,"Ġshort":11002,"Ġassassinatos":11003,"Ac":11004,"ek":11005,"kie":11006,"pito":11007,"sÃ³":11008,"Ġmentes":11009,"ĠAgar":11010,"ĠAnde":11011,"Ġgel":11012,"pot":11013,"Ġdesce":11014,"itivos":11015,"ĠFeliz":11016,"Ġvertig":11017,"Ġprontos":11018,"ĠGla":11019,"Ġvolunt":11020,"Ġmorder":11021,"Ġconseguimos":11022,"Ġdeixavam":11023,"Ġbarril":11024,"Ġsubiam":11025,"Ġtranca":11026,"Ġdissol":11027,"Ġjuventude":11028,"Ġquartel":11029,"Ġsaltando":11030,"Ġbasquete":11031,"Ġtrip":11032,"Ġapertados":11033,"ĠVerde":11034,"Ġfrango":11035,"Ġdespro":11036,"Ġcrescia":11037,"Ġdiminuindo":11038,"Ġtrazendo":11039,"ĠmaÃ§Ã£":11040,"ĠvitÃ³ria":11041,"Pode":11042,"Ġfascinado":11043,"Ġfronteiras":11044,"Ġassumir":11045,"Ġimpressionante":11046,"Dois":11047,"Ġenferrujada":11048,"Ġnoturnos":11049,"Ġdesbotado":11050,"Ġguincho":11051,"ĠausÃªncia":11052,"ĠvÃŃtimas":11053,"ĠTurgon":11054,"ĠCasey":11055,"ĠchaminÃ©":11056,"cidental":11057,"):":11058,"Emb":11059,"Ficou":11060,"PO":11061,"ao":11062,"gran":11063,"ht":11064,"nado":11065,"rima":11066,"Ġqueix":11067,"iavam":11068,"rola":11069,"Ġsuic":11070,"ĠalianÃ§a":11071,"Ġpegava":11072,"riamente":11073,"Ġcontador":11074,"diana":11075,"Ġpensaria":11076,"Ġpenhas":11077,"Ġinterno":11078,"Ġachavam":11079,"Ġruidos":11080,"Ġbasicamente":11081,"Ġpassadas":11082,"Ġerguida":11083,"fÃŃcios":11084,"Ġloucamente":11085,"Ġganhando":11086,"ĠPodem":11087,"ĠYou":11088,"Ġligava":11089,"chusetts":11090,"Ġinterrom":11091,"Ġvivendo":11092,"Ġformul":11093,"Ġpermitiu":11094,"ĠMatt":11095,"Ġjulgamento":11096,"Ġgravador":11097,"Ġfluores":11098,"Ġabandonar":11099,"Ġterminal":11100,"Ġterminava":11101,"ĠSirion":11102,"Ġplanejando":11103,"Ġrepentinamente":11104,"Ġdesesperadamente":11105,"ĠdisposiÃ§Ã£o":11106,"Ġredondo":11107,"Ġtijolo":11108,"ĠpolÃŃtica":11109,"Ġdezesseis":11110,"Ġmanifesta":11111,"Ġescancara":11112,"Ġflecha":11113,"Ġinocente":11114,"ĠCullum":11115,"ĠInimigo":11116,"IT":11117,"Pelo":11118,"ĠpÃª":11119,"quase":11120,"endas":11121,"Ġcomia":11122,"Ã©rios":11123,"ĠEar":11124,"ĠgÃªn":11125,"ĠSus":11126,"Ġporcelana":11127,"Ġestim":11128,"ĠNeste":11129,"ĠNessa":11130,"ĠPal":11131,"Ġmetido":11132,"Ġperam":11133,"Ġproba":11134,"cedor":11135,"ĠabÃ³":11136,"izos":11137,"Ġlutou":11138,"pela":11139,"perou":11140,"Ġmaltra":11141,"Ġcoldre":11142,"ĠimÃ³veis":11143,"Ġpisou":11144,"ĠcaÃŃam":11145,"Ġprovocar":11146,"Ġescondendo":11147,"ĠligaÃ§Ãµes":11148,"Ġcapacete":11149,"ĠhesitaÃ§Ã£o":11150,"Ġconvic":11151,"ĠWalker":11152,"Ġduplo":11153,"ĠTyler":11154,"ĠÃ¡lbum":11155,"Ġdobradi":11156,"Ãºvatar":11157,"Ġparalisado":11158,"Ġexpectativa":11159,"Ġrelance":11160,"**":11161,"Tam":11162,"light":11163,"xin":11164,"ĠaÃ§Ãµes":11165,"arÃ£o":11166,"Ġesm":11167,"ĠSide":11168,"Ġestende":11169,"Ġaltern":11170,"ĠRicky":11171,"Ġhid":11172,"Ġcamundon":11173,"Ġpesadas":11174,"vios":11175,"Ġjogava":11176,"inganÃ§a":11177,"Ġusada":11178,"ĠNora":11179,"eth":11180,"ionalmente":11181,"Ġaventu":11182,"lique":11183,"Ġmilha":11184,"Ġtocado":11185,"ĠGeorgie":11186,"ĠRohan":11187,"ĠPareceu":11188,"Ġnucle":11189,"Ġfedore":11190,"ells":11191,"Ġreunidos":11192,"ggins":11193,"trite":11194,"Ġsuporte":11195,"Ġvagab":11196,"ĠPuxa":11197,"Ġromances":11198,"Ġimpressionado":11199,"ĠFort":11200,"Ġdesistir":11201,"ĠEvans":11202,"ĠpadrÃ£o":11203,"Ġcastanho":11204,"Ġengat":11205,"Ġindagou":11206,"Ġabanou":11207,"ĠRobinson":11208,"Ġfisionomia":11209,"ĠalienÃŃg":11210,"Rusty":11211,"ĠMassachusetts":11212,"dulo":11213,"rinhas":11214,"zias":11215,"Ġaer":11216,"Ġcombate":11217,"ĠSomos":11218,"Ġsuti":11219,"ĠcatÃ¡":11220,"ĠDra":11221,"Ġdivis":11222,"Ġpegue":11223,"Ġcampan":11224,"Ġfaltava":11225,"Ġvislum":11226,"ethor":11227,"idan":11228,"Ġchocado":11229,"ĠagitaÃ§Ã£o":11230,"ĠTower":11231,"Ġ194":11232,"ĠLegolas":11233,"Ġtremenda":11234,"dicional":11235,"ĠberÃ§o":11236,"Ġcinzeiro":11237,"Ġenvolvido":11238,"ĠContinua":11239,"ĠDenver":11240,"Ġregistro":11241,"Ġfalecido":11242,"ridge":11243,"Ġventila":11244,"ĠIlÃºvatar":11245,"Ġcozinheiro":11246,"ĠfenÃ´m":11247,"lmutter":11248,"ĠÃŃntimo":11249,"Ġinof":11250,"Nenhuma":11251,"ĠAzul":11252,"ĠplanÃŃcie":11253,"Ġamassado":11254,"Ġaventura":11255,"Rob":11256,"fora":11257,"tiv":11258,"Ġente":11259,"Ġninho":11260,"Ġesbar":11261,"ann":11262,"Ã§ara":11263,"Ġband":11264,"Ġdoent":11265,"iclo":11266,"rien":11267,"Ġlus":11268,"Ġlobos":11269,"ĠApar":11270,"Ġgras":11271,"ĠSum":11272,"Ġcantava":11273,"ĠNosso":11274,"ĠOfic":11275,"Ġric":11276,"ĠTique":11277,"Ġperson":11278,"Ġperdidos":11279,"ĠprÃ¡tica":11280,"Ġespas":11281,"Ġespar":11282,"Ãºcar":11283,"Ġprestar":11284,"Ġsaltos":11285,"Ġcurvas":11286,"Ġ27":11287,"ĠConse":11288,"Ġrecepcion":11289,"Ġlargura":11290,"Ġpartindo":11291,"Ġfalavam":11292,"Ġdesejando":11293,"ĠRainha":11294,"Ġsofrido":11295,"ĠfuncionÃ¡rios":11296,"Ġgrossos":11297,"ĠXX":11298,"Ġlingua":11299,"Ġqueimada":11300,"ĠinvisÃŃveis":11301,"Ġmiseric":11302,"Ġartigos":11303,"ĠMyra":11304,"Ġincidente":11305,"ĠrelÃ¢mpago":11306,"Ġenvelhec":11307,"Ġperspectiva":11308,"Ġcandida":11309,":âĢĶ":11310,"Aquela":11311,"Aquilo":11312,"Cam":11313,"TES":11314,"ant":11315,"fet":11316,"kin":11317,"oito":11318,"tais":11319,"lata":11320,"alhado":11321,"ĠEX":11322,"Ġdados":11323,"Ġcate":11324,"ĠOU":11325,"Ġdispon":11326,"omo":11327,"Ġpoten":11328,"ĠJamais":11329,"ĠHist":11330,"ĠanÃ£o":11331,"ders":11332,"Ġescorrer":11333,"aixÃ£o":11334,"Ġpassamos":11335,"Ġestante":11336,"Ġcaralho":11337,"icks":11338,"Ġconheceu":11339,"Ġtorneira":11340,"ĠagÃªncia":11341,"Ġaponta":11342,"ĠTome":11343,"Ġlibe":11344,"Ġlargar":11345,"ĠregiÃµes":11346,"ĠCaso":11347,"cesa":11348,"Ġplaneta":11349,"Ġsatisfeita":11350,"Ġamericanos":11351,"ĠVolte":11352,"Ġdeteve":11353,"ĠinquietaÃ§Ã£o":11354,"Ġpossibil":11355,"Ġaterris":11356,"ĠWilliams":11357,"Ġliteralmente":11358,"Ġintrome":11359,"ĠChevro":11360,"ĠLanding":11361,"kovitch":11362,"ibo":11363,"tc":11364,"Ġple":11365,"ĠpÃ³s":11366,"Ġpinheiro":11367,"quin":11368,"Ġbosta":11369,"tona":11370,"ritos":11371,"Ġghou":11372,"ĠScou":11373,"Ġdisper":11374,"Ġpercorrer":11375,"ĠVelha":11376,"Ġterri":11377,"Ġtemor":11378,"Ġhipo":11379,"roso":11380,"Ġcorri":11381,"Ġmorib":11382,"Ġmaneiras":11383,"Ġestalou":11384,"Ġcorreto":11385,"cionais":11386,"ĠincÃ´mo":11387,"Ġrugas":11388,"Ġenfure":11389,"Ġchamados":11390,"ĠrazÃµes":11391,"Ã³rica":11392,"Ã³rdia":11393,"oody":11394,"Naquele":11395,"Ġreunir":11396,"Ġdigamos":11397,"Ġaumentar":11398,"ĠThur":11399,"Ġbarata":11400,"Ġapavorante":11401,"Ġarquivos":11402,"Ġavali":11403,"ĠÃ¡spera":11404,"ĠMichael":11405,"ĠDolan":11406,"ĠHouse":11407,"ĠcaubÃ³i":11408,".'":11409,"Sandy":11410,"pso":11411,"tton":11412,"Ġpira":11413,"Ġsinos":11414,"quinhos":11415,"ĠnÂº":11416,"sete":11417,"Ġreaparec":11418,"ĠNuma":11419,"ĠClu":11420,"lheiros":11421,"Ġcongel":11422,"Ġpedes":11423,"Ġespan":11424,"ĠestÃ¡tua":11425,"Ġluxo":11426,"Ġpratas":11427,"Ġmandando":11428,"iosas":11429,"fato":11430,"Ġconfi":11431,"Ġacordei":11432,"Ġcedeu":11433,"ĠDanforth":11434,"Ġapareceram":11435,"ĠSuper":11436,"ĠcoleÃ§Ã£o":11437,"Ġestiverem":11438,"Ġpeixes":11439,"Ġ70":11440,"ĠAngband":11441,"Ġdetec":11442,"Ġesfregou":11443,"Ġcochilo":11444,"ĠJeannie":11445,"Ġtesoura":11446,"ĠfÃŃsico":11447,"ĠalucinaÃ§Ã£o":11448,"Ġcongelado":11449,"Ġdescrever":11450,"ĠGordo":11451,"Ġesbugalhados":11452,"!!":11453,"Aquele":11454,"zi":11455,"Ġrig":11456,"Ġfrios":11457,"Ġveias":11458,"havia":11459,"gueiro":11460,"ĠAbaixo":11461,"ĠportÃµes":11462,"Ġfatal":11463,"ĠVilla":11464,"ĠJane":11465,"Ġaplica":11466,"ensÃµes":11467,"ĠDees":11468,"ĠlÃ¡p":11469,"Ġqueremos":11470,"Ġmordida":11471,"Ġmorreria":11472,"Ġencontrasse":11473,"posas":11474,"Ġsirene":11475,"Ġbastava":11476,"Ġescolar":11477,"ĠMorwen":11478,"ĠRodo":11479,"Ġrelativamente":11480,"Ġquadrinhos":11481,"Ġpontada":11482,"Ġcinzentas":11483,"ĠBateu":11484,"Ġpiadas":11485,"Ġalameda":11486,"Ġconduziu":11487,"Ġvidros":11488,"Ġrosnado":11489,"Ġesporte":11490,"rapia":11491,"Ġtestemunhas":11492,"Ġsincero":11493,"Ġatordoado":11494,"Ġentorpec":11495,"gusta":11496,"ĠtÃ©rreo":11497,"ĠScout":11498,"claro":11499,"feliz":11500,"Ġdurou":11501,"Ġavermel":11502,"Ġcivil":11503,"Ġoposta":11504,"iano":11505,"ĠseÃ§Ã£o":11506,"daÃ§Ãµes":11507,"Ġcomanda":11508,"Ġcomemo":11509,"ĠAB":11510,"ĠDro":11511,"Ġape":11512,"urung":11513,"Ġartrite":11514,"ĠEstar":11515,"ĠmoÃ§o":11516,"Ġassoc":11517,"Ġpata":11518,"Ġperguntado":11519,"Ġpenumbra":11520,"ĠCompan":11521,"Ġusara":11522,"Ġbalbu":11523,"ĠCora":11524,"Ġbati":11525,"Ġimobil":11526,"ĠbastÃ£o":11527,"Ġimagina":11528,"Ġveteran":11529,"Ġfavorito":11530,"Ġsofrer":11531,"Ġmonit":11532,"Ġestudar":11533,"ĠDuvido":11534,"Ġretorno":11535,"Ġinterroga":11536,"mÃ©st":11537,"ĠPolicial":11538,"Ġdisparado":11539,"Ġabandonou":11540,"Ġprometeu":11541,"ĠsubstituÃŃdo":11542,"hhh":11543,"ĠconfortÃ¡vel":11544,"Donald":11545,"Ġamontoado":11546,"Ġfrasco":11547,"Ġdezessete":11548,"ĠPequeno":11549,"ĠnÃŃtida":11550,"ĠFritz":11551,"ĠaÃ§Ãºcar":11552,"Ġrecepcionista":11553,"Dar":11554,"uri":11555,"Ġnesses":11556,"tod":11557,"Ġnobre":11558,"olÃ³gico":11559,"ensÃŃvel":11560,"ĠFun":11561,"ĠGan":11562,"Ġmodi":11563,"Ġpagamento":11564,"Ġpesquis":11565,"Ġvib":11566,"Ġnegar":11567,"ficado":11568,"isola":11569,"ĠIsland":11570,"Ġtagar":11571,"ionar":11572,"Ġaves":11573,"ĠdÃºzias":11574,"Ġ21":11575,"Ġprecisei":11576,"Ġplateia":11577,"ĠRee":11578,"Ġafastado":11579,"ĠridÃŃ":11580,"Ġcavaleiro":11581,"Ġgalinha":11582,"Ġgaleria":11583,"Ġgovern":11584,"chefe":11585,"Ġdesenro":11586,"ĠaviÃµes":11587,"ĠDenethor":11588,"ĠGuizos":11589,"Ġconvuls":11590,"Ġdevolver":11591,"Ġabsurda":11592,"Ġacabava":11593,"Ġrosnou":11594,"Ġaplausos":11595,"Ġadivinha":11596,"ĠresidÃªncia":11597,"Ġatravessava":11598,"ĠintuiÃ§Ã£o":11599,"Ġperplexidade":11600,"\"'":11601,"50":11602,"Clint":11603,"casse":11604,"ds":11605,"Ġcolh":11606,"Ġtren":11607,"eland":11608,"ĠAju":11609,"ĠSinger":11610,"Ġmatei":11611,"Ġmatem":11612,"ĠPs":11613,"ĠDI":11614,"ittle":11615,"mokey":11616,"Ġvere":11617,"Ġmoravam":11618,"Ġsentiam":11619,"Ġimpac":11620,"Ġimpostos":11621,"Ġlevantado":11622,"Ġtomara":11623,"dure":11624,"Ġchamaria":11625,"ibi":11626,"Ġjaneiro":11627,"Ġcurtas":11628,"ĠPerlmutter":11629,"Ã´nio":11630,"ĠVermont":11631,"Ġquiserem":11632,"Ġcuriosos":11633,"Ġiluminada":11634,"ĠAtrav":11635,"ĠChamb":11636,"ĠÃ¢ns":11637,"Ġavisar":11638,"ĠAnders":11639,"Ġredonda":11640,"Ġrepux":11641,"ĠconteÃºdo":11642,"Ġmiser":11643,"ĠrefeiÃ§Ãµes":11644,"ĠMunicipal":11645,"Ġarrumar":11646,"Ġordenou":11647,"Ġpromotor":11648,"Muito":11649,"km":11650,"tinhas":11651,"Ġefic":11652,"Ġefeitos":11653,"ĠcÃ³s":11654,"Ġopa":11655,"Ġsecos":11656,"Ġessen":11657,"lentos":11658,"seiro":11659,"todo":11660,"ĠAT":11661,"Ġost":11662,"Ġmasti":11663,"Ġconchas":11664,"Ġatento":11665,"Ġpegaram":11666,"itivamente":11667,"Ġservido":11668,"Ġangu":11669,"pais":11670,"Ġvoaram":11671,"Ġestamp":11672,"neis":11673,"kee":11674,"ibilidade":11675,"Ġajudando":11676,"Ġbonecas":11677,"ĠLevou":11678,"Ġvirava":11679,"Ġdesaparecimento":11680,"ĠNorman":11681,"Esta":11682,"landÃªs":11683,"ĠPeters":11684,"Ġaumentando":11685,"ĠtÃªnue":11686,"Ġfiguras":11687,"ĠresistÃªncia":11688,"ĠsoluÃ§os":11689,"Ġperderam":11690,"ĠVovÃ´":11691,"Ġdesconhecida":11692,"Ġfingindo":11693,"Ġgerente":11694,"Entretanto":11695,"Ġeternidade":11696,"Ġtransparente":11697,"Ġfundamental":11698,"Onde":11699,"Pou":11700,"UU":11701,"Ġfinos":11702,"Ġparaf":11703,"Ġdama":11704,"ĠAir":11705,"Ġmacio":11706,"randa":11707,"Ġdesn":11708,"Ġconex":11709,"Ġproce":11710,"Ġprevis":11711,"Ġressent":11712,"ixi":11713,"Ġcarvalho":11714,"igg":11715,"Ġcasado":11716,"Ġalgema":11717,"Ġtric":11718,"Ġmancando":11719,"Ġjoguei":11720,"ingos":11721,"Ġcaligrafia":11722,"ket":11723,"Ġbarran":11724,"Ġjuro":11725,"idÃ¡vel":11726,"lini":11727,"Ġauras":11728,"ĠArk":11729,"Ġcompletar":11730,"Ġchuv":11731,"Ġfardo":11732,"Esse":11733,"ĠMont":11734,"Ġlimpeza":11735,"Ġeventos":11736,"ĠSox":11737,"ĠHank":11738,"ancei":11739,"ĠAugusta":11740,"Ġinseto":11741,"Ġsugeria":11742,"ĠAudrey":11743,"ĠHorace":11744,"ĠsÃ³brio":11745,"ĠPessoas":11746,"ĠGlaurung":11747,"Fred":11748,"Jessie":11749,"Ter":11750,"Ġcenho":11751,"erÃ¡rio":11752,"ĠoraÃ§Ã£o":11753,"Ġtub":11754,"Ġsele":11755,"ochete":11756,"ĠSand":11757,"ĠCerta":11758,"Ġalon":11759,"ĠOro":11760,"ĠRy":11761,"Ġapito":11762,"Ġpreju":11763,"ĠsegurÃ¡":11764,"Ġcamisola":11765,"Ġtrist":11766,"Ġmordeu":11767,"child":11768,"ĠAll":11769,"Ġpostes":11770,"Ġtomei":11771,"Ġbacon":11772,"Ġusam":11773,"Ġcabel":11774,"ĠpossÃŃveis":11775,"Ġescritores":11776,"ĠsimpÃ¡tico":11777,"ĠcaÃŃdas":11778,"ĠConhec":11779,"Ġplanta":11780,"Ġaparecendo":11781,"Ġcarregada":11782,"ĠDonald":11783,"Ġaposentos":11784,"Ġmensagens":11785,"Ġ80":11786,"Ġimaginei":11787,"Ġestoque":11788,"Ġfamiliares":11789,"Ġalimentar":11790,"Ġaspectos":11791,"ĠMundial":11792,"Ġinspirou":11793,"Ġcoronha":11794,"ĠWatson":11795,"Ġinevit":11796,"Desta":11797,"cÃµes":11798,"etas":11799,"itavam":11800,"ndas":11801,"sinho":11802,"Ġep":11803,"guel":11804,"ĠAos":11805,"usas":11806,"omy":11807,"ĠTEM":11808,"Ġpobres":11809,"Ġolhasse":11810,"ĠFlint":11811,"ĠEspera":11812,"Ġcasti":11813,"Ġmene":11814,"Ġraro":11815,"ĠIrm":11816,"ĠPortÃ£o":11817,"bers":11818,"Ġrodando":11819,"ĠclÃ¡ss":11820,"ĠKay":11821,"Ġtenente":11822,"guete":11823,"fante":11824,"Ġtripas":11825,"ĠArda":11826,"Ġcapric":11827,"Ġdesejou":11828,"Ġcavalheiro":11829,"Ġrelato":11830,"PorÃ©m":11831,"Ġvales":11832,"ĠconstruÃŃdo":11833,"Ġenchia":11834,"Ġmiolos":11835,"Ġpancada":11836,"Ġadeus":11837,"Ġatorm":11838,"Ġpersonagens":11839,"Ġacostumado":11840,"ĠAmanhÃ£":11841,"ĠLeydecker":11842,"gÃŃnqu":11843,"Ġbairro":11844,"Ġressaca":11845,"TambÃ©m":11846,"ĠTiquetaque":11847,"ĠChevrolet":11848,"Nunca":11849,"Pens":11850,"bbie":11851,"hir":11852,"pei":11853,"pat":11854,"Ġtit":11855,"Ġfitas":11856,"dain":11857,"ĠliÃ§Ã£o":11858,"ĠAke":11859,"ĠSur":11860,"Ġrebo":11861,"ĠCaiu":11862,"Ġconec":11863,"ĠRai":11864,"Ġlag":11865,"verde":11866,"Ġputo":11867,"Ġmarrons":11868,"ĠlongÃŃnqu":11869,"Ġincessa":11870,"Ġsonhado":11871,"ĠruÃŃna":11872,"Ġcanos":11873,"Ġsaliva":11874,"Ġsangu":11875,"ĠtaÃ§a":11876,"ĠroupÃ£o":11877,"Ġerguido":11878,"Ġmanteiga":11879,"ificada":11880,"Ġcostume":11881,"Ġconstruir":11882,"ĠTimes":11883,"Ġprojetava":11884,"Ġdelicadeza":11885,"Ġrepresenta":11886,"Ġescolheu":11887,"ĠHanlon":11888,"ĠCaramba":11889,"ĠRoberts":11890,"Ġprisioneiros":11891,"ĠeducaÃ§Ã£o":11892,"Ġdesajeitada":11893,"Ġpacientes":11894,"Ġbigode":11895,"?\".":11896,"Rose":11897,"ni":11898,"Ġdedic":11899,"Ġdelicado":11900,"ĠmÃ³veis":11901,"Ġole":11902,"Ġcoc":11903,"Ġespo":11904,"anless":11905,"Ġbene":11906,"ĠSaiu":11907,"Ġmanto":11908,"Ġrevi":11909,"Ġregra":11910,"ĠDig":11911,"und":11912,"Ã§avam":11913,"Ġfoco":11914,"Ġinjus":11915,"gais":11916,"Ġlamento":11917,"atÃ©":11918,"Ġseguiam":11919,"Ġprazo":11920,"ĠEntendo":11921,"Ġleves":11922,"Ġcanive":11923,"ĠgratidÃ£o":11924,"Ġfitava":11925,"Ġsenhorita":11926,"Ġagress":11927,"ĠEstÃ¡vamos":11928,"Ġmilhas":11929,"ĠGeorgia":11930,"Ġveran":11931,"ĠBlake":11932,"ĠCala":11933,"Ġpropriamente":11934,"Ġxixi":11935,"ĠpreocupaÃ§Ãµes":11936,"ĠidentificaÃ§Ã£o":11937,"ĠmuniÃ§Ã£o":11938,"Ġconselhos":11939,"ĠMcCa":11940,"Ġassombro":11941,"Pois":11942,"Ġagachado":11943,"irith":11944,"Ġmenininha":11945,"AtrÃ¡s":11946,"knock":11947,"Ġharmon":11948,"ĠTwitch":11949,"SerÃ¡":11950,"Ġpropagan":11951,"ibodeau":11952,"!\".":11953,"Nick":11954,"Pass":11955,"cinhas":11956,"grada":11957,"Ġcobri":11958,"tamb":11959,"ĠSch":11960,"ĠCentro":11961,"ĠTell":11962,"Ġprost":11963,"ensiva":11964,"Ġhost":11965,"Ġpagou":11966,"Ġcasinha":11967,"Ġescrav":11968,"Ġpesados":11969,"ĠUMA":11970,"iorgio":11971,"Ġimplac":11972,"illian":11973,"Ġpendendo":11974,"Ġtrancar":11975,"etta":11976,"ĠhistÃ©r":11977,"ionou":11978,"Ġesconde":11979,"Ġagitando":11980,"ĠTown":11981,"ĠToomy":11982,"Ġenfiada":11983,"ĠsaÃŃrem":11984,"Ġbonitas":11985,"lanche":11986,"Ġamarrado":11987,"ĠTerras":11988,"Ġcapuz":11989,"Ġarrancando":11990,"Ġterminando":11991,"Ġsumindo":11992,"ĠdiversÃµes":11993,"Ġcompreendia":11994,"QUI":11995,"Ġsexto":11996,"Ġcomprimido":11997,"Ġgigantesca":11998,"ĠmecÃ¢nico":11999,"ieson":12000,"Ġespreita":12001,"Ġsupondo":12002,"Ġcondenado":12003,"Ġcrise":12004,"ĠcocaÃŃna":12005,"humorado":12006,"Cu":12007,"gindo":12008,"geiros":12009,"josa":12010,"ĊĊ":12011,"Ġvassou":12012,"Ġparale":12013,"guia":12014,"rive":12015,"Ġcav":12016,"Ġrura":12017,"ĠBlo":12018,"ĠBurt":12019,"Ġfacho":12020,"Ġatendente":12021,"ĠHat":12022,"ĠmoÃ§as":12023,"Ġpago":12024,"Ġseguros":12025,"Ġcasar":12026,"Ġforem":12027,"Ġpensara":12028,"ĠUns":12029,"Ġvirilha":12030,"chei":12031,"estÃ¡":12032,"Ġtentara":12033,"ĠBillingsley":12034,"Ġescritas":12035,"ĠMorte":12036,"ĠMorton":12037,"Ġarredores":12038,"ĠMonte":12039,"Ġcostura":12040,"Ġfirma":12041,"Ġapresentar":12042,"Ġcrescido":12043,"Ġandavam":12044,"Ġprofundos":12045,"Ġrodovi":12046,"ĠMalu":12047,"ĠVegas":12048,"Ġcontemplando":12049,"ĠsoluÃ§Ã£o":12050,"Ġ1960":12051,"Ġmecan":12052,"ĠBethany":12053,"Ġramo":12054,"Ġacelerador":12055,"Donna":12056,"ĠBolton":12057,"Ġzangado":12058,"ĠtransmissÃ£o":12059,"Ġintegral":12060,"Ġintrigado":12061,"Ġbibliotec":12062,"ĠÃ¢nsia":12063,"Ali":12064,"Ba":12065,"ROS":12066,"dinhos":12067,"ĠpÃŃ":12068,"Ġpur":12069,"Ġmob":12070,"Ġlob":12071,"Ġlance":12072,"ĠgÃªnio":12073,"Ġmataria":12074,"Ġsuando":12075,"Ġcavernas":12076,"Ġrenda":12077,"Ġrebel":12078,"ĠCos":12079,"ĠPER":12080,"uns":12081,"Ġpartiram":12082,"ĠRece":12083,"Ġtempe":12084,"Ġanunciou":12085,"Ġsobrou":12086,"diante":12087,"ĠtraÃ§os":12088,"Ġrobus":12089,"ĠvisÃµes":12090,"Ġbainha":12091,"ĠPotter":12092,"Ġsint":12093,"Ġgostavam":12094,"ĠConte":12095,"Ġagrada":12096,"Ġaparecido":12097,"Ġagarrado":12098,"ecessÃ¡rias":12099,"Ġescorregar":12100,"Ġpretendo":12101,"Ġvalia":12102,"ĠLembrou":12103,"Ġdispens":12104,"Ġderrubando":12105,"Ġmunic":12106,"Ġaluguel":12107,"ĠestÃºpida":12108,"Ġbruxa":12109,"Ġrefletir":12110,"Ġautoridade":12111,"Ġescolhido":12112,"Ġbiscoito":12113,"Ġdocumento":12114,"Ġcolapso":12115,"Contudo":12116,"Ġgrunhido":12117,"ĠquarteirÃµes":12118,"Ġtabuleta":12119,"Ġinconfun":12120,"ĠvidraÃ§a":12121,"ĠautomÃ³vel":12122,"Ġhabitual":12123,"Ġocorr":12124,"IO":12125,"The":12126,"agora":12127,"baria":12128,"jara":12129,"rington":12130,"ser":12131,"aron":12132,"Ġtelhados":12133,"Ġfaro":12134,"Ġfinas":12135,"town":12136,"cow":12137,"cox":12138,"ÃŃgn":12139,"Ġestima":12140,"ĠMister":12141,"Ġalf":12142,"Ġdeser":12143,"Ġjurar":12144,"Ġpede":12145,"cioc":12146,"Ġaposta":12147,"Ġcartola":12148,"ĠIgreja":12149,"box":12150,"Ġvier":12151,"Ġtorcer":12152,"Ġnascido":12153,"ĠComp":12154,"ĠNoon":12155,"ĠNoite":12156,"eriand":12157,"Ġferimentos":12158,"Ġazar":12159,"Ġesquecera":12160,"Ġaparecesse":12161,"Ġfaminto":12162,"Ġtreme":12163,"ĠelÃ¡stico":12164,"Ġbordas":12165,"Ġfirmes":12166,"Ġberrar":12167,"ĠdepressÃ£o":12168,"Ġmalditos":12169,"Ġexaminando":12170,"Ġderrubar":12171,"Ġirritante":12172,"ĠMiller":12173,"Ġorgulh":12174,"ĠDoug":12175,"ĠBeleriand":12176,"Ġadivinhar":12177,"Ġcastanhos":12178,"ĠContinue":12179,"ĠinterminÃ¡vel":12180,"Ġhumilde":12181,"Ġmanchete":12182,"Ġcaipira":12183,"DOS":12184,"Sent":12185,"avelmente":12186,"hrens":12187,"ude":12188,"ugh":12189,"Ġmam":12190,"Ġferv":12191,"ĠvinganÃ§a":12192,"Ġsever":12193,"enton":12194,"riel":12195,"ĠAdeus":12196,"teve":12197,"Ġastu":12198,"Ġrepre":12199,"ĠCÃ¢mara":12200,"ĠPensa":12201,"ĠPier":12202,"Ġconstitu":12203,"ĠFilho":12204,"Ġprece":12205,"Ġficha":12206,"ĠWin":12207,"Ġestalar":12208,"Ġposse":12209,"ĠKin":12210,"Ġtenda":12211,"Ġcolunas":12212,"Ġseriamente":12213,"Ġviajantes":12214,"Ġdezembro":12215,"Ġrecentemente":12216,"ĠHarlow":12217,"ĠescavaÃ§Ã£o":12218,"Ġfechava":12219,"Ġdesabou":12220,"ĠDescob":12221,"Ġfugido":12222,"Ġadiant":12223,"Ġcompreende":12224,"ĠmaldiÃ§Ã£o":12225,"Ġviviam":12226,"Ġresolvido":12227,"ĠThibodeau":12228,"Ġapanhado":12229,"Ġdobrado":12230,"Ġdisparada":12231,"Ġbrutal":12232,"ĠTak":12233,"Ġcostumam":12234,"Ġcheirava":12235,"Ġgaivo":12236,"ĠPrecisamos":12237,"ĠadvertÃªncia":12238,"Ġboquiaberto":12239,"Ġhospe":12240,"ĠAssassino":12241,"ĠAkeley":12242,"25":12243,"bes":12244,"gri":12245,"rÃŃ":12246,"von":12247,"Ġmens":12248,"Ġneu":12249,"Ġtestes":12250,"Ġfinais":12251,"enciar":12252,"Ġdon":12253,"ĠAno":12254,"Ġcapo":12255,"ĠMOR":12256,"Ġdesar":12257,"Ġenfor":12258,"Ġatur":12259,"Ġacesa":12260,"ĠVEN":12261,"Ġcontam":12262,"ĠLib":12263,"Ġartic":12264,"ĠforÃ§ar":12265,"ĠIns":12266,"Ġinterfer":12267,"Ġsalas":12268,"Ġtape":12269,"Ġagitado":12270,"ĠArlette":12271,"Ġdesaparecendo":12272,"Ġarregan":12273,"ĠfarmÃ¡":12274,"Ġrasgado":12275,"ĠGarth":12276,"Ġcolete":12277,"Alguma":12278,"Ġsurpreend":12279,"Ġengano":12280,"Peguei":12281,"Ġquebrados":12282,"Ġadormec":12283,"Ġprosseguir":12284,"iquia":12285,"Ġignorando":12286,"ĠsugestÃ£o":12287,"Ġinstinto":12288,"ĠarmazÃ©m":12289,"Ġmorcegos":12290,"rompeu":12291,"Ġbagagem":12292,"Ġlinguagem":12293,"Ġpossibilidades":12294,"childt":12295,"hrenschildt":12296,"Har":12297,"Pela":12298,"az":12299,"uo":12300,"wlie":12301,"Ġcompa":12302,"Ã§Ã¡":12303,"Ġlide":12304,"ĠAdo":12305,"ĠAquelas":12306,"olhos":12307,"ĠcaÃ§am":12308,"ĠTru":12309,"Ġenros":12310,"Ġenig":12311,"ĠJus":12312,"ĠLloyd":12313,"ixon":12314,"Ġsegurei":12315,"inavam":12316,"Ġcheiros":12317,"Ġdireitos":12318,"Ġprimo":12319,"ĠÃ¡cido":12320,"Ġmalha":12321,"Ġusados":12322,"Ġinspira":12323,"ibre":12324,"falantes":12325,"Ġconheciam":12326,"Ġcurvado":12327,"Ġquatrocentos":12328,"ĠpuxÃ£o":12329,"ĠChrist":12330,"Ġlargas":12331,"ĠStevens":12332,"Ġextrava":12333,"Ġrosas":12334,"Ġescorreu":12335,"Ġenganar":12336,"ĠManwe":12337,"Ġmanchado":12338,"Ġdescarre":12339,"Ġtelefonar":12340,"Ġenviou":12341,"Ġfrases":12342,"ĠAudra":12343,"ĠGaroto":12344,"Ġretribuiu":12345,"Ġintervalo":12346,"cÃ³pio":12347,"ĠheroÃŃna":12348,"Ġdelibe":12349,"ĠNoonan":12350,"27":12351,"Fiz":12352,"cÃªncia":12353,"sus":12354,"tilo":12355,"ĠÃŃamos":12356,"entam":12357,"Ġbone":12358,"Ġcalada":12359,"ĠMÃ¡":12360,"ĠDec":12361,"Ġdesva":12362,"Ġfontes":12363,"ĠLittle":12364,"ĠEscola":12365,"Ġracioc":12366,"Ġpergunto":12367,"Ġentrea":12368,"Ġrepulsa":12369,"Ġreporta":12370,"ĠficarÃ¡":12371,"Ġficariam":12372,"Ġcriando":12373,"ĠimitaÃ§Ã£o":12374,"Ġpassarem":12375,"Ġamarga":12376,"ĠChina":12377,"Ġescreve":12378,"Ġfalara":12379,"tÃ©is":12380,"Ġrasgou":12381,"Ġempurrado":12382,"rianÃ§as":12383,"Ġatravessado":12384,"Ġligada":12385,"ĠMelian":12386,"ÃŃsticas":12387,"Ġencarando":12388,"Ġcruzados":12389,"Ġtestemunha":12390,"Ġsobreviventes":12391,"Ġboba":12392,"Apesar":12393,"Ġcerebral":12394,"Ġtumor":12395,"Ġtateou":12396,"Ġperguntara":12397,"ĠDolores":12398,"Ġmuralha":12399,"Ġindicava":12400,"Ġincomum":12401,"Ġdecepcion":12402,"ĠexpressÃµes":12403,"ĠExceto":12404,"ÃŃduo":12405,"ĠAndolini":12406,"Ġchicote":12407,"Ġcompartil":12408,"ĠgÃªnero":12409,"ĠOficina":12410,"ĠConselho":12411,"Ġimpacto":12412,"Ġcanivete":12413,"PA":12414,"bulo":12415,"nar":12416,"peito":12417,"udos":12418,"vim":12419,"yrus":12420,"inei":12421,"Ġfeira":12422,"entre":12423,"ĠEye":12424,"Ġemol":12425,"gulos":12426,"Ġmacon":12427,"Ã³tica":12428,"Ġcacos":12429,"Ġasc":12430,"ĠPassei":12431,"Ġalpend":12432,"Ġdipl":12433,"Ġengre":12434,"Ġpoemas":12435,"ĠRho":12436,"ĠRiv":12437,"ĠFra":12438,"ĠLua":12439,"ĠDevem":12440,"Ã¡sticos":12441,"Ġsobrevi":12442,"Ġchec":12443,"Ġchiado":12444,"Ġcomplica":12445,"orrÃ£o":12446,"Ġpostos":12447,"hoso":12448,"neta":12449,"bava":12450,"Ġespeta":12451,"Ġtornaria":12452,"ervar":12453,"Ġsalada":12454,"Ġdormido":12455,"Ġaprop":12456,"Ġimaginado":12457,"Ġrecusa":12458,"Ġtremiam":12459,"Ġesperavam":12460,"Ġmotores":12461,"Ġretirar":12462,"ENTO":12463,"Ġinfernal":12464,"ĠfrancÃªs":12465,"ĠDugan":12466,"QUE":12467,"Ġocupada":12468,"ecedor":12469,"Ġampli":12470,"Ġvisitantes":12471,"ĠBurnside":12472,"Ġadormeceu":12473,"cursÃ£o":12474,"Ġcausado":12475,"Ġburra":12476,"ĠIrma":12477,"ĠeletrÃ´nica":12478,"Ġdesciam":12479,"ĠWhit":12480,"Ġdivertindo":12481,"Ġnervosismo":12482,"ĠnÃ¡de":12483,"Ġviolentamente":12484,"Ġreconfor":12485,"ĠpodÃŃamos":12486,"ĠShannon":12487,"ĠantebraÃ§o":12488,"Ġdesastre":12489,"ĠCathy":12490,"!]":12491,"Cor":12492,"Hal":12493,"firo":12494,"foi":12495,"rad":12496,"ĠquestÃµes":12497,"Ġfins":12498,"Ġsecas":12499,"entaria":12500,"Ġmacha":12501,"ĠNei":12502,"ĠPO":12503,"Ġmastig":12504,"ĠTio":12505,"Ġtermo":12506,"Ġardendo":12507,"Ġabal":12508,"Ġcartu":12509,"ĠforÃ§ado":12510,"pava":12511,"ĠUS":12512,"ĠIota":12513,"Ġmane":12514,"Ġpoderes":12515,"Ġtorceu":12516,"Ġbolhas":12517,"pressa":12518,"Ġolhado":12519,"Ġcontinuei":12520,"Ġapoiada":12521,"Ġesquecendo":12522,"ĠfarÃ¡":12523,"Ġadianta":12524,"ĠalcanÃ§ou":12525,"Ġcruzando":12526,"ĠWilcox":12527,"ĠGuarda":12528,"Ġpreocupava":12529,"Ġjustamente":12530,"ĠgravaÃ§Ã£o":12531,"Ġresultados":12532,"ĠameaÃ§ado":12533,"Ġcausou":12534,"Ġcontorcendo":12535,"Ġexterna":12536,"Ġesconderijo":12537,"ĠconsiderÃ¡vel":12538,"ĠCobrador":12539,"ĠauxÃŃlio":12540,"Ġenevo":12541,"ĠcerimÃ´nia":12542,"ĠNelson":12543,"Embora":12544,"tambÃ©m":12545,"TAR":12546,"cru":12547,"ciso":12548,"fil":12549,"pÃ¡":12550,"uf":12551,"Ġeti":12552,"Ġpicos":12553,"ĠcÃ´m":12554,"Ġdevas":12555,"Ġfus":12556,"enor":12557,"ense":12558,"elle":12559,"Ġinsegu":12560,"Ġcontara":12561,"ĠGlen":12562,"Ġmorando":12563,"Ġchegue":12564,"Ġchate":12565,"Ġimpresso":12566,"ĠcomeÃ§aria":12567,"adamente":12568,"Ã¢ngulo":12569,"ĠinscriÃ§Ã£o":12570,"ĠAnn":12571,"thur":12572,"Ġantena":12573,"Ġboliche":12574,"ĠCoates":12575,"ĠpÃ´quer":12576,"ĠBarkovitch":12577,"Ġterminei":12578,"Ġritual":12579,"Ġespectral":12580,"Ġfuncionou":12581,"ĠespÃ©c":12582,"Ġprateada":12583,"AlguÃ©m":12584,"Ġaprendeu":12585,"Ġaproximavam":12586,"ĠÃģgua":12587,"Ġdespedida":12588,"Ġpertence":12589,"Ġassombrado":12590,"Ġbombinha":12591,"Ġdeboc":12592,"Ġnovidade":12593,"Ġsangrar":12594,"Ġoculto":12595,"Ġbobagem":12596,"Ġlascas":12597,"Ġamedrontado":12598,"Ġparticipar":12599,"Ġnojento":12600,"vana":12601,"Ãļ":12602,"Ã¡culo":12603,"ĠMolly":12604,"Ġdesd":12605,"ĠBeson":12606,"Ġpares":12607,"sadas":12608,"dioso":12609,"ĠJerry":12610,"vial":12611,"ĠFinn":12612,"ĠiP":12613,"Ġpapo":12614,"ĠUl":12615,"ĠtradiÃ§Ã£o":12616,"Ġcompro":12617,"Ġcomparec":12618,"Ġteoria":12619,"Ġroch":12620,"Ġbolinhas":12621,"Ġapontar":12622,"Ġferru":12623,"Ġreceio":12624,"gueiras":12625,"ĠfamÃŃlias":12626,"Ġespectadores":12627,"Ġespadas":12628,"Ġrastros":12629,"Ġconcordar":12630,"Ġextingu":12631,"Ġfugiram":12632,"ĠClayton":12633,"Ġarrastado":12634,"ĠHallow":12635,"Ġacompanhando":12636,"ĠWilson":12637,"Ġterremo":12638,"Ġmijar":12639,"Ġsuperiores":12640,"Ġunifor":12641,"Ġviolento":12642,"Ġassumiu":12643,"Ġdesistiu":12644,"Ġdanado":12645,"EIRO":12646,"Ġcantarol":12647,"Ġincluindo":12648,"zyck":12649,"Ġmasculino":12650,"Ġvislumbre":12651,"Ġricochete":12652,"Ġalpendre":12653,"Jim":12654,"mei":12655,"rice":12656,"Ġnam":12657,"Ġtons":12658,"ĠtivÃ©ssemos":12659,"Ġligo":12660,"ĠAus":12661,"Ġporto":12662,"ÃŃte":12663,"ĠNana":12664,"ĠCost":12665,"Ġaler":12666,"ĠTanto":12667,"Ġdescas":12668,"Ġenlu":12669,"ĠBach":12670,"Ġinco":12671,"ĠVir":12672,"ĠVeio":12673,"ĠFBI":12674,"Ġandei":12675,"Ġardente":12676,"ĠGiorgio":12677,"Ġresf":12678,"Ġresum":12679,"Ġmontado":12680,"Ġvoltavam":12681,"ĠmÃ£es":12682,"Ġclima":12683,"ĠKa":12684,"Ã¢nia":12685,"Ġrude":12686,"Ġsalt":12687,"Ġpassagens":12688,"ĠmuitÃŃssimo":12689,"lidas":12690,"Ġsairia":12691,"Ġpuxei":12692,"ĠLeandro":12693,"Ġrecru":12694,"Ġligue":12695,"ĠEnnis":12696,"Ġconceito":12697,"Ġgemendo":12698,"Ġesperei":12699,"Ġidentific":12700,"ĠirritaÃ§Ã£o":12701,"Ġvomitou":12702,"Ġpublicado":12703,"Ġpsiquia":12704,"Ġhobbit":12705,"Ġenlouquecido":12706,"ĠBetsy":12707,"Ġfornalha":12708,"Ġtossir":12709,"Ġadulta":12710,"Ġmenininho":12711,"ĠdesconfianÃ§a":12712,"Ġtravess":12713,"ĠVietn":12714,"Ġdistinguir":12715,"Ġinconfund":12716,"ĠHalloween":12717,"Ei":12718,"Jun":12719,"OB":12720,"gica":12721,"gros":12722,"Ġ[":12723,"raqu":12724,"Ġpic":12725,"inosa":12726,"Ã¡ter":12727,"Ġbul":12728,"guar":12729,"amen":12730,"tetive":12731,"ĠSER":12732,"Ġmax":12733,"Ã³lica":12734,"Ġpoesia":12735,"diente":12736,"Ġsobra":12737,"Ġcompens":12738,"Ġcompridos":12739,"Ġdireitinho":12740,"Ġnebul":12741,"Ġsolene":12742,"Ġsubida":12743,"Ġpairava":12744,"Ġesperasse":12745,"ĠmÃ¡rm":12746,"Ġloura":12747,"Ġprecise":12748,"Ġterminasse":12749,"Ġchute":12750,"ronia":12751,"Ġassustados":12752,"Ã¢mica":12753,"Ġexistiam":12754,"ggie":12755,"Ġavisos":12756,"pleton":12757,"Todd":12758,"Ġadmitiu":12759,"quiagem":12760,"Ġesgoto":12761,"ĠglÃ³ria":12762,"ĠCenter":12763,"Ġaterrorizado":12764,"Ġimpedi":12765,"ĠLembrava":12766,"Ġabatido":12767,"Ġpipoca":12768,"Ġinsupor":12769,"Ġpleno":12770,"ĠterritÃ³rio":12771,"ĠcocÃ´":12772,"ĠmÃ¡rmore":12773,"Deu":12774,"IR":12775,"NO":12776,"dan":12777,"fres":12778,"ovan":12779,"Ãķ":12780,"ere":12781,"asp":12782,"Ġfumo":12783,"lendo":12784,"law":12785,"encont":12786,"hara":12787,"alina":12788,"Ġesteira":12789,"ĠcaÃ§adores":12790,"ĠNecessÃ¡rias":12791,"ĠMos":12792,"ĠOlhando":12793,"Ġfachada":12794,"Ġincons":12795,"Ġlente":12796,"Ġcontaria":12797,"Ġanor":12798,"Ġcorrim":12799,"haria":12800,"Ġlivres":12801,"ĠsalÃ¡rio":12802,"Ġimun":12803,"Ġcaixo":12804,"Ã©rcio":12805,"ansy":12806,"Ġsumiram":12807,"Ġcirco":12808,"Ġconsidera":12809,"Ġdefro":12810,"Ġvigiando":12811,"Ġformado":12812,"ĠLembre":12813,"ĠexplosÃµes":12814,"ĠStanley":12815,"ĠEstendeu":12816,"Ġimpuls":12817,"ĠtÃ©rm":12818,"Ġpercorre":12819,"Ġtransformara":12820,"Ġatropelado":12821,"ComeÃ§ou":12822,"Ġghouls":12823,"ĠfarmÃ¡cia":12824,"ĠVietnÃ£":12825,"Cal":12826,"Mo":12827,"eamente":12828,"ik":12829,"lcho":12830,"Ġced":12831,"Ġcrer":12832,"quente":12833,"isÃµes":12834,"Ã§osa":12835,"ĠEll":12836,"ĠdomÃ©st":12837,"Ġlito":12838,"Ġfodido":12839,"Ġinver":12840,"media":12841,"Ġassente":12842,"Ġpapa":12843,"ĠforÃ§ou":12844,"Ġfalo":12845,"Ġvagas":12846,"badas":12847,"Ġacabando":12848,"ĠÃºnicas":12849,"Ġfiquem":12850,"ĠMarcha":12851,"Ġcontinuam":12852,"Ġferidas":12853,"ĠcruÃ©is":12854,"Ġarrancada":12855,"Ġfalaram":12856,"oneses":12857,"Ġnub":12858,"Ġdesafio":12859,"Ġtrezentos":12860,"Ġacolcho":12861,"Ġgab":12862,"Ġaproximaram":12863,"Ġtirada":12864,"ĠvirÃ¡":12865,"Ġensinou":12866,"ĠconstruÃ§Ãµes":12867,"ĠconstruÃŃda":12868,"Ġobservado":12869,"yncho":12870,"Ġindicando":12871,"Ġinexpress":12872,"ĠTommyknock":12873,"Ġretirada":12874,"ĠBall":12875,"ĠcomentÃ¡rios":12876,"Ġtabuleiro":12877,"Ġauxiliar":12878,"Ġconstrang":12879,"ĠvibraÃ§Ã£o":12880,"Ġgostoso":12881,"Ġfortuna":12882,"Ġvampiro":12883,"Ġguardanapo":12884,"ĠWisconsin":12885,"ĠinevitÃ¡vel":12886,"ÃķES":12887,"CK":12888,"ft":12889,"iques":12890,"ninho":12891,"ĠediÃ§Ã£o":12892,"erente":12893,"riz":12894,"ĠSmokey":12895,"Ġreti":12896,"ĠPE":12897,"Ġmeados":12898,"ĠrÃ³":12899,"Ġpegara":12900,"cientemente":12901,"ĠGosto":12902,"Ġcorpu":12903,"ati":12904,"Ġabelhas":12905,"Ġintitu":12906,"Ġmandei":12907,"Ġentrevis":12908,"ĠÃ¡reas":12909,"Ġencontrada":12910,"ficar":12911,"Ġlevados":12912,"Ġbafo":12913,"ĠcriaÃ§Ã£o":12914,"Ġruivo":12915,"tice":12916,"Ġacreditaria":12917,"Ġescondeu":12918,"Ġdormentes":12919,"Ġapontava":12920,"Ġcurtos":12921,"ĠCarla":12922,"Ġprinci":12923,"Ġrelatos":12924,"Ġapagada":12925,"Ġgrudado":12926,"ĠfeijÃ£o":12927,"ĠApro":12928,"Ġberros":12929,"Ġconvenceu":12930,"ĠJamieson":12931,"Ġanimada":12932,"Ġpiano":12933,"Ġmanchada":12934,"Ġdiscutindo":12935,"Ġespalhadas":12936,"Ġdesligado":12937,"shun":12938,"Ġcolocava":12939,"Ġhedi":12940,"ĠmÃ¡scaras":12941,"Ġgeneral":12942,"Ġmudaram":12943,"ĠSaubers":12944,"Ġguardando":12945,"Ġajoelhado":12946,"ÃŃlulas":12947,"ĠdistraÃŃdo":12948,"Ġembalagem":12949,"Ġextrema":12950,"Ġconvidados":12951,"ĠcientÃŃfica":12952,"Ġfrutas":12953,"Ġsinceridade":12954,"Ġmisterioso":12955,"Ġmorcego":12956,"Ġpesquisa":12957,"Ġaventuras":12958,"ynchot":12959,");":12960,"Jul":12961,"ME":12962,"Mel":12963,"iposas":12964,"xico":12965,"Ġfrias":12966,"rett":12967,"leen":12968,"Ġblas":12969,"Ġbelas":12970,"ĠEric":12971,"ĠAfas":12972,"Ġestender":12973,"ĠdiÃ¡rio":12974,"Ġsau":12975,"ĠRand":12976,"ramm":12977,"cey":12978,"ĠGinny":12979,"ĠEscre":12980,"Ġsentando":12981,"Ġescutei":12982,"Ġsabido":12983,"acas":12984,"Ġfalasse":12985,"Ġimpres":12986,"premo":12987,"eraÃ§Ã£o":12988,"ficial":12989,"Ġcuido":12990,"Ġtentaram":12991,"Ġvaci":12992,"Ġbares":12993,"ĠAnda":12994,"Ġjuntaram":12995,"house":12996,"lula":12997,"fados":12998,"assim":12999,"ĠMag":13000,"ĠConheÃ§o":13001,"treiro":13002,"Ġdefender":13003,"Ġenvolvia":13004,"ĠserviÃ§os":13005,"Ġencora":13006,"ĠflÃ¡":13007,"Ġquisessem":13008,"Ġcansados":13009,"Ġdobrar":13010,"Ġenrolar":13011,"ĠmaÃ§Ã£s":13012,"Ġirregulares":13013,"ĠVejo":13014,"Ġexibia":13015,"ÃĬN":13016,"Ġleitor":13017,"ĠdomÃŃnio":13018,"Ġenviado":13019,"Ġrazoavelmente":13020,"Ġdesconfiava":13021,"Ġsepultura":13022,"Ġfendas":13023,"ĠESTÃģ":13024,"Ġhorrenda":13025,"Ġviciado":13026,"Ġpercebendo":13027,"ĠdeterminaÃ§Ã£o":13028,"ĠdestroÃ§os":13029,"Ġenvergonhado":13030,"ragian":13031,"Ġadap":13032,"ĠdobradiÃ§as":13033,"Pouco":13034,"UR":13035,"jaram":13036,"jamento":13037,"minha":13038,"Ġcoa":13039,"esou":13040,"inc":13041,"inaram":13042,"umes":13043,"ĠbÃªn":13044,"deram":13045,"gulha":13046,"ĠlÃ£":13047,"Ġmaquiagem":13048,"Ġsutil":13049,"ĠTrans":13050,"mados":13051,"Ġentrara":13052,"Ġlevam":13053,"oby":13054,"Ġmotel":13055,"Ġvoavam":13056,"Ġlevantaram":13057,"ĠEdward":13058,"Ġsinton":13059,"ĠMark":13060,"Ġenfraqu":13061,"udÃŃvel":13062,"ĠDora":13063,"Ġescrevia":13064,"Ġborri":13065,"Ġatacou":13066,"Ġinclinando":13067,"Ġdourados":13068,"Ġapresentou":13069,"Ġcelulares":13070,"Ġmergulhar":13071,"burg":13072,"Ġenfermaria":13073,"Ġleitores":13074,"Ġesmagado":13075,"Ġexperimentar":13076,"Ġacostuma":13077,"Ġdemonstrar":13078,"ĠpopulaÃ§Ã£o":13079,"liday":13080,"emorial":13081,"ĠimpaciÃªncia":13082,"Ġdesajeitado":13083,"estrade":13084,"Ġergueram":13085,"Ġreflexos":13086,"ĠAconteceu":13087,"ĠpulsaÃ§Ã£o":13088,"Ġpedacinhos":13089,"Ġentreolharam":13090,"Fo":13091,"Frodo":13092,"Nor":13093,"nei":13094,"rÃŃvel":13095,"xar":13096,"Ġdinam":13097,"Ġdedica":13098,"oro":13099,"Ġparano":13100,"icioso":13101,"Ġalvor":13102,"ĠOk":13103,"adora":13104,"Ġentrasse":13105,"ĠcordÃ£o":13106,"ĠEstado":13107,"Ãºrb":13108,"Ġcomprom":13109,"Ġpendiam":13110,"Ġmarcava":13111,"neve":13112,"Ġcalibre":13113,"ĠJodie":13114,"ĠjuÃŃzo":13115,"Ġfechei":13116,"Ġbolsas":13117,"pare":13118,"Ġajudava":13119,"ĠGerar":13120,"Ġcele":13121,"Ġcobertores":13122,"ĠRawlie":13123,"Ġdecid":13124,"ĠnecessÃ¡ria":13125,"Ġlinhagem":13126,"Ġgordu":13127,"Ġreconhecido":13128,"ĠLÃ¡quesis":13129,"ĠJeffer":13130,"Ġadormecida":13131,"ĠimpressÃµes":13132,"Ġproduzir":13133,"Ġvasto":13134,"Ġinstant":13135,"Ġencheram":13136,"Ġmusgo":13137,"Ġsuspeita":13138,"aturalmente":13139,"Ġretirado":13140,"Ġrumor":13141,"ĠautomÃ¡tico":13142,"Ġinstint":13143,"Ġcircuito":13144,"Ġadequado":13145,"____":13146,"ĠinfecÃ§Ã£o":13147,"Ġdesori":13148,"Ġluminosidade":13149,"Ġsacana":13150,"Ġbelis":13151,"Ġaspirina":13152,"ĠsutiÃ£":13153,"Ġferrugem":13154,"Ġprincipais":13155,"23":13156,"Ca":13157,"Su":13158,"Vic":13159,"fenda":13160,"Ġeter":13161,"rama":13162,"ĠpÃŃlulas":13163,"Ġoco":13164,"Ġfia":13165,"vadas":13166,"Ġbis":13167,"ĠcaÃ§ar":13168,"Ġmudando":13169,"ĠpeÃ§o":13170,"ĠterÃŃamos":13171,"ĠolhÃ¡":13172,"Ġexal":13173,"ĠLin":13174,"izador":13175,"Ġchif":13176,"ĠSean":13177,"ĠSete":13178,"Ġestalando":13179,"ficas":13180,"ĠEntragian":13181,"Ġinsignifica":13182,"ĠbalanÃ§":13183,"Ġfunda":13184,"Ġfiel":13185,"Ġbastar":13186,"Ġrecur":13187,"Ġrecua":13188,"Ġgalinhas":13189,"ĠÃĢquela":13190,"Ã³rcio":13191,"Ġabrira":13192,"ntaneamente":13193,"ĠbuscÃ¡":13194,"Ġatravessaram":13195,"Ġassassinado":13196,"Ġdiversos":13197,"ĠChefe":13198,"Ġencostar":13199,"Ġclaras":13200,"Ġgastar":13201,"Ġcorajoso":13202,"ĠThÃ©":13203,"ĠHein":13204,"Ġfluido":13205,"Ġinsistia":13206,"Ġroncando":13207,"ĠpÃºblica":13208,"ĠsessÃ£o":13209,"ĠKenny":13210,"ĠdÃ©c":13211,"ĠexaustÃ£o":13212,"Ġquieta":13213,"ĠAcabou":13214,"ĠAmbos":13215,"Ġconvidado":13216,"Ġgrunhiu":13217,"branqui":13218,"Outra":13219,"ĠchefÃ£o":13220,"Ġtelepatia":13221,"ĠepisÃ³dio":13222,"ĠAparentemente":13223,"Ġmaconha":13224,"ĠcorrimÃ£o":13225,"Ġblasf":13226,"VER":13227,"bores":13228,"blÃ¡":13229,"fran":13230,"gi":13231,"ilado":13232,"Ġdepo":13233,"âĢĶ,":13234,"lat":13235,"enter":13236,"Ġbyrus":13237,"Ġlom":13238,"Ġnotei":13239,"Ġesticando":13240,"Ġcacete":13241,"ilv":13242,"ilos":13243,"ĠPÃºb":13244,"ĠMes":13245,"ĠDeci":13246,"Ġmedic":13247,"Ġparente":13248,"ĠRick":13249,"ĠLis":13250,"Ġartes":13251,"ĠGw":13252,"ĠGrin":13253,"ĠcarÃ¡ter":13254,"ĠDelain":13255,"Ġrachado":13256,"Ġcomprara":13257,"ĠmansÃ£o":13258,"Ġdireta":13259,"Ġsolic":13260,"negro":13261,"ĠMarsh":13262,"parei":13263,"Ġerguiam":13264,"Ġ193":13265,"Ġdezoito":13266,"ĠEnf":13267,"Ġdesemb":13268,"Ġpintar":13269,"Ġgague":13270,"Ġbocas":13271,"Ġcrist":13272,"Ġsonolento":13273,"Ġabafada":13274,"Ġequiva":13275,"ĠRobbie":13276,"Ã³lico":13277,"Ġjornada":13278,"Ġaumentava":13279,"Ġcomunidade":13280,"Ġalegres":13281,"Ġarregalaram":13282,"Ġacerca":13283,"Ġmulti":13284,"Ġarromb":13285,"ĠPrimeira":13286,"Ġmonstruoso":13287,"Ġvindos":13288,"ĠMontanha":13289,"ĠBasta":13290,"Ġcautelosamente":13291,"Ġconduzia":13292,"ĠVermelho":13293,"ĠSuponho":13294,"ĠsÃŃmbolo":13295,"worth":13296,"Ġinexplic":13297,"Ġprobabilidade":13298,"ĠcaÃ§amba":13299,"Ġemoldura":13300,"gico":13301,"hel":13302,"kes":13303,"oto":13304,"Ġida":13305,"arde":13306,"arts":13307,"Ġvemos":13308,"tavelmente":13309,"our":13310,"Ã©ticos":13311,"deiros":13312,"ĠSanto":13313,"ĠDest":13314,"omas":13315,"Ġdesvio":13316,"ĠfaÃŃs":13317,"ĠatÃ´n":13318,"Ġparto":13319,"urrou":13320,"Ġirem":13321,"ĠGood":13322,"Ġpensam":13323,"ĠWet":13324,"ĠWanless":13325,"Ġboatos":13326,"etes":13327,"Ġcontrato":13328,"Ġconhecidos":13329,"Ġtrocaram":13330,"Ġnegoc":13331,"ĠDodge":13332,"renes":13333,"Ġsilhu":13334,"ĠFala":13335,"duziu":13336,"ĠMohrenschildt":13337,"ĠFranc":13338,"Ġsombrios":13339,"Ġencostada":13340,"Ġassoalho":13341,"ĠMelda":13342,"Ġdigital":13343,"Ġagradeceu":13344,"Ġremoto":13345,"Ġdificilmente":13346,"Ġatirado":13347,"ĠBranca":13348,"Ġgavetas":13349,"Ġcicatrizes":13350,"indle":13351,"Ġperguntasse":13352,"Ġesvaz":13353,"Steve":13354,"Ġcoronel":13355,"Ġmatinal":13356,"grÃ¡fica":13357,"Ġespiral":13358,"ĠcomunicaÃ§Ã£o":13359,"ĠMounta":13360,"ĠridÃŃcula":13361,"Ġangust":13362,"Ġsilhueta":13363,"Aqui":13364,"Ma":13365,"Sil":13366,"dimento":13367,"duais":13368,"fir":13369,"grima":13370,"ideia":13371,"lite":13372,"saram":13373,"real":13374,"Ġsecamente":13375,"andes":13376,"Ġbac":13377,"homem":13378,"rip":13379,"ĠAham":13380,"ĠAaron":13381,"Ġrezar":13382,"ĠMara":13383,"ĠMur":13384,"Ġaldeia":13385,"dosa":13386,"Ġdign":13387,"ĠBei":13388,"Ġinstitu":13389,"itty":13390,"Ġsuaves":13391,"Ġcontasse":13392,"Ġmoviam":13393,"Ġinten":13394,"ĠSear":13395,"ĠmandÃ¡":13396,"grade":13397,"ĠOsmond":13398,"Ġcorreta":13399,"ĠmalÃ©":13400,"ĠAnci":13401,"apro":13402,"falei":13403,"alhada":13404,"Ġcaptar":13405,"Ġfavorita":13406,"ĠarmaÃ§Ã£o":13407,"Ġfarol":13408,"Ġpintada":13409,"ĠmÃ©dia":13410,"Ġsuspeito":13411,"Ġprovoc":13412,"Ã³rum":13413,"Ġtirara":13414,"Ġurina":13415,"ĠHalliday":13416,"Ġamante":13417,"ÃŃbulo":13418,"Ġiniciais":13419,"ĠJerzyck":13420,"Ġindef":13421,"ĠgenuÃŃ":13422,"ĠdelÃŃ":13423,"ĠigniÃ§Ã£o":13424,"Ġtateando":13425,"ĠQuantas":13426,"ĠrepÃ³rteres":13427,"ĠfantÃ¡stica":13428,"ĠFechou":13429,"Ġtravessa":13430,"Ġdesconfiado":13431,"Ġassemel":13432,"ĠlunÃ¡tico":13433,"Ġodeio":13434,"ĠBurkett":13435,"ĠmiserÃ¡vel":13436,"Ġvassoura":13437,"Ġlitoral":13438,"Abra":13439,"Certo":13440,"Dessa":13441,"Fez":13442,"ĠdÃŃ":13443,"Ġcesto":13444,"Ġmir":13445,"istos":13446,"Ġvice":13447,"depois":13448,"ames":13449,"Ã³rm":13450,"ondas":13451,"Ġcatar":13452,"ĠCO":13453,"Ġalo":13454,"ĠTansy":13455,"Ġdirige":13456,"ĠBay":13457,"ĠperdÃ£o":13458,"ĠJuro":13459,"rambar":13460,"essei":13461,"Ġhosp":13462,"Ġfazemos":13463,"derou":13464,"Ġarcos":13465,"ĠestÃ¡tica":13466,"logos":13467,"ĠEstes":13468,"Ġmordendo":13469,"Ġentregue":13470,"neticamente":13471,"Ġmelanc":13472,"ĠKindle":13473,"Ġlevada":13474,"Ġafora":13475,"Ġinchados":13476,"Ġtartaruga":13477,"thil":13478,"Ġviajante":13479,"Ġchegarmos":13480,"ĠArthur":13481,"ĠEnfim":13482,"Ġrasgando":13483,"ĠNorm":13484,"Comecei":13485,"Ġsignificar":13486,"ĠDonovan":13487,"Ġassob":13488,"ĠCalma":13489,"Ġhorrivelmente":13490,"Ġvivem":13491,"ĠcÃ¡qui":13492,"ĠobservaÃ§Ã£o":13493,"bby":13494,"Ġ90":13495,"Ġconcentrar":13496,"Ġsocial":13497,"Ġsocorro":13498,"Ã³ides":13499,"Ġpecado":13500,"Ġdescobrira":13501,"ĠdÃ©bil":13502,"Ġemitir":13503,"Ġbarbante":13504,"Ġgirava":13505,"Ġencerrado":13506,"Ġluminoso":13507,"ĠPerguntei":13508,"Ġconsiderou":13509,"ĠCapitÃ£o":13510,"ĠSpr":13511,"ĠCanal":13512,"Ġmaligno":13513,"ĠbagunÃ§a":13514,"ĠPelley":13515,"ĠbinÃ³":13516,"ĠinacreditÃ¡vel":13517,"ĠconvicÃ§Ã£o":13518,"Ġcamundongo":13519,"ĠPierre":13520,"40":13521,"ITO":13522,"RES":13523,"hinha":13524,"mob":13525,"went":13526,"Ġaranhas":13527,"uman":13528,"Ġess":13529,"Ã§amento":13530,"sel":13531,"riar":13532,"ĠAg":13533,"Ġgiz":13534,"ĠNig":13535,"ĠCAR":13536,"Ġdesci":13537,"Ġdesat":13538,"Ġdespa":13539,"Ġencom":13540,"ĠBai":13541,"Ġinveja":13542,"Ġmudo":13543,"ĠFris":13544,"Ġprontamente":13545,"Ġseren":13546,"Ġesplendo":13547,"ator":13548,"atley":13549,"itaram":13550,"Ġmortes":13551,"Ġmandava":13552,"lhado":13553,"Ġpostura":13554,"Ġvoltam":13555,"ĠestarÃ£o":13556,"ĠPonte":13557,"Ġacreditam":13558,"Ġchocal":13559,"Ġconfiante":13560,"Ġchamadas":13561,"Ġafasta":13562,"Ġrasgada":13563,"ĠProvid":13564,"Ġagulhas":13565,"ĠcomeÃ§arem":13566,"ĠmÃºsicas":13567,"Ġpressas":13568,"Ġarmado":13569,"Ġenvolveu":13570,"Ġrecolher":13571,"Ġenterrou":13572,"Ġderrubado":13573,"ĠRocky":13574,"Ġregistradora":13575,"Ġansiosa":13576,"Ġcontorno":13577,"Ġindicar":13578,"ĠTrenton":13579,"Ġriscos":13580,"Ġrecusar":13581,"ĠreputaÃ§Ã£o":13582,"Ġgarantia":13583,"Ġprodutos":13584,"Ġmonstruosa":13585,"ĠdivÃ³rcio":13586,"ApÃ³s":13587,"Logo":13588,"ĠexcitaÃ§Ã£o":13589,"Ġadesiva":13590,"Ġobedeceu":13591,"Mort":13592,"ĠJenny":13593,"Ġcolarinho":13594,"ĠhipÃ³tese":13595,"ĠalcoÃ³la":13596,"Ġnuclear":13597,"ĠimplacÃ¡vel":13598,"ilvÃ¢nia":13599,"29":13600,"Vai":13601,"dicos":13602,"ete":13603,"nell":13604,"xto":13605,"Ġy":13606,"Ġax":13607,"Ġares":13608,"Ġmentais":13609,"estou":13610,"inÃ¡ria":13611,"haw":13612,"Ã¡gio":13613,"ely":13614,"ĠAP":13615,"ĠcatÃ³":13616,"Ġmele":13617,"Ġmexe":13618,"magem":13619,"ĠÃ©gua":13620,"Ġinunda":13621,"ĠJulho":13622,"Ġverso":13623,"Ġseriedade":13624,"Ġcarrinhos":13625,"Ġcasual":13626,"vora":13627,"ĠsabÃŃamos":13628,"Ġamado":13629,"Ġviveu":13630,"Ġnebl":13631,"Ġouvimos":13632,"ĠexposiÃ§Ã£o":13633,"tÃ¡rios":13634,"Ġmalvado":13635,"Ġjunt":13636,"Ġjuntamente":13637,"Ġsangra":13638,"rimeiro":13639,"Ġexata":13640,"ĠpareÃ§a":13641,"Ġceder":13642,"ĠlouÃ§a":13643,"Ġmostrador":13644,"Ġapertada":13645,"Ġtocaram":13646,"Ġesquecida":13647,"Ġligeiro":13648,"Ġchutou":13649,"duzir":13650,"Ġprovocado":13651,"Ġdivertir":13652,"Ġapressar":13653,"ĠOhio":13654,"Ġespalhado":13655,"Ġentendem":13656,"ĠlÃŃmp":13657,"Ġjardins":13658,"ĠValfenda":13659,"Dave":13660,"ĠOrcs":13661,"Ġgeng":13662,"Ġabsurdamente":13663,"ĠpelÃºcia":13664,"ĠParkus":13665,"Ġocupava":13666,"Ġesticada":13667,"Ġinesperado":13668,"ĠCorredor":13669,"ĠLortz":13670,"Ġradiante":13671,"Ġdescontro":13672,"Ġpiscadela":13673,"ĠSharp":13674,"ĠpreguiÃ§os":13675,"Ġlacrim":13676,"Ġcirurgia":13677,"Ġconvite":13678,"Ġindescri":13679,"Ġpropaganda":13680,"Ġdinamite":13681,"Ġneblina":13682,"Bo":13683,"udiu":13684,"Ġai":13685,"Ġdenta":13686,"Ġsevera":13687,"Ġble":13688,"Ġnoc":13689,"ecos":13690,"ÃŃso":13691,"ÃŃris":13692,"olho":13693,"ĠCloto":13694,"ĠPynchot":13695,"ĠMic":13696,"vee":13697,"maha":13698,"Ġperdia":13699,"ĠRela":13700,"Ġprotu":13701,"ĠlaÃ§o":13702,"ĠLimp":13703,"ĠLamento":13704,"ĠGam":13705,"ativo":13706,"Ġpreparou":13707,"Quase":13708,"tase":13709,"Ġamig":13710,"ĠsÃ³lido":13711,"Ġchato":13712,"Ġcomprei":13713,"ĠÃīomer":13714,"Ġfreneticamente":13715,"Ġmarcar":13716,"Ġencontrando":13717,"Ġcalcul":13718,"ĠKells":13719,"ĠtendÃªncia":13720,"Ġlembrado":13721,"ÃŃnica":13722,"Ġtax":13723,"Ġagl":13724,"ĠtrovÃµes":13725,"Ġapertava":13726,"ĠtocÃ¡":13727,"Ġdescido":13728,"ĠsÃ©rios":13729,"Ġrefres":13730,"ĠElvis":13731,"Ġvestia":13732,"Ġestupe":13733,"galhado":13734,"gnado":13735,"Ġdesenhar":13736,"ĠLaVer":13737,"ĠexperiÃªncias":13738,"ĠGalad":13739,"Ġhesitar":13740,"ĠSouth":13741,"ĠalmoÃ§ar":13742,"Ġpreferia":13743,"ĠreverÃªncia":13744,"Ġapavorada":13745,"Ġinterrompido":13746,"Ġcomputadores":13747,"Ġadvogados":13748,"Ġarrogante":13749,"Ġpenetrante":13750,"Ġdesesperada":13751,"ĠDizia":13752,"Ġtruques":13753,"Ġreduzido":13754,"Ġdesbotada":13755,"ĠFicava":13756,"IDADE":13757,"Ġenfileira":13758,"Ġpiorar":13759,"Ġtranquilamente":13760,"Ġcauteloso":13761,"ĠvidraÃ§as":13762,"ĠacusaÃ§Ã£o":13763,"Ġhomenzinho":13764,"ĠcÃ³pia":13765,"Ġcalafrio":13766,"Ġgrasn":13767,"ĠVillage":13768,"randall":13769,"ĠnÃ¡degas":13770,"ĠinconfundÃŃvel":13771,"?...":13772,"Eram":13773,"bura":13774,"baram":13775,"maram":13776,"rÃ³":13777,"ss":13778,"ĠcÃºp":13779,"Ġopera":13780,"ese":13781,"out":13782,"enci":13783,"roy":13784,"Ġbi":13785,"ĠEis":13786,"Ġparara":13787,"Ġnava":13788,"Ġnacional":13789,"sobre":13790,"Ġeletro":13791,"ĠPul":13792,"ĠOb":13793,"verando":13794,"Ġditado":13795,"Ġconvin":13796,"ĠVila":13797,"Ġentram":13798,"Ġletreiro":13799,"ĠFing":13800,"Ġexti":13801,"Ġespon":13802,"Ġespiri":13803,"ĠLuz":13804,"Ġcortador":13805,"Ġcarpete":13806,"Ġtrinco":13807,"Ġtrag":13808,"Ġhomena":13809,"Ġdiagon":13810,"Ã¢mbio":13811,"ĠAlden":13812,"Ġestam":13813,"Ġtortas":13814,"Ġrotina":13815,"Ġmariposas":13816,"Ġtome":13817,"ĠEntende":13818,"Ġesperan":13819,"lyn":13820,"ĠMartha":13821,"Ġconfid":13822,"Ġtransbor":13823,"Ġcontinuaria":13824,"ĠMant":13825,"ĠpuxÃ¡":13826,"Ġapartamentos":13827,"Ġdesembar":13828,"Ġpiranha":13829,"ĠempurrÃ£o":13830,"Ġvestiu":13831,"Ġsumira":13832,"ÃŃaca":13833,"Ġhorrorizado":13834,"Ġgordura":13835,"Ġacompanhado":13836,"ĠPenso":13837,"Ġencolher":13838,"Ġenterrada":13839,"ĠBowden":13840,"Ġmaravilhas":13841,"Ġsoubessem":13842,"Ġcrip":13843,"Ġfizessem":13844,"ĠEmbaixo":13845,"Ġvizinha":13846,"Ġfranzida":13847,"ĠrevelaÃ§Ã£o":13848,"Ġpesadamente":13849,"Ġenlouquec":13850,"Ġdoloroso":13851,"Ġequipamentos":13852,"Ġnoturna":13853,"ĠHumvee":13854,"ĠLorde":13855,"Ġciclo":13856,"Ġpacientemente":13857,"Ġlampar":13858,"ominÃ¡vel":13859,"ĠWorth":13860,"ĠSchool":13861,"Ġbarranco":13862,"Ġmeneou":13863,"mobile":13864,"EF":13865,"VOR":13866,"bador":13867,"cunda":13868,"gai":13869,"jes":13870,"Ġduros":13871,"Ġento":13872,"nteiro":13873,"Ġmig":13874,"ĠmÃ³r":13875,"ĠlÃ¢":13876,"Ġgele":13877,"Ġmagra":13878,"Ġmatara":13879,"Ġestud":13880,"Ġreman":13881,"ĠCle":13882,"ĠPÃ´s":13883,"ĠTornou":13884,"Ġjap":13885,"ĠatraÃ§Ã£o":13886,"uller":13887,"ĠFicar":13888,"Ġsobrado":13889,"ĠEsco":13890,"Ġmodes":13891,"Ġsentin":13892,"Ġsentem":13893,"ĠlÃ¡grima":13894,"Ġchic":13895,"Ġraiz":13896,"ĠIS":13897,"Ġimpass":13898,"chester":13899,"Ġportal":13900,"Ġduras":13901,"ĠComitiva":13902,"Ġacontecem":13903,"Ġafundou":13904,"ĠvagÃ£o":13905,"ĠAndi":13906,"Ġinchada":13907,"Ġtardes":13908,"Ġformava":13909,"idinho":13910,"reiras":13911,"Ġroubo":13912,"Ġzun":13913,"ĠArlen":13914,"Ġcachorrinho":13915,"Ġestacionou":13916,"Ġpermanente":13917,"ĠcinturÃ£o":13918,"Ġcuriosamente":13919,"Ġacompanhava":13920,"Ġrepetindo":13921,"Ġcusto":13922,"ĠdestruÃŃda":13923,"Ġjusta":13924,"Ġenrolada":13925,"Ġfuriosamente":13926,"Ġinteligentes":13927,"Ġindiv":13928,"ĠStacey":13929,"Ġflutuar":13930,"Ġinesperada":13931,"owyn":13932,"ĠNancy":13933,"Beverly":13934,"ĠradiaÃ§Ã£o":13935,"Ġhorrendo":13936,"Ġfeminina":13937,"Ġoscilando":13938,"ĠPrecisava":13939,"Ġrecompensa":13940,"ĠOxford":13941,"Ġsolenemente":13942,"Ġcoisinha":13943,"Ġguitarra":13944,"felizmente":13945,"todista":13946,"ĠBachman":13947,"ĠlÃ¢minas":13948,"Du":13949,"TRO":13950,"bida":13951,"back":13952,"cramm":13953,"fon":13954,"nut":13955,"oeste":13956,"ster":13957,"zendo":13958,"Ġ*":13959,"Ġdil":13960,"Ġpran":13961,"Ġpilares":13962,"Ġsosse":13963,"Ġcova":13964,"entasse":13965,"Ġcomece":13966,"ĠbÃ©":13967,"ĠEdi":13968,"ÃŃmetro":13969,"ĠMinhas":13970,"ĠDOS":13971,"ĠDragÃ£o":13972,"ĠÃļ":13973,"ĠTenha":13974,"Ġfatia":13975,"ĠRÃ¡":13976,"Ġterei":13977,"itÃ¡rios":13978,"Ġexas":13979,"Ġtempor":13980,"Ġarca":13981,"Ġpregos":13982,"Ġficassem":13983,"igan":13984,"Ġcasco":13985,"Ġtrator":13986,"Ġpup":13987,"Ġgritaria":13988,"Ġpositivo":13989,"ĠvisÃŃveis":13990,"Ġsoa":13991,"Ġcalcu":13992,"consegu":13993,"cionou":13994,"Ġincendi":13995,"Ġchamara":13996,"iffe":13997,"Ġimporto":13998,"Ġconhecemos":13999,"Ġcontinue":14000,"ĠCarmo":14001,"ĠArran":14002,"bula":14003,"Ã´nicos":14004,"Ġgote":14005,
[...]
