#version: 0.2
Ġ d
Ġ e
Ġ a
r a
Ġ p
Ġ c
Ġd e
Ġ s
q u
n t
o s
Ġ m
e r
d o
a s
a r
Ġ n
Ġ qu
Ġ o
Ġc o
i s
Ġ t
e s
Ã £
u m
i n
Ã£ o
o r
Ġqu e
i a
Ġ f
â Ģ
âĢ Ķ
Ġ v
t a
r e
o u
Ġ um
Ġs e
a n
Ġe s
l e
d a
l a
e nt
e n
Ġco m
v a
h a
Ã ¡
a ra
Ã §
r o
s e
Ġ b
t o
a l
Ã ©
Ġ E
Ġ âĢĶ
e m
i m
d e
Ġd o
e l
Ġp ara
i c
e i
Ġn Ã£o
Ġe m
g u
h o
r i
Ġ l
Ġn o
an do
ent e
Ġd a
Ġum a
Ġ A
Ã ª
a m
c o
Ġ g
o c
Ġn a
t e
s o
. .
Ġ S
e c
o l
Ġp or
Ã ³
Ġes t
Ġm a
Ã Ń
Ġs u
o n
Ġc a
Ġa s
i l
i r
in ha
u s
ta va
Ġ N
Ġe le
Ġ re
Ġ O
Ġ C
Ġa l
Ġ D
Ġ P
Ġo u
Ġ os
a do
ra n
Ġ r
Ġ M
Ġm e
Ġd is
v e
i da
o m
Ġ Ã
l h
Ġm as
p o
qu e
g o
nt e
u n
d os
Ġd i
Ġ T
Ġe ra
Ġes tava
oc Ãª
Ġde s
m ente
Ġco n
Ġ j
Ġs a
Ġe n
c a
Ġcom o
m a
Ã§ Ã£o
Ġf a
Ġma is
Ġ B
i do
Ġ Ã©
Ã§ a
Ġp er
Ġp o
Ġa t
Ġp ar
Ġf o
Ġ in
a i
d i
.. .
Ġp e
Ġdis se
u l
s a
Ġa c
nt o
Ġ R
i v
Ġm u
Ġ V
Ġ J
Ġt er
c i
Ġe u
i u
Ġa p
h e
Ġe la
Ġv ocÃª
e z
Ġp r
Ġe nt
Ġ le
g a
Ġt inha
v ia
i ra
Ã© m
Ġo lh
Ġ H
i t
o b
m o
b e
d as
is a
Ġ is
en s
Ġe x
ĠN Ã£o
u ra
i to
g ar
ent o
Ġp ro
Ġv er
er ia
Ġ F
Ġco nt
Ġt em
Ġm es
Ġsu a
Ġa o
es se
Ġ h
ra m
r ia
en do
ĠÃ ł
Ġ la
Ġ i
Ġes p
u r
l es
Ġis so
ic a
Ġse u
Ġa n
Ġ L
ra s
v el
Ġt o
Ġqu ando
Ġse m
Ġfa z
Ġ ho
r es
r os
Ġou t
m e
Ġ ha
Ġa r
l o
c e
a t
Ġd os
Ġco r
ĠE le
Ġv ez
Ġest Ã¡
Ġp re
im a
el o
Ġr es
Ġa b
Q u
um a
t ar
Ġs er
Ġs ob
i x
a nto
nt es
c ia
Ġdi z
ida de
Ġ G
Ġfo i
s t
Ġpar ec
Ġp as
Ġpo d
Ġm o
Ġp a
n do
i z
e u
Ġc ar
Ġat Ã©
Ġas s
ei ra
Ġse nt
Ġha via
i e
Ġco isa
po is
im p
ĠD e
t as
Ġf ic
Ġse gu
i g
i o
v er
ei ro
Ã§ o
t os
in do
Ġc as
Ġ Qu
Ġc er
Ġv ol
Ġb em
Ġmu ito
Ġmes mo
in da
Ġal g
m b
in a
Ġes c
co nt
Ġc am
Ġf or
ri o
p a
Ã º
t ou
Ġl u
Ġm en
go ra
Ġn os
nt a
i ta
Ġl Ã¡
ar o
Ã¡ s
p e
ra r
Ġd as
Ġsob re
Ġc h
u do
Ġt r
ĠE u
Ġp es
Ã µ
Ġp ens
is t
Ġcom e
Ãµ es
Ġ U
va m
r u
c h
Ġv o
in ho
ai x
Ġde pois
v o
Ġt am
Ġsa b
Ã ´
Ġolh os
Ġa m
ve z
Ġs Ã³
in h
j a
ia m
Ġca be
Ġm or
Ġa qu
se gu
Ãª n
Ġ ra
Ġa inda
al vez
n a
Ġp elo
Ġt ra
Ġc he
Ġm Ã£
Ġcabe Ã§a
as e
ic o
que le
el h
Ġho m
ei to
Ġc ha
i d
ĠV ocÃª
os to
Ġcom p
Ġp ou
an d
Ġper gu
n de
b Ã©m
Ġi nt
en d
Ġde le
Ġtem po
Ġla do
ĠS e
Ġ I
ran do
r ou
u a
b o
Ġt e
Ġ imp
ĠM as
Ġf al
ĠE s
i or
Ġ (
Ġd ia
Ġpas s
Ġde ix
Ġp ra
Ġres p
Ġcon segu
ar ia
Ġa gora
Ġcome Ã§
ĠE la
que la
ei o
Ġtam bÃ©m
Ġv ai
iv esse
Ã ¢
Ġfaz er
t er
ra do
p re
ĠÃ º
n o
c k
ta do
Ġm Ã£o
Ġ ir
qu er
Ġm an
Ġme u
am ente
Ġdo is
Ġqu ase
nt ou
i te
Ġo nde
am os
Ġj Ã¡
ĠÃ ī
Ġcas a
u d
Ġpe la
da de
h ar
Ġ "
or r
ra da
Ġqu er
oc a
Ġ W
es t
es s
Ġj o
ara m
Ã³ s
Ġm inha
il l
en as
g ou
ĠA l
Ġou v
Ġt Ã£o
z a
Ġf re
Ġt udo
Ġa ntes
Ġdi re
Ġe les
Ġpou co
el ho
ĠJ a
Ġn e
l ha
a da
un do
Ġpor ta
Ġse us
Ġg ri
Ġp os
Ġhom em
ĠP or
u t
g e
gu Ã©m
p er
Ġvo z
Ġout ro
g em
aix o
Ġmen os
Ġpr im
Ġt or
Ġb o
Ġd u
Ġqu al
f er
Ġass im
Ġfo ra
ÃŃ vel
Ġpes so
Ġna da
Ãª s
ta nte
c ul
ta mente
Ġl he
Ġ ro
Ġdiz er
as se
e ra
g ra
f or
Ġvol ta
r y
Ġt alvez
Ġalg um
b er
Ġ 1
os se
al mente
Ġde la
Ġent re
in u
Ġg ran
Ġt i
Ġr osto
Ġv is
do r
d es
ar ec
Ġse n
Ġan os
Ġes ta
Ġs ol
Ġv i
ĠC om
n e
Ġpor que
ent a
Ãªn cia
Ġpre c
Ġg aro
cont ec
en h
qu anto
m os
Ġf il
l as
Ġestava m
t or
Ġfre nte
Ġf osse
un ca
Ġparec ia
Ġalg uma
Ġex p
Ġs o
e la
k e
Ġn as
Ġest ar
is as
Ġa contec
Ġn em
re m
i f
Ġc al
d ia
Ġlu gar
Ġap enas
ĠO s
de u
Ġpr Ã³
lh er
ĠmÃ£ os
i go
ĠJ o
Ġm ar
ĠE st
Ġno vo
t ura
ir ou
Ġre p
E le
Ġen cont
Ġo b
Ġc l
- -
in g
Ġs om
c ho
Ġ Ã¡
c os
co n
c u
Ġ K
h ec
Ġver dade
d er
os a
Ġm om
Ã§ Ãµes
ri u
is o
Ġt om
Ã¢ n
elh or
Ġle va
Ġout ra
Ġcor re
Ġaqu i
Ġs ido
Ġno ite
a is
Ġent Ã£o
os o
Ġco isas
ĠE ra
Ġpar te
Ġpo de
Ġm eio
el as
Ġf ez
Ġle mb
Ã§ as
ĠE nt
Ġmu lher
Ġt ent
Ġd or
Ġt en
ci on
Ġm elhor
ra va
im o
Ġv a
Ġb a
Ġpod eria
b a
Ġvez es
Ġto dos
Ġa f
Ġco l
Ġ us
Ġsab ia
Ġm al
Ġt ivesse
Ġint er
Ġen quanto
Ġb om
Ġc u
Ġe r
ent os
Ġsem pre
Ġp u
Ġcon s
Ġl on
di o
Ġn unca
Ġdu as
r Ã¡s
Ġp Ã©
Ġb ar
os t
Ġpergu ntou
Ġv iu
Ġmom ento
gu e
di e
ĠJa ck
Ġal i
es ta
i va
Ġp en
Ġn um
ĠU m
a d
Ġde nt
Ġera m
bo ra
Ã¡ rio
g ado
il o
Ġc in
Ġpe qu
Ġsu b
b al
Ġpod ia
i ro
Ġs on
an h
in o
ĠA s
n s
Ġdent ro
Ġresp on
c ha
Ġm im
Ġt ran
Ġp ai
in al
Ã¡ vel
l t
Ġc ara
Ġin s
Ġtr Ãªs
v i
ĠN o
ĠE d
Ġfic ar
c ar
iv o
s Ã£o
Ġse i
ĠcomeÃ§ ou
e t
de ira
Ġpens ou
Ġb ra
Ġsa be
Ġat rÃ¡s
Ġsu as
Ġdis so
Ġgran de
n y
Ġc ima
c or
Ġqual quer
am ento
p h
Ġa quele
is ta
Ġcha m
Ġem bora
ĠÃº lt
Ġc ria
d ar
v or
Ġn enh
Ġ gu
Ġm undo
ol and
a p
ĠB ill
ĠP e
Ġfic ou
Ġac ha
ĠQu ando
ĠmÃ£ e
Ġpequ en
Ġv ida
i ga
te za
i b
ĠÃł s
Ġca b
an Ã§
Ġqu anto
Ġtra bal
Ġb e
Ġj u
Ġt ar
ci o
Ġde u
Ġtinha m
Ġin c
Ġolh ou
ta ndo
ĠDe us
Ġ un
ri os
h n
i dos
Ġle v
vel mente
el ha
ic i
ent es
im ento
Ġb oca
Ġa ca
Ġpesso as
Ġma ior
ĠP o
l ar
ĠprÃ³ p
Ġto do
Ġb al
Ġlu z
re di
Ġqu ar
l u
Ġv elho
Ġl o
Ġs or
Ã§ os
Ġque m
em os
Ġh Ã¡
Ġp ol
Ġqu eria
Ġd ar
b ra
Ġsu r
Ġolh ar
c as
i os
a va
j o
Ġf ec
Ġs eria
p os
la v
d u
Ġesc u
i nt
gu a
ic k
Ġcer teza
Ġcar ro
ĠI s
ma is
Ġl iv
ta l
E la
Ġes sa
c er
Ġal go
Ġt a
ĠEnt Ã£o
Ġn uma
Ġde les
Ġs orr
so n
ĠN a
Ġr u
Ġc an
j e
Ġfor ma
Ġs an
Ġc idade
d y
Ġpr es
Ġtr Ã¡s
Ġs al
ĠE m
Ġa quela
Ġb ol
to n
er o
Ġg ente
ĠR oland
Ġs im
Ġg ra
Ġs i
Ġa nt
an a
r im
Ġca da
Ġcont ra
Ġf un
ĠU ma
Ġb ran
Ġh ist
in e
Ġpa lav
ĠJo hn
ĠA n
Ġf u
lh e
el os
Ġter ia
l os
h os
nt ar
ra Ã§Ã£o
s as
m as
ar d
Ġde mais
el es
Ġtar de
Ġaca b
ĠF o
Ã³ ria
ĠEd die
Ġg os
Ġal guÃ©m
Ġest ivesse
Ġac redi
Ġes qu
nt as
Ġimp or
Ġg ar
Ġv ou
inh as
ia l
h ou
Ġest ou
h as
ĠH a
ÃŃ n
Ġf im
ĠT alvez
Ġs Ã£o
m an
Ġho ra
Ġac ho
Ġ ima
Ġest ran
f a
t ros
p res
t es
al ph
ĠÃº n
l y
Ġat ra
Ġesp e
ĠA cho
em ente
i on
Ġno me
Ġm er
Ġ ia
Ġf ica
ĠCom o
Ġto da
Ġn Ã³s
Ġc ho
h or
qu i
Ġb at
Ġte le
ĠC o
ĠD a
Ġb as
Ġpe d
pa z
r is
Ġv ira
Ġes se
Ġsab er
Ġfal ar
l ho
ri r
p or
Ġb an
iv er
Ġa j
v ida
us a
ĠâĢĶ ,
m in
Ġp is
p ar
) ,
Ġ im
ĠIs so
Ġa v
Ġb ri
in guÃ©m
Ġgaro to
Ġtor n
t ic
Ġs r
Ġper ce
gu ns
Ġper to
Ġ --
Ġcon hec
Ġno va
Ġsu s
at ro
Ġcl aro
Ġme do
de ia
Ġpas sa
Ġa g
Ġf i
ca da
Ġdire Ã§Ã£o
Ġo lha
Ġolh ando
t ra
Ġa d
g ando
ĠM ar
ĠS Ã³
va velmente
nt os
c il
Ġo mb
Ġcon f
Ġprim eira
ri as
n da
Ġfaz endo
Ġpos s
es te
Ġa os
Ġcer to
t u
Ġprim eiro
Ġv ia
b aixo
Ġp ud
Ġch Ã£o
ura nte
er v
as s
Ġf iz
Ġout ros
Ġal to
t Ã³
ĠS a
Ġen f
Ġprec isa
Ġc Ã©
N Ã£o
Ġcam inho
e d
Ġtran s
Ġesc ri
on e
Ġt ira
Ġd Ãº
Ġver m
Ġb aixo
Ġj an
m p
Ġcont inu
Ġest Ã£o
Ġcria n
Ġcor po
l ic
ĠR alph
Ġes co
ĠT o
Ġex a
Ġs imp
Ġsan gue
Ġfil ho
i ve
ĠR ic
ĠA gora
Ġ Ã³
r in
Ġdor m
Ã¢n cia
Ġes te
t ro
Ġr Ã¡
Ġsa la
Ġpa p
c ado
Ġa po
es sa
i as
ĠQu e
Ġt anto
Ġgri tou
Ġsen hor
Ġest rada
en ry
Ġpens ar
v em
ĠFo i
Ġs ou
Ġatra v
Ġsorr iso
Ġti po
Ġpro f
co b
le n
us an
p ara
Ġob s
Ġpar e
Ġt ro
elh os
ĠEst Ã¡
Ġp Ã¡
Ġp Ã´
Ġb aix
ve is
Ġrespon deu
Ġmes ma
Ġr ou
Ġsa ÃŃ
an o
Ġm Ã¡
Ġima g
f e
ĠEs tava
Ġqu atro
Ġnenh um
Ġc ur
Ġes quer
ĠHa via
ri g
Ġde via
la do
Ã© s
b le
ta m
Ġal guns
Ġm ente
ĠS im
al ha
Ġbo a
re i
ĠM a
h Ã£
Ġer gu
Ġquar to
z e
v is
z inha
g re
Ġhist Ã³ria
Ġ1 9
Ġi deia
do u
is se
ĠT om
Ġt ri
Ġmo do
i de
Ġman hÃ£
Ġap ro
Ġb on
v en
b ro
ei ros
Ġlo go
Ġna quele
ĠDe pois
Ġac or
ĠH ar
Ġcont a
Ġpu x
t h
Ġem p
ra l
n as
Ġhom ens
Ġqu is
Ġtele f
ĠO u
Ġan o
Ġca ix
Ġsimp les
Ġre almente
ĠE les
Ġsu f
Ġr ua
Ãª m
Ġ 2
Ġfor Ã§a
Ġto das
ĠH enry
Ġh ou
Ġten ho
i Ã§Ã£o
Ġm inu
ĠÃ¡ gua
Ġcol oc
ri d
Ġcin co
Ġab er
Ġm ost
f ÃŃ
Ġc os
Ġbra Ã§o
Ġvol tar
or re
Ġc ent
ĠH o
Ġl ou
i ar
v id
Ġa z
Ġm il
Ġap er
i p
Ġpass ou
or es
Ġaqu ilo
Ġpud esse
Ġsa ir
Ġpro ble
i gar
v ol
res sÃ£o
Ġparec e
en deu
ĠS usan
l in
" ,
Ġc e
Ġde z
Ġmes a
g as
Ġv irou
r er
Ġn inguÃ©m
Ġap ar
Ġpro vavelmente
Ġtrabal ho
Ġf eito
Ġam ar
Ġcam a
Ġun s
Ġa ÃŃ
ĠG e
Ġbas tante
Ġp l
Ġf er
ĠC ar
it os
Ġten ha
Ġt oc
g an
u la
Ġfal ou
da do
s os
an Ã§a
Ġrep ente
il ha
Ġde dos
Ġter r
Ġche gar
Ġgu ar
cul o
Ġcha ma
Ġca ÃŃ
i la
ir ia
Ġbe b
Ġp ul
Ġpass ar
t Ã£o
E u
Ġf l
l l
Ġne g
Ġcon ver
ic os
ga da
le y
ĠD an
Ġre c
Ġna quela
en ho
ĠL e
Ġ z
Ġdi as
Ġte ve
ado r
se i
Ġprec is
i das
oc u
M as
di u
. âĢĶ
Ġfo ram
Ġj eito
Ġp la
Ġd urante
ĠB ar
en de
e ta
it as
" .
m es
Ġfec ha
Ġvol tou
Ġdes de
ĠB e
Ġpe gou
ap arec
Ġdes l
Ġfaz ia
Ġv e
ĠvocÃª s
ci e
Ġpo nto
inh os
ĠC h
Ġar re
f ei
im os
z ia
Ġpar t
end er
c ou
Ġpod er
Ġsu j
Ġfor te
Ġpr in
Ġpen sa
ÃŃ s
Ġcab elo
c re
ĠF ran
gu ei
Ġsent iu
ÃŃ cia
ĠGe or
ĠC l
Ġo r
Ġnova mente
le iro
ĠE n
ĠT udo
Ã´ n
ĠpÃ© s
Ġdeix ar
Ġh orr
qu ei
Ġre ce
Ġv Ã¡
Ãº m
ig os
ĠdÃº vida
Ġan dar
t ei
Ġse ja
Ġcomp le
ĠC on
Ġc ru
Ġt rem
Ġesc re
ĠR e
Ġpre ocu
if ic
Ġsuf ici
l ia
Ġlon ge
Ġouv ir
inh eiro
a dos
Ġch eiro
Ġdes cob
m it
m ou
ĠBill y
Ġf ra
Ġpos so
Ġfa vor
Ġqu Ãª
Ġab riu
ul ar
t y
Ġp elos
Ġs Ã©
Ġsa iu
ĠJa ke
d ido
Ġj a
Ġquer o
Ġar ma
u da
Ġal Ã©m
Ġfa to
Ġis to
Ġcos tas
ĠrÃ¡ p
g os
Ġre l
s ur
Ġma nt
ta da
Ġap arec
Ġconsegu ia
g er
a u
cul os
ci p
te u
Ġpalav ras
ĠT inha
ĠEst ou
Ġdes aparec
Ġme us
ĠP er
Ġh um
t Ã¡
Ġesqu ec
Ġf undo
Ġde ve
D e
Ġn or
R A
ĠD o
Ġl ar
ĠS r
Ġar ran
Ġsen sa
Ġco raÃ§Ã£o
Ġf in
Ġpequen o
ĠcÃ© u
Ġalgum as
p as
ol ly
le i
Ġv Ãª
ĠA r
Ġapro x
Ġman eira
c ura
Ġbra Ã§os
Ġpesso a
Ġre al
tar ia
Ġesp ec
ĠÃºlt ima
Ġca deira
Ġpe da
i nte
tÃ³ rio
Ġdi fer
me tros
ĠV amos
Ġsent ir
Ġqu il
Ġv ento
it ar
ent ou
Ġl ig
har d
Ġhavia m
ĠP arec
ĠGeor ge
Ġac ima
Ġi d
b u
t ivo
g ia
or n
ĠD E
ei x
na h
Ġjan ela
Ġca iu
Ġcam inh
Ġdes a
Ġin f
Ãº s
Ġnenh uma
Ġdiz ia
v as
c he
Ġv Ã£o
ira m
Ġpergu nta
Ġconsegu iu
Ġf inal
ĠP ara
Ġexa tamente
Ġpap el
Ġre la
Ġesquer da
Ġminu tos
en Ã§Ã£o
Ġho ras
ĠprÃ³ x
Ġacha va
in ua
os ta
ĠV ou
Ġp al
Ġv est
l ica
ĠprÃ³p rio
if ica
in as
Ġfa la
Ġpis to
res c
ĠS eu
ĠJohn ny
be u
Ġca ch
Ġme ia
Ġpe gar
Ġv elha
Ġpor Ã©m
Ġdeix ou
Ġde r
ĠÃºn ica
Ġca p
Ġe las
Ġparec eu
Ġv amos
is so
Ġpens ando
Ġcu ida
Ġn u
ran Ã§a
Ġsu per
v eria
Ġf am
ĠT er
Ġfal ando
ic ial
ĠR a
ĠR o
Ġvis to
Ġes ca
Ġcas o
Ġda qu
Ġter min
Ġch u
Ġins tante
Ġir m
Ġqu ad
Ġesp era
Ġout ras
Ġaf as
Ġre f
r Ã¡
ĠT em
g io
s es
ĠM e
Ġpar ou
Ġacontec eu
Ġ ras
el iz
Ġam igo
Ġ Y
Ġcal Ã§a
ĠB em
b i
Ġb rin
anÃ§ ou
t re
Ġsegu ndo
Ġn ar
Ġpara r
n ie
Ġv id
Ġm Ã©
Ġmaior ia
i Ã£o
t Ã©
ent emente
Ġdes c
r m
Ġt re
Ã§ ou
z inho
Ġen or
ĠF a
c es
Ġco ber
ĠN e
Ġdiz endo
Ġpequen a
ĠlÃ¡ b
re u
ig n
in s
ri e
) .
ce u
Ġter ra
ha do
Ġesp a
Ġmor to
Ġsufici ente
c ara
res s
Ġpo is
Ġf ar
Ġpare de
ol d
Ġg al
Ġdire ita
ĠS u
Ġda quele
ĠC har
el l
Ġche gou
am ais
Ġcaix a
en da
ia do
un da
on es
Ġass us
ĠprÃ³p ria
Ġcon c
Ġse is
ĠD es
Ġsent ia
Ġcar re
Ġcer ta
Ġtent ando
Ġsensa Ã§Ã£o
Ġco zinha
t r
or d
ix o
h ando
ĠP ro
Ġju nto
Ġpalav ra
Ġproble ma
Ġs il
ent ar
era l
Ġliv ro
ida mente
ĠA h
it u
Ġtelef one
Ġdis t
t iva
Ġd inheiro
ÃŃ t
du z
Ġfun cion
Ġfica va
Ġcont ar
ĠB o
Ġent rar
ĠC la
Ġouv iu
Ġcont inua
Ġposs ÃŃvel
Ġm ent
ci as
ĠL o
Ġmo tor
Ġmen ino
ĠB ob
ĠS ua
Ġper nas
Ġca va
ĠM c
. "
Ġti ve
x o
ĠSusan nah
b re
Ġsimples mente
Ġemp ur
O s
Ġa gar
E R
Ġem baixo
m ar
c ando
v esse
or ro
d ando
Ġp elas
nt ando
ga va
Ġsem ana
end ia
ĠP ar
er to
st ru
Ġg ru
iv os
Ġsor riu
Ġde se
x a
Ġparec iam
Ġa u
Ġre v
Ġn Ãºm
Ġso f
Ġse ndo
ĠÃ Ģ
Ġsus p
Ã§ ado
Ġra paz
ta dos
Ġmo v
ĠRic hard
Ġ ri
lar es
Ġt al
Ġcorre dor
O S
ÃŃ do
Ġbran co
ic e
Ġmor te
Ġomb ros
Ġp ior
Ġesp Ã©
Ġexp ressÃ£o
ĠJ Ã¡
Ġmer da
i ou
Ġap a
Ġbri lha
Ġd Ã³
Ġg a
Ġde ntes
Ġsegu inte
ĠS te
Ġd Ã¡
Ġleva ntou
Ġj amais
Ġsent ado
Ġomb ro
Ġpass ado
Ġde ci
os s
re n
Ġ -
Ġque nte
ĠPor que
Ġlon go
Ġm on
Ãªn cio
tava m
l ie
Ġa gu
it ou
ĠÃºlt imo
ta n
Ġt esta
Ġca ir
Ġbol so
b ri
Ġque b
ĠÃ© p
Ġjo vem
Qu ando
Ġg o
Ã³ r
Ġfo go
Ġpro v
Ġf e
Ġf ol
ĠA p
Ġb anh
Ġcrian Ã§as
E nt
co m
tam ento
Ġfo to
b ado
Ġ x
P or
Ġaz ul
v il
in os
Ġra z
Ġaqu eles
en Ã§a
em p
Ġa co
Ġgran des
iz a
Ġho je
Ġquil Ã´
es ar
z er
oc al
Ã¡ ria
ĠC as
ĠI n
an s
Ġp eito
on a
Ġb or
r vor
Ġac hou
Ġcam isa
Ġda quela
t is
Ġb ura
Ġtrans for
Ġno t
Ġcorre ndo
c y
i nto
ÃŃ amos
pe t
ĠlÃ¡b ios
Ġca paz
Ġex t
Ġescu ro
ĠM u
Ġres to
ĠespÃ© cie
Ġl imp
Ġcome Ã§a
Ġre cu
v ido
Ġva z
ĠM eu
nta de
ĠÃºn ico
an ha
Ġre t
Ġche g
in ar
Ġsur pres
Ġatrav Ã©s
ĠÃ©p oca
Ġconsegu ir
Ġca usa
Ġcon cor
ĠB la
Ġencont rar
Ġpo nta
Ġs ign
ĠrÃ¡p ido
Ġv eio
ĠcomeÃ§ ar
Ġn isso
em a
Ġvo ntade
ic as
Ġa le
Ġre g
Ġsus sur
Ġpes co
Ġson ho
ĠM or
Ġsa co
Ġfa lei
Ġne le
con hec
re d
Ã¢ m
Ġsil Ãªncio
er va
ĠN or
Ġa mb
Ã¡ st
Ġpe le
Ġam or
i ke
ĠS em
Ġnar iz
Ġin d
ĠCl aro
Ġcom igo
t s
J a
N T
t el
Ġresp osta
ĠA inda
v os
an e
ul ho
Ã£ e
ri do
' s
e ram
t ica
Ġdia nte
Ġo lho
Ġpesco Ã§o
ve u
Ġest re
l and
ida des
Ġle ve
f eito
nt ei
at os
Ġdi fÃŃ
ĠB en
Ġp end
Ġra p
Ġverm elho
Ġfin almente
ĠE l
Ġver Ã£o
Ġaprox im
ec ess
Ġf ir
Ġat enÃ§Ã£o
Ġme ta
il idade
Ġus ando
Ġtorn ou
Ġcrian Ã§a
C om
Ġdire ito
le t
Ġver de
Ġsuj eito
ĠÃ¡ rvor
f o
ĠPo de
Ġp un
ĠAn dy
le ira
Ġprin cip
A R
Ġent rou
d ida
Ġde las
Ġmu ita
i que
ul o
ur ou
Ġlev ar
Ġf ei
f Ã©
Ġaj ud
Ġ u
Ġt Ãªm
ĠM ais
Ġ 3
Ġes tado
p on
ber t
Ġergu eu
E s
vam os
Ġobs erv
Ġacredi tar
Ġcont ro
c ido
f ic
O R
m y
Ġpisto leiro
Ġ il
Ġsom b
re a
Ġhou ve
ÃŃ veis
Ġb oc
ia da
Ġdes sa
ĠJ im
Ġdi rig
elh as
Ġsegu ida
p ado
Ġvid ro
c la
Ġpol ÃŃcia
Ġesta cion
Ġba teu
ĠB a
ent iu
Ġc ost
oc k
n os
ira r
eira mente
b ar
rid Ã£o
c Ã£o
Ġc ir
Ġes cada
Ġcham ado
v io
Ġab ri
Ġprecisa va
Ġam igos
ina Ã§Ã£o
ĠC a
Ġb er
Ġdorm ir
u nto
en a
s ar
Ġda va
Ġlev ou
Ġlemb rar
an ce
Ġme tros
ra dos
Ġne ve
ĠQu em
u ro
Ġm Ãºs
Ã© r
Ġpara do
ÃŃ cio
Ġr os
ĠJo e
ÃŃ a
Ġenor me
Ġla te
Ġvi nte
ob o
Ġdes ta
Ġin v
ĠFran k
ĠM o
Ġv en
h ei
Ġc ul
Ġexp lo
ĠnÃºm ero
Ġab aixo
Ġdes t
l ou
Ġgaro ta
h ie
Ġv inha
ro n
Ġal tura
Ġguar da
Ġtent ou
j ar
ĠmÃ© d
Ġc r
Ã¡ rios
Ġle n
Ġestran ho
Ġespe rando
ĠquilÃ´ metros
Ġt irou
Ġs um
Ġterr ÃŃvel
am entos
ĠdifÃŃ cil
Ġl iga
Ġcom er
Ġl ocal
Ġfa ntas
Ġa gra
Ġnos sa
Ġcontinu ou
Ġf eliz
N o
Ġesp osa
0 0
er s
ci os
Ġb re
Ġcomp re
Ġped ra
v ar
ĠT enho
e dia
Ġl inha
Ġv endo
nt amente
en er
Ġent anto
Ġc igar
Ġmu rm
Ġescu ridÃ£o
Ġde baixo
ou is
Ġb us
is te
Ġprec iso
Ġin do
ita l
Ġcach orro
t ico
Ġmeta de
Ġex ist
Ġestran ha
ĠDan ny
Ġban co
g ens
in ado
ĠM ike
Ġex ce
S e
Ġqu est
o o
ir os
ĠdÃ³ lares
Ġgar ga
Ġter c
Ġdi ver
Ġtira r
Ã ĥ
ĠNo va
ÃŃ lia
Ġn ecess
Ġest aria
Ġes con
Ġcer ca
Ent Ã£o
Ġa ta
ura s
ra das
ĠN Ã³s
lh ou
la da
ic ou
Ġmor rer
Ġl i
qu es
Ġf rio
Ġal ta
Ġgarga nta
v ens
g rim
Ġde m
Ġdes se
Ġes sas
Ġper t
Ġsent indo
E S
Ġl im
ĠG ard
Ġa do
Ġre pet
Ġsegu nda
Ġim edia
Ġru im
Ġf ran
Ġouv ido
Ġperce beu
ha m
grim as
ria n
Ġmulher es
Ġbanh eiro
Ġca fÃ©
Ġto tal
er ic
Ġg ara
ĠH olly
tas se
Ġinc lin
for ma
an as
Ġv ir
Ġtom ar
ve ja
Ġson o
m al
ĠN em
Ġpol icial
Ġbaix a
Ġass ass
Ġbura co
Ġap Ã³s
ra ram
Ġc int
Ġacontec er
ĠB ra
Ġresp eito
Ġcl ar
A s
Ġs in
ĠL a
Ġfu i
Ãº b
Ġf Ã¡
p ec
ĠC or
it ua
s im
ic ia
Ġap esar
Ġmu itos
Ġsor te
Ġin fer
Ã© dio
ĠN ada
ĠJ ones
Ġar ras
Ġt Ã¡
le ta
an os
Ġnos so
Ġsent ido
Ġch eio
Ġliv ros
en o
Ġmu itas
om e
Ġtent ar
er ry
Ġpens amento
e x
Ġesco la
Ġs ra
ĠSe us
N a
ei ras
ĠPe ter
Ġn erv
Ġbran ca
b ol
ĠV er
f ia
Ġtor no
U m
ĠT am
Ġm inhas
Ġen g
Ġjo elhos
an ho
ĠE x
Ġa dia
Ġb ei
Ã© ia
Ġpor ra
Ã ī
ĠC he
um b
Ġgar ra
ĠQu er
ĠP re
ĠEs ta
Ġrel Ã³
Ġma deira
ĠChar lie
b r
Ġesc orre
es mo
ĠV ai
Ã§ ar
Ġm ist
Ġacab ou
Ġatrav ess
ĠD on
ĠP a
Ġdis c
Ġme x
A S
Ġraz Ã£o
cia l
Ġm ol
Ġde veria
Ġmen or
nt ado
Ġespec ial
t imo
ri ga
ĠA o
Q U
im entos
Ġs itua
ĠRic hie
Ãĥ O
ol o
Ġca nto
Ġv indo
asse m
l io
ch u
Ġne la
Ġs inal
en sa
Ġda qui
Ġpre to
Ġpen sei
Ġhou vesse
Ġer rado
Ġap os
ĠAl g
ĠlÃ¡ grimas
Ġcuida do
Ġquis er
um o
Ġpre t
ĠmÃ¡ qu
so lu
Ġas so
Ġen cos
ÃŃ p
Ġper fei
Ġtra se
ĠpÃ¡ l
g al
es so
Ġconsegu e
tado r
Ġen s
ĠH al
Ġgri to
t i
ĠG ar
er ior
A D
Ġdi to
Ġ riu
ĠCla y
Ġsegu rando
Ġfu g
Ġconver sa
orr is
Ġmal di
Ġde do
Ġf uma
A l
Ġpas so
ou ve
Ġcin z
Ja ck
ÃŃ r
Ġcoloc ou
ĠS am
Ġg an
Ġest ive
Ġen fer
Ġi dio
Ġjo go
Ġus ar
Ġcru z
ra mente
ĠrelÃ³ gio
ci ente
Ġe l
g h
Ġcar ne
I N
p Ã©
g n
Ġan da
t il
Ġpro cura
in ou
Ġab a
Ġche ia
os so
Ġhorr or
um e
Ġent rada
Ġimpor ta
d em
am p
is Ã£o
ĠL ouis
id ente
Ġpod em
Ġre un
la nte
Ġouv i
Ġbo la
Ġcontinua va
Ġfun dos
qu ilo
Ġcons igo
Ġbeb Ãª
j ou
ut h
Ġcent ro
f re
Ġdist Ã¢ncia
is s
la dos
Ġ Z
Ġde pres
co mo
Ġe v
Ġre dor
Ġex per
Ã³ l
g Ã£o
Ġo p
am Ã£e
Ġcar ros
ent ado
Ġaj uda
ĠD u
ĠAl an
Ġfam ÃŃlia
ĠBar b
ĠC al
Ġpro p
g g
ĠA m
Ġau to
Ġm em
Ġb ic
ĠU n
Ġcha ve
ĠS tu
Ġser Ã¡
Ġcer veja
Ġfil ha
ĠDa vid
Ġant erior
Ġpeda Ã§o
ĠParec ia
Ġsign ifica
d en
ec a
Ġir ia
is mo
ĠH Ã¡
i rem
Ġo n
i re
Ġg eral
Ġsur g
Ġd ando
Ġ 4
Ġsa i
id Ã£o
Ġ ur
er ta
ĠN ick
os p
g es
Ġson hos
Ġha ver
Ġescri tÃ³rio
ha d
Ġde c
Ġc la
ĠP elo
Ġpro te
t ido
Ġper man
ras se
Ġh or
Ġfic ando
Ġpr ess
Ġex am
Ġvis ta
Ġcon ven
Ġquer er
us Ã£o
Ġmo tivo
Ġma tar
ul t
pa da
Ġdeix ando
r Ã£o
u al
Ġcor rer
Ġaqu elas
Ġfec hou
Ġpend ura
Ġde gra
Ġsorr indo
er Ã¡
Ġg as
Ġg ol
Ġab solu
Ġcab elos
Ġc re
Ġde va
nt er
Ã¡st ico
Ġid Ã©ia
es to
pe ra
v ou
ta Ã§Ã£o
a vam
ĠA tÃ©
E M
Ġo ito
Ġb eira
enta va
Ġcons ide
u b
d ro
Ġde p
ĠJones y
Ġal c
Ġpux ou
Ġpa usa
ĠQu ero
or k
Ġass unto
V ocÃª
Ġluz es
Ġra iva
ĠpÃ´ s
ĠM esmo
Ġen ch
Ã³ rias
ĠTam bÃ©m
Ġbal anÃ§ou
e le
ra ria
Ġat ing
ira Ã§Ã£o
Ġaber ta
Ġsitua Ã§Ã£o
p ou
Ġab ra
Ġde f
ur t
ĠL ar
Ġv ara
Ġpass ando
ĠÃĢ s
Ġco lo
Ġv el
ec eu
Ġmar ido
Ġinter ro
Ġacontec endo
l or
ĠN unca
Ġirm Ã£o
Ġespe rar
Ġb ase
Ġes ses
Ġimpor tante
ra vam
a y
Ġtem os
iz ado
Ġso zinho
E m
Ġgru po
Ġd ou
Ġo este
Ġg ela
Ġab rir
Ġv elhos
Ġcomple tamente
Ġen vol
k er
it es
ĠCo nt
d re
Ġd ro
Ġac ei
anÃ§ ando
j ando
ri da
Ġar m
Ġdes per
Ġmor ta
Ġo fer
Ġca pa
eix e
en di
Ġpre para
Ġse te
ĠÃ¡ rea
I S
ta ra
Ġac resc
Ġcam po
Ġgaro tos
ita do
anÃ§ ar
os e
Ġes for
Ġvis Ã£o
Ġgos tava
Ġsen ho
Ġf aria
Ġl er
Ġre co
Ġesta mos
m ento
ĠcomeÃ§ aram
iz ar
Ġmal u
ĠY ork
ĠAl Ã©m
t t
Ġ ido
ĠPe te
ina da
Ġquest Ã£o
s se
Ġle ntamente
Ġencont rou
Ġsom bra
Ġen gra
Ġum as
Ġirm Ã£
Ġo cor
Ġrap idamente
d ges
a das
do res
Ġtam anho
Ã¡ veis
Ġdes con
Ġg osto
Ġdeva gar
Ġass entiu
Ġt ur
ĠR ob
i rando
Ġ idade
lh as
Ġmes es
Ġcomp anh
Ġcham ar
d Ã¡vel
Ġa vi
Ġmor reu
Ġlo ja
h er
ta ram
Ġre conhec
U ma
Ġar t
Ġsent ou
b ia
Ġm ara
Ġan dando
Ġn esse
ĠD erry
Ġv iv
ĠmÃ©d ico
Ġm and
Ġr is
Ġd im
an g
osp ital
c ri
ĠF red
ib lio
Ġdisse ra
Ġpa is
Ġdepres sa
is e
Ġparec er
ĠK e
Ġcal or
Ġco b
Ġv em
Ġpergu ntar
Ġbat er
iblio te
Ġja ntar
Ġres ol
Ġp i
ĠEs sa
Ġnor te
ĠNe w
Ġbre ve
Ġla dos
Ġus ava
Ġco le
Ġsa tis
Ġdaqu eles
Ġparec endo
Ġcria tura
Ġcont ou
Ġfor m
Ġacab ar
Ġcigar ro
Ġen co
Ġescre ver
Ġper na
Ġinc l
qu il
Ġv al
Ġcar ta
ĠfÃ¡ cil
Ġre tor
ĠG ran
rado r
Ġest iver
f i
Ġdes en
Ġmov imento
Ġl ÃŃn
Ġchu va
ĠP at
x e
Ġaco mp
ĠS ei
Ġv ivo
Ġre cor
ĠH om
ĠMar y
ĠL em
Ġso p
ĠM inha
ĠG re
Ġmor re
Ġc us
Ġtem p
Ġgri tar
Ġexp lic
v in
Ġcon stru
Ġpe ga
Ġaf inal
orn al
Ġdifer ente
Ġespera va
n er
Ġem pre
Ġrou pas
Ġqu a
ĠGard ener
A N
ra ra
ur os
n dos
Ġc el
Ġsurpres a
di os
Ġdes p
Ġdescob rir
d ir
or e
ill y
Ġest u
ĠÃºlt imos
Ġajud ar
Ġan im
ĠMu ito
is tas
Ġpor tas
t em
Ġsi len
us t
Ġbar ulho
Ġbar riga
d endo
Ġesquer do
Ġjan elas
E N
Ġc Ã¡
Ġab ando
id ar
iver s
v an
Ġc resc
Ġhorr ÃŃvel
Ġfuma Ã§a
Ġent ender
ĠW il
Ġfosse m
p Ã£o
Ġmo nt
tic amente
per o
ĠG ra
Ġestive ra
Ġb lo
Ġsu p
Ġass ist
Ġvaz io
Ġneg Ã³
ĠmÃ¡qu ina
Ġsu l
Ġdes sas
Ġsub ir
Ġ 5
ĠcÃ© re
Ġv ig
la va
E ra
Ġg em
Ġr isa
b y
Ġg or
st itu
Ġolha da
ĠP en
ĠprÃ³x imo
r inho
Ġent er
ci Ãªncia
v es
Ġj ornal
ĠB u
ĠB ro
o k
R O
Ġlemb rava
ens Ã£o
t le
ina va
Ġespa Ã§o
Ġtr ou
Ġgri tando
Ġil um
Ġp Ã¡s
anh Ã£
ĠrÃ¡ dio
ez a
Ġbat endo
u de
Ġo cu
ia ndo
Ġser vi
ta nto
Ġpens amentos
b il
Ġmant er
ĠlÃŃn gua
Ġsegu ir
end endo
Ġte to
Ġpra te
Ġo cas
ĠT V
ic amente
ul as
Ġap res
Ġcontinu ar
a de
ĠTo dos
ĠÃ¡rvor es
h an
ĠL Ã¡
Ġpassa va
Ġterr or
ĠmÃºs ica
F o
Ġa ma
Ġcont as
E les
Ġima gem
ĠcomeÃ§ ando
Ġquis esse
Ġcel ular
Ġfre qu
Ġsol tou
b esse
m Ã¡
Ġimp ressÃ£o
g on
Ġm in
if e
Ġp at
Ġco po
ec ido
ĠO bri
ific ar
le x
Ġfic ado
Ġju ntos
es pe
Ġcost uma
Ġpes o
Ġpergu ntas
Ġ rir
Ã§ ando
Ġex cla
Ġreal idade
Ãªn cias
Ġfil hos
Ġboc hec
ec e
Ġprincip al
Ġpou cos
Ġo f
Ġh es
ĠDa ve
ĠBe a
Ġlon ga
Ġcho rar
Ġconcor dou
Ġeste ja
ita ndo
Ġidio ta
Ġpesso al
ĠcÃ©re bro
Ġsem anas
Ġcar t
ch as
Ġob ri
ĠmÃ¡ x
Ġolha va
Ġaper tou
ĠM er
Ġpro cu
Ã¢n ico
Ġinter ior
Ġobs erva
Ġsa p
k y
Ġce do
Ġext rem
ĠO i
Ġjo gou
w n
Ġin ÃŃcio
Ġqu ais
l i
Ġmor tos
Ġpla ca
Ġsa indo
and y
lh os
ĠD en
Ġc ÃŃr
ĠB rian
cion al
ĠC O
por t
Ġa me
ĠO h
j os
ec er
Ġmotor ista
Ġdim inu
im as
Ġdi g
ĠT im
Ġfil me
ĠMa ine
Ġn essa
Ġdegra us
ĠT had
Ġgos taria
ĠpÃ¡ g
Ġvia gem
um p
Ġouv indo
Ġinter essa
j am
ĠA quele
Ġche fe
Ġhist Ã³rias
tura l
h Ã£o
ĠpÃ´ r
ĠpÃ´ de
Ġsenho ra
ÃŃ b
Ġsegu ndos
Ġcaminh Ã£o
ve ra
Ġverm elha
da mente
Ġcha pÃ©
Ġpu ta
Ġbol sa
Ġc Ã¢
k a
s ado
t ri
oc idade
Ġen ca
Ġvest ido
Ġh ospital
ĠHar old
Ġsur pre
u z
Ġcom ida
ĠSe gu
Ġfaz Ãª
T O
Ġg ros
Ġma chu
Ġmen sa
Ġprof unda
ĠLar ry
Ġd r
Ġp ia
icia is
ibliote ca
ĠB om
ĠQu al
Ãº n
D O
Ġm un
Ġb r
ĠA c
Ġele va
l ando
Ã© rio
Ġl igar
Ġcorre u
ĠEs se
Ġe qui
g alha
Ġque im
i ente
Ġsegu ranÃ§a
Ġ 6
is sÃ£o
Ġcontro le
b or
Ġex emp
Ġtri nta
Ġestacion amento
ver no
J o
Ġper dido
Ġpe g
Ġmurm urou
Ã³l ver
b ou
t ie
ĠE S
ĠC ha
A gora
Ġi gu
ĠBob bi
Ġimedia tamente
Ġgarra fa
Ġa mo
gu lar
Ġlu a
Ġ 7
Ġcom b
Ġsussur rou
ĠC ol
ĠW al
de i
Ġper der
Ġesp er
Ġproble mas
i le
Ġch ei
ĠHo dges
Ġg esto
Ġlou co
Ġdis tante
Ġpr Ã©dio
Ġpass os
ĠBo w
ec ei
ÃŃp io
Ġrev Ã³lver
d Ã¡
er ra
ĠP osso
Ġfic aram
ĠÃ³ culos
Ġid ent
Ġfl or
Ġbri lho
Ġa um
ĠO nde
ĠL obo
Ġleva ntar
E n
Ġt endo
Ġb Ãª
Ġfic aria
ĠLo is
Ġcom un
Ġassus tado
o ra
Ġse x
ra nte
Ġb l
Ġmo nte
ĠprÃ³x ima
ĠW ill
r um
Ġo re
te t
Ġcur va
al i
ĠO l
T A
Ġda do
it Ã£o
Ġmar ca
as o
Ġno ve
vis Ã£o
Ġavi Ã£o
ĠC in
Ġche ga
Ġimp oss
Ġtoc ar
ĠvÃ¡ rias
Ġa ut
Ġre a
il ar
Ġexp los
ĠJ am
Ġa dor
Ġint eiramente
ĠcaÃŃ do
c un
ĠAs sim
Ġta nta
Ġn Ã©
j ado
Ġdis p
Ġir ri
Ġarm Ã¡rio
Ġbar ra
Ġarre ga
Ġti ro
Ġdis s
Ġpare des
c amente
d Ã£o
Ġf ria
Ã© tr
Ġcul pa
Ġinclin ou
Ġc em
ĠG u
Ġcent ÃŃ
Ġlate ral
I s
Ġpreocu pa
ĠVocÃª s
Ġpos sa
E d
R oland
Ġsu or
ĠT ed
Ġsent i
Ġneg ro
Ġvis ita
ĠEn quanto
Ġpl Ã¡stico
ĠmÃ¡x imo
Ġla m
Ġan ima
tic ular
Ġchama va
Ã© is
ĠN inguÃ©m
Ġac er
Ġla go
Ġsomb ras
H a
es us
Ġtivesse m
Ġfi quei
Ġvel ocidade
d inha
m ado
Ġl Ã¢m
Ġpod iam
Ġen x
Ġprin c
Ġa re
ta ntes
Ġmara vil
ÃŃ culo
Ġapo ntou
Ġaz u
Ġsegu rou
ram os
Ġdeix ado
Ã³ g
en ha
ma go
ĠS ou
ĠN enh
pe te
Ġpequen os
it y
Ġtem pos
Ġescri to
qu inho
end y
Ġreg ist
Ġg rava
Ġsou be
Ġsap atos
Ġj or
ga dos
ĠG a
Ġtotal mente
Ġt Ãªn
Ġest Ãº
Ġdorm indo
ces so
Ġam p
Ġcam inha
Ġsou besse
Ġac har
d ura
Ġal mo
Ġsa c
Ġtoc ou
t inha
Ġpod emos
Ġpes ade
I A
n Ã£o
ĠR ock
Ġte la
Ġpap ai
p is
Ġquer endo
Ġder ru
irem an
d d
ĠS ent
Ġcon v
Ġen c
ĠchapÃ© u
Ġper mit
Ġcome Ã§o
Ġche gando
Ġpara da
Ġpergu ntei
Ġfa Ã§a
ĠV ic
Ġna tural
Ã ĩ
ĠAl ice
Ġperfei tamente
Fo i
ĠC am
Ġem b
j as
ĠS ra
Ġal ar
vel o
Ġconsegu i
ĠH e
ĠBla ze
v endo
ent al
con s
Ġliv re
Ġtemp esta
Ġb il
Ġen car
ga nte
je to
ĠPre c
Ġg iga
Ġprocu rando
c ida
ma g
Ã³s ito
Ġacontec ido
Ġfiz era
ent ando
Ġgri tos
Ġlemb ro
Ġant igo
Ġservi Ã§o
Ġp int
ĠS tre
ess ie
Ġz umb
ĠS erÃ¡
c ente
i quei
Ġjo gar
ĠN os
Ġr indo
Ġpoderia m
Ġexcla mou
Ã³ p
Ġla nter
ĠParec e
Ġdaqu elas
u ÃŃ
Ġdes cul
Ġch ance
e e
Ġal u
Ġsub iu
ĠEnt re
Ġagar rou
Ġpert ur
Ġin forma
ĠV ol
Ġvira r
ra ty
Ġc res
Ġpar ticular
Ġam eric
Ġinv est
Ġprinc ÃŃpio
ĠT ra
Ġpr os
ll ie
f f
m er
Ġmo Ã§a
Ġap re
Ġpres o
ĠM at
ĠV Ã¡
Ġan s
Ġbrilha nte
Ġser v
ĠPo d
ĠÃ ´
ĠQu anto
ĠTer ry
w en
ĠÃ³ timo
Ġac hei
ut u
ĠS ara
for me
E st
ĠF la
Ġint eiro
ÃŃ vio
ĠJ er
ĠJ esus
Ġin st
cha do
Ġma ca
Ġgara gem
l er
Ġn este
Ġdes co
ĠR us
Ġimposs ÃŃvel
qu eles
Ġj e
qu enta
Ġest endeu
ie dade
end ido
ria m
ĠIs to
Ġarre p
Ġterc eiro
Ġlig ou
n Ã§a
Ġfo tos
Ġam anhÃ£
Ġ1 5
Ġtom ou
ĠÃ´ n
Ġa Ã§o
Ġex tra
Ġconhec ia
Ha via
ĠA t
Ġho tel
Ġvara nda
ĠH ouve
c endo
Ġ .
ĠO lhou
me tro
Ġped ras
Ġdo b
Ã´ mago
Ġmer gu
ĠvÃ¡ rios
v emente
ĠS tan
Ġje ans
R E
Ġ 9
ĠC erto
Ġf lu
Ġresp iraÃ§Ã£o
ing ton
Ġva zia
ĠsÃ© rio
er ife
Ġdeix a
ĠcomeÃ§a va
Ġpensa va
Ã ģ
da va
Ã§a da
ĠPro vavelmente
i Ãµes
ver ly
Ġbus ca
Ġc Ã£o
Ġque bra
ri bu
Ġdis para
Ġha b
Ġd iria
Ġdes cer
Ġcer tamente
ib us
Ġdes ses
Ġest Ã´mago
Ġcal Ã§as
Ġlugar es
Ġcham ou
Ġ QU
Ġter m
Ġnor mal
ĠA bra
tor es
Ġprecis ar
h es
Ġma u
Ġbal cÃ£o
Ġfala va
Ġres ul
Ġab aix
Ġf ix
ĠÃ ¢
Ġesp alha
ĠcÃ¢ me
Ġd ura
ĠA cha
Ġchama da
Ġga to
p al
z es
Ġen ro
Ã´ m
Ġare ia
Ġcara s
Ġfir me
P e
Ġt oca
ĠA ch
ĠS al
Ġamb os
el ig
Ġdes ceu
iv as
as c
Ġse quer
Ġdu p
Ġpol iciais
t inho
Ġl este
Ġal ÃŃvio
Ġla ta
Ġtor na
j ei
y n
Ġm Ãªs
Ġl ixo
Ġagra de
Ġdi ga
Ġenf iou
Ġe di
in ze
Ġgra ma
Ġperce ber
Ġfer ro
Ġ ran
ĠM orris
ĠSte ve
ita Ã§Ã£o
Ã´ s
Ġminu to
es ter
Ġpa gar
Ġouv idos
ta das
Ġp osto
Ġse co
ĠE ram
Ġro do
ĠL u
ĠcentÃŃ metros
Ġj ul
Ġtrabal har
Ġcan o
ĠBarb ie
Ġsuper fÃŃ
Ġse cre
el d
ĠO ut
Ġcont or
est es
Ġtrabal ha
Ġcomp rar
Ġacab ado
Ġp ica
anh ou
Ġaprox ima
ĠsÃ© rie
Ed die
Ġfa ca
Ġin qu
Ġba la
f as
da dos
Ġpen a
f ica
ĠS tar
Ġdest ru
sa da
Ġac idente
Ġquar enta
c al
Ã³ is
Ġlemb ra
Ġlemb rou
Ġ 8
Ġnu vens
Ġfiz eram
Ġcava lo
Ġf res
Ġb ara
il iar
Ġad m
Ġmost rar
Ġfecha da
Ġrespon der
Ġpeda Ã§os
b os
f eira
ĠA quela
Ġaf ir
ÃŃ o
Ġre mo
ĠB ig
Ġro das
t ras
le nto
al d
Ġre m
Ġmo e
Ġel Ã©tr
Ġco ra
ri oso
ĠC ur
Ġpr isÃ£o
Ġ iam
tic os
Ġcoloc ar
ĠÃ´n ibus
Ġ rio
Ġacredi tava
ĠF al
R alph
Ġma Ã§
ĠJ ud
Ġpro nto
Ġpro me
Ġfa ce
Ġant iga
Ġapar Ãªncia
h il
ro m
ĠJ e
ĠA b
ba le
c l
Ġ '
gra ma
Ġcan sado
Ġp ilha
Ġfiz esse
Ġaber to
ĠObri gado
se m
Ġdesl iz
Ġexce to
ol ina
il ho
ĠAlg um
Ġde ter
Ġper s
ja va
Ġpra zer
Ġesp al
Ġimpor tava
Ġtempesta de
A L
Ġno ites
Ġca indo
ĠC u
De pois
i Ãªncia
os amente
Ġsa cu
Ġtra z
Ġins ist
Ġcuida dos
ĠÃ¡rvor e
l ico
Ġm i
Ġl ÃŃ
lh ando
ĠV e
Ġcin za
Ġenfer m
Ġsent ada
ĠMc C
Ġc ump
ĠpÃ¡ t
ĠcalÃ§a da
ĠP ol
Ġvoz es
ran ja
ĠT orre
Ġpart ir
Ġtermin ar
Ġmensa gem
va do
Ġpequ enas
Ġ2 0
ĠCas tle
ĠP ens
Ġinter esse
Ġconc ent
E L
ent as
ne y
Ġobserv ando
t ivos
Ġterc eira
Ġcomp u
Ġro n
ĠSa be
ĠE i
Ġsu por
Ġpe diu
Ġpas se
ide z
Ġm amÃ£e
ĠJ un
er gia
ri to
oc ou
ĠAl i
en so
Ġme tal
Ġdi fic
f ar
Ġca us
gre ja
Ġj us
ira s
nta va
ita mente
Ġbo tÃ£o
au nt
Ġf ita
Ġcu rios
ĠB ur
Ġbran cos
Is so
ĠT r
ca va
ĠsuperfÃŃ cie
Ġma tou
Ġcorre nte
A M
nta da
Ġimp ress
ĠD eix
Ġped ir
Ġafas tou
Ġador m
er g
Ġpor Ã£o
Ġsegu iu
ru p
Ġesfor Ã§o
Ġint eira
ĠK ing
? âĢĶ
ĠE las
Ġru ÃŃdo
Ġmu d
ig h
Ġpos iÃ§Ã£o
Ġt iver
Ġdes car
Ġadia nte
Ġm ult
ĠcomeÃ§ ado
Ġcin quenta
Ġestivesse m
Ġrou pa
g no
ĠD ia
Ġcar rinho
Ġenco lh
Ġfi gu
Ġprincip almente
Ġcom um
ÃŃ m
Ġsegu ro
Ġter re
Ġc into
Ġimag inar
in ando
Ġou via
ig ou
Ġcon se
Ġche gado
Ġleva do
Ġc ri
Ã¢ ne
Ġverdade iro
Ġconc lu
Ġabando n
Ġd ali
he te
ĠAl guÃ©m
ĠcÃŃr culo
ĠFla gg
Ġt io
Ġfl ores
Ġazu is
gu eira
ĠS t
Ġper ÃŃo
Ġmen ina
Ġesc ura
E NT
to no
ch el
Ġvo lante
Ġcal ma
Ġba ta
Ġprof ess
Ġdifer enÃ§a
Ġsurpres o
ar t
Ġf asc
Ġb ru
Ġsu ger
Ġin di
Ġaparec eu
Ġmon st
m on
v ie
Ġint elig
ĠEs te
Ġir re
Ġlou cura
z o
Ġconsegu isse
Ġm oc
Ġeng ol
ĠS Ã£o
Ġdire to
y d
Ġp Ã¢nico
Ġf ur
Ġma t
Ġcont emp
oo d
ici on
Ġtele visÃ£o
Ġtelef on
ĠpÃ¡l ido
Ġcho rando
Ġav is
Ġx erife
ĠnegÃ³ cio
i qu
Ġde l
ĠG aunt
Ġflor esta
r ic
u i
Ġse nte
ig as
Ġimpor t
Ġcap itÃ£o
Ġtr Ãªm
ĠpÃ¡t io
lh es
ĠRichard s
Ġse gre
Ġpra ia
Ã į
Ġvi va
ÃŃs s
Ġest ra
Ġpa z
Ġpres ente
ĠHo w
ĠHom em
ĠÃ ģ
Ġale g
Ġf um
Ġmen cion
b ur
le o
ĠE mb
ic ar
vil le
la c
Ġr osa
Ġmu dar
Ġap ren
Ġpro je
Ġto po
Ġme dida
Ġen gan
Ġdeix ava
ĠD isse
Ġcor da
Ã Ĭ
Ġm Ã¡s
Ġdes erto
Ġtam pa
ĠBra d
Ġcam bale
Ġtrou xe
Ġref let
ĠP u
Ġh ip
Ġcas as
ĠBe verly
Ġame a
s ou
an har
Ġper deu
ram ado
Ġfaz iam
Ġacor do
Ġconsegu iria
Ġinterro mp
Ġpros segu
lo w
Ġch or
Ġfol has
Ġliga Ã§Ã£o
le gar
ĠA qui
Ġat ira
ra is
is co
ib ilidade
Ġanim al
R I
Ġqu inze
Ġque ixo
Ġj ard
Ġfa cil
ci d
Ġent ende
iz ada
Ġra to
Ġbo as
Ġc rim
fi eld
Ġb ur
Ġg e
Ġsua ve
Ġinc r
Ġto que
Ġdeix e
Ġinfer no
s h
se mos
Ġres ta
Ġempur rou
Ġcostuma va
en e
ado res
Ġrela Ã§Ã£o
f al
Ġpro duz
ĠtÃªn is
Ġde ta
Ġs oc
ĠMor t
er t
ĠS eria
Ġex ib
Ġsobre v
ĠGar raty
Ġinqu ie
Ġde t
os os
os as
ĠCar ter
Ġ *
Ġdes pe
lo yd
Ġprof un
Ġsilen ci
ĠM al
Ġdia bo
Ġcart eira
C o
ĠV i
Ġar mas
Ġsub stitu
Com o
Ġprate leira
Ġf ut
om os
Ġpo ntos
Ġnos sos
Ġleva va
Ġcho que
Ġes to
Ã³ vel
un ha
cul ar
C A
p le
Ã¡ vamos
Ġfec har
Ġbon s
Ġlig eiramente
ĠGran de
b ul
Ġp Ãºb
Ġs Ã¡
Ġamar ela
as t
ando u
ĠJ essie
Ġva ga
ĠdÃº zia
Ġl hes
di dos
Ġpro c
and er
Ġdisc ut
Ġm ic
Ġv om
Ġgar galha
Ġsac ud
on y
ĠF in
na da
ĠmÃ¡ g
Ġv ie
ÃŃ da
ina is
Ġapar tamento
T E
Ġparec ido
Ġp s
du al
D A
va da
Ġesp elho
Ġabsolu tamente
Ġre vel
Ġ1 2
Ġbe ber
Ġdesaparec eu
Ġasso mb
r ick
Ġv iz
ĠD ar
Ġimport Ã¢ncia
U L
Ġencont rado
Ġpassa gem
Ġata que
Ġarrega lados
ĠF re
r indo
am o
Ġamar elo
t elo
Ġc ela
Ġde vo
ĠestÃ¡ vamos
Ġfaz em
Ġfal ta
Ġpra ticamente
Ġmalu co
b us
Ġp ec
Ġin verno
Ġex iste
Ġpert en
Ġlanter na
ri velmente
Ġsab endo
Ġesqu is
Ġg ent
Ġca nt
iva mente
Ġgos ta
Ġdescob riu
r gu
elha do
Ġsof Ã¡
Ġtrase iro
p s
t ch
an eta
iz o
ĠT re
Ġacredi to
Ġgas olina
Ġjo gado
Ġsub indo
ĠPe dro
Ġquad ro
ĠcÃ¢me ra
Ġma g
Ġle it
ita da
Ġba te
Ġad vo
ol os
ĠAn der
par ou
Ġtransfor m
Ġmist ura
Ġar ro
ĠT e
iv el
Ġrapaz es
i oso
ei as
Ġsent ar
Ġtive ra
f inal
Ġco uro
Ġf io
Ġestre las
le nte
im e
Ġen ergia
Ġin como
Ġins ta
Ġmer cado
Ġdo min
ĠQu ase
Ġespe ranÃ§a
ass ou
Ġfol ha
t ta
nt em
Ġqueb rado
Ġbom b
Ġcint ura
Ġb ro
Ġquer ida
Ġencont ro
Ġgra Ã§a
Ġpal ma
Ġengra Ã§ado
Ġde i
Ġcam is
Ġconhec ido
Ġesca par
ĠH u
Ġsab em
ĠprÃ³p rios
Ġpl ane
ĠStre et
? "
R ic
ĠM an
Ġper ig
Ġ1 1
t land
ÃŃ st
Ġter iam
Ġne gra
Ġbic ic
ĠbÃª bado
. )
D a
ec ia
us s
Ġbo tas
Jo hn
ca das
Ġcol oca
ĠTo dd
ĠAlg uma
P o
Ġ X
Ġco to
ĠB re
Ġpo legar
ĠAl guns
Ġdifer entes
Ġv iver
ha mos
Ġdiz em
Ġcar tas
Ġcasa co
Ġos sos
ĠR ose
Ġdem on
ise bol
Ġcomp rim
T o
i nta
ĠHar ry
Ġconver sar
Ġfoto gra
g ido
Ġes fre
ĠC ent
Ġsol u
Ġdesa gra
Ġm ÃŃn
Ġapa vo
Ġpun ho
u bro
Ġa la
Ġdes ma
Ġha veria
Ġenor mes
Ġfran z
Ġp an
ic ha
on as
Ġen cara
Ġpo Ã§o
ĠÃº m
Ġpret endia
u ck
ĠA ntes
Ġpo eira
Ġpre n
Ġfi que
Ġtrem endo
Ġd Ã©
Ġque ima
Ġpor tÃ£o
ĠL iz
Ġtr iste
end ente
Ġrece b
ĠB ru
ĠRa chel
Ġaproxim ou
Ġrepet iu
Ã¡ tico
ran c
Ã£ os
Ġv ar
Ġv it
ĠP hil
osto n
Ġpass aram
ion al
Ġca bo
di Ã§Ã£o
Ġpre fer
ĠR uth
Ġ1 0
co la
Ġpud er
Ġt es
Ġcom ecei
ri l
Ġl an
ĠS o
Ġou ro
ĠK en
Ġcol ina
Ġbal anÃ§a
ĠDo is
Ġmand ar
Ġde mo
lh ei
Ġpo nte
res pon
Ġpul so
Ġfam iliar
Ġdo ce
Ġat er
Ġle tras
Ġbe isebol
Ġbeb ida
Ġdific ul
Ġs ar
Ġman cha
ĠperÃŃo do
ĠB oston
ĠV iu
Ġsacu diu
t Ã¡vel
on de
ĠC ity
Ġpar que
Ġin g
Ġexemp lo
h Ãµes
Ġs ess
Ġdes pre
Ġimp ul
Ġem pres
Ġcons ciÃªncia
Ġtermin ou
ĠAp enas
Ġmult idÃ£o
a c
Ġs Ãºb
Ġre ver
un a
ĠsaÃŃ ram
r b
Ġt u
Ġse l
p Ã§Ã£o
x as
Ġmelhor es
Ġagra dÃ¡vel
B illy
Ã¡ tica
Ġprim eiros
Ġp iso
Ġm andou
ĠD ick
Ġou tono
vi das
ĠsaÃŃ do
n at
y er
Ġ ...
Ġsegu rava
tÃ³ rios
Ġpesade lo
ta que
Ġacontec e
g um
re za
Ġma to
ix a
Ġfic ara
Ġvo ando
Ġcu idar
Ġtorn ar
Ġesquec er
ĠPen sei
Ġdo ente
ĠCo isa
ĠsaÃŃ da
Ġcheg aram
Ġp ri
Ġco ch
Ġno ta
Ġpe Ã§a
Ġi greja
Ã´ mo
Ġpu de
Ġad mit
r imento
or ia
da m
la Ã§Ã£o
ĠS h
Ġest rem
ĠDe an
Ġf ios
Ġv io
Ġpo nt
Ġcal c
Ġcar tÃ£o
Ġche gava
Ġun i
Ġassass ina
Ġb iblioteca
Ġpu b
ĠDa le
Ġretor n
ĠStar k
A n
Ġi gno
Ġdo m
orr er
ĠCl int
Ġl in
Ġac aso
Ġpass ara
Ġexplos Ã£o
Ġsu g
Ġacresc entou
Ġempre go
g amente
t ina
la in
ĠS ta
Ġver sÃ£o
st er
Ġde vol
ĠD O
ĠH ol
Ġpro grama
ĠL ila
Ġro man
Ġcru za
ĠSu as
Ġmaravil h
ĠF icou
Ġimp ed
Ġpra to
Ġesqu ina
Ġbochec has
Ġpr ima
Ġsi nto
S im
Ġf Ã©
ĠS E
ran ha
eria m
ĠF l
Ġtom ando
Ġsuper ior
Ġprov Ã¡vel
Ġno tas
tiva mente
Ġobserv ou
Ġdiver t
ivel mente
Ġb os
Ġr iso
Ġpro va
Ġvira m
Ġfi la
Ġnot ÃŃcia
Ġtr u
ĠI r
! "
? ,
uth bert
Ġdro ga
Ġimpress ion
Ġbrin que
b ilidade
Ġbaix ou
Ġfir m
Ġop in
b un
c entes
i er
Ã Ģ
Ġal im
Ġdes te
Ġocor reu
p ul
da da
ĠM ill
ĠTer ra
Ġex ter
Ġpres a
v ei
Ġin de
Ġsem elha
Ġson s
Ġce leiro
M A
Ġt Ãª
Ġla t
Ġc ento
ĠR es
Ġacor dar
ĠCas a
Ġnerv oso
E I
ĠJ an
ura l
Ġinc Ãªn
ĠNa tal
Ġconf ia
Ġv an
ran Ã§as
ĠPo dia
Ġexplic ar
Ġcompu tador
c idade
u so
Ġpl ano
v Ã£o
ent ei
ic idade
Ġ19 6
lou qu
Ġsignifica va
t eiro
sa va
ĠJ ul
Ġla ranja
ke y
Ġlev ando
Ġta pete
Ġad ul
Ġdesco ber
Ġterre no
Ġse ca
Ġab re
ĠW ireman
Ġbal anÃ§ando
Ġcober to
Ġele tr
ĠP ra
ĠP rim
ĠP olly
ĠR en
ĠR ad
Ġconver s
Ġquil os
ÃŃt ulo
Ġrecu pe
Ġt est
Ġdeix Ã¡
Ġbaix inho
ĠmÃ¡s cara
Ġsel va
z ar
Ġ he
ĠT a
ĠW endy
Ġmar cas
Ġcham as
Ġgal pÃ£o
ĠSem pre
Ġros tos
Ġc i
Ġs ho
Ġpo bre
Ġnos sas
Ġdu ro
Ġcur to
Ġconta to
Ġrece ber
Ġnecess idade
ĠRus ty
Ġpica pe
S Ã³
Ġdo lor
Ġdes conhec
Ġhum ano
Ġcla ra
Ġbicic leta
g aram
Ġr umo
for d
Ġfl utu
Ġmem Ã³ria
Ġg en
Ġg elo
Ġdes enho
Ġesc uros
Ġanima is
ĠAch ei
Ġcamis eta
Ġde b
ĠÃ ĵ
Ġmas sa
Ġper f
Ġint ens
Ġvolta ndo
ĠAn g
Ġor dem
ĠpÃ¡g ina
T I
Ġaca ba
dÃ¡ ver
Ġbil hete
p ro
ha da
Ġso zinha
Ġrec us
Ġfug ir
Ġrisa da
Ġp ista
Ġem it
Ġjo vens
Ġimag inaÃ§Ã£o
Ġale gre
Ġcir cun
Ġm os
Ġjo elho
Ġprof undo
Ġcober ta
Ġobri gado
Ġd Ãª
Ġass um
Ġind ic
Ġsurg iu
w s
Ġca der
ĠP A
Ġdes espe
Ġfa le
Ġtrabal hando
cre to
Ġs and
er os
ca dos
Ġpen et
Ġaut or
Ġa jo
ĠA final
Ġg ira
ĠS co
Ġpr Ã©
Ġpes ado
Ġconf usÃ£o
ĠNenh um
O C
ĠL loyd
c el
Ġo fe
Ġca dÃ¡ver
ja da
Ġdescob ri
Ġigu al
w ay
at h
vo a
Ġprocura r
Ġgol pe
Ġe quil
Ġf Ã´
Ġen cer
Ġin for
Ġpes ada
Ġ19 7
ĠÃ¢ n
O N
a nte
Ġsob ranc
Ġparec em
no ite
Ġan dou
ne te
Ġcaix as
Ġafas tar
Ġbrin ca
Ġsin ist
ĠTr Ãªs
Ġde lica
Ġv elhas
Ġcor te
Ġev itar
En quanto
ĠD or
Ġlemb ranÃ§a
Ġapar entemente
Ġm ec
ent ada
en os
ic ÃŃ
Ġrep res
ĠLe e
ĠRo ger
ei tos
ĠO ra
Ġex ec
Ġfil mes
Ġtri lha
Ġaparec er
Ġe feito
ĠH er
enta Ã§Ã£o
Ġesquec ido
es a
Ġverm elhos
Ġbon ita
sar os
r un
Ġde us
ĠL au
Ġpre ta
ver n
Ġrep u
Ġv ul
ĠA quilo
oc ar
ĠS ho
Ġen louqu
Ġcor pos
Ġpa in
ja nte
Ã¢n cias
Ġado les
ĠBra dy
de la
am a
it Ã¡rio
Ġres ist
Ġcar eta
Ġva le
Ġrespon de
Ġtar e
Ġconf ir
ĠrÃ¡p ida
Ġprima vera
udo u
Ġrep ent
Ġestran hos
ĠPa ul
Ġfei ta
Ġp on
Ġdo c
Ġas pec
ĠF ar
ing er
Ġverdade ira
Ġenfer ru
Ġen velo
I L
p ido
Ġse para
ĠT emos
Ġencont rava
Ġbar ba
urt z
Ġmorre ndo
Ġde ra
Ã¡ gua
Ġar qu
Ġrecu ou
Ġli ber
Ġfut uro
H ouve
Ġb u
ir d
Ġgaro tas
Ġment al
Ġdeci diu
Ġde itado
en cial
Ġfrequ Ãªncia
de z
ĠD ud
ĠPo p
ÃŃn hamos
Ġbrilha ntes
Ġber rou
Ġmaldi to
l um
Ã£ es
Ġf esta
on s
Ġre ve
Ġlen Ã§
Ġgiga ntes
Ġf Ãº
Ã§ am
Ġent ra
ga das
Ġab sur
Ġbon ito
Ġhum or
Ġopin iÃ£o
L e
Ġco nte
ĠCom e
mit h
ĠV o
Ġperce b
pou co
s aro
t te
Ġmost rou
Ġescre veu
ĠEmb ora
D an
Ġle gal
Ġmor rido
ific ado
ĠPer cy
Ġdesc endo
r Ãµes
la ram
Ġtra il
fa nt
Ġfi leira
rid ente
ĠLo go
Ġar co
Ġposs ibilidade
is ion
Ġl ista
ĠT he
enh or
Ġcab ine
ĠMc G
ĠC uthbert
ĠT ony
Qu e
Ġsub itamente
Ġgu erra
Ġgra ve
Ġseria m
D o
u e
ĠEstava m
i gu
le za
Ġl anÃ§ou
ĠM el
Ġsa ia
Ġper de
Ġent endeu
ĠF ord
Ġcons ul
Ġpisto la
iza Ã§Ã£o
ĠSara h
f ado
m or
Ġp iada
lh ar
Ġqua nt
ĠAnder son
l on
Ġd an
Ġp alha
Ġdesagra dÃ¡vel
m entos
t Ãµes
Ġdes ist
Ġdeix ara
anh as
Ġrespon di
ĠEsta mos
Ġexper im
Ġpress Ã£o
Ã¡ rias
Ġat or
Ġexper iÃªncia
Ġcora gem
ĠN ÃĥO
Ġpe guei
ĠJ onas
Ġescri tor
Ġesco lh
Ġga ve
Ġgara nt
port un
O L
Ġgan har
Ġzumb ido
Ġadvo gado
Ġo nda
ĠO wen
ing s
Ġmonst ro
T alvez
f one
il has
ica tri
Ġapar elho
Ġfecha do
H A
Ġa to
Ġno v
ĠD iz
Ġva por
Ġacredi ta
P ara
b ie
Ġg Ã¡s
Ġser em
Ġmo to
Ġat irou
ĠW h
Ġdesaparec ido
Ġescon der
l Ã¡
Ġa va
Ġpr estes
Ġt ap
Ġal iv
Ġr ia
un cia
Ġfa cul
Ġpo ntas
Ġat irar
ĠI mag
ĠWill iam
Ġc ena
Ġpa vor
Ġcu ja
Ġcu jo
Ġsor rir
Ġconhec e
ri es
Ġre lu
he Ã§o
Ġra io
ap ai
ĠpÃ¡s saros
v Ã´
Ġfic asse
Ã´n ica
Ġpreocu pado
Ġf Ã³s
Ġno mes
ĠS ob
pa das
Ġpol tro
Ġru as
Ġcomple to
Ġcompanh ia
a h
Ġt ia
Ġt ido
Ġre duz
ĠD el
Ġpa ÃŃs
Ġlev Ã¡
Ġacor dou
Ġnu vem
M ais
v ando
Ġo ntem
gu Ã£o
Ġg at
Ġab rindo
rado res
Ġin se
Ġac en
r Ã¡rio
Ġa di
Ġv as
Ġsu jo
Ġfic am
et te
Ġdep Ã³sito
tet ive
Ġo ri
ÃŃ cias
Ġtor re
Ġfantas ma
Ġinfer ior
Ġore lhas
qu elas
Ġo portun
ĠT h
lic ou
Ġblo co
Ġresul tado
di ts
ĠF iquei
Ġdiz iam
Ġdevia m
Ġfra se
ĠM amÃ£e
Ġdes vi
Ġin vis
Ġesta Ã§Ã£o
Ġsol o
Ġescu re
ris to
ĠSa die
Ġhum ana
Ġassassina to
Ġm is
ĠS he
Ġdes bo
Ġin Ãº
Ġcont rÃ¡rio
Ġpassa g
ĠsaÃŃ a
Ġbon Ã©
ĠAlgum as
ĠincÃªn dio
Ġsa guÃ£o
Ġpergu ntando
w ood
Ġ Ã¡s
Ġc icatri
Ġcom entou
ĠO r
Ġcer tas
Ġprofunda mente
l ph
Ġa ula
Ġg ramado
Ġj un
Ġsegu rar
nde u
fÃŃ cio
Ġf ÃŃs
Ġbrin cando
Ġg irou
ÃŃ g
na is
Ġdire tamente
Ġprofess or
Ġn amo
ĠM ia
Ġfica vam
Ġd aria
que ta
ĠlÃ¡ pis
Ġra bo
ĠcomeÃ§ ara
an c
Ġes ma
ĠLe va
Ġhor izo
ĠpÃ¡s saro
Ġcuidados amente
Ġem erg
ĠW est
Ġexp lica
tura s
Ġbom ba
Ġbal as
Ġ19 5
Ġtoc ando
Ġmud anÃ§a
Ġde vem
Ġre do
Ġcon j
Ġmu dou
Ġcar ona
Ġass ento
Ġsal Ã£o
Ġverm elhas
Ġfra co
Ġnot ur
ĠfÃ³s for
ÃŃ na
us ive
Ġdis pos
Ġen che
Ġcam p
ĠSa bia
Ġri t
Ġn ÃŃvel
it Ã©rio
Ġho n
ĠChar les
Ġdirig ir
ĠBarb ara
Ġmic ro
Ã ĵ
Ġa nte
ĠT ad
Ġj ulho
Ġti j
Ġsan g
ĠS on
Ġin ca
Ġcor respon
van inha
ĠO lha
ĠF ez
Ġtro pe
Ġexplo diu
Ġeleva dor
Ġmu da
Ġcomp rido
Ġjo gando
Ġment ira
ĠJe an
Ġdemon st
p ando
ar e
Ġf ina
Ġno vos
Ã³ i
Ã¢n cer
ĠRad ar
Ġre fei
Ġcha ves
Ġmom entos
Ġextrem amente
Ġaleg ria
Ġp ne
ÃŃn io
ang or
Ġcresc ente
m un
gu lo
Ġac al
Ġconsegu ido
Ġaf o
Ġexa us
B em
u nt
Ġl um
ÃŃ dos
ĠD iga
esse m
pe e
Ġche guei
Ġba ba
ĠMor gan
Ġp in
Ġp Ã³
Ġqu ie
Ġolh ei
Ġcor ria
Ġpre Ã§o
Ġam iga
Ġant igos
Ġve jo
Ġdificul dade
Ġe co
Ġimag in
Ã´n io
Ġdo no
ĠD A
Ġgos tar
Ġescri vaninha
ĠPat rick
Ġo rig
ÃŃ cara
Ġac endeu
Ġ1 8
b ras
Ġv ent
al ho
em as
be th
Ġcas amento
ĠMar t
or t
Ãª me
ir Ã¡
Ġin ex
it ch
Ġcabe Ã§as
Ġ ÃŃn
Ġd anÃ§a
Ġc enta
ri ge
Ġre b
Ġdes enh
tic as
Ġsand uÃŃ
Ġus ou
ĠRa y
ĠPar e
Ġsusp irou
ĠCO M
D E
Ġal un
Ġman da
A o
s u
Ġn esta
Ġtom ado
ĠÃºlt imas
ĠBla ine
Ġestranha mente
d isse
w yer
ĠP rin
Ġme tro
Ġex c
Ġnecess Ã¡rio
Ġtrase ira
i rei
t udo
Ġb unda
ĠH an
Ġesc or
Ġer rada
ĠIn g
Ġameric ano
ĠQU E
g amento
Ġm us
Ġver des
Ġch Ã¡
Ġjard im
Ġna tu
Ġ1 6
Ġor gu
Ġatravess ar
uss ander
c aram
f ada
ĠS andy
ÃŃ f
Ġrev ista
Ġgela deira
l is
Ġg anha
at iva
Ġpas ta
Ġleva nta
par tamento
Ġpreocu par
ĠP ou
Ġac ele
ci ar
Ġmar gem
Ġsobrev iv
cu la
Ġenf re
cob s
Ġacor dado
Ġris co
ĠCin za
Ġbrinca deira
b ros
Ġa h
Ġro da
Ġun ivers
Ġros n
ĠJun ior
! ,
B ill
Ġ ul
Ġdi go
Ġfa ces
Ġnatu reza
p ira
Ġs ist
Ġf ri
ĠS enhor
ĠR ed
Ġle ite
rada mente
ĠAl bert
Ġinter ess
Ġenx er
Ġt entava
te bol
Ġpe gando
Ġsom os
Ġgu ard
ĠPo is
ĠJim my
Ġenvelo pe
ĠDud dits
g Ã¡
m u
Ġa de
ĠE llie
Ġac esso
ina dos
ĠTo do
Ġbor da
Ã©r ica
qu ia
Ġest ilo
ĠC er
Ġcon duz
Ġle ndo
ĠQu eria
Ġmen inos
Ġpou quinho
bu as
b ec
Ġ rid
Ġma d
ĠD al
Ġcor tar
Ġsegu indo
Ġvolta ram
ĠK urtz
Ġcin ema
Ġneg ros
ĠDon na
Ġreco me
Ġalmo Ã§o
Ġtest em
Ġcircun st
b ada
Ġem o
it ivo
ch os
Ġgra Ã§as
Ġdef in
Ġfacul dade
k ins
Ġqu int
Ġestran has
Ġsr ta
Ġreg iÃ£o
Ġimpul so
icÃŃ dio
nt emente
Ġpo p
Ġpa d
ua is
Ġ19 8
ĠBro wn
Ġinteressa nte
Ġequi p
C l
Ġbran cas
Ġa ga
Ġn eles
Ġda ÃŃ
Ġnot ÃŃcias
l an
Ġl inhas
Ġre tra
Ġac ost
ĠV enha
Ġpres enÃ§a
Ġp ano
Ġf ing
ĠA ce
Ġcon creto
Ġinc lu
Ġdesl igou
Ġcaminh ar
Ġnu ca
Ġx ÃŃcara
Ġanda va
Ġcriatura s
Ġbr isa
D es
u se
Ġsen Ã£o
Ġmar rom
ĠFa z
ĠtÃ¡ buas
ĠJer ome
Ġsegu ra
Ġfor tes
Ġvis se
Ġcigar ros
Ġcon for
Ġvol tado
Ġmon stru
iza beth
Ġmont anhas
Ġco ro
Ġf ome
Ġob jeto
Ġpart ici
Ġreun iÃ£o
S usan
h h
p p
v iu
le go
ul s
ce ra
Ġsab iam
Ġimp ro
ĠCon segu
ĠDes cul
c aria
Ġt ÃŃnhamos
Ġsu ja
ĠG in
ĠEs per
b ird
Ã£ s
ĠA ca
Ãª nt
Ġfaz enda
Ġaber tos
Ġve ÃŃculo
ĠmaÃ§ aneta
Ġincr ÃŃvel
b ine
Ġm elho
gu i
Ġest icou
ĠC ara
ĠT y
x i
Ġe ter
Ġo ra
oc ado
ĠS into
ru gada
Ġgu in
Ġbei jo
Ġcom endo
Ġb ando
ĠS p
ĠB et
Ġpar c
ez er
Ġout ubro
Ġfu tebol
Ġeste ve
itu de
c am
Ġe vid
ĠS to
Ġfa Ã§o
Ġin fant
eria l
ur so
Ġer ro
Ġinf eliz
Ġcre p
l Ã©
Ġc ro
Ġt an
Ġdes cia
Ġdes cre
Ġpro m
Ġcomp or
Ġpux ar
Ġaproxim ando
Ġpat as
Ġchei os
Ġuni forme
H o
le c
Ġas as
Ġcint ila
Ġperig oso
Ġre i
ĠG len
Ã´n ia
Ġbor ra
Ġon das
Ġating iu
ĠPod eria
O u
Ġc Ã´mo
Ġma tÃ¡
ĠT or
at er
Ġras te
ĠNe gra
Ġsegre do
Ġi nte
Ġtira s
Ġmaldi ta
ĠfÃ´ lego
b orn
Ã§a dos
Ġle i
ĠL on
ĠEs pero
Ġimedia to
Ġprop rie
Ġestu p
ĠRen nie
S E
ia va
ic ado
ec as
dos o
ci to
ros a
Ġcer tos
Ġmar cha
ĠP apai
et tie
ia is
ando lph
ver t
Ġpra ta
Ġsom ente
Ġsum iu
I C
f io
Ġde n
que Ã§a
das se
[ âĢĶ
ĠD eixe
ĠB angor
ĠPe ar
Ġbol as
Ġperce bi
ĠGa ge
cons ciente
Ġgargalha da
Ġm el
di tch
Ġfor n
ĠÃ¡ l
ĠSa wyer
Ġmost rando
Ġcava los
Ġauto mÃ¡
gon ha
Ġoportun idade
b rou
h ila
Ġco nto
Ġal ma
Ġdi v
di das
Ġap la
ĠEs tados
Ã¢ nt
Ġdese jo
Ġintelig ente
Ric hard
ĠfÃº ria
Ġtrail er
m ore
ran n
ĠH ill
ĠH amp
lic ado
Ġapo ntando
ĠBow ditch
A h
D on
S a
Ġ ka
Ġt Ã©
ĠO lhe
ĠG eral
Ġbo tar
ĠpÃ¡g inas
Ġt ig
Ġf amos
Ġdo bra
Ġdes f
ĠDe ve
Ġsab emos
ĠFo ra
Ġor gan
ell i
ĠnÃºm eros
Ġespecial mente
Ġbochec ha
Ġesper ou
Ġgent il
Ġsess enta
Ġimped ir
Ġpain el
Ġa ro
va Ã§Ã£o
Ġg er
ĠC ou
ĠM un
Ġped ido
Ġpudesse m
Ġatravess ou
Ġsatis feito
ĠsÃ¡ bado
g ara
v eiro
w er
z entos
ara n
em an
ĠS lo
ĠS mith
ĠG old
iz ou
Ġsei os
Ġextrem idade
Ġt elhado
Ġv ÃŃ
Ġv ende
ĠB an
Ġesp ero
Ġquer em
Ġbat ia
ĠUn idos
Ġes go
ĠC ada
ĠD un
at es
Ġim Ã³vel
Ġpul m
Ġesp re
id er
Ġag ente
Ġcla ramente
Ġocas iÃ£o
ĠÃĵ timo
Ġsobranc elhas
Ġc Ã¢ncer
ĠA d
di to
Ġpens ado
ch ou
Ġpou cas
Ġlar go
ĠAc redi
V ries
Ġt he
ĠD eu
Ġcon dado
Ġrec Ã©m
ord an
Ġv inho
ĠA ÃŃ
ida do
Ġvol tei
Ġprim eiras
Ġju iz
ĠHa ven
Ġcheg asse
ĠEntre tanto
1 1
d inho
Ġco z
Ġca ntar
Ġex ci
Ġar bus
Ġbol sos
Ġsusp ei
Ġincl usive
ĠSent ia
i es
or ou
ĠM Ã£e
Ġen vi
Ġentre gou
Ġag on
Ġret ira
ĠBu ick
Ġore lha
ĠLu cy
ĠPrim eiro
Ġt ec
ĠC risto
Ġr Ã©
Ġpar tes
ĠR ei
ĠÃł quela
Ġmo ver
Ġint enÃ§Ã£o
tado res
Ġcan sa
Ġfra g
ĠpÃºb lico
or te
Ġb ela
Ġca deia
Ġdis tra
Ġla ma
Ġouv ira
Ġdaqu ilo
ĠCal la
Ġle g
Ġle u
Ġh er
Ġpart ida
Ġinf Ã¢ncia
Ġcr Ã¢n
Ġsemelha nte
Ġjun ho
H enry
T om
as h
Ġter Ã¡
ĠG aro
Ġpeg Ã¡
Ġcurios idade
Ġcorrespon d
Ġcon ge
Ġres id
ĠAl go
ad ine
cha da
Ġfuncion ar
Ġmoc hila
ec i
ĠM y
Ġsent ados
Ġsusp iro
Ġlimp ar
Ġbus car
Ġdec isÃ£o
Ã§a va
ura r
ĠL inda
Ġres erva
Ġfecha dos
ĠSte ph
Ġjor nais
j et
Ġp om
Ġp ura
Ġco la
Ġl as
us os
ĠD urante
Ġper feito
Ġent rando
ter ra
ĠJa cobs
Ġqueria m
ĠJul ia
c Ã¡
p u
t enta
Ġt enta
Ġt iros
ent ro
Ġvi rando
Ġliv rar
Ġag osto
Ġt ais
em ie
Ġma ta
via m
Ġus ado
Ġlen Ã§o
Ġpoltro na
in co
ri osa
Ġpo vo
Ġi gn
ĠG os
Ġcer e
Ġvi ol
Ġso ou
ĠÃ³ leo
f fe
Ġp el
Ġp eixe
ia dos
Ġca ntos
Ġpro g
Ġpa u
Ġgri tava
Ġti rando
Ġleva ntando
Ġlou ca
ĠGre g
Ġa us
Ġo be
Ġfa ixa
Ġter no
Ġpergu nt
ĠsÃ© culo
ĠPA RA
i osa
t ig
Ġv ÃŃt
la vam
Ã³ veis
Ġis o
Ġar ris
Ġres mun
Ġposs u
an Ã§o
le te
Ġno tou
Ġbura cos
Ġvinha m
Ġdiss esse
A p
Ġb ob
Ġat ro
Ġcas os
Ġsex ta
s ton
Ġ w
Ġf itou
Ġre fer
Ġex er
Ġacontec ia
ĠNa quele
AD O
ĠPrec iso
ÃŃss imo
qu is
Ġf oc
ro nt
ma va
Ġmaior es
Ġbat ida
Ġvira do
Ġconhec imento
Ġcadeira s
Ja ke
ĠmÃºs culos
Ġgeral mente
Ġblo que
Ġadi v
Ġhorizo nte
Ġquint al
H O
Ġb isco
ĠE M
ĠF ique
ĠF ui
har es
ula Ã§Ã£o
Ġcircunst Ã¢ncias
1 5
r or
re w
Ġma tado
ĠH am
Ġsua vemente
Ġab an
Ġmost rava
ĠFred dy
Ġmoe das
Ġaspec to
Ġgave ta
Ġinca paz
Ġpne us
i Ã§Ãµes
Ġ ÃŃ
an da
ĠE v
Ġcon so
ul os
Ġesp ÃŃ
Ġencont raram
pos ta
Ġcent ral
Ġdro gas
3 0
Ġt oss
Ġl anÃ§a
Ġcomp ras
Ġtor ta
Ġcaminh Ãµes
ĠAt rÃ¡s
Ġdeta lhes
M ar
d icion
s ha
Ġc esta
Ġin va
ĠV in
Ġla d
Ġmo le
Ġfra ca
Ġquant idade
Ġp Ã£o
Ġt Ãºn
ĠhÃ¡ b
ick y
ĠMat tie
l Ãªs
s or
Ġre me
ga vam
Ġpas sei
Ġsegu i
Ġsol tar
Ġta ntos
ĠEn cont
Ġesquec eu
Ġ3 0
Ã©r cito
Ġsum ido
1 0
ĠN O
Ġent endia
Ġpro du
Ġtorno z
Ġtes ou
I D
m almente
do ra
Ġem ba
Ġno vas
te ve
Ġper cor
Ġsent imento
Ġder re
Ġder ram
Ġpreocupa Ã§Ã£o
Ġna ve
ĠS ha
Ġr um
Ġper segu
Ġent end
Ġenf iar
Ġpux ando
Ġcheg ara
Ġmex er
in d
Ġdo ze
gu as
ĠS ol
ÃŃ l
Ġac h
Ġcomp ara
ĠTom my
Ġassass ino
Ġdoc um
pee dy
U N
U S
Ġf enda
ĠD ussander
Ġcor rida
Ġvol ume
ĠBob by
Ġacomp anha
k o
lo rann
Ġte x
Ġperce be
ĠCar ol
Ġboc ado
Ġpendura do
g am
le tas
ĠB er
ĠV era
ĠH um
Ġpa co
vor e
Ġpal mas
Ġbr us
v Ãª
ÃŃ culos
ĠR andolph
Ġcont ando
ĠQu a
Ġgri ta
Ġimag ens
Ġborra cha
ba dos
Ġdirig indo
ĠGra Ã§as
z y
is to
le tÃ³
ran has
ĠM on
Ġme tÃ¡
Ġar que
Ġdest ino
Ġcom ent
to m
Ġre vis
ĠT ar
Ġen via
ga Ã§Ã£o
Ġfor mas
Ġtr is
ĠPor Ã©m
Ġsol dados
Ġor d
ĠPer gu
Ġconc l
Ġcr ista
Ġresta urante
ĠcrÃ¢n io
c ina
r esse
do ma
Ġf ras
Ġra tos
der e
Ġguar dar
ĠlÃ¡b io
ĠPar k
Ġsaco la
ĠJam ie
run h
I I
g ente
ar ou
ĠO b
ĠC ra
ĠM A
ai u
Ġcont orn
Ġres tava
Ġcoloc ado
vol ta
ĠCh ris
Ġdesc ans
Ġpendura da
Ġsist ema
Ġque da
ĠP ela
Ã§a das
mb a
Ġman chas
Ġce go
Ġnerv os
Ġcre io
E C
Ġo vos
Ġco res
da des
ĠC ul
ita is
Ġob je
Ġpres idente
Ġbri lhando
Ġrela x
Ġret ru
ĠCont udo
ĠKe vin
ĠmÃŃn imo
y na
ar em
ar ed
Ġf el
Ġg irando
di Ã§Ãµes
Ġar rum
Ġres tos
Ġpassa da
Ġacei tar
Ġenferm eira
Ġtare fa
Ġde tetive
Ġg l
Ġen so
Ġle nta
ura do
Ġpa letÃ³
Ġsegu ido
id es
Ġ1 7
Ġsub ia
Ġfu rioso
Ġlig ado
Es tava
Ġexec u
T udo
Ġfa nt
Ġin e
Ġresp irar
Ġbe leza
ĠTo das
ĠcaÃŃ ram
ĠmÃ© dio
Ġ ilha
nt on
de lia
Ġma la
ĠD ei
ci dos
Ġtra zer
Ġcru el
ĠmÃ©d icos
Ġcus p
b ando
p end
re o
ĠO ver
Ġdi vid
Ġcur vou
Ġja queta
Ġmov endo
qu eiro
so na
un e
Ġpe Ã§as
Ġpul ou
Ã³g ica
la terra
ran s
ess as
Ġencont rei
Ġsal tou
ĠtÃªm po
br ica
Ġdup la
Ġmag ro
Ġb en
Ġem po
oc os
ĠC re
Ġmo de
ĠÃ³ b
Ã©s semos
Ã³r ter
Ġul tra
o ter
Ġg Ãªme
ĠS un
Ġtam pouco
Ġfigu ra
Ġdis parou
lh Ã£o
ros s
Ġencont ra
Ġtenha m
Ãºs culo
Ġraz o
Ġlen ha
ĠHe len
ĠIng laterra
Ġo pe
ĠP res
it Ã¡ria
ÃŃa co
Ġocu pa
Ġmad rugada
g ento
Ã³ rio
ĠN ettie
Ġpo t
Ġfo gÃ£o
Ġcer t
ĠEs cu
Ġban ho
Ġconf uso
Ġencar ou
Ġinterromp eu
Ġrit mo
Ġproprie dade
A inda
E l
ĠEst Ã£o
Ġant igas
Ġpap Ã©is
Ġtro n
Ġergu er
ĠRe doma
Ġfantas mas
ĠnegÃ³ cios
in bird
ÃŃs que
Ġgor do
Ġencolh eu
ĠHow ie
Ġfacil idade
ĠKen ne
Ġdeus es
Ġcenta vos
l ida
w ald
ĠA mb
Ġex ig
Ġpre tos
ĠCh uck
Ġdesc an
Ġgo le
Ġfe dor
Ġbl usa
Ġrodo via
S ua
Ġent endo
Ġar d
Ġimp a
Ġbol o
Ġcur ta
Ã´n ico
Ġrece beu
Ġfar Ã³is
p es
Ġl anÃ§
ga cia
Ġexp ress
ici pal
Ġinf in
John ny
D I
Ġde co
Ġde ram
Ġb elo
te ra
ĠS entiu
Ġi de
Ġvol tasse
Ġabsolu ta
Ġsatis fa
Ġinforma Ã§Ãµes
Ġmat erial
or ros
Ġg runh
Ġsu st
Ġcon ce
ĠL ixo
imp les
Ġta te
Ġ2 00
Ġcem itÃ©rio
ĠM icha
ĠT ess
Ġpun hos
Ġequi pe
ĠPrin cip
M eu
N ick
Ġo cul
ĠS an
Ġacontec era
Ġrep Ã³rter
Ġolha ram
cado r
Ġaber tas
Ġve ja
Ġbei jou
Ġescorre ndo
ĠestÃº dio
Ġc Ã£es
ĠB iblioteca
ĠF ica
Ãªn io
Ġun has
Ġacab ara
Ġmil hares
Ġdesaparec er
ĠFin almente
OC ÃĬ
t ur
Ġsu cesso
ĠR os
ĠSe ja
Ġ1 4
Ġgaro tinha
Ġtive ram
Ġa ranha
Ġest ro
Ġti nta
Ġmom ent
anh ando
Ã¢m ara
Ġamo nto
ĠBru tal
Ġmaravilh oso
la das
ĠT eria
ob il
Ġsor ri
ero por
Ġconhec er
l s
m Ã£
u almente
Ġde cla
ec endo
ĠN adine
at ia
Ġestar iam
Ġqueb rar
Ġprote g
ĠelÃ©tr ica
Ġbos que
u be
Ġna queles
ĠS er
ĠC an
ĠC ap
ĠD esta
ĠT hor
ĠT ive
Ġen dere
Ġro cha
Ġbon eca
Ġexplo dir
sh ire
w ell
Ġf rou
ri das
Ġsu pos
ĠR ua
iv emos
Ġex tre
Ġla tas
ĠDe vore
ĠQu atro
Ġaber tura
Ġvaz ias
Ġtru que
ĠShe emie
Ġde ver
Ġt um
en cia
ha dos
ĠA lain
Ġal tos
Ġou ve
Ġsab eria
tem bro
Ġmoe da
ĠPens ou
Ġc ess
es pero
ĠC olo
ĠM ai
Ġfo gueira
Ġcar ga
Ġcons ciente
Ġav iso
ĠBo a
Ġtorna va
ĠfÃ© rias
ĠSlo at
Ġn Ã¡
re l
ck er
Ġdorm ia
ĠBar ry
Ġ5 0
Ġfur gÃ£o
u ga
ĠH ou
Ġu ÃŃsque
ĠDu as
Ġcrim e
r inha
ri tÃ³rios
Ġest uda
un d
ch ar
inh ar
oca is
Ġcol or
Ġlon gos
Ġcho cola
ĠEl len
Ġajud Ã¡
ĠtrÃªm ula
Ġfoc inho
res so
Ġgar ras
ĠMc Vries
Ġqueb rou
Ġlimp a
G O
e p
l ido
Ġa des
Ġca lado
ĠD ou
Ġper m
ĠF iz
Ġar te
Ġrep licou
Ġba que
Ġcan sada
ĠCo ffe
Ġdeci dir
Ġmex eu
Ġencos ta
ĠES T
Ġtris teza
f le
v ent
in es
Ġse da
Ġse de
ĠV ia
ce ram
Ġtent ativa
Ġru ins
Ġaj ude
Ġarras tando
Ġpress ion
ĠQual quer
la y
ĠR ol
Ġpr ision
Ġpro cesso
Ġra ios
Ġcham am
Ġquar tei
Ġtorn ara
Ġaper tar
Ġabra Ã§ou
Ġnatural mente
Ġcomprim idos
Ġp ilhas
Ġn ÃŃt
ĠP OR
Ġdele gacia
ut ch
ĠprÃ³p rias
qui la
Ġergu endo
Ġsuj eira
ĠA u
Ġas fal
Ġch ar
Ġquer ido
Ġcontro lar
Ġlim po
Ġtrabalha va
o d
Ġ ,
Ġf ino
Ġca ntando
Ġesta dual
Ġlev emente
Ġcur so
Ġpla ta
Ġve ge
Ġdou tor
Ãĩ ÃĥO
Ġserv ir
ĠDescul pe
Ġf ul
Ġest ica
us sÃ£o
di ram
ci ou
Ġver gonha
Ġcar d
Ġche gada
Ġcu rioso
Ġtrans por
Ġrou ca
Ġcomple ta
ĠCont inu
Ġresol ver
Ġgat ilho
Ġcon vida
Ġesc uras
Ġped indo
Ġcaminh ou
Ġama va
ĠHu gh
ĠHamp shire
Ġarbus tos
Ġe du
le na
de iro
Ġca uda
ĠJ ordan
ce te
Ġlu vas
ita nte
Ġmost ra
S eu
n ia
de ado
Ġca ut
Ġdis co
Ġper d
Ġdisse ram
Ġac hando
Ġac amp
Ġcont ente
Ġtira do
Ġfer ram
Ġquad ril
c entos
w in
ĠR ec
ĠJ u
ĠJ en
lo ok
Ġ19 9
Ġind ica
Ġescon dido
Ġdomin go
Ġse pul
Ġem aran
... "
ĠL en
Ġva gamente
Ġquar ta
Ġterr ÃŃveis
Ġmant inha
ĠBu ck
O M
Â º
Ġt ime
Ġb ai
ĠN esse
Ġen ga
Ġle nto
me u
Ġcas tan
Ġquar tos
Ġaj udou
eix es
Ġperfei ta
P er
Ġest radas
ĠN orris
ĠD is
Ġent endi
Ġcons tante
Ġrespon s
ĠNa quela
Ġprecis ou
ĠBea ver
ĠJam es
Ġvie ram
F ran
w ick
re ndo
om i
Ġin stru
Ġbar co
Ġfiz er
ĠFran nie
Ġempur rando
igh t
Ġing lÃªs
ĠCoffe y
b b
b as
i jo
ĠM elhor
ch er
Ġgos tou
ĠÃ³ rb
ĠTom Ã¡s
Ġci ent
ĠOver look
eropor to
i i
Ġent us
Ġent raram
Ġpro tes
ĠL ester
Ġcal mo
Ġimag inou
Ã¡st ica
Ġinforma Ã§Ã£o
Co nt
ĠSco tt
Ġinvis ÃŃvel
I M
Ġa ulas
Ġc Ã³
Ġl ite
ĠV OCÃĬ
Ġcapa cidade
r inhos
Ġdo enÃ§a
aria mente
Ġlon a
Ġlon gas
vi dos
Ġmil hÃµes
olo gia
Ġpulm Ãµes
Ġ ram
in gu
Ġg ris
Ġpro n
Ãµ e
ĠW ar
Ġesco lha
ĠcaÃŃ da
Ġpreocu pe
Ġexce Ã§Ã£o
Ġgela do
b ran
p cion
se y
Ġmor tal
Ġ2 5
Ġdiver tido
Ġvio le
a a
Ġ ut
Ġa Ã§Ã£o
Ġc idades
Ġse qu
Ġsu icÃŃdio
Ġre ci
Ġper sona
Ġan ivers
Ġconsegu ira
Ġav anÃ§a
Ġpassa vam
Ġtri bun
Ġlar eira
Ġesca das
Ġrea Ã§Ã£o
1 9
i tava
Ġv in
ĠS peedy
Ġsu pon
ob os
Ġpa ci
Ġus a
Ġaper tando
Ġt ecido
Ã¡ culo
Ġter em
Ġent rado
Ġfor Ã§as
Ġmen in
Ġguar das
Ġchama vam
Ġment ir
Ġexplic ou
ĠNenh uma
Ġdescul pas
ĠtÃºn el
o ta
Ġse tenta
Ġest ilha
res sa
Ġvol tava
Ġcomp rida
Ġcons er
Ġtorn ando
Ġescri ta
Ġalc anÃ§
Ġdescon fia
Ġdesen vol
Ġinfant il
re ns
Ġb ron
ĠC ad
ĠT ro
Ġcont ei
Ġmen inas
Ġcomp art
Ġsal to
Ġban da
ĠDes de
Ġens ino
Ġacost um
A cho
Ġse tembro
Ġg anhou
Ġma Ã§o
ul iar
ĠDe ke
Ġch eira
Ġestar Ã¡
Ġbar u
Ġpen so
Ġcarre gando
Ġater ror
Ġmo tivos
Ġsent ira
ĠÃ³ dio
ĠcaÃŃ a
Ġd anÃ§ar
os co
ar da
ri lha
Ġl it
Ġcon heÃ§o
via mente
Ġesp anto
ĠW ard
Ġesta lo
et t
Ġbe be
vem bro
Ġaproxim ar
ĠHal lorann
ĠlÃŃ qu
d uras
n d
Ġm ila
ta Ã§Ãµes
al bert
ĠP es
he a
Ġtem pera
Ġmo rava
Ġdeix ei
Ġrec la
Ġsilen cios
ÃŃb rio
Ġcaminha da
Ġbur ro
ĠinÃº til
Ġa con
Ġde mas
Ġque ira
Ġb uz
em o
ma da
Ġvi das
Ġexa to
ĠÃ³ t
ĠCon s
Ġcost um
ĠtÃ¡ xi
ĠsÃºb ito
em in
Ġg ro
ĠD oc
que te
ĠB al
Ġlu ar
Ġmor tas
ne au
Ġtransfor mou
Ġsai ba
Ġalar me
Ġgiga nte
UL O
Ġtij olos
G ard
L o
Ġs inais
oc ia
te in
Ġca Ã§a
Ġter mos
Ġcas telo
Ġsobre nat
inh ou
Ġob ra
ĠBe ezer
Ġfe bre
Ġench er
Ġconstru Ã§Ã£o
Ġmont anha
ĠCome Ã§ou
e jo
as sa
Ġl inda
Ġg rÃ¡
ĠV a
it z
Ġver ificar
ĠPor tland
Ġgaro tinho
Ġcober tas
ĠnÃ© voa
Ġpec uliar
ĠCalla han
Ġobe de
Ġentus ias
. ]
t endo
Ġqu inta
or th
Ã© st
el s
ĠT ho
Ġan d
Ġav Ã´
Ġtre cho
ĠNor ma
ane amente
Ġcompanh eiro
le m
Ã© gio
oc ando
Ġper da
id ge
Ġav ent
Ġdesa jei
Ġref le
Ġaproxima va
ĠJud y
an y
Ġma pa
ĠC ob
Ġhum anos
Ġarran car
Ġsomb ria
ĠCur tis
Ġsilenci oso
Ġimpro v
Ġplata forma
t ivas
Ġe qu
Ġco xas
Ġv ivos
Ġcon fer
Ġvis itar
Ġbal anÃ§o
Ġfu z
ĠMar sha
ĠdÃº vidas
Ġsomb rio
Ġalc ance
ĠGre en
Ġmun dos
ÃĢ s
C h
os tas
Ġse jam
gu lares
di re
Ġsegu ia
ver m
Ãº st
Ġso ava
Ġun iver
Ġtrans mit
ress al
fic ina
Ġexist Ãªncia
Ġhes itou
Ġtestem un
ĠespÃŃ rito
Ġde d
Ġf omos
ĠC orre
ran ce
Ġin com
Ġmes mos
Ġcam ada
ch ando
dia l
Ġcan eta
Ġprecis amos
Ġrela cion
ĠNos sa
Ã¢ne a
S em
o vern
Ġca i
ĠB ou
Ġper dendo
Ġin espe
Ġla v
Ġtorn ado
Ġpal co
ifica Ã§Ã£o
B ar
t ter
v ÃŃamos
Ġp ente
Ġp ilo
Ġo dor
es tava
ĠS imples
nte ve
Ġat ual
mo nt
Ġpres os
Ġref rige
Ġcontinua vam
Ġbanh eira
ĠmÃ¡qu inas
an sas
le iros
Ġno vembro
Ġca ver
Ġcar o
Ġacontec esse
Ġtent ei
ÃŃt ica
Ġconse lho
Ġcicatri z
Ġp io
Ġes va
ĠV Ã£o
Ġsol ta
Ġsor ria
Ġprote ger
Ġfotogra fia
Ġroman ce
Ġchocola te
Ġanivers Ã¡rio
O U
Ġco ron
ĠN an
ĠD ol
ĠJ ared
iz ados
Ġlemb ranÃ§as
Ġta pa
Ġgra us
Ġenf i
Ġatrav essa
ord in
ĠlÃ¢m pada
Ġconclu iu
ĠHol mes
Ġsho w
z inhos
ar ra
Ġco bra
ĠS il
ec ida
Ġme d
om a
Ġcon st
ĠR on
Ġpa ciente
Ġtra zia
Ġlar gou
Ġvaz ios
Ġestre ita
Ġcompre ender
Ġval or
A ntes
v ilha
is mÃ£
Ġenf ia
Ġimag ino
Ġmist Ã©rio
Ġgem eu
Ġvom itar
Susan nah
g in
ĠH ei
Ġtom a
Ġfres co
Ġfum ar
Ġequil ÃŃbrio
Ġtan que
ĠPear son
f era
u u
Ġre to
Ġtra tava
Ġencont rÃ¡
ad re
Ġins p
Ġpal p
Ġtre in
Ġcober tura
Ġpertur bado
Ġdescober to
L E
i per
Ġt end
Ġta bu
Ġsal var
Ġgar Ã§
ĠHar ris
Ġpior es
As sim
c Ãª
s y
Ã© tica
Ġpara dos
ĠA ven
ĠS and
ĠN at
ĠC urt
Ġos so
ĠB as
ĠF ec
Ġvo ou
Ġtra vesse
Ġdeix aram
Ġtran quil
Ġequip amento
Ġparc eiro
g ie
Ġe f
Ġcom ando
ri et
Ġcon diÃ§Ãµes
Ġjo gos
Ġvis ÃŃvel
ĠFa Ã§a
Ġsussur ro
Ġbarra cÃ£o
Ġalu c
Ġbrinque do
L Ã¡
n ing
p ia
v ocÃª
nt h
Ġcom eu
Ġcach orros
Ġdesliz ou
Ġrever endo
Ġv enda
Ġv aso
ĠE xa
ĠE ast
Ġper igo
ĠEst rada
Ġrep ara
Ġcons ider
ost ei
Ġcan al
ĠRob ert
Ġcoto velo
Ġflutu ando
W ireman
i entes
u te
ia n
il y
ĠD r
ĠD ez
Ġsob ressal
Ġra ramente
ÃŃn as
Ġvia tura
Ġamb as
Ġlate rais
Ġven ha
C ar
N ada
Ġc ic
ic al
Ġos cil
ĠR at
Ġdos e
aix on
ĠLe w
Ġtrem er
ĠquilÃ´ metro
Ġgarra fas
ĠlÃ¢m ina
Ġbara to
Ġdiscut ir
G U
d inhas
ra ntes
Ġg irar
ĠD er
lo go
Ġint ro
mou th
ĠTinha m
ĠprÃ³x imos
ĠAp osto
ĠWal ter
Ġabaix ou
Ġajo elh
Ġgro tes
1 2
c n
g il
Ġco elho
Ġpara ram
Ġal Ã§a
Ġver ia
Ġrespon sa
ĠCar rie
fei ta
Ġagu do
Ġinst rum
P Ãį
Ġdes cont
Ġbo tÃµes
Ġlev aria
Ġgal hos
Ġtransfor mar
Ġcr Ã©
Ġaba fado
Ġtur ma
ĠDen is
Ġfirm eza
Ġprom essa
C he
O ut
c imento
ma Ã§Ã£o
Ġmu dado
Ġra dia
Ġapos tar
Ġprop Ã³sito
An dy
Ġtribun al
e y
n al
Ġc en
Ġse xo
il ando
Ġla var
ĠHo je
Ġder ra
Ġdeci dido
Ġdirig iu
ĠBa ker
Ġabri l
Ġlim ite
Ġapos ento
ĠÃ¢n gulo
ĠSob re
ĠhÃ¡b ito
A A
ĠE r
im bo
Ġtr Ã¡
Ġpou sou
Ġpra tos
cu ro
lic e
Ġpl anos
Ġsin cer
Ġdisc ussÃ£o
ĠUn der
Ġenca ix
Ġextra ordin
ĠDar cy
Ġator do
Ġinse tos
p ida
re ira
Ġes queÃ§a
ca nte
lav an
Ġfei tas
Ġcinz ento
ĠAm Ã©rica
Ġproc urou
Ġadmit ir
Ġorig inal
Ġasfal to
Ġal ter
Ġin con
... ?
it enta
Ġdeix aria
ĠTer ritÃ³rios
ĠAp Ã³s
Ġjus to
B I
N C
al idade
Ġg era
ĠEs sas
Ġcan Ã§Ã£o
min ist
Ġenf iado
Ġpart iu
Ġcarre gado
Ġqua ntos
Ġo h
ĠB us
ai o
Ġmo veu
ja ntes
Ġcl asse
Ġbal de
pres s
Ġdez esse
Ġprecis am
Ġclar eza
Ġmist er
Ġcruz ou
Ġchei as
ĠfÃ³sfor o
Ġo dia
Ġv ender
ĠR u
Ġh orre
ram as
Ġcam pos
Ġtri lhos
Ġpul ar
Ġescre vendo
Ġrap idez
Ġabri ram
Ġgem ido
ĠTed dy
cal ho
ĠsanduÃŃ che
ĠGeral d
n is
Ġc il
le ne
em or
ic h
Ġla va
Ġsobre tudo
Ġsen so
ass ado
Ġexce lente
Ġesquis ito
Ġselva gem
ĠKenne dy
ĠMarsha ll
B e
M e
r ine
lh eiro
ĠB ud
Ġfo nte
di ra
Ġfec hando
Ġassus tada
Ġmalu ca
Ġrem Ã©dio
Ġconfia nÃ§a
Ġalun os
Ġrevis tas
a gem
cia m
Ġesc an
Ġne ga
ut ua
Ġro mp
Ġleva nt
Ġlemb rando
Ġru ÃŃnas
Ġcaminh ando
ĠAp esar
Ġcorrespond Ãªncia
Ġretru cou
Ġrespons Ã¡vel
Ġo us
Ġf en
ÃŃ ram
Ġtran quila
ick er
Ġta ntas
ula da
Ġconcor da
Ġgan cho
Ġperman ec
ĠmÃ¡g ico
ĠlenÃ§ ol
Ġestro ndo
ĠMai tland
C on
T ULO
l ing
Ġd rin
Ġs ÃŃ
Ġm ira
Ġent or
ing ando
ĠEd gar
Ġu so
Ġexist ia
Ġdem Ã´nio
Ġempres a
Ġa onde
Ġf one
Ġg in
Ġre ta
Ġpar cial
Ãº de
nta dos
Ġimp e
Ġir ra
Ġsub st
tu al
Ġtro ca
Ġrece be
Ġbre vemente
Ġpasse io
Ġsug est
Ġeletr icidade
Ġindic ador
Ġdesenh os
N Ã³s
V ol
Ġs int
in n
Ã© u
ĠA queles
Ġca la
Ġre gular
Ġpro vas
ĠDe via
ita ntes
Ġentre i
Ġvi bra
Ġsur do
Ġarran cou
ĠBla ck
Ġench ar
Ġobserva va
Ġenxer gar
Ġtempera tura
Ġo di
Ġf ru
ÃŃ cios
ĠD rew
Ġcon g
ul ha
ĠW e
Ġro lou
cho nete
ĠSa b
Ġfer ida
CA PÃį
ĠSho oter
Ġaban ou
CAPÃį TULO
Ġl idar
ĠT ina
Ġin je
ĠDe le
ĠDe tta
Ġcas ca
Ġtra v
Ġdire tor
Ġob jet
Ġrelu z
Ġconcl usÃ£o
m Ã£o
t ion
Ġf emin
so l
ĠD Ã¡
Ġsorr is
ende ll
Ġclar eira
Ġocas iÃµes
ĠÃºm ido
Ċ Ġ
Ġa eroporto
Ã© tico
Ġcont os
Ġab ria
ver s
ĠI Ã©
Ġimag inava
Ġconta gem
Ġmil ho
Ġapa gar
Ġfe ia
Ã¢m pa
Ġof icial
Ġmicro fone
ĠGin elli
H olly
b on
Ġl ocais
Ġre tro
Ġin da
Ġin consciente
Ġac os
ĠV an
no t
Ġbeb endo
Ġsuper mer
Ġcir cu
ĠirmÃ£ os
ĠGu erra
Ġmaca co
Ġobje tos
ĠSimples mente
O lhou
Ġma nteve
ir iam
Ġal te
ĠM E
ca Ã§Ã£o
Ġfa lado
Ġcor tina
Ġlu tar
Ġso taque
Ġtent ado
Ġad qui
Ġclar Ã£o
Ġtrou x
Ġreme x
m ando
y nth
Ġt im
im amente
Ġem bar
Ġal vo
Ġfic o
Ġav en
Ġtro car
Ġref lex
Ġfuncion ando
Ġagar rar
Ġabri go
Ġquest ion
ĠPod emos
Ġsilenci osa
Ġinteress ado
ĠCra ig
Ġsatisfa Ã§Ã£o
ynth ia
a g
t ia
Ġde so
le ck
ĠL i
Ġbo tou
ific ou
Ġtermin ado
Ġbrin car
Ġri fle
ĠcÃŃr culos
Ġchor o
Ġtransform ando
Ġuniver so
Ġconst ran
y e
Ġf ront
ĠN um
ĠB at
ĠG or
Ġrep arou
Ġpu ro
Ġbat eria
Ġaper to
Ġarre b
Ġagar rando
Ġcomb inaÃ§Ã£o
Ġorgu lho
Ġpaco te
4 5
Ġt ol
Ġl ic
Ġl indo
Ġpor co
Ġpre en
Ġab sor
Ġpes ar
ĠK ansas
Ġtran cada
Ġfar e
Ġqueim ado
ĠAcha va
Ġrefei Ã§Ã£o
o t
Ġda vam
ĠN as
ĠO llie
ĠD in
Ġdes espero
ĠF ic
Ġfic Ã§Ã£o
Ġlu ta
Ġvo o
ĠPor tanto
Ã¢n s
min ado
Ġprof iss
ĠRa inbird
Ġext ensÃ£o
ĠlÃ¢m padas
Ġps ic
Ġconvers ando
Ġenche u
Ġacamp amento
d aria
Ġdo na
Ġpara va
Ġl ido
ĠS har
ĠB ÃŃb
it Ã¡
Ġparec ida
inh eiros
Ġcham ando
ĠPe gou
Ġnor malmente
Ġqueb rada
Ã³r nia
Ġassist ir
Ġsacud indo
Cl aro
Gard ener
p arec
Ġp ei
Ġt Ãºm
an gu
ĠT ex
Ġap aixon
est ra
if Ã³rnia
Ġvira da
isse m
br isa
Ã³g ico
ĠD essa
ĠT Ã¡
Ġesc ul
Ġresp ira
Ġcl ique
one te
Ġfl utua
Ġconj unto
Ã¢ns ito
C har
f ias
i po
Ġde itada
qu en
er son
ul Ã¢ncia
Ġter rivelmente
it Ãª
Ġcont ado
ch es
ud ia
Ġporta nto
ĠCo isas
Ġapo dre
Ġtro vÃ£o
ven en
ĠRe g
Ġclar idade
ĠpÃ¡l ida
Ġcole gas
Ġmergu lha
Ġterm ina
Ġescor ria
ĠM enos
Ġap ress
Ġesp erto
Ġcas al
Ġvo ar
Ġus Ã¡
Ġcapaz es
Ġart igo
Ġirri tado
Ġpesade los
d indo
s ent
Ġas p
Ġal tas
ĠP r
Ġter ras
tar uga
Ġav anÃ§ou
vis or
iza nte
Ġinclin ado
Ġabra Ã§o
Ġdig itais
ĠCu jo
l ito
Ġc ura
Ġde vido
Ġv Ã´m
em bora
ĠM undo
Ġme ter
ve ram
Ġdes erta
Ġsa ud
Ġen ver
Ġat re
ĠR am
ĠF or
Ġra cional
Ġne vo
enta is
Ġsor ridente
ĠNa omi
Ġfu ga
Ġag ir
Ġdescon f
Ġanim ado
ENT E
Ġria cho
R e
Ġ 0
Ġde ce
Ġo itenta
an hado
Ġpara ndo
Ġre de
Ġdis to
di Ã§o
Ġla mb
tos o
Ġescu tar
Ġchu veiro
ĠVer n
Ġemerg Ãªncia
ĠtÃ© cn
Ġcrista l
Ġsobrenat ural
c ter
en Ã§o
Ġan uncia
Ġtran quilo
ĠOu vi
Ġcent enas
Ġpreocu pada
Ġja to
ĠdÃ³ lar
Ġfantas ia
ti Ã§a
Ġame dro
Ġcalc anhar
b res
f os
g iu
u as
Ġc ris
Ġque ntes
Ġl obo
Ġtr Ã¢nsito
Ġra cha
Ġint enso
Ġsen s
Ġcorre io
Ġcol una
Ġban de
Ġdesl ig
Ġalc anÃ§ar
Est ou
h ill
p el
v Ã³
Ġd ra
in ente
ĠO de
ĠV ie
Ġcor t
Ġcar n
Ġsab or
Ġro ta
Ġinter rup
Ġsus to
Ġz an
ĠLem b
ĠVic tor
Ġtoca va
Ġacos tamento
Ġf eio
an Ã§as
Ġes s
Ġin o
Ġac ar
Ġmo ra
Ġsol dado
Ġcal m
deira s
Ġcaix Ã£o
Ġret ribu
Ġnerv osa
ĠAm eric
Ġur so
Ġofer eceu
Ġdisp osto
Ġenx u
Ġcres cer
Ġdescar ga
Ġrevel ando
Ġbaba ca
Ġendere Ã§o
Ġsupermer cado
p ra
x ou
Ġm eias
ic he
ĠA my
ina h
Ġcomp rou
Ġtri un
Ġrel ig
Ġinf ec
Ġespa nt
Ġrecu ar
Ġon ze
Ġinvest iga
ĠmÃ¡g ica
Dan ny
ĠcrÃ© dito
Ġc ra
es as
Ġf la
ent amente
Ã§ aram
ic ando
ĠG al
Ġro m
Ġpis ca
Ġpla cas
Ġmov im
Ġvig or
Ġprossegu iu
Ġpalha Ã§o
ÃŃf ico
Ġcrep Ãºsculo
Ġbisco itos
c ro
u p
v idade
Ġp us
in gar
Ġma io
Ġmas cul
Ġpod re
Ġcar eca
ĠDe ep
Ġcha me
Ġpen se
Ġalgo dÃ£o
Ġparece ram
ĠRo ad
ĠChe v
Ġencos tou
ĠCal ifÃ³rnia
Ġconside rando
Ġreco lh
Ġform ando
Ġpega das
Ġenter rado
rgu er
ĠsÃºb ita
Ġade qu
S O
il as
Ġre con
ĠP la
Ġan al
Ġvo vÃ´
Ġdu zentos
Ġso co
ĠAs s
Ġaper tado
Ġgo verno
Ġestre ito
Ġpun hado
Ġdegra u
Ġacer tou
ĠSal ly
Ġadoles cente
L ouis
Ġco fre
ĠS U
Ġin cha
Ġac ender
ur ch
Ġto alha
Ġvis itas
Ġesta be
ĠsaÃŃ sse
Ġdesl igar
Ġja zia
Ġafas tando
Ġobserv ar
Ġconven cer
ĠKe e
ĠHow ard
ĠBrad ley
ĠGaro to
Ġdemas iado
g s
m m
r us
y s
ĠE vie
Ġper ple
Ãº rguer
Ġfre n
Ġvolta ra
enta dos
Ġaf un
Ġgra de
ĠTo da
Ġbaix os
Ġment indo
Ġgo tas
Ġlimp ou
umo nt
Ġocu pado
Ġdeter m
Ġfacil mente
t ida
Ġn Ã³
ri t
Ġsa cos
Ġac us
ĠR oss
ria do
Ġass ent
Ġcas calho
Ġpra Ã§a
Ġinter va
Ġcham Ã¡
Ġsal tar
Ġbrilha va
ĠMcG overn
Ġretra to
1 7
I V
in oso
Ġpro mo
ĠI rm
Ġresp ostas
Ġaj us
Ġapro vei
ĠOu viu
bri l
Ġpi quen
Ġpri vada
Ġferram entas
Ġ k
Ġf rÃ¡
Ã³ rida
ĠP RO
be Ã§a
Ġar rem
Ġcor tou
ĠCom p
Ġob viamente
Ġinter min
Ġcons iga
Ġpul sa
tÃ¡ ria
Ġquad ris
Ġvid ra
ona to
ĠcomeÃ§a vam
Ġhip not
N enh
b is
s Ãµes
Ġo c
Ġf is
Ġes bo
la ntes
Ġna vio
ĠT ri
Ġmu ro
Ġmes as
Ġla p
Ġresp irando
Ġman if
Ġju ntas
ĠAn dre
fei tos
Ġarma z
Ġcava l
Ġnot ici
Ġcruz amento
Ġ4 0
Ġperman eceu
Ġdou rado
Ġabandon ado
mon d
Ġcambale ou
ĠFl Ã³rida
Ġpop ular
Ġbrus camente
Ġempo eira
T inha
u re
qu inha
to ra
Ġent rava
ĠÃł quele
Ġesp uma
na Ã§Ã£o
ne t
tam entos
Ġlar ga
ĠpÃ¡l pe
Ġprepara ndo
Ġgros so
Est Ã¡
Ġbata lha
ĠTe ve
ĠprÃ© dios
ĠvÃ´m ito
l ock
Ġpara lis
ĠM il
Ġsa pa
ĠB ran
ram ento
Ġcober tor
Ġfuncion a
Ġexist em
Ġsin gular
rgu eu
Ġdesvi ou
Ġsang rando
bine au
Ġord ens
El izabeth
ĠlÃŃqu ido
Ġem br
Ġcon forme
Ġen gas
id ando
end ida
if f
Ġcons ta
Ġfecha das
Ġtal ismÃ£
Ġfol he
Ġmaca cÃ£o
Ġinte gra
Ġaro ma
Ġsubst Ã¢ncia
B en
Ġmes inha
ĠW endell
Ġtom ada
Ġcara cter
ib il
Ġju ntar
Ġgra u
Ġempur rar
Ġamb ulÃ¢ncia
Ġbic ho
Ġflu xo
Ġpassag eiro
Ġeter n
ĠBÃŃb lia
b el
Ġes f
Ġma tÃ©
ĠB rig
Ġesp iando
Ġparec esse
ĠU M
Ġro lando
ĠK y
Ġcab ec
Ġfecha dura
ĠCin co
Ġrecupe rar
Ġnov enta
Ġdescan so
c Ã³p
Ġno j
Ġna quilo
ci pe
Ġent endendo
Ġ( "
Ġsol tando
Ġvi rei
Ġva ca
Ġju ntou
ĠRic h
fe go
Ġcoloc ando
Ġz om
Ġfra cas
Ġja z
Ġapa gou
ĠObri gada
Ġafir mou
Ã¢ne o
g ios
g rÃ¡
l m
p it
Ġde nte
Ġse cun
ro to
ĠJ albert
Ġsem elh
ce is
and eria
Ġacab aria
Ġrel Ã¢mpa
2 0
w ard
Ġp endia
Ġl un
ĠP assou
ĠR hea
Ġso pa
Ġleva ram
Ġtent asse
Ġus avam
Ġcidade zinha
Ġim bec
Ġgal ho
Ġassus tador
Ġcir cular
Ġexam inou
Ġintens idade
Ġofe gante
co mp
Ġdi la
ĠT al
Ġpa isa
Ġentre la
Ġlo jas
Ġsal vo
Ġcaminho nete
Ġfer ido
Ġsufici entemente
Ġaparec e
RA N
Ġprepara do
Ġ6 0
ĠVe ja
Ġtex to
u ntos
ta mos
Ġest ud
ĠM aria
Ġdis tantes
Ġper c
Ġat mos
Ġpro nta
ĠF e
ina das
ĠK i
pos iÃ§Ã£o
Ġvoltar ia
ĠUn ivers
ile ad
Ġfranz iu
ĠJean ette
Ġvende dor
Ġtravesse iro
Ġaven ida
h umo
r uma
w e
Ġe t
Ġl ia
ĠA ud
Ġen venen
Ġle ito
Ġesc al
Ġouv iram
ĠJack ie
Ġpis cou
Al an
Ġreconhec eu
ĠBea umont
Ġde itar
in almente
Ġv amp
Ã© ter
ĠS ul
Ġca ta
ĠC H
po t
ci das
Ġpro vid
ĠG ilead
Ġmo der
Ġdu vida
let t
Ġmol hado
Ġcob rir
Ġespal hando
Ġacen ou
ĠÃŃ nt
ĠTex as
Ġnevo eiro
qu em
Ġt ou
or i
Ã© d
ĠA ba
ĠD Ãª
Ġro ck
Ġson ha
Ġau di
Ġaliv iado
Ġlum inos
a k
g ro
k ie
de o
Ġpor Ã§Ã£o
Ġcon den
Ġin oc
Ġab enÃ§o
ĠOs wald
Ġcol inas
Ġacor da
Ġpux a
Ãªm io
Ġneg ras
Ġor den
Ġcach imbo
Ġmem bros
Ġconven cido
AN DO
Ġcresc endo
Ġvit rine
Ġsinist ro
ĠPou co
G ar
Ġb est
ĠE ll
ĠS A
gar ia
Ġpro ib
Ġcha lÃ©
ter r
Ġpres as
Ġconhec ida
ĠEn f
Ġfeliz es
ĠVer m
Ġsurpre endeu
Ġgrava ta
ĠEsper e
ĠVin ce
Ġide ias
Ġcard ÃŃaco
ĠCad il
1 4
ĠO lhei
Ġpar da
Ġpar entes
ga la
ut or
Ġpres sa
ÃŃn cipe
lic ar
ĠGar y
AD A
adre z
Ġco in
om in
Ġtra jeto
ba te
Ġta lento
Ġpres entes
ĠAn nie
ĠBe v
ĠSu b
Ġagu entar
Ġfe bril
ĠestÃº pido
Ġbrinque dos
Ġunivers idade
ĠDal las
ĠCadil lac
C ap
c an
Ġb ico
ĠA po
ĠA contec
Ġpe go
Ġpre f
iz ando
Ġsegu iram
Ġfor t
Ãº rio
Ġman ga
Ġrece pÃ§Ã£o
Ġens angu
Ġcarta z
Ġemb ara
Ġpint ura
To dos
Ġdemo rar
ĠCarol yn
Ġbron ze
V A
f ando
s ando
Ġde partamento
Ġt osse
Ġb izar
Ġsu c
ĠD ire
ĠG il
Ġmor ce
Ġconsegu em
Ġcab ana
ĠAn ne
Ġlou ro
cre n
Ġfantas mag
ĠRob erta
ang born
Ġsecre tÃ¡ria
Ġestrem eceu
ĠtrÃ¡ fego
_ _
p l
Ġa ura
is sa
Ġf ume
us cri
Ġos ci
ĠT entou
Ġdes mor
Ġmen ores
Ã¡s io
ĠEs ses
gado r
Ġemp ol
Ġano taÃ§Ãµes
ĠsÃ© ria
Ġven eno
AD E
Ġsuger iu
Ġes gu
le to
ill son
Ġcria do
Ġban cada
Ġergu ia
Ġdesl iga
ĠEx ce
Ġbeira da
Ġdescon for
ĠPrec isa
ĠlenÃ§ Ã³is
G e
n eu
in z
ĠA nt
Ġest ridente
ĠC lar
ĠC ynthia
ĠB aix
ĠV elho
Ġolh e
Ġapo iou
ĠsaÃŃ am
Ġcoloc Ã¡
Ġguar dou
Ġu iv
ĠHal leck
Ġcinz entos
Ġvie ra
ĠHer b
Ġpon do
Ġagon ia
ĠGos taria
ĠÃ³t ima
b Ã¡
r ica
Ġp ir
Ġc imento
Ã© dios
ĠD inah
Ġdes tro
Ġfa tos
ĠB utch
ĠR om
Ġcam ara
Ġjo ga
Ġer gue
ĠAn d
Ġtrans m
ĠBa bineau
Ġcomer cial
Ġauto m
Ġprepara r
Ġrecor dar
ĠMer ce
Ġmachu car
Ġcomun s
Ġparticular mente
ĠPol ÃŃcia
ĠAli Ã¡s
Ġapren der
Da vid
ĠSteph en
ĠÃ³rb itas
1 3
L A
P en
S tu
v emos
Ġco c
ro ix
ÃŃ am
Ġdes via
Ġen cren
ĠV irou
Ġesp et
ĠDe lac
nta das
ĠsÃ³ tÃ£o
Ġpos te
Ġvis ual
Ġcham in
Ġacha m
Ġgra des
Ġad minist
Ġidio tas
Ġcri ar
Ġexter ior
Ġenfre ntar
Ġbaru lh
Ġparcial mente
Ġcort inas
Ġcalm amente
A r
V ou
os tos
se u
ĠE U
gu ra
Ġma tando
Ġma gia
Ġsent imentos
Ġch in
ist er
ĠK o
Ġban cos
Ġtorn aram
th y
ĠCh urch
Ġcarre ira
Ġgru pos
Ġdirig ia
Ġcompre endeu
Ġrisa dinha
Ġequil ib
Ġperceb ido
Ġava lia
Ġrid ÃŃculo
Ġfamos o
Ġpossu ÃŃa
ĠDeep neau
ĠDelac roix
P ro
R a
w endy
Ġde itou
Ġco xa
Ġf lex
ĠA z
ĠP ass
Ġdes cu
Ġen e
ira do
Ġcont inha
Ġan Ãºn
Ġab or
Ġche que
ber to
ĠPe yna
ÃŃt ico
Ġamp l
Ġfotogra fias
Ġapavo rado
Ġcader no
Ġvege taÃ§Ã£o
V E
Ġc ig
do m
es tas
Ã§ oso
ÃŃ fica
Ġsu co
Ġpar ei
iv idade
Ġesp or
Ġpa ciÃªncia
Ġrep ro
Ġmil hÃ£o
Ġbeb Ãªs
Ã³r ico
Ġans ioso
ĠOut ra
ĠOut ro
ĠfÃŃs ica
l im
re as
Ġdo ÃŃa
te is
ec ta
Ġsu Ã©ter
ĠP am
Ġser p
du Ã§Ã£o
ĠDa y
Ġx adrez
Ġengol iu
Ġsar gento
ĠvÃŃt ima
M inha
Ġl Ãº
Ġac um
Ġmes mas
ig amente
cul as
enta vam
ĠÃ¡ guas
Ġcompre ensÃ£o
ĠRob in
Ġincl inada
Ġmun icipal
Ġgarant ir
Ġben gala
Ġram pa
Ġlav anderia
Ġatmos fera
C lay
F a
k i
Ġ Ãª
Ġp neu
Ġs hor
Ġv iam
se t
ĠD em
Ġdis far
Ġfaz ende
Ġass al
Ġ1 3
Ġleva ra
Ġbe beu
ĠHo ra
ĠCh ip
Ġcarre gar
ĠSam u
Ġgol fe
Ġbl ocos
Ġsegre dos
Ġfum ando
ĠSon ny
Ġquie to
Ġrefle xo
' ,
Ġp ip
ia na
an idade
da lhÃ£o
ÃŃ per
ĠP angborn
Ġper p
ura da
Ġha bil
Ġpre gui
Ġcomp rado
Ġfal so
ĠW es
Ġinc rivelmente
ĠpÃ¡ ra
ĠLa ta
Ġsup Ã´s
Ġdesconhec ido
ĠWh ite
Ġlic enÃ§a
Ġcabec eira
Cap ÃŃtulo
U M
g asse
Ġa ram
Ġf r
ro mp
Ġno tar
Ġen la
Ġent ranhas
Ġan el
Ġcor tes
Ġint u
ĠI m
ĠcomeÃ§ asse
bra l
Ġant iqu
ĠpÃ´ ster
Ġve ÃŃculos
Ġau x
Ġprov oca
Ġdisc urso
Ġimporta ntes
Ġperman ecia
Ġofer ecer
ĠelÃ©tr ico
Ge or
? )
n Ã³
as te
ec k
Ġest endia
Ġin cid
di go
Ġpr esta
ga il
ĠH Ã£
Ġi dos
ru z
Ġman dado
Ġdor es
tal vez
ĠDa vis
lic os
ord red
Ġcinz enta
Ġon du
Ġengra Ã§ada
Ġviv ia
Ġconse qu
Ho dges
ĠCul lum
ĠÃ³b vio
Ġmila gre
t ua
Ġo ce
Ġt ÃŃtulo
re ne
em bro
ĠP al
ĠP ri
ĠM iss
Ġper igos
ĠR E
Ġpa dre
Ġdia bos
Ġconf usa
Ġpart ido
Ġcheg amos
ĠfÃ¡ brica
Ġcob ria
Ġenc ur
ĠSt illson
Ġemo Ã§Ã£o
Ġexer c
ĠgÃªme os
C O
r ulha
Ġma go
ica Ã§Ã£o
Ġan c
Ġcor tado
Ġencont rara
ĠpÃ©s s
ĠRo y
Ġexist ir
Ġmol ho
Ġocor re
Ġigu almente
Ġdesma iar
dez as
Ġdescans ar
Ġbande ja
Ġt ensÃ£o
or y
ĠS om
Ġest endendo
Ġtra ta
ĠW y
Ġtor res
Ġvi esse
Ġacontec eria
Ġarma d
ner man
ĠCent ral
Ġmaravilh osa
Ġvul to
Ġperde ra
ĠLew is
Ġsemelh anÃ§a
ĠAba gail
g uma
Ġco var
de us
Ġl Ã³gica
Ġpor caria
Ġest ru
ĠC A
Ġcon osco
Ġin icial
ĠR idge
Ġle tra
ĠF A
ĠL iv
Ġar gum
Ġab at
Ġab rup
Ġmo radores
nta vam
Ġint ensa
Ġcl ube
ĠK at
Ġcorre dores
Ġrec ente
Ġhor Ã¡rio
ĠautomÃ¡ tica
Ġp eixes
um bo
to p
ĠB lu
it ei
Ġpro por
ĠL ane
Ġser es
ĠAl len
Ġqual idade
ios os
Ġav Ã³
Ġav anÃ§ar
Ġperce pÃ§Ã£o
ip p
Ġsuj eitos
Ġesca pou
ts field
Ġdesp ensa
Ġrem Ã©dios
Ġleit ura
ĠAng el
Ġresponsa bilidade
S am
Ġe re
Ġcom pet
ĠP asse
ve te
ĠB el
Ġpre cip
nta gem
Ġpou ca
Ġir Ã¡
Ã³s pe
Ġleva ntei
Ġrap osa
Ġinsta nt
Ġcruza das
ĠLau rel
Ġcoin cid
G A
is mos
Ġv elh
Ġb el
ĠA L
il d
Ġpo Ã§a
Ġap osto
Ġcam pa
Ġche f
Ġman uscri
Ã¢n ica
Ġju nt
Ġfiz emos
ĠMa x
Ġemp ilha
Ġz ona
Ġmant endo
ĠDE S
Na quela
Ġapos entado
Ġcob riu
Ġqua ntas
Ġtraz ido
Ġreflet iu
Ġexplica Ã§Ã£o
ĠExa tamente
V amos
ar es
Ġf eno
Ġf itando
da Ã§Ã£o
ri dos
Ġno Ã§Ã£o
Ġsu pe
ĠD ava
om ia
ĠL ou
ĠG as
Ġsegu e
end iam
Ġimp ren
Ġsol itÃ¡rio
Ġbar be
Ġbri ga
Ġolha vam
Ġquad rado
ĠMe us
Ġcarre gava
ĠLem bra
Ġhab itu
ĠAb riu
Ġirre gular
Ġultra p
u ta
Ġc iv
ar ry
Ã§ ador
Ġpara sse
Ġat irando
Ġap anha
ĠL ud
Ġsent isse
Ġcu jos
ĠPe qu
Ġsal p
ĠFo ram
Ġcho rava
Ġad vert
th er
Se us
Ġprote Ã§Ã£o
Ġexam inar
ĠCer tamente
Ġ it
Ġb am
ĠS or
ec imento
Ġap ara
Ġla c
Ġpre tas
ja das
Ġte vÃª
Ġlemb re
Ġva la
Ġinter net
Ġsub terr
Ġgar gal
Ġbas ta
ĠMar ty
Ġz ÃŃper
Ġtransfor mado
ĠLem bro
Ġqueim ar
Ġinsist iu
Ġbata tas
Ġprofess ores
Ġindi fer
Ġinde f
Ġadiv inha
ĠThor in
Ġco ca
Ġcom a
ĠS han
ĠB ol
Ġper di
Ġesp ira
Ġpes qu
Ġint ri
hec er
Ġtrem or
Ġid Ãªnt
ĠCa le
Ġber rando
Ġpermit ir
Ġafir ma
ÃŃst ica
ĠKee ton
I n
la gem
ÃŃ cula
Ġal co
Ġcont er
Ġh Ã³spe
ina nte
har ton
Ġjo gada
Ġencont rasse
Ġpu se
Ġsign ificado
ĠNor ton
IN HA
Ġmara vilha
Ġcader nos
Ġemaran hado
ĠtÃºm ulo
B ob
Ġqu ÃŃm
Ġt at
ÃŃ zes
Ġre vol
Ġsa Ãºde
Ġha mb
Ġha ja
Ġfor mar
pa dos
na va
Ġentre gar
ris se
Ġpis cando
ĠsaÃŃ ra
ip se
Ġpul o
Ã´n ios
Ġras tro
Ġagu da
Ġrepet ir
ĠVe gas
ĠpÃ¡lpe bras
Ġsapa to
f fer
Ġm issÃ£o
ri ll
Ġna quelas
Ġsent idos
Ġam an
ĠI l
Ġescu ta
Ġta co
Ġsal va
Ġapo io
ĠcaÃŃ ra
old s
Ġaco mo
Ġacomp anhar
ĠAch ou
Ġrecome Ã§ou
Ġsegui ntes
Ġtron co
ĠBuck y
ĠDele van
Ġprofiss ional
Ġdesmor on
Ġimpren sa
U T
g le
x im
ÃŃ das
ĠO S
Ġper dida
Ġac id
ga ntes
Ġab orre
Ġpass am
Ġtor cendo
Ġ1 00
Ġrep ou
Ġcons erva
Ġpis cina
ĠMar cy
Ġesco lher
Ġpl an
Ġtrem ia
ĠRo th
ĠPar ker
Ġacresc entar
Ġident ificar
Ġdob rou
Ġbomb as
Ġfrag mentos
ĠMerce des
l der
w orth
Ã ł
Ġe lo
an ie
ha ram
ĠA S
il mente
un as
Ġdes gra
Ġat itude
Ġin im
ĠH igh
Ġcomp ra
Ġtempo rada
Ġmar Ã§o
Ġescu tando
Ġgos tam
Ġexa ge
Ġimag inando
Ġpergunta va
Ġmov imentos
Ġli guei
Ġpret ende
Ġexemp lar
ĠPrec is
ĠMcC ar
Ġge rador
Ġviz inhos
ĠBre nda
ĠmÃŃn ima
Ġabsur do
Ġemo Ã§Ãµes
Ġpiquen ique
u rando
Ġc Ã¢mara
in Ã¡rio
en ce
Ġre tar
ul sa
Ġdeix asse
Ġir iam
est rada
ĠAl Ã´
Ġexp ecta
Ġmar telo
Ġcol ar
Ġgu itar
ĠPe guei
Ġve em
Ġsufici entes
Ġfuncion ava
Ġdeci di
Ent re
Ġret irou
Ġabsolu to
Ġdesliz ando
Ġsupor tar
Ġlan chonete
ĠIr v
Ġadul to
Ġatro pe
b io
p lo
Ġc utu
Ġde tes
es tar
im er
Ġdo er
gu es
Ġre cos
Ġre ais
Ġmu r
ess es
Ġgri tei
Ġbo ta
Ġfu rios
Ġacab ei
Ġrou bado
Ġsuf oca
Ġprecis aria
Ġpoder ÃŃamos
Ġcinz as
Ġop Ã§Ã£o
Ġmorre ram
ĠWil ma
ĠOl son
ĠbalanÃ§a va
ĠEscu te
? ",
M u
p elo
u lado
Ġn ua
Ġt este
in amente
Ġv aria
te c
ĠN ell
ĠC oca
ĠT irou
Ġch an
ter o
Ġti rei
Ġmal ig
Ġins cri
Ġlou cos
ĠCar ver
Ġtrem enda
Ġarran jar
Ġespa ntado
Ġsof rimento
Ġgela da
Ġdiminu ir
Ġdiminu iu
Ġemb ria
Ġans iedade
Ġjul gar
Ġbos ques
Ġmos cas
Ġadoles centes
ĠUnivers idade
C I
H Ã¡
V er
h u
u g
Ġqu into
Ã¡ culos
ĠE ver
ÃŃ du
ĠD entro
di z
Ġha vido
ĠG ri
ĠAr delia
Ġvest indo
ĠPeter son
Ġescorre gou
ĠBro ok
Ġgros sa
Ġprofun dezas
Ġreceb ido
Ġdespre zo
Ġretorn ou
Ġextre mo
Ġespet Ã¡culo
F iquei
g or
Ġd Ã£o
Ġn elas
Ġt il
es curo
Ġg ord
Ġre z
ĠD i
Ġper u
ĠF ra
ĠL in
ĠDe partamento
ĠK el
Ġaj ei
Ġpeda c
orn ou
Ġel im
yn olds
Ġcri ou
ĠTho mas
ĠmatÃ© ria
J Ã¡
u Ã§Ã£o
ĠA cor
Ġme teu
ĠL and
Ġcor vo
Ġvol te
Ġra dio
est re
Ġcol Ã©gio
Ġson hado
Ġescu te
Ġav anÃ§
Ġmon Ã³
Ġarras tar
Ġcolo quei
Ġsenho ras
Ġilum inado
ĠRat inho
h um
r eria
la ra
el ar
ĠC ase
Ġat endeu
Ġab ismo
Ġesc ar
Ġlu va
ja vam
ĠSe is
ĠW harton
Ġcu eca
Ġim obil
Ġesquec i
Ġcap tura
Ġcir ur
Ġdep rim
Ġassist indo
Ġdeter minado
Ġespal har
Ġtu bo
Ġpassag eiros
Ġperp lex
m ie
Ġg atos
Ġen jo
Ġin ac
Ġex pe
Ġesp ingar
Ġcor das
ĠU sava
Ġbat idas
ĠHar tsfield
ĠLe ah
Ġgo ta
Ġgo la
Ġestacion ado
ĠSegu ndo
Ġencar re
Ġhip Ã³
pp ing
vent ude
Ġfront eira
ĠfrÃ¡ gil
Ġaram e
Ġhamb Ãºrguer
. ,
i pe
qu ando
Ġv imos
ca vam
Ġla mp
ig an
Ġcas t
Ġlu tando
Ġcomp rimento
Ġva go
Ġinter na
ral mente
Ġguarda va
Ġocas ion
Ġcart Ãµes
ĠrevÃ³lver es
Ġencara r
ĠtÃªmpo ras
Ġpaisa gem
b ua
c le
Ġd anÃ§ando
Ġv Ãªm
ta ne
Ġb igo
Ġdo ces
Ġem per
ĠV em
Ġcor riam
Ġam al
Ġbar reira
Ġtrans par
rig an
ĠIn c
Ġamb iente
Ġating ido
ĠNew s
Ġsup unha
Ġlam pe
Ġcaminha va
ĠDeix a
Ġmencion ar
Ġchor ou
bb ins
ĠBou lder
Ġtrein ador
Ġodia va
Ġobjet ivo
Ġsecun d
B rian
b ios
j ur
t eria
v ista
va lho
Ã¡ cio
ĠA C
ĠD ra
Ġfa is
sa dos
ĠR andy
cia is
ch Ã£o
ĠsÃ³ b
rado ra
Ġro lar
Ġsol itÃ¡ria
Ġlemb rei
Ġespe rado
Ġdorm iu
Ġprof esso
rid ge
Ġfl an
Ġdese java
Por que
Ġestre la
tem po
Ġprateleira s
ĠImag ino
ĠÃ¡s pero
Ġrazo Ã¡vel
Ġcert ificar
E x
N inguÃ©m
O D
p la
Ġ ult
Ġn it
in am
al has
Ġdo ido
Ġg ostei
ir ley
iv Ã©ssemos
Ġsent ava
Ġconf iar
Ġprecis asse
Ġdesaparec era
Ġdese j
Ġdese mb
Com e
Ġdiver sÃ£o
ĠLa ke
Ġprop riet
Ġcompanh eiros
ĠOl d
Ġcompor tamento
Ġope raÃ§Ã£o
ĠColo rado
Ġquartei rÃ£o
ĠSil ver
Geor ge
4 0
B o
O lhei
Ġa lavan
Ġf ral
la ke
ent ara
ĠA la
un ciou
Ġen ru
ul ando
ĠH illy
isa da
Ġpro lon
Ġesp ir
Ġesp iou
ĠW ash
Ġti pos
elha dos
th ur
ĠcaÃŃ sse
Ġsum ir
Ġop osto
Ġexam e
Ġsurpre end
ĠMorris on
Ġcump rir
Ġadul tos
Le va
Ġt ivemos
ĠE rgueu
Ġr us
Ġdes fa
Ġesp iada
mb io
inh ando
ja dos
ĠEs qu
Ġson hando
int er
Ġpres um
tra v
Ġpux ado
ĠCh ester
Ġfol ga
Ġron co
ĠMart in
ĠHei di
a Ã§Ã£o
b an
d iam
Ġe con
Ġb in
ÃŃ qu
ĠM ordred
Ġfo ras
Ġres tante
ĠG ib
Ġpas tor
Ġvol um
Ġra lo
ĠEs p
Ġconsegu indo
Ġman che
undo u
Ġbar ras
ĠJack son
Ġbrilha vam
ĠEsta dual
Ġatravess ando
Ġcre me
Ġsurpre endente
ĠFre eman
ĠBre tt
Ġfirm emente
Ġconfir mou
Ġgin Ã¡sio
1 6
D urante
M ike
e tas
r ist
Ġde ca
ei os
ĠP esso
Ġr ico
po nt
ĠT R
ca beÃ§a
ĠV icky
Ġter Ã§a
ĠF er
ter ior
ess os
Ġtor tura
Ġgran a
Ġba Ãº
Ġolhar es
Ġcarro Ã§a
Ġimpor tar
ĠÃºn icos
Ġim enso
Ġobs c
Ġhorr ÃŃveis
ĠFa zia
Ġprov ocou
Ġamp la
Ġnamo rada
Ġviol Ãªncia
ĠOde tta
d Ã¡veis
e ter
Ġp Ãªn
ar ro
Ġqu inh
co l
ĠS ai
Ġest im
Ġac usa
ĠR ou
ci oso
ĠH en
Ġsent a
ver y
ess ou
Ġcu jas
Ġsur ra
Ġforma to
Ġtrans fer
Ġrel ance
ĠFrank ie
Ġsop rava
Ġgor da
Ġamea Ã§a
Ġut il
Ġcampa inha
I T
k n
Ġe p
Ġc ren
Ġv iria
le nta
la mento
ĠS oc
Ġest ri
Ġre le
Ġin chado
Ġcont udo
Ġpre ndeu
Ġconsegu iram
Ġcal ar
Ġtele p
Ġposs ivelmente
Ġcos tura
ĠLe y
ĠNor th
br indo
ĠKe y
ust ÃŃvel
Ġagrade cer
bur y
A t
c Ãªs
d ge
Ġ ÃŃm
Ġco pos
Ġque ijo
Ġem oc
ĠB on
Ġpe gado
Ġser via
Ġcam pe
Ãº r
Ġob st
Ġcons um
Ġali Ã¡s
Ġcontinu aram
tro pos
Ġpensa tivo
Ġtre meu
ĠMu itos
Ġros as
ĠChe gou
Ġdesper tar
Ġreconhec er
Ġhes itante
Ġdescul pe
Ġcump rim
Ġdeta lhe
Ġcen Ã¡rio
ĠsÃŃ mb
M esmo
N A
z inhas
Ġ Ċ
Ġc and
Ġal erta
ĠP as
Ġex Ã©rcito
Ġh ero
ĠW ay
gra fia
lic as
Ġacor dada
Ġpoder oso
Ġfei tos
ĠChe f
Ġ4 5
Ġinst int
ĠLau rie
Ġacon se
Ġentusias mo
2 2
a ntes
v imento
Ġde vesse
ĠS ap
Ã³ leo
Ġma us
Ġre for
ens ivo
Ġesp inha
ica go
ĠL os
Ġtam bor
na dos
ĠÃº til
gra fo
Ġcol dre
Ġbat ido
ila nte
Ġz ela
ĠDo ol
gh lin
Ġdiss er
Ġadorm ecido
ĠtrÃªm ulo
Ġgargalha das
Ġperig osa
Ġenferru jado
Ġescure cer
Ġtornoz elos
Ġach asse
ĠQua ntos
ĠRol ando
Ġretro visor
l ig
er Ã¡ria
um bra
Ġum idade
la m
va l
Ġb Ã¡s
Ã© dia
Ġl anÃ§ando
Ġest as
ĠM ad
om em
ĠF ilho
ĠEs pe
Ġdu vido
Ġfu riosa
sas s
ĠCh icago
Ġlig ando
Ġsign ific
Ġmol hada
Ġaba jur
Ġmorre ra
Ġfix amente
pal hÃ£o
Ġedi tor
Ġtornoz elo
Ġdrin que
ĠÃª x
b om
g amos
s tein
Ġm ina
do re
es o
or ta
an n
el ic
Ġl ix
Ġna use
ĠN A
ĠP ai
ĠT ig
fa das
Ġvira ram
Ġvia jar
Ġdesl izar
ĠPer ce
Ġlim ites
Ġarras tou
ĠtÃ¡ bua
ĠDu ke
Ġdec lar
Ġdesp eito
Ġmin Ãºs
Ġassustado ra
Ġacer tar
Ġespalha dos
Ġbai le
Ġenver gon
Ġamal diÃ§o
s ta
Ġa Ã§
Ġs ino
Ġqu Ã£o
Ġes voa
Ġda ta
ĠS ente
Ġca dela
ĠN ed
ĠR osa
ĠV en
ur Ã£o
vel os
Ãº p
Ġencont raria
Ġcons ist
cor reu
Ġacha do
Ġacab aram
ĠSa ia
Ġrou bar
Ġhou ver
Ġchegar ia
Ġrel ut
ĠPar te
Ġqueb rando
ĠMer da
Ġrodo p
ĠFal ou
Ġengan ado
Ġperten cia
Ġperf ume
Ġfileira s
Ġmelho rar
ĠPes cador
Ġsilencios amente
Ġentor pec
! ",
H al
S A
Ġco lher
Ġt ente
de ral
co me
Ġca ub
ĠB ell
it iva
Ġcer im
Ġcam isas
Ġfor no
ĠU r
Ġcu riosa
Ġru ÃŃdos
Ġenf im
Ã©s pera
Ġmil itar
Ġamar go
Ġsuj as
ĠRe almente
Ġcober tos
ĠCla ude
Es sa
Ġhouve ra
Ġmurm Ãºrio
ĠHal l
Ġreun iÃµes
Ġof us
ĠbÃª bados
Ġesfre gando
Ġpren der
Ġtig ela
Ġmode lo
Ġajoelh ou
Ġsaud Ã¡vel
! )
ia no
Ġf ero
ha das
ro ns
ic iado
ĠM us
ĠT Ã£o
Ġcon diÃ§Ã£o
Ġcar inho
Ã´ metro
Ġfal sa
ĠcomeÃ§ am
Ġba gu
Ġfun dam
Ġfra que
Ġdesc al
ign ifica
ĠCor t
Ġcomb ustÃŃvel
Ãĩ A
ĠfÃ³sfor os
ĠCre io
Ġcaver na
Pen sei
Ġoce ano
i el
t idÃ£o
ra Ã§Ãµes
Ġcom ido
Ġat ender
Ġin a
Ġar ruma
ber ta
Ġtom ava
Ġsan idade
Ġestran gu
Ġcontinu asse
Ġaparec ia
ĠAr k
NT E
ock s
Ġcole ga
Ġincl ina
Ġmonst ros
ĠOb s
Ġnotici Ã¡rio
Ġrelut Ã¢ncia
g r
Ġe cl
qu Ãª
Ġv ela
ou r
en Ã§as
Ġca tre
us Ãµes
ĠT w
ĠV inte
Ġcer ve
ĠI nter
Ġimp er
Ġmar cado
Ġamar elos
ĠZ ap
ĠMer rill
ĠSegu nda
Ġflu ores
Ġedi fÃŃcio
Ġcoto velos
ĠTor rance
Ġcaut el
Ġbuz ina
ĠKy ra
j Ã£o
z ie
ra gia
Ġc ida
ia das
ĠA M
Ġsa uda
Ġfo der
Ġser ve
pa is
aro id
Ġro xo
ĠCom pre
Ġaf rou
ici oso
Ġ2 4
ĠCla udia
ĠEx Ã©rcito
Ġsurg ir
Ġconside rar
ĠOl Ã¡
ilar es
ĠGu ar
Ġpers ist
Ġpers pec
Ġbomb eiros
Ġante bra
ĠSamu els
Ġc iente
Ġde com
es tos
ia nÃ§a
de au
Ġem pa
ĠA N
ĠM eio
Ġcon cha
Ġat ras
Ġfo gos
Ġle ntes
Ġsem ic
Ġra bis
Ġcha pa
Ġimp re
Ġman gas
Ġso zinhos
Ġob riga
cho que
car re
Ġgos tando
Ġjan eiro
Ġescre vi
Ġagu lha
ĠCor vo
Ġtrase iras
ĠAc ima
tet ter
Ġlanter nas
ĠCur wen
Ġprossegu e
Ġprofun d
Ġdelica damente
Ġexaus to
Ġcoment Ã¡rio
ĠMicha ela
ĠPrincip al
Ġmoment aneamente
ute la
Ġarmad ilha
ocks tetter
j u
t eira
Ġt olo
in at
Ġv es
Ġv im
Ġg re
Ġest endi
Ġal pend
ĠP on
it inho
ens ou
Ġpass asse
Ġtran cado
Ġescu tou
Ġapo iado
Ġfecha ram
Ã³r dia
Se gu
Ġescorre ga
Pe ter
ĠlÃŃ der
ĠPol aroid
Ġdeb ru
Ġevid ente
Ġdocum entos
Ġasp ir
P E
P arec
g rado
n on
Ġp Ã¢nt
Ġo x
Ġt irÃ¡
Ġv ilar
Ġes bu
le tes
ĠF eixe
pa pe
Ġconsegu iam
ud die
Ġperce bia
ĠCar l
Ġpapel Ã£o
ĠEl izabeth
Ġclar e
Ġpi jam
Ġgrava dor
ĠSent i
Ġdup lo
Ġcontemp lou
Ric hie
ĠcadÃ¡ver es
Ġrepent ina
ĠBan nerman
Ġestru tura
Ġcoincid Ãªncia
M c
Ġa da
Ġo ficina
Ġt ÃŃp
Ã¡ l
Ã¡ ticos
Ġl Ãª
Ġca utela
ĠO este
ĠT entei
Ġdes d
Ġpe di
Qu em
Ġmor ro
Ġcha p
ĠI a
las s
Ġestar em
ĠEnt endeu
Ġten so
Ġaf e
Ġbal anÃ§ar
ĠJohn son
ĠCo x
Ġtira va
ĠHar rigan
Ġquad ros
Ġil usÃ£o
ĠBa la
hei la
Ġfug iu
Jo e
Ġpint ado
ĠVol tou
ĠOut ros
Ġdesvi ar
Ġign orou
Ġsupos tamente
Ġperm issÃ£o
Ġperple xo
J ones
d Ãª
Ġv Ã©spera
ĠS ar
ĠD ro
Ġat entamente
ĠF O
Ġmo via
ĠEla ine
ess ar
cu re
Ġficar em
Ġano ite
Ġcos ta
Ġnar inas
ĠSu pon
Ġven cer
Ġregist ros
Ġcambale ando
ĠJan ice
ĠMcG ee
ĠgrÃ¡ vida
A tÃ©
C H
g ri
Ġa Ã©
is on
Ġt ub
re y
el ido
Ġda das
ĠD I
Ġper son
ĠR ubro
ĠU MA
Ġcomp ridas
rando n
Ġro b
der s
ĠEm p
Ġ2 2
ĠBar rens
Ġpoder Ã¡
ĠRe ynolds
tÃ¡ veis
Ġvest ir
Ġprov ar
Ġmurm ura
mal as
Ġmem bro
Ġsop rou
Ġdescul pa
Ġresmun gou
ĠWash ington
Ġalpend re
Ġm elo
Ġre jei
ĠP AR
Ġper do
... âĢĶ
Ġtem er
Ġmo rar
ig ra
des te
Ġob ter
Ġsor vete
Ġsal tos
tra l
ive ra
Ġamar elas
Ġment almente
ĠBen ny
Ġhes itaÃ§Ã£o
Ġinquie to
Ġori gem
Ġcoro a
ĠAcredi to
Ġcansa Ã§o
Ġanc est
Ġaman hecer
Ġalavan ca
c ut
m em
or de
ri Ã§Ã£o
ĠA j
ĠA ndo
ÃŃ ra
Ġas pira
Ġre com
ul l
ul ou
ĠJ as
Ġtem a
ĠG wendy
Ġpa ga
Ġro lo
Ġacab asse
Ġespe ranÃ§as
ĠHo tel
Ġfei Ã§Ãµes
Ġcostuma vam
ĠTra bal
Ġmergu lhou
ĠCu idado
Ġesto jo
Ġemit iu
ĠÃ¡s pera
ĠDun ning
Ġimpa ciente
Ġsorris inho
Ġimbec il
Ġespingar da
Ġcand ida
ĠZap pit
c ross
f un
l d
u ri
Ġp Ãµe
Ġn isto
Ġno tado
Ġg ras
Ġalg emas
Ġam igas
ĠPor ra
Ġcal ou
Ġlev ei
Ġpis car
Ġce ga
ÃŃs se
Ġarran cado
Ġcapa cete
Ġdesp en
Ġestu dos
Ġameric ana
Ġhab itantes
ĠDeix ou
Ġcontemp lando
Ġarqu ivo
Ġult imamente
1 8
o to
Ġp inheiros
Ġma gn
Ġca ip
ĠT ur
Ġen dire
ver eiro
nta c
Ġch umbo
ĠI N
Ġfil has
ĠPe gue
Ġbe co
Ġconhec i
ĠMa c
Ġdist ingu
Ġbor do
Ġsex ual
Ġfix os
Ġfasc inado
Ġrevel ou
Ġdevol veu
Ġdescober ta
Ġalegre mente
ĠWh it
Ġtig re
dicion ado
Ġgris alho
Ġfr ust
d is
l umb
Ġco is
te ran
Ġca deado
nte Ã§a
ob re
Ġh ar
ĠL ily
Ġra ÃŃzes
Ġtor to
Ġentre ol
Ġdisso l
Ġcho cado
Ġag entes
Ġgal eria
ĠPro me
Ġven en
Ġchega vam
Ġsecre ta
ĠAng eles
IL L
ĠAven ida
Ġduvida va
elic Ã³p
b um
j Ã¡
t ÃŃvel
w son
Ġs inos
ar ei
Ġco brindo
Ġv elas
Ġv ital
al ie
Ġl ist
am ar
Ã³ rios
Ġdis cos
Ġdes po
ĠH ospital
Ġi doso
Ã¡s s
ja k
end esse
Ġte ia
ess Ã£o
Ġbo quia
Ġencont ramos
Ġva gar
Ġaf unda
Ġcara mba
Ġacredi tou
ĠMa y
Ġlou camente
Ġpla ntas
ĠAr thur
Ġcap im
ĠRo do
Ġquad ra
Ġpend endo
Ġviv as
Ġabando nada
Ġine v
Ġpersona gem
ocia Ã§Ã£o
ĠgarÃ§ onete
Ġcalcanhar es
Ġprofund idade
s ia
Ġp len
ĠE X
Ġg Ãªn
Ġme di
Ġsa cri
ĠÃ© ramos
Ġpr Ãªmio
ens ar
ĠF ico
Ġcont ribu
Ãº do
and ro
Ġgri pe
ut ter
Ġencont ravam
Ġpis tas
Ġposs am
Ġpl aneta
Ġdem orou
tasse m
Ġench endo
Ġderru bou
Ġfres ca
Ġviz inho
Ġmos ca
Ġdesbo tado
ĠSto ne
Ġsequ est
Ġinvestiga Ã§Ã£o
N os
R o
T had
f at
Ġp Ãª
Ġn essas
Ġt on
gu em
ma nte
Ġla bora
Ġcor tada
Ġmar Ã©
Ġob ras
Ġcl iente
Ġpol ÃŃtica
Ġhorr ores
ĠAr roto
Ġcap Ã´
Ġdist ribu
Ã§ado res
Ġanterior es
Ġresol veu
ĠGran des
Ġserv iu
Ġinex p
ĠsanduÃŃ ches
Ġchamin Ã©
ĠIl se
F ui
f ou
r Ã©
ar y
Ġt Ã©r
ĠC idade
Ġpo ema
ĠJ amais
ĠJ ane
Ġcor tando
Ġch ico
ĠW at
Ġsol to
Ġso len
Ġba ga
ns ide
Ġav ental
Ġdez enas
Ġgal o
ĠMo nt
Ġdest ran
ĠVer dade
Ġmex endo
Ġocor rido
Ġenter ro
Ġaum entou
Ġcoron ha
ĠSand ers
Ġinac redi
B a
I X
t im
Ġde pos
Ġpara l
ĠC ath
Ġdes n
Ġap anhou
Ġesp rem
ĠL iga
Ġsent ei
enta das
Ġexp ul
ĠJack y
Ġali en
ĠAs sass
Ġins tantes
Ġtrabal hado
ios amente
Ġaj u
Ġconver sas
Ġz ero
mes mo
Ġrel va
ĠPar ou
Ġponta da
Ġ3 5
ĠDon ald
Ġencos tado
Ġreco mp
ĠWil lett
Ġamp lo
Ġran g
Ġtelefon ema
ĠÃģ tropos
Ġsacud ir
ĠAndre w
N esse
i ei
x u
os iÃ§Ã£o
in ei
Ġes quele
to d
am e
Ġas segu
ĠP iper
Ġfo da
Ġin des
Ġin vas
Ġh elicÃ³p
ĠDe vo
Ġtr in
Ġro de
Ġmal as
ĠIs land
Ġandar es
Ġfuncion Ã¡rio
ren ch
Ġofer ec
ĠHom er
ĠCam ber
Ġliber dade
Ġtrope Ã§ou
Bar bie
ĠRobin son
ĠhipÃ³ tes
Ġcerve jas
F inalmente
b ara
c inha
Ġa ve
ĠA very
Ġma ci
Ġca tÃ¡
Ġj ust
ĠF rench
Ġser Ã£o
ĠG o
Ġesc ut
Ġdire Ã§Ãµes
ĠMa g
Ġaper ta
Ġarre gal
Ġhum il
ĠY une
Ġgal inha
Ġapa gado
ĠSte bbins
ĠNor man
ĠCO N
Ġqueim ando
Ġesper e
Ġinvest ig
Ġquebra das
Ġsobrev iver
Ġjogado r
ĠSh irley
Ġgigantes co
ĠcÃ´mo do
Ġinstru Ã§Ãµes
Ġpilo to
Ġparda is
ĠDool ing
Ġesbu galha
! âĢĶ
L arry
O h
ra tura
an im
to la
el ia
ri te
ĠA T
Ġg anhando
Ġma cia
Ġele gante
ĠO x
Ġcor rig
Ġsob e
Ġfic amos
ita dos
Ġtra palhÃ£o
ĠMas sa
Ġpesso almente
Ġro chas
Ġnas cer
Ġinter pre
Ġacredi te
lic idade
Ġbaix as
Ġbaix ar
Ġpoder osa
ĠCon hec
ĠrÃ¡p idos
Ġespec iais
Ġdesc ida
ĠNor cross
ĠdifÃŃ ceis
Ġviv endo
ĠBea ch
Ġ7 0
ĠStan ley
Ġexib indo
Ġgent ile
ĠdÃ© cada
Ġrepent ino
ĠDal ton
Richard s
Ġfazende iro
Ġexpecta tiva
g ÃŃn
i ri
Ġdo endo
ĠS cho
Ġmas t
Ġdes as
Ġdes fi
Ġac ende
ĠR ita
ĠF ort
Ġar ru
aix Ã£o
Ġra inha
cor re
Ġbal Ã£o
Ġcho ram
ĠHo gan
ll man
Ġri ram
raria mente
Ġtur no
Ġsop ro
Ġvisita nte
Ġbru xa
ĠPu ta
ÃŃst ico
ĠÃºm ida
Ġpub lica
mu ito
Ġpad rÃ£o
ĠcÃ´mo da
ĠmetÃ¡ lico
Ġpalp ite
Ġserp ente
ĠWes ley
Ġtat ua
Ġprofesso ra
P A
c ei
n ado
ar born
Ġf ura
Ã© us
ĠA per
oc as
te ia
ĠN este
ĠO k
ĠM ost
Ġen vel
di fic
Ġac eno
Ġcont ava
Ġcont ÃŃn
lo to
pa va
Ġvo vÃ³
ĠEd ward
Ġcab os
Ġru gido
Ġsan gre
Ġeste jam
Ġtransfor ma
ĠMu itas
Ġprocura va
Ġpendura dos
Ġacer ca
Ġapre cia
Ġdispara r
Ġmud anÃ§as
Ġsug eria
Ġenvi ar
Ġcompara Ã§Ã£o
Ġenso la
Ġcusp iu
ĠBud dy
Ġhabitu al
Ġcaub Ã³i
Ġfero z
C a
P O
g Ãªncia
Ġc era
Ġest es
Ġle tre
Ġmo ntes
ĠCom ecei
Ġba ir
Ġant igamente
Ġsuj os
Ġli qu
Ġdesen ro
Ġsop rando
Ġconcent raÃ§Ã£o
Ġcaus ar
Ġinfor mou
Ġrepu x
Ġnamo rado
ĠvÃŃt imas
ĠPrincip almente
Ġpaci entes
Ġrefrige rante
Ġdeclar ou
Ġox ig
. '
M orris
P re
Ġp lena
Ġo l
Ġo vo
in dro
Ġque ix
Ġse io
al o
ĠS omos
Ġre ca
ĠD ur
Ġme te
Ġdi Ã¡rio
Ġsa em
Ġi ntes
Ġra jada
Ġtra tamento
Ġimp lo
ĠEs tar
Ġins pe
Ġacha vam
Ġguar dado
Ġmant Ãª
ĠdÃ³ i
Ġaco nteÃ§a
Ġlimp ando
ĠÃ¢ ns
Fran k
Ġciv il
ĠhÃ³spe des
Ġchan ces
I O
d eria
ha va
ri z
Ã³ tico
ĠB randon
Ġent endido
Ġis queiro
tos a
Ġcer cado
ĠI nt
Ġman ob
Ġfec h
Ġim ens
Ġtelef Ã´nica
Ġ2 3
Ġfer imento
ĠSr ta
ĠprÃ³x imas
Ġfe vereiro
iza das
Ġu ivo
Ġassass in
pec ial
Ġens inar
Ġcruz ar
Ġvel udo
Ġrisa das
ĠWal ker
ĠmaÃ§ Ã£
Ġespal hou
ÃŃss ima
Ġimpression ante
Ġalun o
Ġconso lo
Ġinstrum entos
Char lie
Ġlap top
Ġintes t
A b
p at
Ġco p
en se
Ġb osta
Ġpara f
us p
ĠC ho
ĠT her
Ġmor resse
Ġdia nt
Ġresp irou
Ġman eiras
Ġentre ga
Ġmar cada
Ġleva vam
Ġlev asse
ĠMar k
Ġconf ro
ĠÃ³ r
gre me
Ġpul sos
Ġlar gos
Ġind is
Ġpun ha
Ġu iva
Ġcost elas
Ġescon dida
Ġpress ent
ĠKe ene
Ġassist ente
Ġquais quer
Ġenc am
Ġenro lado
Pe te
Ġengol ir
ĠÃŃn greme
brou gh
Ġlad rÃ£o
ĠtÃªmpo ra
Ġcala f
ĠtÃ©r reo
b ei
j oso
m i
v indo
Ġc ens
Ġc Ã³p
Ġf le
ĠA i
ĠA st
Ġpr ÃŃncipe
Ġver tig
Ġi ntac
Ġparec era
ĠDe es
Ġus ara
Ġfun eral
Ġenf iando
Ġtoc ado
Ġmon it
Ġfe dore
Ġcul pado
ques is
ĠVer mont
ĠZ ona
ĠHom ens
Ġterm inal
Ġdesespe rado
Ġresist ir
Ġdesist ir
Ġapla usos
ĠvÃŃ deo
Ġimprov Ã¡vel
Gar raty
ĠAz ul
Jones y
t n
t eiros
Ġm am
ent aram
ei ga
Ġg ener
Ġcon ex
ma il
di as
Ġac ion
ur ras
Ġvol tas
Ġdeix am
je ta
Ġprecisa vam
Ġprecis ando
Ġarre dores
De us
Ġnor mais
ifica da
Ġnar ra
ĠPro nto
Ġsof re
Ġsof rendo
Ġreg ras
let te
Ġado rava
Ġfug indo
Ġart ista
Ġsinist ra
Ġmis eric
Ġprision eiro
ĠRon nie
Ġcil indro
Ġescan cara
Ġsugest Ã£o
Ġshor t
ĠBala zar
T em
c asse
d il
k in
p so
t Ã³ria
y l
Ġp le
Ġp ingando
Ġc rer
Ġm entes
la dor
Ġb obo
Ġre ino
Ġdis tor
Ġtem ia
Ġla deira
Ġser ra
Ġass oc
Ġesc orrer
Ġhom en
Ġju ventude
ĠhÃ¡ lito
Ġmer ece
Ġim ensa
Ġav anÃ§ando
Ġsenhor es
Ġdez embro
Ġrela tÃ³rio
Ġraz Ãµes
ĠBow ie
Ġregist ro
Ġadm iraÃ§Ã£o
Ġjogado res
Ġater ris
Ġhe in
Ġtap inha
Ġinse to
ĠSan gue
ĠAmeric an
Ġtriun fo
Ġabrup tamente
Ġdecom posiÃ§Ã£o
Ġgentile za
a velmente
i Ãªncias
t en
Ġde teve
Ġt ÃŃm
co ol
ĠM Ã¡
ĠH em
Ġpro pa
ce d
iz ava
ĠDe arborn
Ãº va
Ġman gueira
ud y
Ġfre io
Ġti que
Ġvis lumb
ĠJo y
Ġcorre ntes
Ġun ha
Ġmedo n
Ġag itaÃ§Ã£o
Ġconf un
alha do
Ġbeb idas
Ġpul ando
Ġrec ei
Ġfar iam
ĠPro f
Ġli be
Al Ã©m
ĠCha mb
Ġmaravil hos
ĠtÃªn ue
Ġjul gamento
Ġsupor te
Ġdesespe radamente
ĠfÃŃs ico
ĠSp r
Ġsupon ho
ĠDin ky
Ġinterrup tor
ĠRoth stein
Ġperspec tiva
Ġvilar ejo
igra fia
R us
k m
z ias
Ġf eira
Ġb ibliote
ĠE NT
ĠM ou
Ġpo te
ria mente
ĠL ei
Ġres ga
Ġpa ta
Ġcar vÃ£o
Ãº car
pe la
ch eira
Ġmor ib
Ġra Ã§a
Ġtempo rariamente
ĠW illy
ĠK a
Ġsal vou
Ġrou co
ĠTom e
Ġassus tou
Ġsatis feita
Ġval er
ĠestÃº pida
Ġadm ira
Ġintelig Ãªncia
Ġnotur no
Ġfras co
Ġfel icidade
Ġcompart imento
Ġestabe le
Ġzela dor
Ġlabora tÃ³rio
C am
T im
b em
c ra
p aram
Ġp enas
Ġde li
Ġco io
in aram
Ġf ision
Ġv elo
Ġdo ent
ri ve
ĠS heila
Ġas se
un ciar
ĠR an
ĠF eliz
Ġcol chÃ£o
Ġbal bu
Ġpis ou
Ġobs tante
Ġtelef ones
ĠBar t
Ġsof reu
Ġconside rava
Ġobri gada
Ġdig amos
Ġident idade
Ġrevel ar
Ġesquis ita
ĠCent ro
Ġpan cada
Ġcalc inha
Ġguin cho
Ġaus Ãªncia
Ġenga t
ĠClar k
" ?
P a
p an
Ġe pis
Ġc elas
er Ã¡vel
or mal
la Ã§Ãµes
Ġl isa
ÃŃ ticos
Ġr ic
Ġfa bul
Ġin icia
it Ã¡vel
Ġcont ador
Ġtr ic
Ġam assado
Ġdeix avam
Ġcl ientes
Ġcu idando
Ġfun Ã§Ã£o
Ġ2 1
vid ar
ĠcaÃŃ dos
Ġbeb ia
ĠFa lei
Ġfuncion Ã¡rios
ĠChe ga
Ġmand ÃŃb
ĠTim es
Ġpia das
ĠBur ny
ĠTre nt
Ġbate ram
Ġassum ir
Don ald
ĠCou ghlin
Ġanoite cer
F red
i Ã¡
p ol
r inhas
Ġca v
Ġfa x
Ġat ribu
Ġpe gue
Ġpr Ã¡tica
it ivos
Ġmo da
Ġass untos
Ġvol unt
Ġlu xo
Ġpens aria
Ġmor der
Ġtra Ã§os
Ġcomp ar
Ġvis Ãµes
Ġtran ca
Ġcan eca
ĠSu per
Ġlen das
Ġgol fo
Ġdesper tou
Ġameric anos
Ġsecre to
Ġsho pping
Ġ195 8
Ġades ivo
ĠnÃŃt ida
B ra
E mb
e en
i Ã¡rio
l ina
Ġa verm
Ġco bre
in ville
Ġse cos
de za
Ġda dos
ĠA mar
ol Ã³gico
Ġdis pon
ĠT ru
Ġres sa
Ã¡s semos
Ġpens ara
end em
Ġresp ei
Ġesta lar
Ġus ada
Ġgu ia
ici ou
Ġaper tados
Ġrece bi
Ġrela tivamente
Ġdese jar
Ġprov ocar
Ġdem Ã´nios
Ġmand ando
Ġqueima da
Ġlin gua
Ġrecus ou
Ġcastan ho
Nenh uma
Ġetern idade
Ġbest eira
ĠLewis ton
ĠEver ett
x os
Ġc Ã´m
Ġf on
Ġcom ia
Ġcom itÃª
Ã§ ara
el le
Ġpara m
ĠA ke
ĠA par
Ġg anh
Ġre cado
ĠC le
ĠC lu
Ġcon d
Ġat ur
ĠJ ose
Ġan gu
Ġpa nt
ĠDe pape
ĠQu ar
Ġmor dida
Ġpass aria
Ġjo gava
Ġentre vista
iso la
Ġcorre to
Ġsub iram
Ġins u
ick s
Ġbas icamente
Ġergu ida
ĠHo ff
Ġdesa f
ĠCla ire
ĠBa teu
Ġliga va
Ġinterro m
Ġprate ado
Ġmachu cado
ĠBow ers
Ġaum entar
Ġmi olos
Ġmencion ou
ĠLeva ntou
ĠÃ¡l bum
ĠÃ¡l cool
Ġher Ã³i
ÃŃl ulas
Ġpron uncia
Ġconser tar
Ġintu iÃ§Ã£o
Ġpropriet Ã¡rio
Ġpijam a
A T
c eria
h t
o ito
r t
Ġm ul
is cons
la t
ĠC erta
ĠM en
Ġj ura
di oso
Ġap anhar
Ġent rasse
ens Ãµes
Ġpro ba
Ġtem or
Ġha vÃŃamos
Ġpre feito
Ġmo ntar
Ġvi b
pos tas
fa nte
Ġinf lu
Ġsof rido
Ġenvol vido
ĠDen ver
ĠDen brough
Ġmun iÃ§Ã£o
Ġarrep io
Ġplane jando
Ġimpression ado
Ġsemelha ntes
Ġacal mar
iff any
Ġcren Ã§a
ĠaÃ§ Ãºcar
ĠgÃªn ero
A c
b ulo
Ġe nte
Ġc ÃŃ
Ã© rios
Ġl us
Ã³ lica
Ġal f
ĠM Ã©
ĠL as
ĠG osto
Ġpergu ntado
per ou
Ġinter no
Ġta gar
Ġposs ibil
Ġenf ei
ĠdÃº zias
ĠCar la
ĠLe o
Ġlar gar
ĠParec iam
ĠY an
ell s
Ã³r ica
Ġcheg am
ĠNor rie
Ġmaldi Ã§Ã£o
Ġart igos
Ġcob ras
Ġform ul
Ġ8 0
Ġpec ado
ws ky
Ġava l
Ġden sa
Ġdezesse is
Ġfen Ã´m
ĠChev ro
Ġecl ipse
ĠpÃ¢nt ano
? ]
A TI
F icou
S te
c ur
k s
p ito
Ġ rig
Ġp ÃŃ
Ġse d
ro la
Ġg ai
Ġma tem
ĠD uma
Ġpe gava
ul sÃ£o
Ġap lica
Ġh id
Ġesp ar
les s
Ġres sent
per gu
Ġesta mp
Ġso ar
cion ais
Ġba fo
Ġsal tando
Ġmil ha
Ã¡st icos
Ġadia ntou
Ġdou rada
ĠBea v
Ġdiminu indo
Ġigu ais
Ġconv ic
Ġsubstitu ÃŃdo
Ġarro mb
Ġesfre gou
Ġtare fas
Ġtesou ra
Ġparalis ado
Ġinoc ente
Ġquinh entos
D ei
H ar
g Ãµes
i bo
j or
do n
is omem
Ġt eias
es on
Ġl om
am es
Ġr ud
lh eiros
Ġfa das
ĠB ry
Ġin cont
ros o
Ġcor u
ĠlÃ¡ p
Ġch urras
Ġtom ara
Ġru gas
Ġmer ecia
Ġbas quete
Ġnu cle
Ġafas tado
Ġagu ar
ans com
Ġcinz eiro
Ġating ir
Ġart rite
Ġterm inava
ĠcÃ¢me ras
Ġdura r
Ġbara ta
Ġacaba va
Ġenferru jada
Do is
Ġintermin Ã¡vel
Ġmanif esta
humo rado
Ġcamara da
set ts
Ġincid ente
Ġcovar de
Ġmanuscri to
Ġepis Ã³
A lice
B ig
D esta
T enho
g en
g eiro
v Ã¡
Ġp Ã³s
Ġf os
Ġf ixo
Ġda ma
ĠA no
Ġma taria
Ġdis cre
Ġesp iar
ce y
ce dor
Ġres f
Ġmo Ã§o
Ġmo Ã§as
Ġmo tel
Ġsent iria
Ġcam isola
Ġpra tas
Ġentre a
Ġrep orta
con dicionado
Ġpu to
fa lantes
Ġsimp Ã¡tico
Ġtri pas
Ġder ro
Ġbor ri
Ġlimp eza
Es ta
Ġdeveria m
Ġprome teu
ĠX X
ĠdÃ© bil
Ġfale cido
Ġtij olo
Ġcoz inheiro
ĠrelÃ¢mpa go
ĠGas her
Ġguitar ra
ĠPesso as
ĠÃ¢ns ia
A quele
T am
i Ã§o
Ġa ze
Ġde tec
Ġv inda
ĠA gar
Ġca po
ĠP Ã´s
Ġpre nde
Ġmor reria
Ġju ro
Ġforma vam
Ġbas tava
Ġpassa das
Ġvia gens
Ġvest idos
Ġcap ric
Ġtre vas
Ġfran go
Ġinfer nal
ĠCont inua
Ġacei tou
Ġenca ntado
Ġgros sos
Ġconv uls
vie w
Ġvaga b
ĠCent er
Ġcoch ilo
Ġdesconhec ida
Ġrepres enta
Ġabsur da
ĠMy ra
Ġlite ratura
ĠDire tor
ĠanÃºn cio
Ġletre iro
M E
j ara
Ġf erv
ta is
Ġse Ã§Ã£o
Ġes m
ĠS cou
us as
Ġesp as
Ġpa gamento
Ġcar valho
Ġcas ar
ĠU llman
Ġam ost
end imento
undo n
Ġcan os
Ġag Ãªncia
Ġfi tava
Ġconf i
Ġcach orr
Ġcava lheiro
Ġescon dendo
QU I
chu setts
ĠirmÃ£ s
Ġindi g
cel ana
Ġmec Ã¢nico
Ġrosn ado
ĠSteph anie
ĠAmb erson
ĠMicha el
ĠUnder hill
icker ing
Ġcris e
Ġino f
Ġplan ÃŃ
Ġinscri Ã§Ã£o
) :
L obo
Ġa Ã§Ãµes
Ġde vemos
Ġo pa
Ġf rios
Ġf itas
ent Ã¡
co isa
ĠS ch
il la
ĠP ensa
Ġpr ost
it ivamente
ens ÃŃvel
Qu anto
ix on
ndo wsky
pa c
Ġmen Ã§Ã£o
vo ada
Ġtra tar
id Ã¡vel
Ġir romp
ĠW in
Ġva ntagem
Ġsan gu
Ġsi rene
Ġconhec eu
Ġimag ina
Ġdesaparec eram
Ġdesa bou
Ġfala m
Ġber Ã§o
Ġinterro ga
Ġcole Ã§Ã£o
Ġenca nt
ĠFal ls
Ġroman ces
Ġvent ila
Ġdobra di
Ġcola pso
Ġcere bral
ĠEST Ãģ
Ġcaut elos
Ġdesajei tada
ĠBus ter
Ġperplex idade
Ġalien ÃŃg
ĠJose ph
A quela
j us
Ġp ÃŃlulas
Ġes bar
Ġcom emo
to wn
Ġl anÃ§ar
ĠA baixo
on do
ĠN osso
Ġat ento
Ġap osta
Ġcas inha
Ġfal tava
Ġvis lum
ĠBill ings
lu vas
Ġbas tÃ£o
Ġad icion
Ġcur tas
ĠMa in
Ġ2 9
Ġrec entemente
Ġfin os
Ġfam into
ĠMu lher
ĠMor te
ĠNor te
Ġpret endo
ĠAm anhÃ£
Ġexam inando
ĠGra ce
Ġilum inou
ĠMat t
Ġdel ÃŃ
Ġalim entar
dicion al
ko v
ĠRos alie
Ġamonto ado
ĠScou t
! !
" '
? ".
a inda
c em
s Ã³
v Ãµes
Ġa er
as so
Ġt it
Ġb and
ĠE rin
ic ida
ĠA B
oc hete
Ġre nda
ĠC os
ĠC at
Ġal ianÃ§a
Ġmu do
Ġap et
via l
ĠH ockstetter
ens iva
Ġan Ã©is
me da
end Ãª
ĠW iscons
ĠÃ¡ cido
Ġbar ril
Ġbol iche
ĠTo wer
Ġrev ira
ema to
Ġinv Ã©s
Ġliga Ã§Ãµes
QU E
Ġdec l
Ġpendura das
Ġconside rado
Ġdesp ro
Ġident ificaÃ§Ã£o
Ġrodo vi
ĠPu xa
Ġnotur nos
Ġger ente
Ġarris car
ĠEast lake
Ġinda gou
ĠShar p
Ġforas teiro
5 0
T he
b es
e k
j amos
l arec
v on
Ġe feitos
Ġp inheiro
Ġo de
or o
Ã© ns
Ġg Ãªnio
ĠS ER
ĠN Ã³
ĠT ique
ĠT EM
Ġh ipo
Ġesp orte
Ġesc larec
Ġpes quis
no w
Ġtent ara
Ġpen umbra
ib re
Ġinc Ã´mo
Ġru idos
Ġenf iada
che fe
Ġcarre gada
Ġapos entos
Ġreun ir
ĠDu vido
Ġfrequ entemente
Ġgros sas
Ġpia no
ĠVol te
Ġimpress Ãµes
Mar y
Ġaluc inaÃ§Ã£o
ĠKo jak
ĠArk ham
Ġada p
Ġoxig Ãªnio
O O
P elo
f ico
v est
Ġc Ã³s
Ġc enho
qu ase
Ġn eu
Ġn esses
Ġco lh
Ġes tante
ĠA os
ĠS her
ĠM OR
Ġfo co
ci osa
it ÃŃssimo
Ġimp ostos
Ġquer emos
Ġcal igrafia
Ġleva ntado
Ġcorre ram
Ġten da
Ġba le
ĠPo der
ĠcÃ© us
Ġhaver Ã¡
Ġaum entando
ĠStre eter
Ġleit ores
Ġinvis ÃŃveis
ĠHan k
Ġinclu indo
Ġpot encial
Ġlite ralmente
ĠMassa chusetts
I R
b ry
i k
qu in
Ġt estes
le ntos
ent on
de cker
ri tos
Ġma cio
Ġsu ti
ĠN uma
ĠP ER
ĠM os
ĠM Ã©dio
Ġdi vis
ci es
Ġsegu ros
ver de
Ġimp ac
ĠAl l
Ġoutro ra
Ġro dando
Ġvi rilha
Ġnas ceu
Ġcham aria
ĠPo dem
Ġcan ive
Ġsal iva
ÃŃn ica
fa to
Ġag itando
ĠMar ina
ass ar
Ġtri p
Ġacor dei
ĠPer kins
Ġpal Ã¡cio
Ġata car
Ġilum inaÃ§Ã£o
Ġapres entar
Ġcurios os
Ġbru tal
Ġmec an
Ġconge lado
Ġrazo avelmente
ĠLen g
Ġviole ntamente
Ġatordo ado
Ġluminos idade
ĠRom mie
Ġassassin atos
ĠChevro let
B om
N O
l ight
Ġca te
ĠO ndowsky
ria ult
Ġsegu rÃ¡
Ãº cia
Ġpergu nto
Ġconsegu imos
Ġpos tes
Ġcl Ã¡ss
Ġpres tar
ĠCo nte
Ġim Ã³veis
Ġ2 7
Ġrece pcion
Ġvid ros
Ġev entos
Ġbic hos
Ġacomp anhou
ÃŃb ulo
Ġpeg aram
Ġresul tados
Ġsolu Ã§os
Ġrepent inamente
ĠTh ur
Ġhon ra
Ġacele rador
Ġpartici pa
ĠnÃ¡ de
ĠHou ston
ĠNan cy
Ġcoca ÃŃna
ĠMcCar thy
Ġdeli be
R ob
n ar
Ã ķ
Ġo posta
Ġf est
Ġpor celana
Ġma tei
ÃŃ gio
Ġre no
om o
Ġdes ce
ĠU ns
Ġacontec imentos
Ġinc essa
ici ente
Ġbas tar
ĠMar inville
Ġescri tas
Ġescri tores
Ġesco lar
Ġrou bou
ĠcaÃŃ am
Ġcomple tar
Ġaparec endo
Ġbor bo
Ġdiver sÃµes
ĠSam my
ĠCol ocou
Ġdispara da
Ġretorn ar
Ġpergunt ara
ĠHou se
ĠContinu e
Ġedu caÃ§Ã£o
Ġconsider Ã¡vel
Ġestud ar
Ġtil int
D eix
P ou
n das
t ton
la ta
ic lo
Ġest ende
Ġre aparec
Ġen for
Ġper ver
Ġfo dido
Ġcont ara
Ġh emato
Ġpass amos
Ġpos terior
Ġva cas
Ġus am
Ġcons erv
Ġhist Ã©r
ĠJohn nie
ĠLe vou
Ġve ran
Ġfavor ito
Ġmant eiga
Ġaparec eram
Ġcap uz
Ġchu v
ces a
Ġcompre endia
Ġtransform ara
Ġcomprim ido
Ġconte Ãºdo
Ġconfor tÃ¡vel
Ġdescre ver
Ġchar u
Ġmenin inha
Ġcheira va
Ġincom um
Ġenvel hec
ĠJoy land
Ãķ ES
! ".
g ir
p per
t inhos
t rans
u dos
z ier
Ġp ran
es p
Ġb ene
to do
Ġpe de
Ġla mento
ce b
Ġab Ã³
Ġch eiros
Ġpra zo
za k
Ġvi ve
Ġba con
Ġsub ida
ĠNo ra
Ġficar iam
Ġju ÃŃ
Ġseria mente
Ġsal as
Ġposs ÃŃveis
Ġrou pÃ£o
Ġaparec ido
Ġfir ma
Ġprop riamente
Ġavi Ãµes
Ġvisita ntes
Ġjus tamente
Ġfras es
Ġquartei rÃµes
Ġreflex os
Ġinterva lo
Ġfundam ental
Ġbair ro
f icial
g ran
y ll
da Ã§Ãµes
Ã¡ gio
Ġsu ando
ĠP ickering
Ġme tido
ĠT rans
Ġen ros
ĠR ip
Ġcor dÃ£o
orr Ã£o
for th
ĠEst re
Ġmal tra
Ġcab el
Ġtorn aria
Ġapo nta
Ġaz ar
Ġve teran
tÃ© is
Ġfar Ã¡
Ġsof rer
Ġajud ando
ĠVer de
Ġcruz ando
Ġgros se
Ġpeg ara
Ġhab ilidade
iqu ia
Ġdom Ã©st
Ġarrum ar
ĠAu gu
Lo is
Ġpromo tor
Ġoc orr
cÃ³p io
Ġtranspar ente
ĠsÃ³b rio
I TO
d ra
s ua
z i
Ġp ur
Ġn inho
Ġn Âº
Ġo le
es ia
Ġv Ã´
Ġb las
Ġpara le
gu los
ĠA lec
Ġma x
Ġca ntava
Ġcon ster
Ġfa tal
Ġin cons
Ġter mo
Ġap anhado
ĠH uddie
ĠH anscom
ĠDe b
ĠDe v
Ġcam undon
ĠW ei
ada mente
Ġesta lou
ke e
ĠÃ¡ reas
Ġcara lho
ib i
du zia
Ġtorn eira
Ġag ress
Ġamar rado
Ġlar gura
Ġquad rinhos
Ġmotor es
ĠCas o
Ġext rava
let cher
Ġliga da
ĠPeter s
Ġexam es
Ġcomun idade
ĠBur ke
Ġatira do
Ġexec ut
ĠMun dial
Mu ito
ĠTher riault
Rus ty
Ġressa ca
Ġlingua gem
N unca
f und
Ġc ed
Ã§ Ã¡
Ã© ticos
ri p
ĠS ide
il ou
Ġre n
Ġre vi
ĠP et
ĠT iffany
Ġdes ceram
Ġpro ntos
Ġpes adas
Ġmor deu
ber g
Ġquar tel
Ġgra tidÃ£o
Ġban deira
min as
Ġim itaÃ§Ã£o
Ġnu b
ĠChar ity
Ġdese jando
Ġel Ã¡stico
Ġdepres sÃ£o
Ġperman ecer
Ġderru bar
Ġapre nde
Ġdestru ir
Ġuni for
Ġcruza dos
Ġrefei Ã§Ãµes
bine te
Ġtesou ro
Ġcoment Ã¡rios
Ġtron cos
ĠWar wick
ĠavanÃ§a va
Ġretribu iu
ĠExce to
ĠCase y
Ġrecepcion ista
b s
n ec
t ÃŃ
Ġde licado
qu inhos
se te
gu el
ri ar
ĠA quelas
Ġas c
Ġre bo
ĠD ig
Ġdi pl
ci oc
ĠL uz
ĠestÃ¡ tua
Ġpa po
ĠSe lena
Ġer vas
tu de
Ġce deu
Ġchegar em
Ã¢m ica
gg ins
Ġalc anÃ§ou
Ġarqu ivos
Ġgigantes ca
Ġfing indo
ĠCara mba
Ġexpress Ãµes
ĠrepÃ³rter es
Ġpersona gens
Ġtabu leta
Ġpreen ch
At rÃ¡s
Ġesbugalha dos
gÃŃn qu
Ġfision omia
A quilo
O nde
s al
u ber
Ġt ons
Ġv assou
Ġg r
ĠS um
ĠP el
Ġdes ar
Ġtem pe
Ġres tavam
Ġpa go
na nte
ĠK in
Ġcaix o
fÃŃ cios
oo dy
han y
Ġmensa gens
Ġenferm aria
Ġreflet ir
Ġesto que
Ġapavo rante
Ġigno rando
Ġcicatri zes
Ġgrunh ido
Ġindica va
Ġtestemun has
ĠEr nie
Ġsincer o
Ġalter nat
Ġvibra Ã§Ã£o
ĠAnd rea
Ġbigo de
ĠTique taque
* *
C or
C ur
S erÃ¡
qu ente
Ġco a
Ġf aro
Ġse le
ĠA ir
Ġma con
Ġre gra
ĠC ava
Ġcon ec
Ġcon stitu
Ġat endente
Ġat ualmente
Ġolh Ã¡
Ġolh asse
it tle
Ġesp an
ica da
Ġpre j
Ġpa gou
Ġcer vo
ina vam
Ġimp lac
Ġir land
Ġjo guei
Ġlon gÃŃnqu
ĠNa cional
Ġfala ra
Ġras gou
Ġri tual
Ġescorre u
Ġresol vido
Ġirri tante
Ġdispara do
Ġdevol ver
Ġaga chado
Ġdistra ÃŃdo
Ġresid Ãªncia
Ġdocum ento
Ġavent ura
Ġess encial
Ġintri gado
Ġple no
ATI E
Ġcanive te
a z
y a
Ġm Ã³veis
er ts
Ġv eias
Ġl obos
Ġsu ÃŃ
Ġpo bres
Ġres um
Ġvo aram
ĠI greja
Ġesta lando
Ġrep ulsa
Ġtom ei
ĠEnt endo
anh Ã¡
lu la
ĠCo ra
Ġtira da
Ġdorm ido
Ġobs cura
Ġpux Ã£o
Ġpla teia
ĠGeor gie
Ġesquec era
Ġdese ja
Ġdese jou
Ġga binete
ĠEl d
Ġrepet idamente
Na quele
ĠLem brou
Ġjor nada
Ġdob rado
ĠEv ans
Ġimpa ciÃªncia
Ġaterror izado
Ġinsp irou
Ġdra gÃ£o
Ġvidra Ã§a
Ġhero ÃŃna
ĠAst rid
Ġpossibil idades
Tam bÃ©m
Ġblas f
R OS
a gora
d s
Ġp ut
Ġf inais
Ġv ing
Ġse ver
ÃŃ ris
Ġca cete
Ġdes cas
Ġen gre
Ġat Ã´n
Ġpar es
ĠV elha
Ġpre vis
Ġsob rou
iz os
Ġcas ado
Ġfor Ã§ar
Ġra cioc
ing os
gue te
ici ar
Ġvira va
Ġag itado
Ġapo iada
Ġergu ido
Ġamar ga
Ġfin s
ĠParec eu
ĠY ou
Es se
Ġescorre gar
ĠRob erts
Ġretor no
Ġvig ia
Ġpermit iu
Ġcres ceu
Ġtraz endo
Ġproduz ir
ĠWilliam s
Ġredo ndo
Ġdispos iÃ§Ã£o
Ġimagin ei
Ġinex press
ĠTy ler
Ġcantar ol
ĠTar taruga
Ġard ente
Ġtum or
Ġacostum ado
ĠVa le
Ġarmaz Ã©m
Ġembr ul
Come Ã§ou
Ġvelo z
x ico
Ġd inam
ar on
ia nas
ha via
to na
Ġl iÃ§Ã£o
ĠC ross
Ġme ados
Ġen ig
Ġfa cho
Ġper didos
ĠR icky
ĠH ist
ĠF BI
Ġi le
ur Ã¡
Ġch ec
Ġpes ados
Ġcomp ro
ĠEs pera
Ġmar rons
Ġins pira
Ġtrabal hos
Ġta pe
Ġapo ntar
Ġbon ecas
Ġfin as
Ġespec tral
Ġsuper st
Ġment iras
ĠNor m
Ġconside ra
Ġirri taÃ§Ã£o
Ġalu guel
Ġinst into
Ġcontor no
Ġmi jar
Ġtelefon ar
EI RO
Ġaspec tos
Ġtestem unha
Ġespre ita
Ġdezesse te
Ġintegra l
Ġpesqu isa
Ġpropa gan
N em
b by
g rada
Ġd urou
Ġd uras
re iro
gu eiro
ĠC Ã¢mara
Ġal on
ĠP O
ado ra
Ã§a vam
di ente
ĠF un
Ġmes tre
ima Ã§Ã£o
ig g
Ġcam inhos
Ġfor em
Ġra ro
Ġcomp lica
Ġcomp ridos
ĠSe a
Ġman cando
Ġman chado
ĠEst endeu
ĠNo ite
Ġbat i
Ġim pot
ĠpÃ´ quer
Ġfer idas
Ġprecis ei
Ġfala vam
Ġfar mÃ¡
Ġassus tados
Por Ã©m
ĠIn dia
Ġconcor dar
Ġli gue
Ġlim itou
Ġestiver em
Ġgor du
Ġabandon ar
Ġprofun das
Ġassomb rado
Ġsolu Ã§Ã£o
ĠBet sy
ÃŃl ias
Ġautom Ã³vel
ĠLand ing
Ġfluores centes
Ġrob Ã´
tn Ã£
ĠAugu sta
b it
u o
Ġt elhados
Ġg ram
ĠS enho
Ġca cos
ĠO K
Ġdes va
Ġpe ram
Ġan unciou
ix i
Ġch iado
ter n
Ġespe rasse
Ġconc eito
iza de
Ġcompre ende
Al guma
ĠLem bre
ece dor
Ġdestru ÃŃdo
ĠpÃºb lica
Ġleit or
Ġencara ndo
Ġ196 0
ĠQua ntas
ĠÃŃnt imo
Ġtransm issÃ£o
Ġcirur gia
Ġmanche te
ĠCath y
Ġric ochete
s s
u f
en das
Ã³ rm
Ġest eira
Ġma chado
ĠC AR
Ġdes er
Ġj urar
Ġter ri
Ġex al
Ġar dendo
Ġcor ri
Ġsegu iam
ĠmÃ£ es
id an
Ġne bul
Ġpos tos
Ġtor cer
ne ticamente
Ġapro p
Ġfl Ã¡
Ġrec usa
Ġchu te
duz ir
duz iu
ron ia
Ġexib ia
Ġps iquia
Ġindic ando
Ġautor idade
anc ei
Ġredo nda
Ġtate ou
Ġcostum am
Ġintro me
lm utter
Ġperc orrer
Ġabat ido
ÃŃdu o
Ġgras n
Ġbibliote c
Ġimpac to
: âĢĶ
S ent
g ol
Ġp enh
er Ã¡rio
ia nte
ĠS aiu
Ġen lu
ci entemente
ĠH at
ĠF im
ĠG an
ch ei
ĠAl f
Ġtor ceu
Ã¢n gulo
Ġva gas
fa dos
ĠEstÃ¡ vamos
ĠcaÃŃ das
ĠGeor gia
Ġescre via
Ġrev est
Ġasso alho
Ġmaldi tos
Al guÃ©m
Ġench ia
Ġcresc ido
Ġpreocupa Ã§Ãµes
cl aro
ENT O
Ġinquie taÃ§Ã£o
Ġfamiliar es
Ġdeb oc
Ap Ã³s
Ġprision eiros
Ġdesconfia va
ĠVie tnÃ£
Ġpip oca
Ġantebra Ã§o
C u
c Ãµes
i lado
Ġd il
Ġs inu
er ente
in osa
Ġv entos
la w
Ã§ osa
ĠA do
Ġg el
Ġg hou
Ġos t
Ġdis per
it s
Ġcont am
Ġh os
Ġla gos
iz ador
ĠEs cre
Ġman e
Ġso a
Ġlemb rado
Ġtar taruga
Ġbal sa
Ġ19 2
ĠHar t
lin i
ĠBar onato
Ġescre ve
Ġras gado
Ã³r cio
Ġfir mes
Ġcir co
Ġfran cÃªs
Ġform ado
Ġval ia
Ġdig ital
Ġsex to
Ġbarra ca
Is to
Ġdescar re
Ġpartici par
ĠMun icipal
Ġatravessa va
Out ra
Ġsincer idade
Ġpulsa Ã§Ã£o
Ġbin Ã³
Ġaspir ina
Ġentreol haram
ĠAssass ino
kov itch
V I
f t
f im
g ico
i ques
p eito
v y
Ġo raÃ§Ã£o
Ġb is
Ġl ance
Ġest ender
ĠF is
Ġte oria
Ġdire itos
ba va
Ġus ados
ad y
Ġficar Ã¡
et es
Ġcria ndo
Ġcontra to
Ġacredi taria
Ġag rada
Ġcur vas
Ġsair ia
Ġpassar em
Ġtrem iam
Ġaparec esse
Ġtermin ando
Ġchu tou
Ġgal inhas
Ġx ixi
Ġber rar
ĠCor delia
Ġquiser em
Ġencos tar
Ġhor rivelmente
ĠWil son
ĠES TA
Ġquebra dos
ĠPol icial
Ġcompu tadores
Ġcaus ado
Ġfigu ras
Ġvom itou
ĠSo x
Ġenlouqu ecido
Ġescolh ido
ĠJean nie
ĠtÃ© rm
Ġbob a
Ġcient ÃŃfica
bran qui
Ġpaci entemente
ĠDol an
Ġpuse ra
ĠPrecis amos
Ġlamp iÃ£o
Ġinev itÃ¡vel
Ġchico te
Ġreporta gem
D ar
S andy
T er
a o
i tavam
r ington
Ġco bri
re mos
en ciar
ha w
Ġb ul
Ġb one
il Ã£o
Ġat raÃ§Ã£o
Ġin segu
Ġpe Ã§o
Ġac esa
ĠR ece
Ġent rara
ĠL at
Ġsem i
ce ramente
Ġcar tu
Ġfic ha
Ġlu tou
Ġfre neticamente
Ġcl ima
Ġacab ando
Ġenf ure
Ġpare Ã§a
ĠmÃ¡ rm
Ġchama dos
ĠDan forth
fei tura
Ġdesaparec imento
Ġarran cando
Ġfuncion ou
ĠCa la
Ġadia nt
Ġreun idos
port Ã¡vel
Ġident ific
Ġcontor cendo
Ġconcent rar
Ġadorm ec
ĠÃģ rvor
Po de
ĠmÃ¡scara s
Ġconsul ta
Ġsang rar
lan che
Ġnervos ismo
Ġcastan hos
Ġcircu ito
Ġconden ado
Ġmorce gos
Ġcoc Ã´
Ġinexp lic
Ġdesas tre
Ġcompar til
Ġvislum bre
O B
a nt
j osa
z as
Ġ ÃŃamos
Ġe i
er e
Ġt ivÃ©ssemos
Ġf ia
ĠA nde
ĠS inger
ÃŃ lio
Ġca f
ĠC aiu
ĠP ier
om as
ca p
ga is
Ġpre parou
Ġpod ÃŃamos
Ãº lt
ru gem
ĠI S
Ġsub iam
ĠNo ve
Ġlev es
ios as
du re
Ġgos tavam
Ġolha do
Ġsala da
ĠsaÃŃ rem
Ġquatro centos
ĠRe e
Ġrela to
old ura
Ã³r b
Ġdescon cer
Ġexplos Ãµes
ĠVe jo
ĠAnder s
Ġselva gens
Ġsobreviv entes
Ġguard ando
Ġforn alha
Ġlas cas
Ġtabu leiro
Ġconstran g
Ġdeslig ado
ĠLemb rava
Ġbel is
Ġadvert Ãªncia
ĠSap adores
Ġcaip ira
P ar
P ass
g ica
Ġa uras
ta mb
Ġse camente
al hos
el and
il os
ĠC ro
Ġcon chas
ĠV EN
Ġap ito
ĠF rit
Ġsob ra
Ġmo rando
Ġalg ema
Ġmen e
Ġcha te
Ġint im
bo x
Ġimp res
Ġimp resso
Ġne gar
lha do
Ġpos se
ut enÃ§Ã£o
Ġvis tos
Ġcal ibre
ĠEnt ende
Ġbol has
Ġtira ra
Ġsenhor ita
orre u
Ġlou ra
Ġor la
Ġras tros
Ġagar rado
ĠSte vens
Ġgo te
ĠcÃ¡ qui
Ġama nte
Ġconclu ir
Ġbur ra
ÃŃst icas
Ġadmit iu
Ġpub licado
Ġdivert indo
Ġeletr Ã´nica
Ġencer rado
Ġbisco ito
Ġsepul tura
Cont udo
Ġobede ceu
ĠUnder wood
Ġaux iliar
Ġcerim Ã´nia
Ġperson alidade
Ġmilha ral
Ġmacon ha
U U
c Ãªncia
c inhas
n ell
Ġa x
Ġp ira
Ġv iciado
im li
Ġca Ã§am
ma dos
Ġfa chada
Ġin co
ĠV ir
ĠH on
Ġex cesso
Ġh osp
Ãº rb
Ġro dar
era Ã§Ã£o
Ġnas cido
pos as
Ġapo ntava
Ġapar elhos
Ġcomple xo
RA S
ĠDo dge
Ġtre me
ntei ras
Ġsum indo
Ġinclin ando
ĠHal low
Ġsurg iram
Ġdef esa
Ġconstru ÃŃdo
Ġilum inada
ĠGu izos
Ġazu le
Ġgrava Ã§Ã£o
Ġderru bando
Ġproje tando
Ġengan ar
Ġdelica deza
Ġresist Ãªncia
Ġmonstru osa
emor ial
Ġcautel oso
Ġcois inha
Ġangu st
ĠmÃ¡rm ore
U R
c ru
Ġm ob
el son
ĠS tra
ol hos
ĠP E
ĠB urt
ido r
ĠR y
ĠJ erry
Ġle nte
mo key
Ġi P
Ġass ente
Ġfor Ã§ou
ch ester
ch ild
Ġra mo
ĠcomeÃ§ aria
Ġcorre ta
Ġbar cos
Ġconf id
ĠHar low
ĠPer lmutter
ĠSte ven
Ġviv iam
AN D
Ġocu pada
Ġcurva do
Ġarrega laram
Ġedi Ã§Ã£o
Ġavis os
cid ental
ĠSE U
ĠTa k
Ġgen eral
ĠVo vÃ´
Ġmus go
Ġrosn ou
Cl int
Ġprog ramas
Ġemba lagem
Ġnoj ento
ĠPasse i
Ġfurios amente
Ġdistingu ir
ĠjuÃŃ zo
ĠHallow een
S il
S ub
a b
p Ã¡
v ana
ra z
Ġde bil
Ġb i
Ġg iz
Ġsu til
ĠC ran
Ġdes pa
Ġdes ori
ĠB or
Ġver e
ĠL ittle
Ġcar rinhos
Ġsent ando
Ġfor Ã§ado
ita das
ĠU S
Ġmor dendo
Ġcomp arec
est Ã¡
ĠAl lie
Ġso lene
Ġten ente
Ġson hou
Ġtran car
Ġinc endi
Ġsal Ã¡rio
ana po
ĠÃºn icas
Ġ19 3
Ġaper tada
Ġpla nta
Ġpart indo
Ġespec tadores
ĠSu e
Ġempur rado
Ġret irar
Ġboc as
Ġeng ano
Ġaba fada
Ġmarca va
Ġpreocupa va
Ġsac ana
ĠMal u
Ġala meda
ĠFl int
Ġperceb endo
Ġdan ado
ies on
Ġtoss ir
Ġesva z
ĠAven ue
Ġincon fund
Ġdeterm inaÃ§Ã£o
Ġboquia berto
ĠWat son
Emb ora
ĠApar entemente
Pou co
ĠWei zak
E i
P ela
V ER
c ent
n inho
n ome
p Ã³
ra qu
Ġm ens
Ġm Ã³rb
ta velmente
ent aria
Ġl igo
ĠA trav
Ġca tar
ĠN essa
om y
ĠB lo
Ġin unda
Ġcor pu
Ġmo viam
Ġcas ual
Ġpens am
vo ra
Ġtra Ã§o
ĠW ater
Ġesta m
ĠK ay
Ġcria Ã§Ã£o
Ġgu er
elha da
Ġvia jando
ed ic
Ġdorm entes
Ġtro no
Ġtoc Ã¡
Ġrec ua
Ġfecha va
RA DA
Ġvest ÃŃbulo
ĠDes cob
Ġdist int
Ġsono lento
ĠDu gan
Ġcres cia
Ġ9 0
Ġenro lar
Ġsoc ial
Ġexter na
Ġgira va
Ġdescobri ra
su ce
Ġmonstru oso
ĠautomÃ¡ tico
Ġexci taÃ§Ã£o
Ġign iÃ§Ã£o
ID ADE
ĠAmb os
Ġgrunh iu
Ġsupon do
Ġhorre nda
Ġadequ ado
ĠAud rey
ĠHora ce
Ġlac rim
ĠBol ton
Ġconex Ã£o
F iz
J essie
M o
g indo
l cho
o w
t inhas
or ld
Ġse cas
Ġl ob
Ã³ la
Ġest Ã©
Ġele mento
Ġre zar
ĠD am
ĠT ell
Ġcar pete
tas e
Ã¢ mbio
ill ian
Ġentre vis
ke t
dia nte
Ġpu p
Ġant ena
Ġespe ta
Ġcontinu am
ĠMa nt
ĠMa ch
Ġbon itas
Ġdez oito
Ġarma Ã§Ã£o
Ġdesaparec endo
Ġhum anidade
Ġgru dado
Ġaco lcho
Ġsign ificar
Ġarras tado
Ġur ina
Ġart ific
Ġgem endo
Ġespalha das
Ġdup las
ĠDia bo
Ġprofun dos
Ġcoloca va
Ġexperim entar
Ġescolh eu
Ġexaus tÃ£o
Ġdiv Ã³rcio
Ġfant Ã¡stica
ĠJen ny
Ġdece pcion
Ġenxu gou
Ġvamp iro
Ġatrope lado
ĠfarmÃ¡ cia
Ġhos pe
? ...
O i
P at
j amento
r r
Ġc esto
um ento
ent am
ĠE ric
ĠA aron
Ġma quia
ĠR ai
ĠR iver
Ġpro posta
Ġla Ã§o
ĠL amento
ĠestÃ¡ bulo
Ġam endo
id em
Ġdire ta
Ġro bus
ne ve
Ġob t
ba das
Ġaf l
Ġgos toso
ass im
Ġcontinu ei
ĠTo wn
Ġergu idas
Ã´n icos
Ġvid rados
ĠAp ro
ĠMor ton
rian Ã§as
gn ado
Ġconstru ir
ust in
Ġbl Ã¡
Ġans iosa
ĠMcC a
Ġproje tava
Ġassomb ro
ĠIr ma
Ġguard anapo
ĠAca bou
Ġextre ma
ĠLey decker
Ġhar mon
ĠhipÃ³tes e
ĠnÃ¡de gas
D eu
c iso
u gh
ar de
es cente
va das
gu ia
ĠO lhando
Ġal fa
ĠD ec
ĠM olly
Ġcor rim
Ġcar tola
Ġra chado
Ġman utenÃ§Ã£o
Ġencont rada
cha u
Ġbal anÃ§
Ġsal t
tic e
Ġag l
ĠHo p
Ġrec ru
ĠCh ina
ĠCh rist
Ġarran cada
Ġagu lhas
ĠBla ke
Ġconven ceu
Ġris os
Ġmergu lhar
Pe guei
Ġavis ar
ĠPu xou
Ġdesist iu
ĠHan lon
Ġrid ÃŃcula
Ġrum ores
ĠPergu ntei
Ġcompart ilha
Ġmed ic
Ġmascul ino
Ġorden ou
gr ima
ĠRodo via
R ose
n ut
x ar
is Ãµes
in ara
an less
Ã¡ ter
Ġb Ãªn
Ġpara no
ĠS ur
Ã³ tica
Ġal t
Ġal er
Ġr Ã³
Ġfa tia
Ġmu dando
Ġpa pa
Ġfal asse
ĠEs cola
orr indo
Ġentre tanto
Ġgaro tÃ£o
ĠK it
Ġinter fer
Ġcham ara
Ġru ivo
Ġgra vidade
Ġconhec Ãª
Ġcontinu aria
ĠFran c
Ġfar ol
ĠespÃ© c
Ġros ada
Ġexist iam
Ġdiver sos
Ġev ent
Ã³l ico
Ġdesen har
Ġacomp anhando
Ġenferm eiras
Ġabandon ou
Ġflores tas
Ġdiscut indo
Ġmancha da
ĠMill er
Ġmis erÃ¡vel
Ġades iva
Ġfru tas
ĠVerm elho
Ġespira l
Ġdeca d
kn ock
ĠTw itch
ibo deau
Ġving anÃ§a
tamb Ã©m
C al
P AR
R ES
d ica
r ice
s inho
t ilo
Ġ ida
Ġ ira
Ġde po
Ġf ro
ĠS anto
Ġmu ra
at Ã©
Ġsob rado
Ġam izade
Ġte ra
ĠEs tado
ior gio
Ġcol unas
Ġbar es
Ġpai rava
ĠPo tter
Ġenf raqu
ĠTo omy
Ġpux Ã¡
ĠsÃ© culos
Ġtermin asse
ĠNe bras
Ġdeci d
Ġprov oc
ecess Ã¡rias
Ġsum iram
Ġquest Ãµes
Ġcinz entas
Ġanda vam
Ġchei rando
Ġanima da
Ġremo to
Ġron cando
ĠKing s
Ġadvo gados
Ġsess Ã£o
Ġflutu ar
Ġpop ulaÃ§Ã£o
Ġesgo to
Ġfant Ã¡stico
ĠDou g
Ġsint on
Ġinfec Ã§Ã£o
Ġet ique
Ġdestro Ã§os
ĠAndo lini
Ġresf riado
Ġcautelos amente
x to
Ġde vas
es ou
Ġf rias
re ta
co w
Ġca lada
Ġas tu
Ġre pre
Ġdi f
ĠT io
Ġcon vin
Ġpar to
ĠF letcher
Ġar tic
lo gos
Ġpa v
Ġam is
Ġbo atos
gra de
Ġva ci
Ġcol cha
Ġav es
tic ut
Ġcontinu e
Ġexa ta
ula va
ĠCon nec
ific ando
fo ra
Ġfei jÃ£o
Ġsum ira
Ġenco ra
Ġconstru Ã§Ãµes
Ġesper ei
Ġdestru iÃ§Ã£o
Ġdific ilmente
Ġcaus ou
Ġterre mo
Ġadul ta
Ġhe di
Ġintens amente
Ġresponde ra
Ġnov idade
Ġdesbo tada
ĠBet hany
Don na
Ġrum or
Ġdesajei tado
Ġoscil ando
Ġmister ioso
Ġpregui Ã§os
Entre tanto
Ġindes cri
ĠepisÃ³ dio
illa ge
ĠBillings ley
Ġvassou ra
Ġdinam ite
L a
Ã ļ
Ġs ite
or gan
Ġse la
ro le
al ina
co x
ÃŃ metro
Ġal vor
ĠM ister
dos a
ĠJ ess
Ġesp iri
ur rou
Ġsegu rei
Ġmor tes
Ġimp ass
Ġman dei
Ġdire itinho
Ġro tina
Ġfec hei
Ġta x
Ġbol inhas
Ġesqu iv
ion ar
vida mente
par e
Ġconhec iam
len d
ula nte
Ġprin ci
guei ras
ĠCon f
Ġesca vaÃ§Ã£o
Ġtermin ei
Ġtre zentos
Ġestacion ou
ĠMo nte
ĠPat ty
Ġapres entou
Ġhes itar
ĠCO NT
Ġdob rar
Ġjus tiÃ§a
Ġprossegu ir
Ġdet Ãª
ĠFin li
ĠRes pon
Ġassum iu
Ġesma gado
Ġdemonst rar
Ġfuz il
ĠalÃ§a pÃ£o
Ġtranquila mente
Ġrecon for
Ġdila ce
Ġcolar inho
ĠÃªx tase
Ġcida d
Ġdobradi Ã§as
Ġmaquia gem
ĠConnec ticut
f eliz
l n
qu ice
Ġno tei
Ġma tara
Ġr ural
ĠT anto
ido res
Ġin iciais
ĠJ uro
gar o
Ġpro ntamente
Ġtem por
Ġh Ã£
Ġan g
Ġan dei
ĠL ib
Ġcor tador
Ġmo ntado
ĠI ns
est ic
Ġrep uls
ĠNo on
Ġju ntamente
ĠDeus es
Ġsan itÃ¡rio
ĠSa uber
Ġimag inado
Ġpux ei
Ġce le
Ġhum anas
Ġcap tar
ĠmÃ© dia
ones es
Ġsil hu
Ġind icar
Ġpend iam
Ġfei tic
Ġber ros
eno ve
Ġencos tada
Ġgas tar
Ġmorta is
Ġart if
Ġalmo Ã§ar
Ġenro lada
Ġviz inh
Ġarro gante
Ġsuperior es
Ġdolor oso
Ġpesada mente
Ġperde ram
Ġator m
Ġorgu lh
Ġbob agem
Ġequ iva
Ġtend Ãªncia
Ġradia nte
ĠIrm Ã£
Ġlun Ã¡tico
Ġsurpreend entemente
ĠsÃŃmb olo
Ġgai vo
ĠSauber s
Ġsilhu eta
T ER
h rens
r Ã³
Ġs ib
Ġm ig
Ġm entais
ar Ã£o
Ġf an
re al
Ġna dar
Ġma gra
ĠN OS
ĠO U
ĠM ur
ma gem
Ġper e
ĠJ ulho
Ġpro jeto
ĠF icar
Ġcont asse
Ġfaz emos
Ġser en
Ġass inat
Ġsobre vi
Ġcomp rara
Ġcomp rom
Ġfal o
ud ÃŃvel
Ġprim o
Ġro ch
Ġestar Ã£o
der ou
Ġsub consciente
Ġins ignifica
vi os
pres sa
ly n
par ei
Ġconhec era
Ġtro caram
Ġfer rugem
ĠRo da
Ġras gando
Ġras gada
Ġbor das
Ġext ingu
hei ta
Ġnecess Ã¡ria
Ġcint ilando
Ġatravess ado
Ġcla ras
Ġsop rar
Ġquisesse m
Ġinsist ia
Ġfasc inante
Ġvio lento
Ġrecupe raÃ§Ã£o
Ġgen g
ĠTh ibodeau
ĠOlha va
Ġacost uma
Ġdesf ila
ĠDol ores
ĠFec hou
Ġzan gado
grÃ¡ fica
Ġpref eria
Ġchef Ã£o
Ġgord ura
Ġpedac inhos
Ġbagu nÃ§a
ĠAke ley
Ġmax ilar
E ram
J A
j is
Ġv ice
im i
Ġl Ã£
Ġest icando
Ġca tÃ³
Ġdes at
ma ticamente
ido u
Ġin stitu
Ġin chada
Ġac erta
ĠR ho
Ġmu itÃŃssimo
ĠV illage
Ġter ÃŃamos
Ġle vam
Ġpro tu
Ġcont aria
ĠL imp
Ġab ismos
Ġpra tic
Ġpos tura
Ġbar ran
ns mouth
ap ro
Ġru ÃŃna
Ġbol sas
ĠFo da
Ġacredi tam
hou se
Ġ19 4
ĠAr lette
Ġespera vam
Ġref res
bi ri
ĠFa la
Ġind ist
Ġabri ra
Ġlate jar
ĠGar th
Ġperman ente
lor esta
ĠCol heita
Ġpint ar
ĠmaÃ§ Ã£s
ĠEmb aixo
Ġdespe da
Ġimpul s
Ġconfia nte
Ġrosn ando
inco ln
Ġpergunt asse
Ġprodu tos
ĠcÃ³ digo
Ġmenin inho
Ġdesconfia nÃ§a
Ġpio rar
Ġcic lo
Ġvidra Ã§as
ĠAcontec eu
Ġencren ca
Ġhumil de
Ġprost itu
Ġimplac Ã¡vel
child t
Ġprinci pais
hrens childt
L O
b lÃ¡
d res
j aram
t z
t in
os idade
in Ã¡ria
da le
ent asse
Ġb y
ĠN elson
Ġele tro
Ġdi tado
Ġsa f
ĠB ert
Ġpro ced
Ġpre gado
Ġesc ra
ĠlÃ¡ grima
ne ta
ĠK ent
Ã¢n ia
Ġva gÃ£o
Ġta Ã§a
ĠMar ie
Ġcur tos
Ġprecis Ã£o
Ãºm ero
ĠCon heÃ§o
Ġfam ÃŃlias
ĠMu ita
Ã©r cio
chu va
Ġservi Ã§os
Ġobserva do
Ġobserva Ã§Ã£o
Ġaut Ãªnt
Ġirre gulares
Ġdivert ida
Ġemit ir
run wald
ĠOr d
Ġmuda ram
Ġquie ta
Ġtec n
Ġprodu to
Ġprotes to
Ġenfi leira
Ġconsider ou
Ġcic l
Ġamedro ntado
Ġinterva los
ĠAud ra
Ġproba bilidade
ĠNoon an
A m
n i
r ÃŃvel
v ura
w lie
re g
Ġes gan
da lha
Ã¡ r
Ã§ amento
Ġb if
al l
gu arda
ĠA R
ĠS at
Ġca le
ĠO ficina
Ġme tra
ĠR iv
it Ã¡rios
ĠL incoln
Ġar ca
ĠestÃ¡ tica
Ġtra g
id inho
Ġdia gon
cion ou
cha va
Ġconhec idos
Ġfra tura
RA M
Ġapa gada
Ġprov ocado
ĠIn n
ĠBa ch
Ġreco lher
Ġmand Ã¡
Ġsup rim
Ġpertur bada
Ġcurios amente
Ġgarant ia
Ġadiv inhar
anda nte
Ġtoss indo
ĠFica va
Ġconvida do
ĠShan non
Ġsolen emente
Ġesquele to
ĠMÃ© xico
Ġsuti Ã£
Ġcorrim Ã£o
J im
V OR
c eiro
Ġa Ã§ou
Ġv emos
ĠE ye
Ġdo bro
ec os
Ã³ ticos
Ġma gre
Ġca os
ĠM ara
ĠT ornou
Ġdes vio
Ġfa brica
Ġla tido
Ġla biri
Ġab elha
Ġab oto
Ġcam as
Ġch ic
Ġvi er
Ġmar car
Ġencont rando
ĠK ir
Ġbom be
car ou
Ġgra vemente
ĠAn n
Ġcho cal
Ġconhec emos
ĠMar sh
Ġapo iando
Ġesquec endo
Ġdesa po
Ġgo vern
ĠIn nsmouth
Ġcint urÃ£o
Ġexper iÃªncias
Ġpi ntada
ĠWil cox
ĠOh io
ĠGu arda
ĠSou th
Ġflu ido
Ġfizesse m
ĠBur nside
Ġcri p
Ġsuger ir
Ġamea Ã§ado
Ġcrim es
Ġbomb inha
Ġvit Ã³ria
Ġajo elhado
Ġconfir mar
Ġesconder ijo
Ġreduz ido
Ġreb el
Ap esar
Ġcaver nas
Ġdescont ro
Ġtrav essa
Ġinim igo
Ġacusa Ã§Ã£o
Ġfraque za
Ġinacredi tÃ¡vel
Ġcalaf rio
Ġfle cha
Ġnucle ar
ĠcÃ³s m
ĠcaÃ§am ba
! ]
C K
V irou
e te
f res
t ru
t idos
u ado
Ġ y
qu eiros
Ġf Ã³rm
ĠE is
Ġl ide
am eric
oc ra
ÃŃ so
Ġre man
ĠO correu
ĠC AS
ĠC Ã¢mbio
ĠD eci
ĠM is
un s
Ġfa ÃŃs
ĠR oc
ĠH ome
Ġex as
ito ral
ĠL ua
Ġcar Ã¡ter
ita m
Ġtr ist
Ġtr inco
Ġcome ter
Ġaqu ecimento
ĠI mp
ĠI ota
Ġtor cida
ĠCom itÃª
Ġexp osiÃ§Ã£o
Ġleva da
rim eiro
ĠAn ci
ion ado
Ġfer imentos
Ġlar gas
ĠAr ran
ĠFa ir
ren es
Ġasso bia
Ġdou rados
Ġenvol via
Ġenvol veu
Ġreconhec ido
Ġris cos
Ġprate ada
Ġpeg asse
Ġcomun icaÃ§Ã£o
Ġmat inal
Ġjard ins
Ġproduz iu
Ġgen uÃŃ
Ġpain Ã©is
Ġpad rÃµes
ĠConsegu iu
Ġpercor reu
Ġenvia do
Ġgl obo
ĠCob rador
Ġfemin ina
Ġincha dos
Ġexerc ÃŃcio
Ġtelep atia
Ġconvic Ã§Ã£o
ĠÃģrvor e
C erto
E F
T r
b ador
d uais
h inha
u das
v inha
Ġc um
do ria
as sada
Ġo co
Ġco leira
es cura
in gue
Ġf ase
ĠA ham
ĠA fas
Ġg estos
Ġre des
Ġal o
ĠP Ãºb
ĠM inhas
Ġdi rige
Ġdes mo
Ġin jus
ĠR Ã¡
ĠV I
Ġle tal
Ġsua ves
Ġab elhas
ĠsÃ³ lido
Ġfal ha
Ġlemb ravam
Ġtent aram
Ġba inha
ap os
Ġsan gra
Ġsal s
ĠCo ates
ĠMar cha
Ġtro co
Ġmost rador
Ġapar tamentos
Ġprecis e
ĠBar kovitch
Ġcomple tou
ĠsÃ© rios
ĠPer to
Ġlig eiro
Ġcober tores
Ġaproxim aram
Ġadia nta
ĠClay ton
Ġconven cÃª
Ġcole te
Ġcarta zes
ĠLem ke
ĠOl ive
ĠJam ieson
ĠcentÃŃ metro
Ġagrade ceu
Ġadorm ecida
Ġproduz indo
ĠFin n
Ġtru ques
Ã¢nt ico
Ġsuspei ta
Ġretira do
Ġaus ente
Ġoscil ou
Ġtrav ess
Ġcig anos
ĠpÃ©ss imo
ĠBlu e
Ġjunt aram
Ġlampe jo
ĠpÃªn is
tod ista
ĠMou nta
Ġasse mb
Ġode io
Ġalternat iva
Ġpropagan da
F ec
J ul
c eira
g Ã¢ncia
z endo
er y
Ġcom ece
Ġcom pac
Ã© ias
Ġpara ra
Ġg Ã©
Ġme le
ve la
ĠÃ ļ
Ġmas tig
Ġdes ci
Ġdes inte
Ġj ap
Ġen com
ĠB eson
Ġpo ei
Ġac esas
ĠR and
Ġche gue
Ġman sÃ£o
Ġouv isse
Ġpos itivo
Ġexp ressa
Ġcal cul
Ġrep leto
Ġun idade
Ġim un
Ġfi el
Ġtro m
alha da
Ġpux ava
Ġfavor ita
Ġvest ia
ĠcomeÃ§ar em
Ġnecess ariamente
Ġvir Ã¡
gg ie
Ġhor rip
Ġenco lher
Ġirri tada
Ġaproxima vam
Ġaproxima damente
Ġadorm eceu
Ġapren di
To dd
Ġala ranja
Ġcalc inhas
Ġabsur damente
Ġdescia m
Ġraste jar
Ġderram e
Ġach aria
zy ck
Ġrelax ou
lida y
Vol tou
Ġtroux era
ĠfenÃ´m eno
ĠWiscons in
l ite
m inha
Ġa fer
er ou
as p
es e
Ġf umo
re tt
ent er
de l
gu ar
Ġna va
Ġma te
Ġma leta
on das
ĠN ana
ĠP ul
Ġou Ã§a
ĠT ire
Ġen ri
Ġfa gu
sa vam
Ġpro cla
Ġto la
Ġha vendo
Ġser vido
Ġser iedade
ĠG iorgio
Ġmo des
iz za
Ġcas co
Ġsab ido
Ġpou sar
Ġint en
Ġgri taria
ne gro
Ġtom e
Ã¢n da
Ġru bor
Ġespe ran
ion ou
Ġapro vaÃ§Ã£o
Ġaper tava
ip per
ĠLe andro
ĠEn nis
ĠCon dado
Ġsensa Ã§Ãµes
ĠMe jis
ĠPro vid
Ġfe de
fo i
Ġfran camente
Ġhorror izado
Ġrecor dava
Ġvig iando
Ġcelular es
Ġregist radora
Ġderru bado
Ġinterromp ido
ple ton
Ġplane jado
Ġdivert ir
ural mente
Ġrepu g
Ġreve laÃ§Ã£o
Ġexc ess
Ġfing ir
Ġprog resso
ĠMA IS
ĠCan al
Ġreci nto
ĠBal l
Ġesva zia
ĠBas ta
Ġirra dia
Ġirra cional
Ġpisca dela
Ġhipnot izado
ĠApo ntou
Ġesgu ic
ĠPequ eno
Ġencarre gado
Ġecon om
Ġatras ado
Ġinconfund ÃŃvel
2 5
o este
p int
Ġe va
ar ts
Ġo per
Ġco lhei
Ġco gum
es tou
Ġna cional
ol ho
Ġpor to
Ġas sem
Ġdes ord
Ġfa t
Ġfo f
Ġfo ntes
Ġac endendo
ĠR em
ĠR ela
ĠR udy
Ġver so
ur sos
Ġto alhas
at or
Ġpre ce
ĠG ood
Ġtra ga
Ġtor tas
Ġvolta m
Ġvis ÃŃveis
tura is
Ġencont ram
Ġten sa
Ġescri tos
ĠHar ley
Ġmost ravam
Ġescre vera
ĠAr len
Ġdesa fio
ĠRo ta
ĠFa le
Ġespa Ã§os
Ġsusp eito
Ġfran co
Al i
ĠPen se
Ġmachu cou
ĠES C
Ġdiss ip
Ġsoubesse m
Ġespalha do
Ġindi v
Ġmoc inha
Ġpenet rante
Ġnotur na
ĠGin ny
Ou viu
Ġapla ud
Ġocupa va
Ġinstrum ento
Ġradia Ã§Ã£o
__ __
Ġindef in
Ġenvergon hado
Ġtub os
Ġmonit or
ĠHem ing
Ġghou ls
ĠNebras ka
J un
h aria
m ei
o van
o key
u ar
w ie
Ġe nto
Ġp ic
Ġs ard
Ġco va
ho mem
ĠA P
am en
ĠN ei
ĠN ecessÃ¡rias
ĠO lhos
ĠM ic
ve y
Ġsa u
ma ha
ĠR ick
Ġpr osa
Ġesp on
ur g
Ġam ig
Ġcha to
Ġcomp rei
ĠSe ar
bo to
ĠEs f
Ġcal cu
Ġmar tel
Ġer va
Ġtar des
Ġru de
Ġpassa gens
Ġmant ido
Ġvest iu
Ġafas ta
Ġras gar
Ġassus tar
Ġempur rÃ£o
ans y
vido u
Es te
Ġcost ume
Ġros ado
ÃŃa ca
Ġens inou
Ġfug ido
Ġev ento
Ġop Ã§Ãµes
raria m
Ġdef ro
Ġdesper di
Ġaum entava
Ġserv iria
Ġsoc iedade
Ġfranz ida
Ġpan ela
Ġreceb endo
Ġestrem ecer
Ġbarba nte
Ġgave tas
ĠDiz ia
ĠDel gado
Ġaga chou
Ġretira da
Ġhorre ndo
Ġfen das
Ġdesconf iado
ĠEnf im
Ġfort una
ĠGil man
Ġmorce go
ĠPrecisa va
Ġexerc ÃŃcios
Ġsecund Ã¡ria
ĠPon ha
ĠOx ford
Ġmatem Ã¡tica
ĠdelÃŃ rio
Sil Ãªncio
B E
L em
V ic
V ai
d inhos
f it
m ita
Ġes pont
en cont
to dos
el y
Ġpara das
Ġest endida
Ġdi ta
Ġper dia
Ġac am
Ġcont ras
Ġpre gos
Qu ase
Ġmo ran
Ġcar go
Ġch if
ĠEs pecial
ĠcomeÃ§ amos
Ġgri tado
for t
Ġleva ntava
ĠEnt endi
Ġfun da
Ġim inente
Ġbri lhar
Ġfi quem
Ġlou Ã§a
Ġesquec ida
Ġrela tos
Ġcap tou
ĠRa inha
Ġfuncion amento
ĠÃĢ quela
Ġamor te
ĠmÃºs icas
Ġbus cÃ¡
Ġajuda va
ĠCal ma
Ġrisa dinhas
Ġinteressa ntes
Ġmaravil has
Ġconv ite
Ġbil he
Ġinvest igar
Ġapre ndeu
yn cho
Ġcontor ceu
Ġapren dido
Ġperten ce
Ġapavo rada
Ġdolor osa
ws ki
Ġdispos itivo
Ġdefin itivamente
Ġinte lec
ĠTommy knock
Ġrelax ar
Ġexpress ar
Ġfrou xa
Ġcess ou
ĠnÃŃt ido
Ġestica da
Ġremex eu
Ġdesconfor to
ĠpÃ©ss ima
Ġaposentado ria
Ġtremenda mente
Ġnarra tiva
Ġirromp eu
Ġpsiquia tra
G AR
T ed
b ura
j es
m ob
s en
Ġde nta
qu ilidade
Ġm eios
in Ã¡
da ll
en ci
Ã§ aria
ĠS mokey
Ġest udo
Ġma cha
Ġsa po
Ġen o
ĠR imer
Ġter emos
Ġle ra
ram m
ĠL orde
at ivo
Ġsent iam
Ġtra tor
Ġche ques
ĠEs queÃ§a
Ġman dava
Ġacontec em
ĠK ind
Ġescu tado
Ġliv res
ĠAn da
Ġesqu el
Ġimpor to
Ġag itada
Ġposs amos
Ġtoc aram
mes a
Ġdesc riÃ§Ã£o
Ġmon o
Ġsaco le
ĠEl vis
Ġliga dos
Ġfantas ias
Ġimedia ta
Ġassass inado
Ġbei jar
ĠHal liday
ti Ã§o
Ã³l vora
Ġcus to
Ġocas ional
Ġlam ent
Ġbara lho
ĠPens ando
bur g
sh un
Ġdesagra dÃ¡veis
Ġrecus ar
Ġtate ando
ĠnÃ¡ use
GO RA
Ġvin dos
Ġinespe rada
ĠGib ney
ĠWay ne
ĠpÃª lo
ĠScho ol
ĠcÃ³p ia
Ġapet ite
Ġpoei re
yncho t
) ;
A qui
c in
h inho
t eio
Ġo deia
el ando
Ġpor tÃ¡
Ġest icar
Ġma pas
il v
Ġele mentos
ĠO ito
ĠM es
ĠT enha
Ġfa Ã§am
Ġpo esia
ĠV Ãª
ĠV eio
Ġver Ã¡
ĠF ris
Ġcor vos
Qu er
ĠG ente
Ġmo ral
Ġsent em
Ġvo avam
na das
Ġaf undou
Ġrou bo
Ġquis era
Ġchama das
Ġpoder es
ifica va
Ġempur ra
Com ecei
Ġgas to
Ġesfor Ã§os
ĠRob bie
Ġfasc ÃŃnio
ĠÃģ gua
Da ve
ĠKen ny
Ġdelica da
Ġconsul tÃ³rio
Ġconduz iu
Ġconfor to
Ġgentil mente
Ġentend em
Ġinsp iraÃ§Ã£o
ĠBran co
ĠLiv ro
ragia n
Ġescut ei
Ġinsu portÃ¡vel
! ...
i posas
p Ãµes
r ÃŃ
s us
Ġm ir
Ġt ona
ĠE LE
Ġdo entes
Ġno bre
ĠS k
ĠO maha
Ġme tr
go le
Ġdi gn
ĠB ai
ĠH ap
Ġi rem
Ġesp essa
Ġan dado
Ġcor ro
Ġpre ca
ĠDe lain
Ġimp el
Ġdia gn
per im
Ġvis cos
Ġsol ic
Ġcorre ia
Ġaf ora
Ġcu b
Ġestran he
Ġcama das
Ġchegar mos
Ġfl ocos
Ġtermin ara
Ġfar ra
Ġprov ocando
Ġcomer ciais
Ġata cou
ĠLa w
Ġbei jos
Ġarm ado
Ġreco l
Ġestu pe
ust ria
Ġvig as
Ġapres entava
ĠHe in
Ġzumb indo
ĠJe ffer
Ġintelig entes
Ġtelefon ou
RI O
Ġcoch ilando
Ġsobreviv Ãªncia
Ġequip amentos
Ġatro pel
Ġexecu Ã§Ã£o
ĠCap itÃ£o
ĠHarris on
Out ro
Ġreluz ente
estra de
Ġconsequ Ãªncias
Ġalco Ã³la
Ġcamundon go
Ġartific ial
mob ile
F al
M a
N or
s er
y re
Ġd uros
Ġe go
nt le
in Ãªncia
Ġf ed
an ia
Ġb le
ĠE ar
de pois
ĠA g
ĠA le
Ġg estic
Ġest il
Ġca ia
ĠC ass
Ġal ca
Ġal Ã§as
ĠP imli
Ġj atos
Ġin er
Ġap elido
Ġi ronia
me dia
Ġres tantes
Ġvol tavam
ĠSe an
ĠEs co
Ġdeix em
Ġentre gue
Ġesta Ã§Ãµes
Ġvi Ãºva
ĠJo die
Ġcl os
Ġsub me
ib ra
Ġhist eria
ĠDa qui
Ġpassa dos
Ġvia jante
dou ro
vol unt
ĠGe rar
Ġve ter
ĠvÃ¡ l
Ġhum ilha
ĠDo ra
Ġinf lex
ĠRa wlie
Ġdist rito
Ġempur rÃ¡
Ġsussur rando
Es tavam
Ġber ro
Ġcr ist
Ġrepet indo
Ġeng enho
Ġofer ta
Ġenter rada
ĠLÃ¡ quesis
Ġsap at
Ġtempesta des
ĠDeix ei
Ġbata ta
ĠdÃ© c
Ġsobranc elha
ĠÃŃn dios
Ġ198 0
Ġfamos a
Ġpel Ãºcia
Ġacompanha va
Ġavent uras
Ġcoron el
Ġanal is
Ġempoeira do
ĠMiss iss
Ġfral das
ĠObs erv
Ġformul Ã¡rio
Ġespeta cular
ĠbÃªn Ã§Ã£o
ilv Ã¢nia
E las
F ez
S teve
c ic
c unda
c tion
Ġc Ã£
Ġal is
ĠD y
Ġr ÃŃg
ĠT ira
Ġj Ãº
Ġat ividade
iv es
iv idades
Ġto nto
ĠG oo
Ġparec eria
Ġmo ve
Ġpa us
iz Ã¡
Ġfic assem
ĠU p
Ġsab ÃŃamos
Ġra iz
ĠW et
Ġnas cimento
Ġmar gens
Ã¢n icos
ĠEnt ragian
Ġsub i
Ġins Ã´nia
ici osa
ĠPo e
ĠDa yna
Ġbaix ando
Ġdesl i
Ġarre gan
Ġid Ã©ias
Ġinclin ar
AD OS
Al go
Ġalc anÃ§a
Ġbase ado
Ġreconhec imento
ĠPen so
ĠBro ad
Ġobri gou
Ġalar mado
Ġjus ta
ĠperÃŃo dos
Ġfranz indo
Ġinde pend
Ġexperim entou
Ġvas ta
Ġvas to
ÃŃg ios
Ġlum inoso
Ġvent re
Ġimpro vis
ĠEncont rei
Cont inu
ĠCorre dor
Ġimpe di
Ġintermin Ã¡veis
Ġavalia Ã§Ã£o
Ġindifer ente
Ġfrust raÃ§Ã£o
ĠcatÃ¡ logo
Ġente dia
ĠlÃ¡p ide
Ġventila dor
Ġcabel udo
Ġprej ud
Ġmob ÃŃlia
B RO
S co
g ista
p endente
Ġd ÃŃ
Ġa ranhas
Ġde para
Ġf ones
Ġse ta
se l
Ġl es
ĠA O
ĠA gu
ĠA deus
us ter
Ġele vou
Ġre cip
ĠC Ã©u
ran galha
ran jado
ca ntes
Ġpe dia
Ġver tic
Ġto a
Ġar tes
ce p
ĠG ro
Ġsent in
ita ram
Ġmor ra
ĠEs cri
pre mo
ĠW it
Ġporta l
Ġdizer es
Ġgran ito
Ġcan Ã§Ãµes
Ġforma va
Ġant ec
fa zer
Ġia n
Ġolha m
Ġesco nde
gre n
ĠOu Ã§a
Ġsuf ocado
lin ou
Ġz un
ĠFran ca
Ġpal estra
Ġref u
Ġras tre
ĠSu p
Ã³r um
Ġsussur ros
Ã¡st icas
Ġon ÃŃr
Ġviv em
Ġviv ido
Ġpi ntadas
Ġconstru ÃŃda
ĠchapÃ© us
Ġador Ã¡vel
Ġlam beu
Ġprome tido
Ġviz inha
ĠÃºm idos
Ġigno rar
Ġenlouqu ec
Ġcintila nte
Ġdecla raÃ§Ã£o
Ġtranspor te
Ġimprov isada
Ġapress ar
Ġconsta ntemente
omin Ã¡vel
Ġsufoca nte
Ġnit idamente
ĠDro ga
Ġbaga gem
igg ins
Ġbone co
Ġby rus
Tr Ãªs
Ġclos et
2 3
D essa
I Z
O ra
b aram
p eu
w ent
Ġp iedade
Ġp Ã³lvora
Ġc Ãºp
Ġt os
in ga
le ia
Ġb esta
ĠA Ã§Ã£o
il hos
ĠO z
ĠC D
ĠB rid
Ġper dÃ£o
Ġin ver
ĠV est
Ġcont endo
Ġla vado
ĠG rin
Ġfor mal
Ġpes ava
Ġpes tane
ĠW orth
ĠW anless
ĠOs mond
Ġlemb rasse
ba ck
Ġbra sa
ib ras
Ġbal dio
pos s
ine te
Ġmost rado
Ġfer ra
Ġor g
Ġaparec iam
Ġfin anc
Ġestre itas
Ġsomb rios
ĠBa y
ĠMo tton
ĠMo hrenschildt
solu tamente
Ġpress as
Ġpi ranha
ĠRock y
ĠOut ras
Ġcontemp lava
Ġestra Ã§
Ġestra gar
ÃĬ NC
Ġincomo dar
Ġdesespe rada
Ġliber tar
ĠMel da
Ġenche ram
Ġmel an
ĠCou nt
DI O
Ġinespe rado
Ġtend Ãµes
Ġess Ãªncia
Ġacar icia
Ġarrem ess
ĠBaix a
Ġocasion ais
ĠÃŃm pe
Ġcoio te
Ġinterroga tÃ³rio
ĠPier re
Ġmene ou
Ġartif ÃŃcio
i deia
p idos
r ico
Ġco que
Ġv endendo
Ġes far
le e
va dos
ĠE N
de ir
gu Ãªs
Ġl iso
Ġl itoral
Ġno iva
ĠS i
ĠS y
Ġma da
ĠC rianÃ§as
ĠP RE
ĠT ER
Ġen xa
Ġac he
ĠJ os
Ġap al
Ġent enda
Ġmo tos
ver na
Ġcas sete
ĠsÃ³ lida
rado u
Ġsub mer
Ġliv raria
Ġant igu
fa lei
ĠCo le
Ġce der
ula dos
Ġneg oc
Ã´n imo
ĠAr n
Ġesca p
Ġbrin cos
Ġdesc ido
ema ntle
Ġestacion ados
00 0
Ġmem Ã³rias
Ġacei ta
IS T
Ġsatis fat
Ġdesen ca
Ġvig ÃŃlia
Ġeleva Ã§Ã£o
Ġdiss i
Ġpint uras
ĠJer zyck
ĠDiz em
Ġdistra idamente
ĠSer vi
Ġlevant aram
Ġinje Ã§Ã£o
Ġfume gante
Ġdesconfor tÃ¡vel
Ġpresta ndo
Ġemoc ional
ĠplanÃŃ cie
Ġpran che
ĠBurke tt
Ġpenh as
ĠKind le
Ġestranhe za
8 0
F la
I NT
d esse
Ġ [
Ġa res
Ġp isa
Ġde vÃŃamos
Ã¡ ticas
ĠE b
Ġem bo
ĠA QUI
Ġg aio
ol as
Ġma nto
Ġsu deste
Ġas tro
ĠO ri
Ġr icos
Ġr Ãºst
ĠM emorial
Ġme dalhÃ£o
Ġdi Ã¡
ĠT ente
ĠT ansy
ĠB EM
Ġmu ros
ĠL obos
vel l
ĠestÃ¡ gio
Ġab al
Ġam assada
Ġra Ã§Ã£o
Ġhom ena
ĠSe te
Ġfal tando
est im
Ġcl ÃŃnica
Ġbal Ãµes
Ġperce besse
ĠSa la
Ġobs cure
Ġrec entes
ĠLe ve
ĠRe p
Ġagar rÃ¡
Ġlimp os
ena Ã§Ã£o
Ġdiver sas
Ġassass inos
ĠDon ovan
Ġmol hados
Ġauto maticamente
Ġenvol vendo
ĠFred di
Ġrecor dou
Ġsul cos
Ġfasc inaÃ§Ã£o
Ġproc ess
ĠFar son
ĠMart ha
Ġfri eza
ĠLon g
ĠVin nie
ĠÃ³rb ita
Ġef et
Ġene vo
ĠlÃº gu
Ġidos a
Ġcachorr inho
ĠPel ley
ĠatÃ´n ito
Ġpav im
Ġterremo to
ĠBach man
A bra
M ort
N e
d ulo
f ir
h oso
p iraÃ§Ã£o
Ġd anÃ§
Ġd ano
Ġp Ãº
Ġde forma
nt Ã£o
Ġn ut
ara h
ĠE di
de ram
Ġpara b
ĠA GORA
te ca
Ġre gulares
ĠP ur
Ġter Ã£o
Ġent al
ob y
ens os
Ġpro xim
ĠF eira
Ġho lo
at endo
at ley
ix as
ĠG ina
ĠG runwald
Ġmo la
Ġcar bon
Ġass inar
ita Ã§Ãµes
Ġsobre mesa
Ġpou s
Ġsol idÃ£o
las h
Ġencont rados
Ġverdade iros
Ġleva dos
Ġva cil
Ġaf eta
Ġsub ido
Ġtran cou
Ġpol u
Ġgos tado
Ġacredi tasse
Ġtro vÃµes
ĠOu v
ĠcaÃŃ rem
Ġpisto leiros
Ġsuper ficial
ĠFa zer
Ġcava lheiros
ĠHolly wood
Ġarras tada
Ġnerv osamente
Ġconven iente
ub lic
ĠcÃ¡ ps
Ġenter rou
ĠCam inho
Ġemb ut
Ġalu gado
ĠJer sey
Ġmencion ado
Ġcrim inoso
ĠTre nton
Ġlin Ã³leo
Ġrelu tante
Ġ195 0
Ġade us
Ġfrou xo
ĠDis ney
Ġacon che
Ġpente ado
Ġfemin ino
Ġsorris os
pra y
Ġestabe lec
Ġentrela Ã§adas
ĠFe deral
Ġbronze ado
Ġocorre ra
Ġrepou so
Ġretar dado
Ġfral da
ĠSoc iedade
Ġhomen zinho
ĠLeng yll
Ġnub lado
Ġengre na
Ġterri tÃ³rio
Ġamendo im
ĠjÃº ri
L loyd
d ico
r Ã©st
qu eio
Ġn us
Ġn ÃŃveis
Ġo tim
Ġco lado
re to
ou tro
Ġdo n
ĠS en
Ġpor cos
Ġest imaÃ§Ã£o
Ġsu ado
Ġca gando
Ġas a
Ġre gu
ĠC ruz
go od
Ġdes anim
Ġpar do
Ġac ent
ĠV ida
Ġle is
Ġpro d
Ġcont inente
Ġesp esso
ĠL ort
vel and
at if
Ġmo tiva
ig i
Ġpens asse
Ġro dada
Ġsol tei
Ġexp el
Ġrep rim
Ġmal Ã©
Ġcria dos
Ġlo como
Ġsur ge
cer to
Ġsi renes
Ġimpor taria
Ġpud Ã©ssemos
ide rando
Ġsuf ocar
Ġvoltar em
Ġdesl oca
ĠCon cor
Ġcru a
Ġdescob re
ĠTem po
ÃŃt ulos
Ġcava leiro
ĠMc Donald
Ġdese mp
Ġsusp enso
Ġga gue
Ġlate java
IN E
Ġauto estrada
Ġgol pes
Ġmalu cos
ĠmÃ¡x ima
ĠTim my
TO N
Ġalmo fada
ĠAt la
Ġdel ira
Ġencara va
ĠPrim eira
ĠdanÃ§a vam
Ġmel anc
Ġlas ca
pu ta
Ġrefer Ãªncia
ĠPark us
Ġgrotes co
ĠtÃ©cn ico
ĠVie w
Nenh um
Ġvamp iros
ĠabenÃ§o e
ĠEnf iou
Ġdescal Ã§os
Ġancest rais
Ġaspira dor
Ġendire itou
Ġplen amente
Ġconfi Ã¡vel
Ġvizinh anÃ§a
Ġesgan i
ĠLort z
P u
R Y
T AR
V O
e Ã§a
h ist
p ens
Ġp icar
qu entes
âĢĶ ,
Ġv ÃŃr
Ġes branqui
ro y
Ġno c
co ra
Ġna dando
Ġma jor
on ia
Ġca Ã§ar
ĠC ost
ĠC loto
ĠP it
ĠP ynchot
ĠM in
ve e
ĠT u
ĠT OD
Ġdes in
Ġpo emas
Ġter ei
Ġent ram
Ġle Ã£o
Ġle ntos
ĠH orr
Ġver ificou
ĠF en
Ġpas to
Ġtam po
Ġra d
id Ãµes
Ġprim or
if fe
Ġob itu
ĠK ells
Ġleva ntada
Ġmal vado
Ġtran quilidade
Ġpai rando
Ġsur rado
Ġcho cada
Ġconf usos
Ġtro cando
ven ir
ĠHar bor
Ġlig eira
Ġfala ram
Ġtre nÃ³
Ġtesta mento
ĠCas telo
Ġu sei
Ġata ques
ĠLa Ver
Ġnerv osos
Ġadia ntar
Ġhouvesse m
Ġestive ram
Ġhorror izada
Ġpi pa
Ġacomp anhado
Ġanima Ã§Ã£o
Ġenro lou
Ġran gido
Ġadm irar
Ġtraz Ãª
ĠPens ilvÃ¢nia
Ġconcent rado
Ġavis tou
Ġsoc orro
Ġsacud ia
Ġps ÃŃqu
Ġprefer ir
Ġdespre ocu
Ġperf ura
Ġdan inhas
Ġfri tas
ind ros
ĠContinu ou
Ġrom per
ĠrelÃ¢mpa gos
Ġchin elos
Ġbarbe ar
gues es
Ġrez ando
Bo y
Ab riu
Ġaval iar
Ġconvin cente
2 7
A chei
L ila
N N
P ER
S al
g Ã©s
t us
t res
Ġa ver
Ġp se
Ġc lass
Ġde mit
Ġs osse
es centes
ou t
Ġse cando
ent Ã£o
Ã§ ura
Ġb ir
Ġdo nos
el inha
co d
ec ro
Ġma i
Ġma tasse
Ġca iria
ĠD OS
ĠP assa
ĠM eta
ĠB ei
Ġin so
Ġin volunt
Ġent ramos
Ġesp inhas
ĠL este
Ġar cos
Ġres erv
Qu al
Ġsent aram
Ġcam ion
id inha
Ġpergu nte
est res
ĠAl den
Ġvolta mos
Ġmar cando
Ġmal dade
Ġson har
Ġacha mos
ĠPo int
du to
Ġim undo
Ġag indo
Ġposs uÃŃ
Ġtro Ã§o
ven il
igar re
Ġrece p
ĠCon se
Ġpal ito
ifica dos
Ġespera ra
com un
vil has
Ġale at
fic ado
Ġber rava
ĠmÃ©d ica
Ġdef ender
Ġarm Ã¡rios
ĠGran d
EN S
bil ho
bil idades
ĠBow den
Ġamp lia
Ġabaix ar
Ġprome to
Ġdel ine
Ġincomo da
Ġlat indo
Ġrepu taÃ§Ã£o
ĠVo ador
Ġcenta vo
Ġenvi ou
ĠHum vee
ĠJen kins
Ġmila g
Ġconfer ir
Ġsobressal to
Ġextraordin Ã¡ria
inn ell
Ġconstran gido
ĠtÃ©cn ica
Ġenvenen ado
Ġhabil itaÃ§Ã£o
Ġsupe rar
ĠDra ke
Ġparal isa
pat rulha
Ġrig or
Ġcorpu lento
ĠHop ley
H E
H H
P arou
S u
l ior
r dre
w art
Ġa i
Ġc iÃªncia
Ġs pray
qu eira
le nt
Ġno jo
Ġg im
ĠS tor
ÃŃ ne
Ġen erg
di Ã§a
ĠR et
ci entes
Ġent ravam
Ġi tal
Ġan jo
Ġan ormal
ĠL E
ĠL is
me di
me ras
Ġres va
Ġalg em
Ġcha mo
ĠAl b
Ġouv imos
Ġdu vi
Ġvis tas
Ġmar iposas
ĠEst es
cion ar
Ġaf iada
ĠNo el
ĠAn di
Ġestou rou
Ġmer ec
Ġverm es
Ġdorm i
Ġapar iÃ§Ã£o
ĠCar mo
ula Ã§Ãµes
Ġrece bia
Ġdesa boto
ĠTer ras
Ġfar ei
Ġmotor istas
Ġreg iÃµes
Ġeng enh
dem ia
Ġreconhec ia
vin das
TO U
Ġdispara ndo
Ġatira dor
Ġing les
ĠSta cey
EI RA
Ġtrail ers
Ġpoltro nas
Ġcamp us
Ġcamp anha
Ġevid entemente
ĠCul len
Ġenso pado
Ġproteg endo
Ġcolor ido
Ġviole nta
Ġsequ Ãªncia
Ġenfia das
Be verly
Ġromp eu
Ġrecebe ra
parec ia
Ġfort emente
Ġmalig no
ĠavanÃ§ ado
Ġemper t
Ãºr p
Ġchap inha
ĠcontÃŃn uo
ĠSenho ra
ĠMounta in
Jun ior
Ġpranche ta
lior e
c ramm
g Ã£os
o la
u rei
v ico
y le
um ÃŃnio
Ġes guei
Ġb la
Ġl Ã¢
Ġg la
Ġg esso
te ou
ÃŃ gn
ĠC iv
ĠC Ã©us
ĠD est
ĠD ill
ĠP Ã¡s
ĠM ol
Ġj arra
ĠB rin
Ġac ess
ĠH OM
be e
Ġi Ã©
Ġesp atif
at ivas
iz ara
Ġsobre nome
Ġpes car
Ġsab Ã£o
Ãªn ico
Ġbo let
Ġrep leta
con segu
Ġaf iados
Ġtran st
Ġpol ÃŃtico
Ġsim ilar
Ġsi nta
Ġhist Ã©rica
rig i
ĠmanhÃ£ s
Ġce gos
Ġpreocu p
Ġpegar ia
ell er
Ġcarre gou
ĠPar que
Ġil us
Ġlate jando
ĠFrank lin
Ġcul to
Ġmurm urando
Ġescon dia
ĠChe guei
Ġfuma va
Ġaba lado
Ġincl inava
Ġblo queio
Ãĩ O
Ġabaix ada
cl us
Ġsacu di
Ġpren dendo
gum as
Ġlat iu
Ġ197 0
ĠÃ¢n gulos
Ġacen ando
Ġhon esto
Ġmuda ra
Ġtoss iu
ĠlanÃ§a va
ĠEncont rou
Ġprodu zia
ĠPergu ntou
Ġestuda ntes
Ġcil indros
Ġtol ice
Ġnause ante
ĠSupon ho
ĠhelicÃ³p tero
Ġlus tros
Ġaze do
Ġtempe ramento
Ġimpass ÃŃvel
ĠlÃ¢ minas
I G
S tar
S tan
v ard
z zy
Ġe is
Ġs ig
qu im
do nda
Ġo usa
Ġt elas
Ġf era
la ho
to ne
im entar
ĠA grade
ol Ã³g
il t
ĠP l
ĠP ior
ĠP ress
Ġpo eta
ĠR ES
ĠF ir
Ġh ost
ĠL am
ce to
at i
ĠG ol
Ġfor mou
Ġtam b
Ġam ado
Ġra jadas
Ġtra va
Ġtra je
Ġcha veiro
ĠW ha
Ġvis ivelmente
Ġesta duais
Ġsol idar
Ġtent Ã¡culos
Ġtrabal hou
Ġcan ela
Ġbat iam
Ġag itou
Ġapo iar
Ġacor de
Ġfra cos
Ġesquec e
Ġquad rados
Ġtre ns
Ġrev irou
Ġagu ard
Ġind ustria
Ġexplo dindo
ĠCor po
Ġperfei Ã§Ã£o
Ġmem bran
Ġfria mente
Ġmos qu
Ġreb anho
Ġmus ical
Ġden so
Ġcere al
Ġinfin ito
Ãºst ia
Ġergue ram
Ġinstant aneamente
Ġdetes tava
Ġembria gado
Ġpedac inho
Ġarregal ou
Ġconfro nto
Ġinexplic Ã¡vel
Ġcidad Ã£os
rangalha do
ĠÃŃmpe to
Ġmada me
" )
C la
I TE
J ud
O wen
g ger
j aria
Ġd iriam
Ġp icos
Ġde ton
os sa
im es
Ġdo enÃ§as
ĠS entou
Ã³ st
on d
Ġca Ã§adores
ĠC andy
ĠM and
ĠT O
Ġj orro
Ġfa ixas
Ġat arra
ĠV ER
ĠH icks
ĠF u
lo tte
Ġab risse
cia do
Ġmo ravam
Ġcome teu
Ġtra diÃ§Ã£o
Ġte atro
ĠW oody
ess or
Ġjo gÃ¡
Ġpos icion
Ġro xa
Ġsom a
Ġtent aria
Ġdor me
Ġba cia
Ġsub Ãºrb
Ġtran se
ĠPe ga
Ġcan ais
Ġpres tou
Ġgra to
rim os
ine y
Ġgos tasse
Ġacredi tando
man da
Ġpis ar
Ġfer idos
ĠCar olina
Ġvest ida
Ġesca la
Ġafas taram
ĠNe vada
ĠDes l
Ġgru ta
Ġau ge
Ġri bom
Ġtransfor mava
ĠEl den
Ġajud aria
fic iais
OR ES
Ġlocal izaÃ§Ã£o
cios amente
Ġdesper ta
Ġsurpre ende
Ġqueim ou
Ġregist rar
Ãĩ ÃķES
Ġencolh ido
ĠFl ick
Ġganha va
bec ca
Ġinfant is
ĠGold man
Ġw al
ĠHam bry
Ġmoment Ã¢nea
Ġmentir oso
Ġenfi ei
Ġtim idamente
ĠFA VOR
Ġconsist ia
Ġves pas
ĠOk laho
Ġensola rado
Ġdecl ive
ĠhistÃ©r ico
Ġassinat ura
Ġenri j
Ġveter inÃ¡rio
D u
G len
Ġd anos
nt idÃ£o
Ġo vel
Ġes gueira
de ra
Ġdo Ã§ura
ĠS ter
ĠN ig
Ġdis tan
ĠT ia
ĠT ele
Ġsa cer
Ġin veja
ul tane
Ġmu dava
ĠV A
Ġmo dific
Ġpa gando
Ġlu to
Ġsobre carre
ist ente
end eria
ter os
ud er
Ġne vas
fer o
Ġgran dalhÃ£o
ĠEnt rou
Ġdor mente
Ġcol on
cha cho
Ġins inu
Ġun idas
Ġgra xa
Ġcontra iu
Ġacredi tei
Ġestou rar
ion ais
ĠDa w
Ġad entro
Ġtira sse
Ġesco ndeu
ĠCar y
Ġpassar inho
Ġcru ci
ĠrÃ¡p idas
Ġarran hÃ£o
ĠAr ky
Ġpal m
Ġespera ria
tr Ã³leo
Ġempur rava
Ġnot Ã¡vel
Ġrecu perou
uro ra
ĠChe fe
ĠrelÃ³ gios
Al guns
gh s
ĠUn idade
Ġdesper tado
ĠVol tei
ĠlÃŃ mp
ÃĬ S
Ġincomo dava
Ġbro tou
Ġ196 3
Ġci Ãº
pro vavelmente
igu eza
Ġtorre nte
Ġexci tado
Ġleg ista
ĠhÃ¡b itos
II I
Ġful gor
ĠChev y
Ġuiv ando
Ġautom Ã³veis
Ra inbird
Ġespor tes
Bob bi
ĠhambÃºrguer es
Ġparaf usos
ĠChamb ers
Ġfon Ã³
ĠContinua va
ĠalienÃŃg ena
von ne
Ġbarran co
Ġdiagon al
Ġcolhei ta
ĠTommyknock ers
Ġdenta dura
ĠGerar d
Fla gg
ultane amente
I E
M O
T U
Ġd ur
Ġe cos
Ġp im
nt ura
Ġse car
an gue
an apos
Ġpara peito
ic aram
ri dade
ĠA bri
so bre
ol Ã³gica
inha da
ĠO lin
ĠP EL
ĠT rou
ĠT ipo
ĠB ec
he arts
ĠH ull
Ġh igi
Ġint riga
ĠI ow
ua Ã§Ã£o
Ġmar te
ĠK end
Ġins pec
Ġbe x
ĠHa w
Ġfi vela
ĠsaÃŃ mos
bro ok
Ġamar rada
Ġdesaparec e
ĠRa iney
ĠFa ntas
Ġapa gando
Ġbanh eiros
vil hÃ£o
Ġale mÃ£o
Ġ3 8
ĠCa fÃ©
ĠMo ores
Al bert
Ġhor ta
Ġacresc enta
Ġassist ia
ĠLÃ¡ grimas
Ġaum ento
ĠelÃ©tr icos
Ġcuidados o
ĠJun ction
Ġreflet indo
Ġbro tar
Po p
ĠMill s
Ġmoto cic
Ġaliv iada
Ġcansa dos
anda l
Ġproteg Ãª
Ġpression ou
Ġgris alhos
ĠalcanÃ§ Ã¡
AA AA
Ġdrin ques
Ġenchar cado
ĠBat eman
Ġracha duras
ĠSU A
ĠGil bert
Ġempol gaÃ§Ã£o
ĠMax ton
Ġsubterr Ã¢neo
Ġflan ela
Ġdesemb ar
Parec ia
Ġlist ras
Ġaju dado
Har old
Ġvagab undo
ĠvÃ´ o
ĠCran dall
Ġindescri tÃŃvel
feliz mente
ĠvÃ¡l v
ĠIow a
9 0
E E
T ess
Ġf eria
Ġf estas
re e
le tos
ent re
Ġb Ã©
Ġl Ãºm
ĠA mo
ĠA urora
Ġg ele
Ġna tal
ĠS EM
Ġma quin
ĠD iv
Ġr ÃŃ
Ġdis cor
Ġen dure
Ġac eso
Ġter res
ria da
ĠL estrade
at her
Ġab aste
st ro
Ġparec idos
Ġpod res
Ġpa tam
Ġcer Ã¢mica
pe ta
Ġvo ava
aix a
Ġjo gavam
Ġjo vial
Ġti re
Ġvis itÃ¡
der ick
Ġus aria
cha m
ĠPe a
ard in
Ġacredi tado
Ġmer ca
Ġcho cou
Ġban das
Ġpis ando
Ã´n icas
Ġaparec em
ĠPer se
Ġnecess idades
Ġconside raÃ§Ã£o
Ġincl inaÃ§Ã£o
Ġmin ia
bor o
Ġexemp lares
Ġpermit ia
Ġarrep ios
Ġbara tos
Ġafir mar
Co la
Ġsar jeta
Ġdolor osamente
Ġsepara r
Ġsuspei tava
Ġfrag mento
Ġleg enda
Ġdivid ir
ĠÃ³b via
ĠSun light
Ġestuda nte
Ġgera Ã§Ã£o
Ġapaixon ado
ĠComp anh
Ġaudi tÃ³rio
Ġrecos tou
ĠBrook s
Leva ntou
Ġofus cante
Ġfax in
ĠsuÃŃ te
Ġdepo imento
Ġsuprim entos
ĠEsf rangalhado
Ġholo fo
ĠlÃºm ina
Ġgele ia
K ATIE
L iz
O lha
f il
i di
k es
l iv
m ers
n em
n ei
v ente
Ġp eitos
Ġo cular
Ġt ram
um way
Ġv endido
ou gh
Ġcom Ãª
ĠA cker
ĠS ec
Ġest resse
Ġca em
ĠO atley
ĠD os
ĠM O
ma das
Ġpar o
Ġpe trÃ³leo
Ġac eito
ĠV im
he ta
ura is
Ġesp l
Ġesp ia
at icamente
Ġcor rido
ima da
Ġass entos
pe lada
Ġcomp licado
Ġne b
ne tte
Ġcal deira
Ġba tom
Ġson eca
ĠHa y
Ġcho cante
par tamentos
Ġsou ber
Ġpux ada
Ġemp rÃ©st
rid entes
Ġarma dos
sur de
De tetive
Ġtre ze
ĠFa lava
Ġfar do
Ġsusp ensa
Ġdeci de
Ġlimp as
ĠEl la
Ġmist Ã©rios
IN G
rasse m
Ġval es
ĠPat sy
Ġrecor daÃ§Ã£o
Ġtemp lo
Ġgem ia
ĠWal l
Ġdisp aro
Ġconv ulsÃ£o
ĠJun e
Ġproc urÃ¡
Ġassomb rada
ĠX erife
Ġdificul dades
Ġsar c
ĠSh umway
Ġganha ra
Ġunivers itÃ¡rio
ĠBet h
Ġtan ques
Ġraste jando
ĠLon dres
ĠcÃ³ ce
ĠalcanÃ§ ado
Ġacostum ar
Ġescan carou
ĠME U
Ġzom be
Ġpir Ã¢m
Ġene gre
Ġere to
Ġmast iga
Ġmorib undo
Ġinflu Ãªncia
Ġunifor mes
Ġpup ilas
Ġang Ãºstia
Ġsau dade
ĠportÃ¡ til
Ġvertic al
Ġsacer do
Ġbex iga
2 1
D rew
D uas
K e
O bri
b aria
g ton
h asse
k itz
Ġp izza
Ġm oldura
Ġco elhos
Ġf Ã³rum
ent almente
Ġcom iss
Ġcom Ã©rcio
Ġb ist
ĠA pre
Ġest ron
Ġca nta
ĠC OR
Ġal inha
Ġr ica
Ġr iam
Ġdi vor
Ġsa ib
Ġsa cada
Ġen xo
Ġen surde
ĠV Ã¡rios
Ġesp ada
Ġesp elhos
ĠL issa
ch ick
est Ã£o
if kitz
ĠJo gou
cu diu
Ġba bos
Ġinter fone
cor po
int os
Ġta ba
Ġru giu
Ġbol ha
Ġgra ves
Ġgar fo
Ġconhec em
Ġvia jantes
Ġ2 6
Ġ2 8
Ġpassar ela
ĠY vonne
Ġcarre ga
Ġagar ra
bar u
ĠEx ist
ti po
Ġon d
Ġenvol ver
Ġparecer em
Ġestu fa
Ġestu pro
mÃ¡ tica
Ġinteressa va
Ġinteressa dos
Ġenc osto
Ġpertur bador
ĠAbra ham
ĠSal Ã£o
ĠelÃ©tr icas
Ġsuger e
Ġdespe dida
Ġqueima dura
Ġpude ram
Ġdemonst raÃ§Ã£o
Ġmanda ra
Ġresid entes
ĠDei rdre
Ġrelacion amento
Ġespant osa
Ġensangu entado
Ġbizar ro
Ġmete or
Ġirland Ãªs
Ġcaf et
Ġtrag Ã©dia
fit ri
Ġpatam ar
E D
P are
h ue
p r
w ich
Ġ q
Ġp ilares
es el
re te
le en
le ndo
Ġcom andante
Ġb orrÃ£o
al guma
Ġda tilo
so m
Ġca lend
ĠO lho
Ġpar Ã¡
Ġle nda
Ġh emor
Ġan fitri
ĠL an
ce dores
at s
Ġcome tido
ĠU lt
Ġte or
ĠW orld
Ġgri los
Ġdu vidar
Ġsol ar
Ġso lavan
ĠK emp
ĠK illian
Ġtom bou
esta dual
Ġins tal
Ġcham ei
Ġcham pan
Ġfec ho
Ġfun erÃ¡ria
Ġacredi tavam
fa lante
Ġatra ente
Ġfi tavam
Ġtrans bor
Ġcrian cinhas
Ġcent ena
ĠGe ary
Ġz igueza
tÃ© rio
ĠSte ff
Ġind icou
ÃŃa cos
Ġguarda dos
Ġclar os
ĠPa lav
Ġpendura r
Ġabra Ã§ando
ĠGra nt
Ġmun ic
Ġinst Ã¡vel
Ġprome ter
Ġdireto ra
Ġinquie ta
ĠTa co
ĠMel issa
ĠConsegu i
ĠAca bei
Ġtenta vam
Ġrefer indo
EC H
ĠlanÃ§ ado
Ġconvida dos
Ġescul turas
Ġsonha dor
Ġconsequ Ãªncia
Ġit ens
Ġocasion almente
ĠtÃŃp ico
Ġchoram in
Ġcav eira
Jul ia
Ġgaio la
Ãºrp ura
ĠOklaho ma
ĠcÃ³ce gas
Ġchampan he
G aro
P assou
k en
Ġco g
Ġt eu
Ġdo eu
ic es
ĠA onde
il on
ĠN ixon
Ġre daÃ§Ã£o
ĠP ick
ĠM et
Ġme ra
Ġcon quis
ma ntes
Ġin ut
ul to
ĠV al
Ġpr ud
Ġha ll
Ġres qu
Ġcar ru
end entes
Ġdia b
Ġfazer em
Ġbo te
Ġvi veu
Ġsabe doria
Ġesqu ad
Ġatra ÃŃdo
Ġped Ã¡gio
Ġav ista
Ġag enda
Ġfi lete
ass ando
Ġtira ram
Ġergu iam
Ġprecis amente
ĠRe ed
Ġdesaparec ia
Ġespec ÃŃfico
Ġinf la
Ġder ramado
ĠSu baru
Ġescon didos
ĠEx iste
Ġadia ntava
ĠPa y
Ġsurg indo
Ġdec ente
Ġprote gido
Ġofer ecendo
Ġengra Ã§a
Ġenter rar
mÃ¡ tico
li quei
ĠDen ker
Ġeleva dores
ĠHe ath
Ġapre ciar
Ġbara tas
Ġpers ianas
ĠBru ce
Ġofe gando
Ġencer rar
ĠDor rance
Ġrepu gn
Ġvul gar
Ġenferru jados
ĠinÃº teis
Ġenfre nt
Ġviol Ã£o
Ġlad ri
Ġperm ite
Ġprotes tou
Ġsens ÃŃvel
Ġembr ulho
ĠBrig ham
ĠEll is
Ġproib ido
Ġfantasmag Ã³rico
Ġcortes ia
ĠWy zer
ipp i
ĠLud low
Ġadivinha Ã§Ãµes
Ġacid entes
ĠBrook lyn
ĠPas cow
Ġlix Ã£o
Ġdesfi le
Ġfura cÃ£o
Ġliqu ida
ĠSpr ings
ĠProvid ence
Ġdign idade
ĠGilbert son
6 0
6 7
C urt
G ra
P hil
V iu
c esse
d in
g osto
l ton
n g
Ġe ixo
Ġa gou
Ġm Ã³vel
ta z
Ġcom bate
Ġb elas
de e
Ġda da
Ġpor t
Ġca ntou
Ġca Ã§ador
ĠN Ãºmero
ĠO lhar
ĠC amp
ĠP ub
Ġdes gren
Ġcon cre
ma x
Ġat endimento
ĠH eck
ĠF i
ĠF ry
Ġh i
ĠG l
st ra
Ġvol to
ĠU au
Ġam assa
ĠW ood
Ġpesso ais
Ġentre gando
Ġso tur
Ġer radas
Ġins anidade
Ġgos ma
ĠCo ral
ĠSa yre
one y
Ġesco va
Ġacor dasse
ĠRe a
Ġmant Ã©m
Ġarran hÃµes
ĠcalÃ§a das
ins more
Ġsusp ira
iza vam
ĠIn stitu
ona ve
NT ES
Ġgarra f
Ġescorre gando
Ġanda m
dem o
Ġprepara va
ise tas
En cont
tet ives
Ġexplos ivo
Ġran ger
Ġadorm ecer
Ġamarela da
Ġbro tando
Ġpolegar es
Ġdesma iou
ĠRes p
Ġbrincadeira s
gui Ã§a
Ġeter no
Ġpulm Ã£o
Ġcontorn ar
ĠlanÃ§ amento
Ġsupos iÃ§Ã£o
Ġcolor idas
Ġrecla mar
ĠNat uralmente
Ġrepara r
Ġflutua va
ĠTri nta
ĠBrig ht
ĠRidge wick
Ġpuse ram
Ġsecund Ã¡rio
Ġcampe Ã£o
Ġmelo dia
Ġancest ral
ĠMag liore
Ġfech Ã¡
Ġmiseric or
ĠQuar enta
Ġhemato mas
Ġconsidera velmente
Ġalt itude
Ġlabiri nto
Ġmacha dinha
Ġneb lina
B A
B L
C ol
I CA
V Ã¡
Ã Ĥ
Ġp it
Ġp igarre
Ġc Ãº
Ġs ir
Ġco unt
Ġt ing
Ġf raÃ§Ã£o
Ġv ÃŃcio
Ġg ado
so me
Ġpor tÃµes
ÃŃ ticas
Ġsu icida
ĠP oss
Ġcon vidou
ĠV E
Ġle gais
Ġex clus
ĠF el
Ġh aste
Ġla de
Ġar der
Ġpre ma
Ġpre mon
Ġab ran
Ġcer rados
pa pÃ£o
pe raÃ§Ã£o
Ġdeix ada
Ġcasa da
Ġgri taram
ber ry
Ġvis or
Ġfil tro
Ġestar ei
ĠÃ¡ guia
Ġins ano
Ġsal taram
Ġsim ultaneamente
Ġtorn asse
Ġconhec esse
ass ins
ĠSa nta
ed ro
Ġ19 0
Ġtri lho
Ġcos te
Ġlou ros
Ġamar rar
Ġrec eio
ĠCl ut
Ġdescob risse
Ġgru d
Ġgru dados
Ġapa gadas
Ġga ta
Ġconcor dei
NT O
Ġu ivos
Ġguarda da
Ġado ra
AS S
Ġmaldi tas
ĠCal vin
Ġur b
Ġoito centos
Ġesfor Ã§ar
Ġtur istas
Ġcole tiva
Ġempre gado
Ġapres sa
Ġobserva vam
ĠDen ise
Ġgrava do
sem pre
Ã¢ne os
Ġcontemp lar
ĠtrÃªm ulas
Ġresta ura
Ġsubstitu ÃŃda
ÃŃst icos
Ġpenet rar
ĠmetÃ¡ lica
Ġgl obos
Ġful ig
Ġestilha Ã§os
Ġtransmit ir
Ġimpe diu
Ġracha dura
Ġfren Ã©tico
Ġmoder na
Ġdesgra Ã§ado
Ġestri tamente
Ġdesd Ã©m
Ġassegu rar
Ġtric iclo
ĠCle veland
ĠpÃŃ lula
Ġinof ensivo
Ġdesajeitada mente
Ġcate g
Ġtilint ar
Ġlacrim e
Ġreconfor tante
Ġequiva lente
ĠBrid gton
h in
u tas
Ġe vol
Ġc Ã³r
Ġs am
Ġse cado
le ntes
Ġcom em
se ll
Ġem old
ri ra
Ġna turais
Ġca var
Ġal tar
Ġal imento
ĠD insmore
Ġdi vi
ĠT RA
Ġj ar
Ġen cob
ĠB ir
Ġpo ente
ĠH O
ĠF osse
Ġla tÃ£o
ica dos
ĠL ul
Ġcor ridas
ĠDe p
Ġfor Ã§ando
Ãº ne
ĠW ol
lha dora
Ġgran izo
Ġso ando
Ġverdade iras
Ġtom asse
bal l
et u
Ġsur gia
Ġestran g
Ġcho ver
por que
Ġtro cou
ĠHavia m
alha dos
ven Ã§Ã£o
Ġacor dava
ilha da
Ġz o
Ãºm eros
RA R
Ġdesa fia
Ġvest ÃŃgios
Ġtre chos
Ġfuncion am
Ã³r icos
Ġexplo diram
Ġado raria
ĠEx perim
Ġpret endendo
Ġanterior mente
Ġenvol to
Ġmin Ãºsculo
Ġdig no
ĠWal t
Ġemb os
Ġcres ciam
Ġaproxima Ã§Ã£o
Ġcoloca da
Ġesfre gar
Ġexter no
Ġinde pendente
Ġmassa ge
Ġgira vam
Ġquant ia
Ġaliv iar
Ġexc ur
ĠAcredi te
Ġarrum ado
Ġocul to
Ġaudi Ãªncia
Ġantiqu ado
Ġexpe diÃ§Ã£o
ĠAgar rou
Ġreaparec eu
Pat rick
ĠKit ty
ĠCarmo dy
Ġespl Ãªn
Ġrepugn Ã¢ncia
Ġcount ry
F ar
P olly
P OS
P OR
P rimeiro
S uas
S obre
V i
m entar
t Ã¡rio
t ilha
er ve
Ġv icia
le igh
ĠE ns
Ġpara ÃŃso
gu l
ĠA pa
ÃŃ max
ĠM U
Ġdi esel
Ġsa cou
ĠB ri
Ġat i
he imer
ens as
Ġesp inhos
Ġesp osas
Ġab riam
Ġser mÃ£o
ĠG en
ĠDe pressa
Ġcas ualmente
Ġcam isetas
Ġpes ca
Ġcomp ensa
Ġfal cÃ£o
ĠW a
Ġsen ha
ke ag
Ġmar fim
Ġencont re
ba Ã§Ã£o
Ġpu ri
Ġpres id
ĠEm pis
Ġatra pal
ĠCo ggins
Ġban ana
Ġbri lhou
Ġperce p
Ġesco las
Ġapo ntei
ĠMa ura
Ġcoloc ara
Ġdesl oc
Ġve ado
ĠChar lotte
Ġdese jos
tis mo
Ġcheg assem
Ġexplo rar
ĠLa uder
Ġmol hadas
Ġcob riam
Ġcus ta
Ġempre gada
Ġgem er
Ġocu par
ĠWill ie
Ġtiro teio
Ġjul gou
Ġaleg res
Ġinquie tante
Ġarro xe
Ġpren dia
ĠDor m
Ġreve lava
ĠinÃº meras
ĠOr ris
Ġguard anapos
Ġrecome Ã§ar
ĠConsegu e
ĠcÃ´mo dos
Ġconge lada
Ġlad rÃµes
Ġmole que
Ġide al
ĠAu to
ĠCons igo
Ġgera Ã§Ãµes
Ġrespira va
Ġespant oso
Ġacus ado
Ġestud ando
Ġvelh inho
Ã¡l ise
ĠJas on
ÃŃsse is
Ġdesfi gu
Ġintest inos
Ġfedore nto
ĠmandÃŃb ulas
Ġamost ras
Ġcharu to
Ġdipl oma
Ġimpot ente
ĠFrit z
Ġetique ta
Ġorgulh oso
ĠWha te
ĠBec ky
ĠrÃŃ gido
W endy
d emos
e b
f ra
n n
t to
Ġs ara
Ġm ito
re iras
el ou
oc utor
ĠS in
ĠC ord
Ġal mas
ĠP osto
Ġdis creto
Ġdes gas
Ġcon duzia
Ġpre feitura
Ġimp ressa
Ġman ual
Ġfre gueses
Ġro lante
cion ado
Ġaf a
Ġcria da
Ġacha ra
Ġforma Ã§Ã£o
Ġforma tura
pres sÃ£o
Ġconf issÃ£o
Ġfilho te
Ġtri bo
Ġpensa tivamente
Ġarran hando
Ġarran jou
Ġfam a
Ġesca daria
Ġcava leiros
ĠRichard son
ĠCas arÃ£o
Ġrecu ando
Ġsono lenta
Ġencos tas
Ġtrase iros
Ġanda ra
Ġur gÃªncia
Ġprepara da
Ġbater ias
ok s
TA M
Ġespalha va
Ġferro lho
Ġtrabalha vam
ĠDia ne
mon s
Ġmoc assins
Ġmistura do
Po is
Ġprefer ido
Ġpont eiro
Ġlat idos
ĠAng ie
ĠMel inda
Ġdispos tos
ĠMart en
Ġorgan izaÃ§Ã£o
Ġderre tendo
Ġcontorn ou
ĠnÃ¡ ilon
Ġut ilidade
Ġbaru lhos
Lo go
ĠDer went
Ġdescont ra
ĠAcontec e
Ġassal to
Ġsauda Ã§Ã£o
Ġtrabalhado res
Ġacende ram
Cur tis
Ġembrul hado
Ġmens tru
idem ia
ĠAnci Ãµes
ĠMississ ippi
ĠTOD OS
Ġmerca dinho
Ġbist uri
Ġzigueza gue
3 8
B O
C E
I BI
J e
N um
P ensou
S entiu
T R
h Ã¡
i bal
m aram
v Ã©m
Ġp ico
Ġo pera
Ġt rio
Ġt ua
re io
Ġes fa
da ram
Ã§ amos
al os
de ll
el isco
so ta
ĠS cramm
Ġma taram
us keag
ĠO n
ĠD IA
ĠP os
lh em
Ġdes do
Ġper ÃŃcia
Ġpar quinho
Ġfo tÃ³
di tos
ĠR ap
Ġela bo
Ġent u
Ġex ul
Ġesp iava
ur b
Ġto co
ita ra
Ġmor ria
Ġhom icÃŃdio
Ġte im
Ġdia mante
ĠW ins
ber tos
if ique
Ġob rig
Ġcol Ã´nia
Ġmal ha
Ġbar b
cha in
Ġta he
ĠHa z
ĠHa veria
ÃŃn ico
ion ando
ris e
Ġban car
vida des
ĠMar gar
lic ando
ĠTo okey
ĠHar vey
lin s
Ġpul sar
Ġdescob rindo
Ġfra camente
Ġnor oeste
Ġsensa to
isso ra
Ġesca pado
duz ido
Ġagar rava
Ġreg imento
Ġsin ceramente
Ãī M
Ġmol as
ĠNew t
Ġgem idos
ile en
Ġabaix a
Pe gou
Ġfres ta
Ġcora joso
Ġouvia m
ĠFre e
ĠJul ie
Ġdoc inho
ĠConsegu ia
Ġiso lamento
Ap enas
ĠHam ey
Ġpercebe ra
Ġocupa dos
Ġpot ente
Ġinespe radamente
Ġtoma te
Ġtrein amento
Ġgrotes ca
Ġextraordin Ã¡rio
Vol tei
ĠRam ona
Ġzan gada
grÃ¡ f
ĠanÃºn cios
Ġapanha dor
ĠSor riu
Ġcampe onato
Ġvagar osamente
ĠtÃŃm ido
Ġinterrom per
Ġmul ta
ĠincÃ´mo do
ĠThur ston
ĠaÃ§ou gueiro
ĠPÃºb lica
Ġmoran go
Ġmetr Ã´
ĠBroad way
Ġtamb ores
Ġnevas ca
ĠDaw es
Ġtaba co
ĠWhate ley
9 5
A ce
V o
Z E
c ÃŃfico
d ca
p in
z heimer
Ġde ns
Ġn en
Ġf us
de g
de iros
Ġdo ida
ic ho
Ġl Ã³gico
ĠA A
co lo
Ġg am
te ram
Ġest endiam
Ġca ntavam
Ġre demo
ĠC AM
Ġme dalha
ĠT irei
Ġsa pos
Ġen ce
ma la
ens ado
gar ra
ĠF uz
ĠL im
Ġpre go
Ġres so
ĠG ates
Ġmo fo
Ġcas cos
Ġra ras
Ã³s itos
ĠAl zheimer
Ġesta n
Ġvi ga
Ġexp osto
ke es
Ġcorre ias
Ġva gos
Ġacha ram
Ġta ci
Ġbri gar
Ġce gamente
ĠCar son
ula das
Ġpul sando
ĠsÃ© timo
tÃ¡ rios
Ġespec tro
bu ck
Ġvest ÃŃgio
Ġnu as
Ġtermin aram
ĠDes chain
ĠCla wson
Ġau ro
Ġsof ist
inos sa
Ġaco me
Ġext ras
Ġcr ÃŃtica
Ġlen Ã§os
ĠCor cel
bol t
Ġespecial ista
ĠStu art
Ġgol es
Ġdou radas
Ġavi dez
Ġacomp anhÃ¡
Ġfrequ entes
ile iros
Ġpreocupa dos
Ġsoube ra
Ġjor rou
Ġencar Ã¡
ĠRus k
Ġtorna vam
ĠAb solutamente
Ġtelefon ista
Ġamarela do
Ġcant il
ĠSh hh
Ġhe ra
Ġdesconhec idas
Ġverdadeira mente
Ġarqu ite
Ġvas cu
Ġexc Ãªnt
Ġderram ou
tera pia
ĠVia jante
Ġferram enta
Ġsombria mente
Ġextraordin ariamente
Ġnega tivamente
Ġaprovei tar
Ġetern amente
Ġensangu entada
Ġdesliga da
Pro vavelmente
Ġaux ÃŃlio
Ġencur ra
ĠsÃŃmb olos
ĠSar gento
Ġton ela
ĠhelicÃ³p teros
Ġmiseric Ã³rdia
Ġrud imentar
ĠMulher es
asso mb
Ġgr Ã£os
Ġracioc ÃŃnio
Ġadiant aria
ĠFranc isco
Ã¢nda lo
ĠMic key
Ġrecip iente
ĠMeta de
ĠKend uskeag
Ġmunic ÃŃpio
M ia
a quele
e ia
h eira
n um
Ġde van
Ġde tetives
Ġes gar
da l
la te
va gar
Ġb esou
ĠE ris
Ġpara vam
Ġre ga
ĠC ru
ĠP ig
ĠP ost
Ġme ga
Ġpo Ã§as
Ġat en
ĠV OL
Ġcor tava
Ġpa te
Ã´ pe
Ġimp lica
Ġgri tavam
ĠK innell
ba teu
Ġus asse
Ġbar ro
Ġdent re
ĠPo wer
du almente
tal ho
Ġsimp atia
Ġemp al
Ġaber tamente
tei ras
ĠCon ver
Ġmant ive
ĠDo gan
Ġesca pul
ĠMe ia
Ġbrilha ram
Ġ3 1
Ġestacion ar
Ġcul par
Ġaltura s
Ġmex e
ÃŃr culo
Ġidio tice
Ġanda ram
Ġmergu lho
Ġamea Ã§ando
Ġqueima va
Ġpri va
Ġmec has
Ġvapor es
ĠRed man
mu chacho
Ġprom essas
Ġcintila ntes
Ġagon izante
Ġlama c
Ġpaco tes
ĠOb elisco
Ġperd esse
Per gu
ĠDis c
Ġsint omas
Ġpreen cher
Ġino x
ĠAss ociaÃ§Ã£o
Ġdeterm inada
Ġtou ro
Ġuiv ou
Ġidos os
ĠFA Z
Ġit em
Ġdeprim ido
Ġenjo ado
Ġexpe diente
Ġdesej aria
ĠHen chick
ĠMus tan
Ġestendi das
Ġrecomp ensa
Ġdiant eira
Ġvertig em
Ġrecei ta
ĠClu be
Ġesm ur
Ġmecan ismo
Ġcompartil har
ĠrÃ³ t
Ġinstitu iÃ§Ã£o
Ġhorrip ilante
ĠFris ky
ÃĬNC IA
Ġminia tura
' .
B ER
D ER
K urtz
T erry
d Ãµes
g Ã¡vel
m ent
Ġ Q
Ġp eles
Ġm ÃŃsseis
Ġco erente
Ġse ve
le mb
Ġem an
co lh
Ġest icado
Ġca gar
Ġre cob
ĠP Ã´
Ġen ras
Ġat ividades
ĠJ on
Ġtr Ã´pe
Ġaqu ecedor
tado ra
ge ral
asse i
tor ze
Ġacontec eram
Ġtent ativas
Ġer ros
Ġpen it
Ġgu im
Ġaca be
du la
Ġescu tava
Ġtro cado
Ġergu i
Ġtenha mos
Ġarre me
Ġarre donda
Ġpart iram
ĠRe becca
Ġarran ha
Ġcuida va
Ġchu tar
Ġcarre tel
Ġfuncion avam
mar t
Ġmon ito
tis tas
Ġagra dÃ¡veis
Ġarras tava
ĠQuer ida
Ġatravess aram
ĠpÃ¡l idos
erÃ¡ veis
Ġmalu quice
Ġdim ensÃµes
Ġsup rimento
han k
Ġextrem idades
ĠDen nis
ĠcÃ¢ mbio
Ġenca nto
Ġnove la
Ã³p sia
ĠVÃ¡ rias
Ġans iosamente
Ġagrade cido
Ġfur tivamente
ĠDar k
ps i
Ġmag ric
Ġinsta lado
Ġlan che
Ġtest ÃŃculos
ĠÃ¢n imo
Ġpon ha
Ġbu eiro
Ġimagin ara
Ġsobreviv ente
Ġinfeliz mente
Ġorgan ismo
ĠGos tava
ÃŃl ios
win der
ĠVOCÃĬ S
ĠgarÃ§ om
Che gou
Ġinje tados
ĠShar on
Ġanuncia va
Ġvigor osamente
Ġmascul ina
Ġosci lava
Ġcutu cou
ĠJas Ã£o
ĠmandÃŃb ula
Ġdispon ÃŃvel
pergu ntou
Ġaprende ra
Ġcaixo te
Ġcatar ro
Ġproced imento
urg is
ĠCompanh ia
Ke vin
Ġcalend Ã¡rio
Ġtaci tur
2 4
5 5
? ),
C er
D ez
G E
S ou
T ra
T OS
c is
c us
f ix
j Ã©
m en
p en
Ġe ri
Ġde partamentos
Ġf Ã£
Ġes verde
Ġdo ÃŃam
Ġem a
gu inho
Ġl ida
ĠA v
ĠS us
ĠS id
Ġest er
Ġest udou
Ġma nta
Ġma car
ÃŃ culas
Ġca torze
ĠC um
ĠD IS
un der
Ġsa ca
ma z
Ġper ua
Ġac res
ĠR A
ĠR ath
Ġent arde
it h
ens en
ĠF IL
Ġsem an
Ġcor ta
cia nte
Ġpa pelada
Ġlu tava
Ġch ut
Ġra chada
Ġcha co
Ġimp ie
Ã¢ metro
Ġman ip
Ġcasa cos
Ġsol tos
ĠEst ive
ĠEnt er
Ġins ana
Ġcham amos
ici Ãªncia
Ġbal des
tu la
Ġcaix inha
Ġmov ido
Ġagu arda
ĠIn felizmente
Ġcr ÃŃtico
Ġlim us
Ġsin cera
Ġmex ia
Ġmex ic
Ġform ig
ĠPat r
Ġdesp esas
Ġenter rados
Ġapres entaÃ§Ã£o
Ġbl usÃ£o
Ġenc an
Ġpermit indo
ee ee
Ġremo ver
ĠAb aix
Ġmi jo
Ġcump rimento
Ġron ron
Ġreflet ia
Ġincr Ã©d
Ġmercado ria
ĠPhil ip
Ġdespre z
Ġrecupe rando
Ġreve lado
Ġentra rem
Ġconsul tar
Ġmis to
Ġexplica Ã§Ãµes
Ġafo gado
Ġafo gando
ĠDescul pa
Ġreserva do
Ġign or
Ġbloque ando
Ġmole tom
Ġcontorn os
Ġgl Ã³ria
Ġpron unciar
Ġadqui rido
Ġmergulha do
Ġafun dando
Ġjaz iam
lm ers
Ã©d ico
Ġpref iro
Ġadminist raÃ§Ã£o
Ġempilha dos
Ġcaptura do
ĠEspe rava
ĠVen ham
Ġsacri fÃŃcio
ĠAper tou
Bra dy
Ġressent imento
Ġentrea berta
Ġsangu ÃŃne
Ġtrip ulaÃ§Ã£o
Ġdelibe radamente
Ġfaro este
Ġdesva ira
Ġtera pia
Ġdecid idamente
Ġcomprom isso
Ġgeng ivas
Ġrepug nante
ĠcÃº mp
I DO
k ing
o th
r tle
z entas
Ġa udÃŃvel
nt u
es os
Ġse lo
da y
Ġcom i
Ġcom entar
de raÃ§Ã£o
Ġpor rada
Ġca che
ĠC L
Ġal umÃŃnio
ĠP OS
ĠM id
ĠM ilo
Ġmas tro
ĠJ O
ĠH os
Ġpro fer
ras to
Ġcor rem
Ġpre visÃ£o
Ġser vem
Ġcar pint
ĠDe veria
Ġtra to
Ġpou par
Ġint it
bo ok
ĠMas s
Ġpos tal
ut igan
ĠK ash
ĠEnt endido
Ġinter l
Ġbom bar
Ġlo tado
Ġsor ra
Ġsur real
Ġru iva
Ġcan ce
Ġvira sse
Ġcoloc aram
Ġarre ba
ĠEn g
Ġvest iÃ¡rio
Ġdeci disse
Ġsaco las
ĠmÃºs culo
lor e
Ġdesper ceb
Ġsilen cia
ĠBro wer
Ġapres enta
Ġobri gar
ĠbÃª bada
Ã©tr ica
Ġamp u
Ġans iosos
Ġencolh endo
Ġge o
Ġproduz ido
ĠRes postas
Ġpenet rou
Ġenferru jadas
Ġinca pa
Ġespre itando
Ġinfin itamente
Ġsust entar
ĠColo quei
Ġmister iosa
Ġanal gÃ©s
ĠPRO IBI
Ġbarulh ento
Ġcig ano
ĠBel la
Ġmalig na
ĠmonÃ³ tona
Ġnit idez
kn ess
ĠbÃ¡s ico
Ġsauda des
Ġcorrig iu
ĠcÃ´m ico
Ġespas mo
Ġveteran o
ĠSide winder
ĠbinÃ³ culo
ĠespÃ©c imes
ĠDoug las
ĠpreguiÃ§os amente
Ġinsignifica nte
Ġestil ingue
Ġimprovis ado
ĠConse lho
Ġsolidar iedade
ĠSter ling
ĠInstitu to
C inco
T entou
X X
j Ãµes
m ara
v ington
w ak
Ġc ros
Ġm Ãºm
Ġo i
Ġo dores
es tavam
le va
se us
Ġem bal
ĠA Ã©
ĠS w
ĠS usp
ĠS ifkitz
Ã³ logo
Ġma tra
Ġre bate
ĠC em
ĠC ham
ĠM oss
Ġdis cer
Ġdis par
ĠT ill
Ġj arro
Ġsa ias
Ġat entos
Ġat ende
ul idade
Ġent raria
ĠF loresta
Ġcor tados
Ġsob rinho
Ġsob ressa
ĠG RAN
Ġcas ulo
ina gem
inh ei
Ġmor rem
Ġmor tu
Ġimp on
Ġpra ga
Ġouv iria
Ġfre guÃªs
ĠJa ya
ge tte
Ġvis sem
Ġfil as
Ġmar mo
Ġmar inheiro
Ġcorre tor
bal ho
Ġins inua
ap enas
pos tos
Ġsal vÃ¡
Ġped isse
Ġav anÃ§o
ĠTo ot
ĠTo zier
para do
fe ras
ĠMa u
Ġce gas
Ġtoc asse
Ġpla us
ĠDo ze
ĠDE US
Ġtre pa
Ġapa garam
iza ntes
ĠCa ch
Ġnecess Ã¡rias
forma Ã§Ã£o
ĠBra utigan
Ġapos tas
ĠAm mi
Ġur gente
Ġesfor Ã§ando
Ġform idÃ¡vel
quil ib
ĠDen ny
Ġident ificou
Ġgrava da
Ġpermit ido
Ġemb ru
Ġdesco nto
Ġremo ta
Ġesto nte
Ġ11 9
Ġigno rava
ws hank
Ġautor idades
Ġdan ada
Ġcamp oneses
Ġapla u
Ġdesf ru
ĠSha w
ĠSha wshank
Ġpot Ãªncia
Ġenchar cada
Ġfare jar
Ġrecolh eu
Ġafun dar
ĠCH E
Ra chel
lim inar
Ġaconse lhou
ĠTrabal ho
ĠProme to
ĠVerdade iro
Ġencant ador
ĠCos law
Ġsever o
Ġdil ig
Ġazule jos
Ġlob isomem
ĠOrd ner
Ġnava lha
Ġhomena gem
ĠvÃŃr us
cod ilo
Ġbabos eira
Ġhemor ragia
" ...
7 0
C IA
D OS
I r
J ordan
M an
R es
b lo
Ġp anos
Ġqu ina
um es
ro w
ĠE va
em s
el da
Ġca Ã§
il Ã¢ncia
ir Ã¡vel
ĠC orn
ĠD ona
ĠP obre
ĠM EN
om an
ĠB A
Ġac el
Ġle Ãµes
esse i
ica va
at as
Ġsob rinha
Ġmo veram
Ġpa vio
Ġcar ecas
vo z
Ġtra gada
Ġgri tinho
Ġesta dos
Ġob stru
Ġob teve
Ġcl ÃŃmax
ĠK asp
Ġba c
Ġbar rica
anh ei
bra k
Ġimpor tou
ly mouth
por ta
min ar
Ġtro te
ble ma
Ġbon itos
Ġemp un
Ġpal est
Ġbrin de
Ġdeci f
Ġpend urou
ĠEl mer
Ġu se
fic ar
IN A
Ġsurg ido
Ġating indo
Ġacresc entando
ner Ã¡vel
Ġmin ist
ĠCha lmers
ĠCin quenta
ee k
Ġsuger indo
Ġbur rice
Ġcant eiro
Ġdemo ra
Ġdom ÃŃnio
Ġlat ir
Ġinfor mar
Ġinfor mado
ĠLau ghs
Ġenlouqu ecer
Ġdesenh ou
Ġescor riam
Ġacele rado
Ġpel udo
Ġiso lado
Ġinva diu
ĠMon o
encia is
Ġcient istas
ĠCons iderando
ĠCorre u
Ġrepara do
Ġperple xa
Ġesbo fe
Ġempoeira da
Ġfracas so
Ġcoc eira
Ġdescu ida
ipp y
ĠidÃªnt icos
Ġaborre cido
ĠAS S
ÃŃdu os
ĠKel ly
Ġdesfa zer
ĠGib son
ĠLey den
Ġinstint os
Ġdoent io
ĠYan kees
Ġestamp ado
gran de
Ġcoa gu
Ġbibliotec Ã¡ria
ĠIS SO
Ġgaivo ta
Ġdesfila deiro
Ġassem elha
ĠCount ry
Ġesfar ra
ĠArn old
Ġaver sÃ£o
Ġindustria l
Ġdatilo gra
Ġladri lhos
Ġentarde cer
ĠKash wak
ĠKasp brak
C loto
D ussander
L ES
P edro
c lu
h l
p iro
Ġd inossa
Ġa ros
Ġa der
Ġp atro
Ġm ero
Ġm ama
do mo
Ġn Ãº
Ġco reto
Ġt entaÃ§Ã£o
Ġf ÃŃ
Ġv ime
ou tra
da das
Ġcom an
Ġb ras
Ġg orro
Ġpor te
ĠC osta
ĠP OL
Ġme dia
que za
Ġdes am
Ġen re
ma vam
Ġper ca
Ġin al
Ġin un
Ġolh eiras
ĠF edic
Ġcor dial
Ġser ena
ĠG ru
Ġsent enÃ§a
Ġcas ou
ĠQu inze
Ġcam ar
Ġtam anha
Ġsab ore
ĠI NT
Ġvai vÃ©m
Ġman de
Ġtor rada
ber na
Ġva g
iva l
Ġrespon dia
Ġrespon dendo
ĠNo vo
et ta
Ġtrabal ham
Ġpres erva
Ġesqu ilo
Ġban dos
Ġtorn ei
Ġfi letes
Ġsimp Ã¡tica
Ġapo nt
Ġdez enove
ĠDan iel
ĠCh ico
Ġquad ras
ĠNe le
Ġcava lete
ĠPar ei
Ġgru dada
red ulidade
ĠEx p
Ġsitua Ã§Ãµes
Ġgan gue
IN DO
Ġaba fados
Ġsurg iam
Ġur inar
Ġreconhec e
Ġcus pe
Ġabando nados
Ġgor das
Ġilum inando
Ġinteressa da
Ġrea giu
Ġdescul par
Ġparticular es
ĠSara sota
ler ke
Ġdeter io
Ġpers uas
Ġpasse ar
Ġirre al
Ġcambale ar
Ġhip nÃ³
ĠsÃ¡ bio
ander son
ĠMan de
Ġpan cadas
ĠSo ames
ĠincÃªn dios
Ġconvers amos
Ġdolor ido
Ġofe gou
Ġconsul tou
ĠLeva nte
Ġdispos ta
Ġafo gar
Ġexaus ta
Ġsobreviv ido
Ġeter na
cam ore
Ġcintila vam
ĠMun shun
Ġesgo tado
Ġderre ter
ĠRec or
Ġperturbado ra
Ġnega tiva
Ġpermanec iam
ĠLi gue
Ġoc orrer
Ġarmaz en
Ġet c
Ġpesqu isas
Ġafirma tivamente
Ġcirur g
Ġlamp iÃµes
ĠminÃºs cula
Ġmedon ho
ĠTru dy
ĠcÃŃ vico
Ġbastar do
ĠAlf ie
Ġsacana gem
Ġindiv ÃŃduo
poss ÃŃvel
ĠSy camore
ĠpÃº l
Ġobitu Ã¡rio
Ġaguard ando
Ġanfitri Ã£o
ĠFry e
Ġauro ra
ĠRath bun
C AR
F ER
J albert
L u
T V
a contec
e do
r ista
r inger
t Ã´
w ford
ra gem
Ġco o
es tado
Ġse cou
Ġg iro
Ġest endido
Ġca is
Ġas ilo
Ġele vando
ĠP lymouth
Ġcon gre
di fica
Ġpe dira
ĠV is
ĠV inha
ĠV ista
ĠJ esse
Ġap licar
Ġex ista
ĠF omos
Ġesp lendo
Ġres tou
Ġab om
Ġser eno
Ġtra iÃ§o
Ġimp osto
ter na
Ġcasa dos
ess enta
for mado
Ġentre cor
Ġsol teiro
Ġcal vo
Ġrep el
Ġrespon da
Ġlo teria
cas a
Ġgos tos
Ġcho rado
Ġad vers
Ġcontinu o
Ġesco peta
Ġsimp licidade
Ġaper tei
Ġquad rada
tÃ© ia
Ġespa ntada
ĠDes e
ĠSte wart
ren alina
Ġret Ã¢ngulo
Ġind ÃŃcios
Ġexist isse
Ġescon didas
Ġmol har
Ġens inado
Ġens aio
fre y
iss Ãµes
Ġdesper to
Ġdesen hado
Ġregist rado
Ġdob rando
Ġmergu lhando
Ġdestru ÃŃda
Ġpers ua
Ġinsist ir
Ġconcent rou
Ġtiver em
Ġconseguisse m
Ġproje tavam
Ġdet rÃ¡s
Ġsubstitu ir
Ġps ico
Ġbate ra
Ġtransform aram
Ġqueima dos
Ġlan cheira
Ġpub licidade
Ġrecus ava
Ġemit indo
ĠfÃº ne
Ġtap inhas
ĠDel ta
ĠTh under
Ãĵ S
Ġpad rasto
ĠHill man
Ġrefer Ãªncias
ĠMon ette
ĠgÃªme as
Ġreto mou
ĠDer by
Ġreflex Ã£o
Ġquestion ar
Ġafun dado
Ġcriou lo
Ġcast igo
ĠpÃªn dulo
Ġvenen oso
Ġrang endo
Ġave ia
Ġtatua gem
Ġpressent imento
Ġsofre ra
Ġrevi rando
ĠHist Ã³ria
Dar cy
Ġprostitu ta
Ġdesapo ntado
Ġcrip ta
ĠRÃ¡ pido
Ġcalcul ou
ĠnÃ¡use a
ĠFen ner
ĠvÃ¡lv ula
C ra
D eixe
S ei
a ch
j um
s tan
w ns
y o
ra y
Ġp inos
Ġp Ãºrpura
Ġt ÃŃ
Ġt eles
or ra
va mente
Ġb rim
de ix
Ġpara n
Ġl idando
ĠS entado
us land
Ġme t
Ġmas tur
go a
Ġdi ri
Ġdi Ã¢metro
ĠT ran
Ġdes man
Ġj umento
Ġfo guete
ez inhos
it Ã³rio
ens tein
gar ty
Ġto quei
Ġpre di
Qu ero
Ġass ado
Ġass ina
Ãº ria
ch Ã¡
Ġtra tando
Ġint eiras
Ġsol taram
Ġestar emos
ĠJo vem
Ã¢n imo
Ġson hei
ph ie
ĠPe psi
Ġju nta
Ġpol ÃŃticos
Ġta lentos
ĠCo o
Ġad renalina
tÃ³ dia
Ġergu idos
Ġnor deste
ĠDo dd
Ġafas tava
Ġassus ta
eral d
ĠIn cl
Ġnecess Ã¡rios
Ġasso bio
Ġprote tor
Ġrecor dando
Ġsup Ãµe
ĠSou be
Ġderru bÃ¡
ĠVol tar
Ġdob ras
ĠSal ve
Ġcontor cia
Ġamea Ã§ador
Ġdespe dir
Ġrever Ãªncia
Ġpub lic
Ġpub licar
ĠNatal ie
Ġconfia va
ĠfÃ´ sse
Ġenvelo pes
Ġreduz ir
Ġeco ou
ĠdanÃ§a va
Ġaga cha
hh h
ĠSto vington
Ġcro codilo
Ġcompor tar
Ġarbus to
tig ado
Ġtex tura
Ġexecu tar
Ġestica dos
Ġedu cado
Ġmantinha m
Ġef iciente
Ġsugest Ãµes
Ġfantasmag Ã³rica
Ġmunicipal idade
Ġperigos os
Ġgargal o
Ġperu ca
ĠLin ny
ĠmonÃ³ tono
Ġrus so
Ġacusa Ã§Ãµes
ĠPerce beu
ĠAT Ãī
Bra d
Ġganh ei
ĠClu b
Ġperver so
Ġfagu lhas
ĠEspecial mente
Ġantigu idade
ĠAcker man
Ġfulig em
ĠpÃºl pito
. :
B ILL
H ER
J er
M er
P apai
R IA
S eria
T ony
a f
c ista
g rou
i us
p ai
t ima
t ino
Ġf osso
ro ll
el icidade
ic on
Ġg anho
ĠS no
ĠS Ã©rio
on ada
Ġca car
Ġre pete
ĠP ris
ĠM UN
Ġdes an
Ġfa cas
he y
Ġpr Ã³s
Ġi o
ĠG osse
Ġcas eiro
Ġpens Ã£o
Ġcomp ensar
end ron
Ġimp rim
Ġfal s
Ġfal tavam
Ġdia nteiras
Ġresp eitos
Ġne to
Ġro laram
dor m
Ġesta lido
Ġvi rem
ĠCom b
Ġso leira
ĠK lerke
Ġpu la
Ġcons tantes
Ġju ntando
ĠPo nte
bra is
Ġsur rada
Ġmer dinha
Ġav esso
Ġconf ess
ĠMa ck
Ġfer vor
ila ntes
Ġor n
Ġja car
Ġreal izar
Ġesca pando
Ġchu tando
ĠFa ye
Ġfar emos
ĠPro cure
xa tamente
Ġobserv Ã¡
Ġcontro lado
ĠMo tor
ĠMike y
Ġgara nto
ĠpÃ¡l idas
fre w
Ġ4 8
Ġating iram
Ġocor ria
Ġpi ntados
Ġlam entar
Ġalu cina
Ġarrep ender
Ġengol ido
Ġestra dinha
Ġinterromp ida
Ġchor ei
Ġincr us
Ġexib ir
Ġinsta laÃ§Ã£o
uss Ãµes
Ġvar iedade
ĠbalanÃ§a vam
Ġcruza va
ĠImag inou
Ġredo ndos
ĠGeral mente
ĠCou rt
ĠrÃ© p
Ġderram ando
Ġultra pas
ĠlanÃ§ ador
encia do
Ġbebe deira
Ġobede cer
Ġrefrige rantes
Ġdeso laÃ§Ã£o
Ġcaracter ÃŃstica
Ġprovid Ãªncia
Ã©d icos
Ġsonha va
Ġcamara das
Ġadivinha Ã§Ã£o
ĠquÃŃm ico
ĠAcor de
Ġep idemia
Ġsignific aria
ĠÃªx ito
ĠaÃ© rea
Ġaju dasse
Ġuiva va
Ġconvuls Ãµes
Ġincessa nte
Ġperam b
Pass aram
ĠiP ad
Ġsangra va
Ġdesli guei
ĠEb bie
Ġdesanim ado
Ġlocomo tiva
ĠLis bon
ĠNig el
ĠExist em
Ġseve ramente
Ġmacar rÃ£o
ĠGosse lin
? '
G EM
P osso
R ec
e bros
l ine
n Ã³s
s i
v ivo
Ġp ilar
Ġp onde
Ġs uma
qu al
qu eca
er ton
um ba
ĠE as
ĠS na
Ġca pas
ĠD ix
dos amente
Ġcon vid
ĠB i
ĠB lanche
Ġpar ente
Ġfo fo
Ġin um
di ar
di osa
Ġpe des
Ġent idade
ĠH ad
ĠL U
Ġar dia
Ġcar idade
Ġsent adas
Ġfic has
Ġsegu idos
Ġlu xu
ĠU ris
Ġmor dido
Ġra ra
Ġte at
ĠMas ter
Ġir Ã£o
Ġesta ndo
Ġsol tava
Ġlemb raria
Ġten ebros
Ġtran cadas
ph y
Ġcab ide
Ġmer das
Ġbat esse
ĠCo ntou
Ġag ressÃ£o
mp son
Ġcur vando
ĠMa gn
Ġpla tÃ©ia
Ġpensa tiva
ĠRo d
Ġfar fal
Ġgal er
ĠLo w
ĠPar em
ĠÃ©p ocas
Ġfe dia
ĠEl gin
Ġil ust
ĠCa b
ĠMo ore
Se ja
Ġdem ol
Ġrepet idas
Ġfran ca
Ġgan hado
Ġvel oc
ĠlÃŃn guas
Ġrecor daÃ§Ãµes
Ġempre gados
Ġcart eiro
tri tos
Ġeleva do
Ġaut Ã³psia
Ġapre ensÃ£o
AM OS
iqu eiro
Ġvaga bun
Ġplane java
Ġala ranjado
Ġdesma iado
uck y
Ġvit rola
Ġalim entando
Ġdesconhec idos
Ġvul nerÃ¡vel
Ġsepara dos
Ġmoto neve
Ġguin chou
ĠAd rian
Ġleg ÃŃt
Ġperd eria
ĠJen na
ĠCad Ãª
ĠSand ra
ĠRu ger
Ġtol do
omin Ã¡veis
ĠSub iu
Ġabor to
ĠChip per
ĠSom ente
ĠKel lin
ĠWhit ney
Ġinvas Ã£o
ĠFort una
ĠÃ³r gÃ£os
Ġcens ura
ĠChamb er
Ġdoent ia
ĠAmar elo
Ġborbo leta
Ġprevis to
Ġconstrang imento
Ġpapa g
Ġmura lha
ĠSear les
Ġengenho ca
Ġwal kie
Je an
ĠDisc Ã³rdia
Ġdiscer n
ĠfÃ´sse mos
S aiu
T ornou
c isa
h i
o h
w itz
Ġd irÃ¡
Ġd urÃ£o
Ġa be
Ġa ren
Ġp ras
Ġc ume
do is
Ġqu ilo
Ġf eixe
Ġf urado
Ġv endia
gu eiros
ĠA mes
il le
Ġre tan
ĠO tto
ĠC ir
ĠD enton
ĠP an
Ġr esse
ĠM ec
Ġdes je
Ġcon dicional
Ġen sa
ĠJ ensen
Ġsem estre
Ġar ra
Ġass inou
Ġass ociaÃ§Ã£o
Ġra bu
Ġcomp aixÃ£o
Ġfal sos
ge is
Ġsol tas
Ġsom bre
der oso
Ġgu ri
lu ia
Ġban ca
min ou
Ġapo iadas
ĠTom ou
Ġapar ente
Ġtoc ha
ilha do
ĠLe vei
Ġve ia
Ġve jam
Ġcru Ã©is
Ġtrem ores
Ġmant imentos
Ġdesa bar
ĠRa paz
ĠRo gette
Ġtre inado
Ġdeci dira
Ġret in
Ġinv entar
Ġcompre enda
Ġrepet ia
Ġeng rada
Ġapos entar
ĠCal vert
ĠAm igos
Ġdep end
IS A
Ġris inho
Ġform igas
Ġcus tÃ³dia
EN H
Ġof endido
Ġacer tado
Ġconv iver
Ġfigu rinha
Ġsoc i
Ġinquie tos
Ġing Ãªn
Ġempres as
Ġcoch ic
ĠLeva ntei
Ġexplica va
Ġacal mou
Ġeco ando
Ġdesf ez
Ġinva dir
ĠCre ed
Ġsobressal tado
Ġdece pÃ§Ã£o
Ġparalis ia
Ġluminos os
Ġflex ÃŃvel
ĠKat ie
Ġere Ã§Ã£o
Ġvelh ice
Ġindifer enÃ§a
ĠRou te
ĠEmp ur
ĠSpr ing
Ġvolunt Ã¡rios
Ġcoru ja
Ġchurras co
ĠMalu co
Ġesvaz iar
Ġharmon ia
Ġtrist es
Ġfat ias
Ġdefro nte
Ġestabelec imento
Ġbolet im
Ã³st ico
ĠsubÃºrb io
Ġgaler ias
D isse
O este
T EM
V EL
c emos
t um
v eio
Ġc et
qu ista
Ġm obil
Ġco leta
Ġt Ã³
in ne
Ġf ris
Ġv oca
Ġv Ã©u
da ra
Ġb un
Ġb ife
te to
Ġest ivÃ©ssemos
ĠO ak
ĠD aria
que tes
Ġdes tes
Ġsa que
ĠÃ© gua
Ġin iciar
iv ia
Ġex ube
ĠF ECH
Ġi di
ĠL amp
ĠestÃ¡ dio
uma va
Ġmo dos
Ġcar cer
Ġpes te
Ġtra pa
Ġtra pos
id ra
Ġpou so
ĠI zzy
ud es
ĠPor ta
Ġvoz inha
Ġbo xe
Ġro la
Ġro los
ke box
Ġob c
Ġtom aram
Ġcu idou
ad ar
cha ve
Ġcham asse
Ġcarro ceria
Ġcan elas
Ġbri gas
ĠSa cudiu
Ġesco l
Ġobs curo
Ġtro cados
Ġano tar
Ġsuf ocando
Ġmost rei
ula vam
Ġinf elicidade
che gados
Ġpisto las
Ġespa cial
Ġassus tava
inos os
Ġcir cul
Ġcir cunda
ĠfÃ¡ ceis
ĠEx pe
Ġespecial idade
Ġens ai
Ġcarros sel
ĠAm elia
Ġdro gado
Ġmand aria
Ġcob rar
ĠNew some
Ġcole cion
ĠcÃ¡ l
Ġgor gole
Ġtrou xa
Ġpat rulha
Ġsurpre ender
ĠSegu rava
Ġalu gar
Ġserv indo
Ġenro lando
Ġ8 00
Ġinsist ente
ĠBur pee
Ġconse lhos
Ġestra go
Ġhip p
Ġinsta lar
Ġvar eta
Ġdeb atendo
Ġ197 3
Ġpne um
Ġcro mado
Ġestup idamente
ĠespÃŃ ritos
ĠEscu ta
Ġful gu
Ġbai ta
ĠCob b
Ġous ava
ĠLemb rei
Ġnoj enta
Ġinim igos
ĠDi rig
Ġesvoa Ã§ando
Ġcida dÃ£o
ĠpÃª los
Ġfos for
Ġamost ra
Ġhipo teca
Ġruidos amente
Ġconster naÃ§Ã£o
Ġchec ar
Ġdebil mente
Ġmastig ando
ĠGoo gle
ĠWet more
ĠcÃºp ula
ĠLaVer ne
ĠDill on
ĠMustan g
ĠChamber lain
A ca
D or
J ared
c amento
f Ã¡
j eira
s ville
Ã Ķ
Ġc enas
Ġs now
Ġo cidental
is er
Ġf itÃ¡
Ġv endeu
Ġem issora
il ton
ĠN ela
ĠO R
ĠC Ã£o
Ġal imentos
ĠP us
ĠM AS
ĠM orreu
ĠT rum
Ġdes enter
Ġpe rante
Ġpe didos
Ġmu dei
Ġmu dam
ĠJ us
ob e
Ġver me
ĠF eixes
ur n
Ġan Ã£o
Ġan Ã¡lise
ĠL oc
Ġab ut
ĠDe L
ĠDe e
ver deado
Ġcam uf
Ġlu bri
Ġra dar
Ġtra dicional
no vo
Ġir rom
Ġpos ta
gra fos
ĠJo Ã£o
Ġus adas
Ġcu bo
Ġnum er
Ġrespon dido
Ġgu inada
tal kie
Ġsal inha
Ġbas es
Ġped estres
ris h
Ġban quete
Ġtorn am
Ġmost re
Ġlou vado
Ġamar gura
Ġpl Ã¡stica
ĠCar re
Ġneg lig
ĠCl ive
Ġescre vo
ger s
Ġlig asse
Ġsof ria
Ġri do
Ġlimp ador
AR D
Ġ3 00
ĠFrank enstein
Ġata cado
IN O
Ġmem or
Ġgas ta
Ġacei taria
Ġofer ecido
Ġval ise
Ġgor dos
Ġdig am
Ġcomun ica
Ġmarca das
Ġjor rando
Ġespalha vam
ĠtrÃªm ulos
ĠBre nt
To do
ĠdÃ© cadas
Ġprefer e
Ġpuder mos
Ġajo elha
Ġdescobri ram
Ġtrope Ã§ar
ĠÃŃn dio
Ġguard Ã¡
Ġcusp indo
Ġdivid ido
Ġcess ar
ĠavanÃ§a da
ĠTro y
Ġsilencios os
ĠTho mpson
Ġfuz ileiros
ĠExa to
Ġcong elar
ĠLi ber
ĠGor don
Ġpei do
ĠFor Ã§a
Ġsuc essÃ£o
Ġpregui Ã§oso
ĠpÃ´ster es
come Ã§ou
Ġestrangu lado
Ġdestran cada
Ġinspe tor
Ġvib rar
ĠBlo co
ĠMcCa usland
Ġbif ur
Ġchic lete
Ġinten Ã§Ãµes
Ġestupe fato
ĠfonÃ³ ides
ĠTrou xe
ĠHos kins
ĠTrum an
" ),
2 8
A bri
D en
M al
W ill
d Ãªm
n ando
p y
p ei
s ie
x et
Ġd ram
Ġc urar
ar te
Ġse be
la gens
ent Ã¡rio
en ham
Ã© Ã©
ic hÃ£o
Ã³ grafo
ĠD om
ĠD ob
ĠD ama
ĠD NA
Ġou Ã§o
Ġos s
Ġfa br
ĠB un
Ġat irei
Ġent radas
Ġle vo
it ter
ob s
Ġpro jÃ©
ica is
Ġar tistas
Ġser ei
Ġmo ntou
Ġpa to
Ġpa gava
Ġch ique
Ġvo a
Ġam igu
Ġra ros
Ġint eiros
Ġtor tos
Ġvi la
Ġmar cou
Ã¢n icas
Ġlemb ram
Ġgu tural
iga da
Ġbe le
Ġinc er
Ġinc and
Ġinc redulidade
Ġvelho te
Ġlo te
Ġsur to
hos as
Ġesqu entar
Ġimpor tando
Ġatra ir
Ġvira das
Ġim unda
ĠTo y
cob ar
Ġcur var
Ã©s ia
Ġboa to
ĠCon fe
ĠAr t
Ġfala mos
Ġcap ÃŃtulo
Ġref eria
Ġgo ela
Ġconseguir mos
Ġsussur rar
Ġcontro les
Ġestacion ada
Ġexplo dido
cios os
gens en
Ġlim Ã£o
Ġdisc ussÃµes
Ġmex idos
Ġconversa va
Ġgan chos
IN H
Ġexam inava
VocÃª s
Ġabra Ã§ar
Ġofer ecia
Ġresol vi
ĠGran ger
ĠGre y
Ġdiminu ÃŃdo
Ġmachu que
Ġmachu cÃ¡
ĠestÃº pidos
Ġalar mante
Ġterm Ã´metro
Ġran cho
Ġindi vid
Ġtelefon emas
RI M
Ġsubstitu to
Ġbicic letas
Po dia
ac inz
Ġresist iu
Ġsepara va
Ġgigantes cos
Ġpavor oso
Ġdesbo tados
Ġtrope Ã§ando
ÃŃf icos
Ġmelho rando
ĠBet ty
Ġdescre nÃ§a
ĠPear ly
Ġcoz inhar
Ġpel uda
ĠDou tor
Ġcheira r
Ġlit erÃ¡ria
Ġincom pre
Ġreto mar
ĠSab lo
Ġtroux eram
Ġembar que
Ġflutua vam
Ġanuncia ndo
Ġfren Ã©tica
ĠBran ca
Ġesf ria
ffer ty
Ġafrou x
Ġplen os
riz ona
Ġbalbu cia
Ġlom bo
ĠabÃ³ bora
ĠtÃ©rm ica
Ġconfid encial
Ġmetra lhadora
ĠKir k
ĠdÃŃ vida
Ġian que
Ġmagric ela
Ġdesje jum
S o
a verm
c lore
f ec
l if
m undo
p i
Ġc anh
qu ad
qu inhas
do este
Ġt Ãºne
ia nos
Ġf Ã©r
Ġf rigi
Ġv enho
le co
ent ador
en ba
va dor
ri ou
ĠA rizona
ĠS tam
Ġpor quÃª
Ġsu doeste
Ġas ma
Ġre tom
ĠC ress
Ġal de
ĠB O
Ġat os
Ġat in
ci dez
ĠH or
ĠF OR
Ġtem ores
Ġmes cla
ĠL y
ĠL eland
ce ps
ĠG er
ĠG ostei
Ġsegu rado
Ġcer vos
mb ra
ch eiro
ch eiros
na vam
ĠI ll
bo y
Ġdia mantes
ĠW he
Ġjo gara
Ġbo tando
Ġro lavam
Ġmar reta
ĠEst ivera
Ġencont ros
Ġbar man
Ġbar ris
ilo to
iga nte
Ġinc endia
Ġgra dualmente
Ġestou ro
ĠMar s
Ġesco lhe
Ġbon dade
Ġacor dando
Ġamar rados
Ġamar gamente
Ġpul sava
cou rt
Ġpensa vam
Ġesquec idos
che gado
ĠSu bur
Ġconc urso
tr icos
ĠIn fer
Ġext int
Ġsussur ra
Ġdirig ido
Ġlate jante
Ġven ceu
Ġcr ÃŃticos
ES S
Ġperman ece
fi ei
Ġcresc imento
Ġ5 00
Ġama ntes
Ġobserva dor
Ġcomb inado
Ġ9 11
Ġagrade cimento
ĠPens ar
Ġsoc os
Ġsug eriam
Ġbu le
ĠVo z
Ġreduz ida
Ġbaba cas
Ġora Ã§Ãµes
ĠrÃ© de
ĠlanÃ§a da
ĠSol tou
Ġcruel dade
Ġvoltasse m
Ġamonto ados
Ch uu
Car ter
Con segu
Ġrecebe ram
ĠGor do
Ġdesconf iar
Ġacar iciou
Ġcaracter ÃŃsticas
Ġinoc entes
Ġpir ra
Ġequilib rar
Ġempilha das
ther idge
Ġclare ar
Mc Vries
ĠtÃŃp ica
Ġrecom enda
Ġcandida to
Ġdivis Ã³ria
Ġput inha
Ġax ilas
Ġhosp ÃŃcio
Ġvaci lante
Ġespiri tual
ocra ta
Ġcontras te
Ġcub ÃŃculo
ĠalcoÃ³la tra
media tamente
ĠlÃºgu bre
andal f
Ġsaib am
ĠMargar et
Ġcache col
ĠfÃŃ gado
Jer ome
ĠtÃºne is
ĠSubur ban
2 6
C ada
M organ
a ca
d icos
l ÃŃ
n io
n ham
v ento
z u
Ġde tritos
Ġs itu
Ġn ecro
or tal
Ġb elos
ho ne
ĠA manda
ĠS orte
ec eram
Ġca Ã§ada
ĠN E
ĠO lhem
Ġal tamente
ĠD ana
ĠP Ã©
go la
un ci
Ġsa nto
be Ã§as
Ġan Ã´n
Ġsem b
Ġab rem
ĠG lock
ita velmente
ĠsÃ³ r
ĠI M
Ġir Ã´nico
za va
Ġro leta
Ġesta ntes
Ġvi as
rem es
ĠEst ran
cho n
Ġtom o
Ġgu de
Ġju kebox
ĠPo ke
Ġbal con
Ġlo j
Ġacab amos
Ġim ortal
Ġbri t
Ġad ent
ĠMar l
Ġconf essar
Ġapo ntado
fe tam
alha das
ĠHo o
Ġlou cas
Ġpl ana
Ġpla ntar
Ġdesl ocado
ĠRe ver
ĠLo gan
ĠPar is
ĠMor rie
Ġata dura
Ġlim onada
ĠPa w
Ġens inara
Ġprocura do
Ġreun ido
Ġenvol ta
Ġenvol vidos
Ġris p
Ġilum inar
Ġpat ru
ĠES TOU
Ġalar gou
Ġ15 0
Ġagrade Ã§o
Ġferro via
Ġcontor cer
EL H
Ġavis ou
Ġrosa das
fal o
ĠpÃºb licos
Ġvom itando
ĠFre derick
tch ard
Ġincomo dado
Ġmercado rias
Ġsolu Ã§o
Ġdespre n
gum es
Ġpri or
Ġvio leta
Ġlin das
ĠJan et
Ġinferior es
Ġescure cendo
are y
Ġfri ta
Ġparc eiros
ĠautomÃ¡ ticas
ĠAcredi ta
Ġfras cos
ĠFec he
ĠDer ek
Ġregular mente
Ġodi ar
Ġtriun fante
ĠEll erton
Ġembara Ã§ado
Ġargum ento
Ġbarbe aria
Ã¡l ias
Ġvenen osa
Ġtique taque
Ġresga te
ĠRip ley
** *
ĠLat igo
Ġtax ista
Ġamig Ã£o
ĠPick man
Ġmega fone
Ġpriva cidade
ĠDix ie
ĠLoc her
ĠConfe deraÃ§Ã£o
3 5
A ÃŃ
B ro
c entas
g entes
g ero
n ou
s ub
v ira
Ġd unas
Ġc rava
Ġc ron
Ġs Ãºp
os ene
es i
Ġf ocal
Ġf Ã£s
ta h
Ġes fo
va lhos
Ġb uro
de lo
Ġem be
Ġg lor
ĠS ton
ÃŃ pe
Ġca vando
Ġal deia
ĠD us
Ġsa grado
ĠB y
ĠB is
Ġpe tri
Ġac re
Ġac inz
ĠR EC
ĠV oo
Ġeu f
Ġle que
Ġle ma
Ġla vou
Ġan z
me ia
at ra
Ġser viam
Ġmo difica
iz aram
io terapia
ĠQu is
pa vam
Ġmor domo
Ġra iv
Ġcomp rava
ĠI rene
Ġfal sas
est ion
Ġbo i
Ġesta los
Ġexp ondo
Ġacontec iam
Ġacontec imento
ĠÃ¡ gil
ĠEnt rei
cion almente
Ġmal ign
Ġcons id
ino is
Ġcham us
ĠNa hum
Ġfun das
Ġfun erÃ¡rio
Ġesqu ema
ĠDa ÃŃ
Ġbas tou
Ġsaber Ã¡
Ġcontinu ado
ĠQue en
Ġtro p
Ġtelef Ã´nico
Ãªm ios
Ġaper taram
Ġamar rou
Ġconver sado
ĠPer e
Ġvest i
ifica Ã§Ãµes
Ġri pas
Ġga ze
Ġtransfor maÃ§Ã£o
Ġind ÃŃcio
Ġ3 2
Es per
Ġabri ria
Ġcompre ensÃŃvel
Ġsono ra
Ġbei jando
Ġconversa vam
Ġdesper tador
Ġestiver mos
Ġvig ilÃ¢ncia
Ġgor jeta
ĠLÃ¡ bios
Ġobserva ram
Ġligar ia
ĠnÃ© on
Ġcaminha das
Ġpermit iria
Ġfix a
Ġfix ou
Pe ar
Ġcorrente za
ÃŃss il
low s
Ġexib iu
Ġdespe jou
ĠMan sÃ£o
Da le
Ġpont eiros
Ġigno rado
Ġcruza vam
icÃŃ dios
Ġgrave tos
Ġdemonst rou
Ġacele rar
mu lher
ĠEsper ou
Ġcintila va
Ġdiv ul
Ġiso lada
Ġentend eria
Ġconcl usÃµes
Ġdescans ando
Ġmoment Ã¢neo
ĠColo que
Ġedu cada
Ġmortal mente
Ġbebe douro
Ġatordo ada
Ġnega tivo
ĠsÃŃ la
ĠFic aria
Ġapress ado
Ġpopular es
Ġjaz endo
ĠVerm elhos
ĠquÃŃm icos
ĠminÃºs culos
Ġestendi dos
ĠWhit more
Ġdesn ecess
Ġsangre nta
Ġescancara da
Ġpant ur
Ġcantarol ando
Ġile gal
Ġseren idade
ĠFair view
Ġencom enda
Ġesperan Ã§oso
ĠNei bolt
ĠdÃ©c imo
Ġmelan co
ĠLan chonete
Ġcateg oria
Ġobc ec
ĠToy ota
fetam ina
2 9
A trav
C U
C ha
E v
G RA
J onas
L au
R adar
V irei
f les
j Ãł
t tan
x ima
ra ma
Ġc unha
Ġs Ã£
as k
Ġco pa
Ġt rian
Ġf iss
Ġcom Ã©dia
Ġb lu
to ns
ĠA cer
ĠA nton
ĠS yl
Ġsu ar
inha va
ĠN isso
ĠP s
ĠT id
ca ute
ĠÃ© ons
Ġin ima
di ta
ci tar
Ġle ntidÃ£o
das sem
ĠL ance
Ġto ques
Ġfaz endas
Ġmo ram
Ġcar ica
ĠQu in
Ġesc ro
pe ka
Ġcomp osto
bo la
Ġdeix amos
Ġquer osene
fer Ãªncia
Ġro che
Ġsol tÃ¡
Ġexp uls
if iquei
Ġtom aria
Ġcu ide
Ġcons piraÃ§Ã£o
Ġcontra tado
Ġgos tosa
Ġbat imentos
Ġesco tilha
Ġexa gero
Ġ2 17
ila va
Ġrel ÃŃ
Ġrela Ã§Ãµes
Ġcach os
Ġtermin aria
Ġras pando
tÃ© tricos
Ġespa Ã§
Ġassus tando
ĠDes espero
Ġri fles
ĠNor malmente
Ġnariz es
Ġbre cha
Ġbus cando
Ġdesse m
Ġvir gem
ĠLa ura
Ġinfer n
ĠQuer em
ĠPre t
Ġespecial istas
Ġcruz ado
Ġajuda ram
Ġgas es
ĠGra y
Ġ6 5
ĠCha me
ĠWal nut
Ġexplos ivos
ĠFal ando
Ġbru ta
Ġbru Ã§os
Ġapren dendo
Ġengan ou
Ġsoc iais
Ġcant aria
ĠTre vor
Ġarro gÃ¢ncia
ĠHu nton
Ġfale cida
Ġpon derou
Ġpin gava
Ġmus cular
Ġinclu ir
Ġraste jou
Ġbloque ar
Ġcusp ir
Ġempo leira
Ġdesenvol vimento
Ġrelacion ado
Ġmira gem
ĠPr ÃŃncipe
Ġpus esse
ĠPla za
Ġfis icamente
ĠMaria n
ĠAnd ros
Ġintri gada
ĠquÃŃm ica
Ġvolum es
Ġsemic er
Ġdiant eiro
Ġmaravilhos amente
Ste ph
ĠPet ra
Ġrebo co
ĠlongÃŃnqu o
tern idade
ilado res
Ġescra vos
ĠJos ie
Ġpalm eiras
Ġagou re
ĠFuz zy
ĠBella my
Ġacel erou
Ġcacar e
A final
F re
G in
a qui
c ir
f l
f ina
f let
i Ã§a
l idos
v aria
x er
x ei
Ġ Ãªn
Ġa lei
Ġde ck
Ġm ÃŃssil
ar di
Ġco itado
Ġt elhas
ro p
Ġb ip
im an
so lo
Ġsu pera
Ġal he
ĠD ali
ca Ã§a
Ġper didas
Ġpo ntes
Ġat iva
Ġin au
ĠR id
iv ar
Ġmu leta
ĠV ali
ĠJ A
Ġle gumes
ĠH old
it aria
gar ta
ĠF am
ĠF us
ĠL ÃŃ
ĠL ady
Ġres idente
ĠG endron
ru so
elh ou
ĠEs pa
oca da
Ġjo ias
ĠAl ha
per os
ĠÃ¡ ra
Ġva gando
Ġcu ecas
Ġer rou
Ġsub ira
et ter
ib an
Ġlo do
Ġpres te
Ġgra vura
ana Ã§Ã£o
Ġimpor tasse
ĠHa ver
Ġima cu
fa x
fa Ã§Ã£o
ĠCo nta
ĠSa ÃŃ
ĠTo peka
ĠHar dy
Ġaper tadas
Ġbeb ido
Ġor Ã§amento
Ġpreocu pou
Ġlar gado
Ġarran hado
ĠAr co
Ġinf ilt
ĠmÃ© todo
ign ado
ĠMc A
ĠSte f
Por tanto
anha ttan
Ġestre itos
ĠTam pouco
ĠEx am
AD OR
Ġanda mento
Ġbic ha
Ġdec rÃ©
Ġconven cida
EN DO
ĠPen al
Ġhes ita
Ãºn cia
ĠCol Ã©gio
Ġbil hÃ£o
Ġextra ir
Ġjul gava
Ġcora Ã§Ãµes
Ġ20 11
Ã¢ne as
Ġbru xu
ĠDisse ram
low ay
Ġincr ÃŃveis
Ġfranz ido
ĠÃºm idas
Ġadoles cÃªncia
ĠFar ren
Ġarqu iban
ĠImag inei
Ġconj untos
Ġlum inosa
Ġmanda ram
Ġdefin iÃ§Ã£o
Ġ198 5
lan de
Ġproprie dades
ĠHamp den
Ġorgan izar
Ġger ou
ĠMy rtle
Ġpersegu iÃ§Ã£o
Ġades ivos
Ġ199 0
Ġconfer Ãªncia
LÃ¡ quesis
Ġremex endo
Ġadequ ada
Ġpulsa nte
ĠAndre ws
Ġmoder no
Ġacomo dou
Ġfurios os
Ġajei tou
Ġbin go
Ġcautel osa
Ġensola rada
ĠEstar ei
Ac ima
cur sÃ£o
Ġsed Ã£
Ġvagab unda
Ġcomemo rar
ĠEld red
Ġinco er
Ġreman escentes
ĠgenuÃŃ no
Ġengrena gens
Ġnoc tÃ©tricos
Star k
Ġexcur sÃ£o
Ġesfa que
Ġnen Ã©m
Ġinox idÃ¡vel
ĠmÃºm ia
Ġdispar os
Ġplaus ÃŃvel
Ġpapag aio
ĠTid well
A per
S ob
a quela
d Ã©
o ple
Ġd rive
ar iam
Ġt ÃŃtulos
le ton
ro l
Ġb radou
ĠA ustin
Ġna tivos
Ġna vios
te xto
ĠS qu
ĠS pot
ĠS anderson
ĠP ES
ĠM ent
ĠM ich
ĠM imi
Ġme dos
Ġme tendo
po de
un ham
ĠT ha
Ġdes Ã¢nimo
ma c
Ġat Ã´m
... )
ĠV ila
ens or
ĠF UN
ĠF itz
Ġcont aram
Ġsua da
endo u
Ġla je
Ġesp ic
Ġan jos
Ġsob rara
ĠG A
Ġmo gno
ĠDe tes
Ġcer cas
Ġfor ro
pa Ã§Ã£o
ja cente
Ġpou p
Ġtempo ral
ĠI I
Ġimp era
Ġimp lor
ĠMas on
ĠcomeÃ§ assem
ge ra
Ġbo de
Ġvi emos
Ġvi deo
Ġcal om
Ġtom adas
vi Ã¡ria
Ġaca dÃªm
Ġta lent
Ġcan cel
Ġbol or
Ġespe tado
Ġbas tÃµes
Ġim itando
tu almente
Ġapo de
Ġobs ess
Ġtro fÃ©
ĠMa go
Ġtri tura
ĠHar gensen
ĠHo pe
ĠLe g
ĠBe b
Ã´n ias
Ġdeixar em
Ġaparec era
Ġpeda lando
Ġquad ric
Ġespa ntar
Ġcarre gÃ¡
Ġagar rei
Ġga y
ren ce
Ġbor bu
Ġbor bul
Ġcir cula
Ġven das
Ġlocal izar
eric amente
Al gumas
Ġreun iu
Ġajuda nte
ĠDu plo
Ġcolo que
Ġofer ece
IS TA
Ġtur ba
Ġrecor tes
ĠGre at
han na
Ġexcla ma
Ġpeg amos
Ġsex uais
Ġnatural idade
ĠRus her
Ġdob rÃ¡
Ġrodo pia
Ġpec ados
tch en
Ġ11 7
ĠSta te
Ġemit ia
Ġencer rou
ĠImag ine
Ġforn ecer
ĠBan k
Ġpom o
Ġcontorn ando
Ġfel tro
Ġconce b
ĠRec u
Ġsilencios as
ĠBus hey
Ġreluz indo
ĠGor die
Ġrelig ioso
Ġfla me
Ġosci lante
Ġdesvia ndo
Ġdisfar Ã§ar
Ġpropor Ã§Ãµes
Hal lorann
Ġmilitar es
Ġton alidade
ĠConhec e
Ġtatua gens
Ġintac ta
ĠDig amos
Ġtape tes
ĠFis her
Ġcele bri
Ġmig alhas
ator ze
ĠJeffer son
Ġiner te
Ġindepend entemente
ĠWit cham
Ġembut ido
ĠAtla nta
ĠemprÃ©st imo
ĠpirÃ¢m ide
Ġpremon iÃ§Ã£o
Ġapressa damente
ĠrÃ³t ulo
ĠincrÃ©d ulo
ĠcÃºmp lice
Ġsnow mobile
Ġfrigi deira
Ġsemb lante
A po
D oc
M amÃ£e
O lhando
P RE
P assei
R uth
U A
V in
g el
n enh
p osto
r ume
t ila
v ina
w ley
Ġe ru
Ġa ra
Ġa vidamente
Ġa talho
Ġp Ãªs
Ġde g
Ġde lic
Ġs ha
Ġs ka
Ġco Ã§ar
Ġt ava
Ġv os
Ġb ens
Ġem par
gu lha
Ġl is
ĠA bre
ĠA ti
ĠA idan
co a
oc ha
ec era
inha do
Ġre tes
ĠO UT
ĠC it
ĠM AR
ĠM anhattan
ĠÃ į
lh Ãµes
Ġdi visÃ£o
Ġdes inter
ĠB ase
ĠB ird
Ġpar ca
Ġin Ãºmeros
ĠR icker
ĠV idas
ĠJ ol
Ġap ocal
ĠH ana
it inha
Ġpro vis
ĠF ro
Ġesp erta
vel ho
lo gia
ix os
Ġpa la
Ġlu cro
Ġra re
ĠI da
ua da
Ġdeix o
ĠW oman
Ġdire i
Ġso zinhas
Ġcal Ã§Ã£o
Ġsom e
Ġcons te
Ġsub l
ĠPe eb
Ġcontra tou
Ġgos te
ĠCo tter
Ġban queiro
ĠSa lem
Ġcaminho n
Ġatrav essei
Ġrou bada
Ġtri lhas
ĠforÃ§a da
Ġdesl ocar
au x
ĠDo dee
ĠRa to
ĠDes con
Ġment iu
Ã³r icas
ĠMor to
bar Ã£o
Ġdest em
Ġagra dar
cios as
Ġvir tude
br icas
Ġaba far
Ġdec isÃµes
Ġacei tava
Ġreconhec i
Ġsup lica
Ġpat rÃ£o
ĠES P
Ġcomun icar
Ġpint ando
ĠAt irou
ĠQU ER
Ġpagar ia
ĠLu gar
ĠAb by
ĠCu ide
Ġconcent rando
Ġcaus ada
ĠSt urgis
Ġdel icioso
ÃŃss imos
ĠFre neau
Ġsolu Ã§ando
Ġdivert imento
Ġimpression ada
Ġmec Ã¢nica
Ġreduz iu
Ġcamp an
Ġvent ania
Ġmonstru osas
ĠDun can
Ġtec lado
Ġpom p
Ġcere brais
Ġinva dido
Ġentend esse
Ġtum ba
Ġcess ado
ii i
Ġtestemun har
Ġintegra ntes
humo rada
Ġacorda ra
Ġsuc umb
ĠDay ton
Ġenla me
Ġperigos amente
Ġinstant Ã¢neo
ĠFra zier
Ġsonhado ra
Ġpersist ente
Ġdesd enh
amar ela
Ġcoio tes
Ġcharu tos
Ġblasf Ãªm
ĠIndia na
Ġdeser tas
Ġcartu chos
Ġafl iÃ§Ã£o
Ġrecru ta
ĠRoc hosas
Ġdissi par
Ġpicar eta
Ġdesin fe
Ġital iano
ĠVA I
Garo ta
Ġcarru agem
ĠFi eld
Ġpigarre ou
ĠfotÃ³ grafo
Ġenras cada
Ġlimus ine
Cra ig
ĠWhe el
Ġbalcon ista
Ġbruxu le
! '
E mp
H er
T H
T entei
b igo
f on
l son
m om
n es
p rin
r icas
t esta
u reza
x ie
Ġd inh
Ġp ino
Ġde bate
nt iss
as tes
in k
in er
Ġf urt
Ġv ic
Ġse vera
le ra
ĠS IM
ĠS ignifica
ĠS essenta
ol ar
Ġpor teiro
Ġest ira
Ġma tu
ÃŃ vo
Ġre in
Ġre lin
ĠO be
ĠC ris
ĠD rive
ĠM omo
dos os
Ġdes tas
Ġj ipe
Ġen garra
Ġpe gada
ĠR i
ez inho
Ġpr est
ens ando
Ġla vando
Ġi rei
ĠL ock
Ġcor tadas
Ġpre ver
Ġpre gador
Ġpre liminar
Ġser inga
Ġmo ntada
ina Ã§Ãµes
Ġch ines
Ġvo tos
ĠsÃ³ cio
Ġpou sado
Ġdeix adas
ck y
oca va
ĠAl ta
ĠAl to
Ġgri lo
Ġsol teira
Ġso la
ĠJo gos
Ġmar chas
Ġob l
cu o
Ġinter mit
Ġbol inha
Ġcho ra
ris sem
Ġag ru
ĠRic ardi
Ġdorm iam
Ġapo ntada
Ġemp il
ĠCar tÃ£o
ific amente
ĠPer di
ĠDo o
Ġsensa ta
Ġsensa cional
ĠAr ch
Ġdesa b
Ġdesa pont
che u
Ġref Ãº
Ġfar pado
Ġrapaz inho
Ġfe deral
Ġconseguir iam
ĠNor t
ĠCa pe
ĠfÃ¡ bricas
ĠPa cÃŃfico
Ġexper imento
ĠDavid son
Ġench iam
ĠWil la
ĠcÃ©re bros
Ġprocu rei
ĠSegu rou
Ġ7 67
IA L
ĠAt l
ĠMcC one
ĠVi rei
ĠFre emantle
Ġdomin ado
ĠSo phie
Ġdemo raria
Ġprograma Ã§Ã£o
ĠRen frew
Ġsand Ã¡lias
Ġ197 7
Ġ197 8
Ġexc lu
ĠCer e
Ġrid ic
Ġpano rama
ĠAca demia
Ġdiv isa
Sa die
Ġcola te
Ġemba lagens
Ġpression ando
ĠLen ny
Ġenfi Ã¡
Ġoscil ar
Ġromp ido
Ġdeso lada
Ġsingular mente
we ed
Ġbizar ra
Ġuiv ar
Ġdescu idado
Ġampl ific
Ġshor ts
CI ON
Ġrus sos
Ġrele mb
Ġinstint ivamente
Ġdepos itou
ĠÃ³r gÃ£o
Ġindis cut
Ġengat inhar
Ġinterrom pe
Ġhid ro
Ġrepresenta nte
ĠalienÃŃg enas
ĠSher lock
Ġconserv ar
Ġveran eio
Ġocorr Ãªncia
Ġgram pe
Ġmedic ina
Ġalvor o
ĠLib by
Ġprotu be
Ġchocal har
ĠÃļ lt
Ġacam par
Ġdiagn Ã³stico
Ġotim ista
ĠHOM EM
Ġdistan cia
Ġhigi Ãªnico
Ġjacar Ã©
Ġcircul ando
enba um
ĠIll inois
ĠPaw tu
ĠVali um
ĠPeeb les
C UL
I l
M at
N essa
S peedy
a le
c imentos
g om
j ardin
p inho
Ġc itar
Ġo ficiais
Ġf itar
Ġf osco
Ġes que
la ca
ha que
ro pa
ic has
Ġg ene
ĠS cor
Ġre forma
ĠT ivemos
Ġcon es
Ġen rugada
sa be
ĠV ira
Ġap Ã³
Ġap ris
Ġpr Ãªmios
ĠH it
ura das
eria is
Ġcont atos
Ġh ino
ĠL igou
Ġpre cioso
Ġpa vimento
Ġpa vilhÃ£o
Ġsent iram
Ġesc roto
Ġfor mos
Ġam n
iam i
rou pa
Ġdeix assem
Ġresp ec
Ġne ur
ut ton
Ġvolta da
ĠK ada
ĠK now
vi ou
vi dez
ĠEd ge
ĠPe Ã§o
ĠPe ople
ib or
Ġhist Ã³rico
Ġfu ro
Ġag ilidade
Ġag itava
Ġtrans parec
Ġexa u
Ġvoltar Ã¡
Ġtoc ara
Ġguar di
Ġrec he
Ġpart idas
Ġsuj ei
ĠEn ders
ĠRe ggie
Ġafas tei
Ġafas tÃ¡
ĠMe g
ĠMe todista
Ġtre ino
ĠPro cura
Ġagu dos
Ġfol clore
ĠAp ple
eno te
ĠDu fres
ĠCol lins
Ġregist rada
Ġconv Ã©s
Ġrem or
Ġcuidados a
Ġconcent rada
Ġbro tava
ĠdÃ© jÃł
Ġreceb Ãª
ĠBru xas
Ġtu fos
Ġlin dos
ĠSta ad
Ġeletr Ã´nico
cel Ãªncia
Ġsinist ros
Ġrepres a
Ġrepres entava
ĠFar ris
Ġgat inho
Ġnotur nas
Ġvent iladores
DE Z
Ġfing iu
Ġinclu ÃŃa
ĠLon nie
Ġtec las
Ġdistra ÃŃda
ash more
ĠTar ker
Ġinfin ita
Ġfrou x
Ġcess aram
Ġcolor ida
Ġajude i
Ġlit erÃ¡rio
riet ta
Ġcen ou
Ġalte rar
ĠFic aram
ĠAmeric ana
Ġperc urso
Ġchamin Ã©s
ĠPass aram
ĠPri tchard
Ġemoc ion
Ġcumprim entou
ĠbÃ¡s ica
ĠamaldiÃ§o ado
Ġbagu n
Ġafrou xou
Ġgre lha
Ġafe tado
gri pe
ĠAj ude
Ġmast igar
Ġpublica da
Pre ciso
Ġatur dido
Ġincessa ntemente
Ġhemato ma
ĠVir gin
Ġgovern ador
Ġbilhe tes
Ġego ÃŃs
Ġantec ed
Ġferia do
Ġmarmo ta
Ġbras as
ask ell
Ġska te
ĠDufres ne
3 2
S ol
a ver
c amos
c leo
d est
f ase
l ulas
n unca
p am
t rem
Ġ ramos
Ġp ie
Ġs ibil
Ġf rito
Ã¡ x
Ã§ asse
Ã§ uz
Ġb isa
Ġb ocal
ic s
Ġl os
Ġda mas
ĠA DI
te ar
.. ..
Ġre carre
ĠC i
ĠC ly
ĠC had
ĠD isso
ĠP R
ĠP end
ĠM iriam
Ġpo Ã§os
Ġin chando
ĠH ard
ura dos
Ġver sos
ĠF orn
ĠF AL
esse ps
Ġto nta
Ġpre co
ima is
Ġsob em
iz ei
ĠDe vem
ĠDe tter
inda de
Ġfor ta
Ġfor rado
Ġcome ram
Ġvo dca
Ġtra jes
Ġcha ta
ĠI sa
ĠI nde
Ġfal Ãªncia
Ġir res
Ġquer idos
Ġjo garam
Ġaf lo
Ġaf lito
Ġsub mar
Ġcan udo
Ġcan alha
Ġpalav rÃ£o
Ġpalav rÃµes
ĠAn os
mas ter
ĠHo le
Ġfer ir
ĠLe gal
Ġpla tÃ´
Ġarran har
ĠAr ca
Ġdesc ri
Ġcarre gamento
Ġempur rada
Ġempur rei
Ġsof t
Ġgo verna
Ġfei as
Ġexist ido
ES T
Ġsin gulares
Ġcinz el
Ġsurg ira
Ġdep ende
Ġcompanh eira
Ġprocu re
Ġdiminu ÃŃa
Ġmachu cada
Ġcomb inava
ĠCol lie
Ġident ificado
Ġsex y
Ġacer tando
Ġdob rada
Ġjul gado
Ġadm irÃ¡vel
Ġtraz iam
Ġinsist Ãªncia
Ġpasse ios
Ġconclu ÃŃdo
cid ente
ĠMal l
Ġperten cer
Ġcoloca dos
Ġqueima das
oria mente
Ġsho ws
Ġflutu ou
Ġbu quÃª
fant il
Ġdesist ido
Ġori entaÃ§Ã£o
Ġhorizo nt
Ġestup idez
Ġesgo tos
Ġsuspei tas
Ġbrus co
Ġfant Ã¡sticas
Ġocul ta
Ġperm ita
Ġremex er
Ġtim es
mm mm
Ġbarulh enta
Ġhabil idades
Ġprovoca va
ther n
Ġencontrasse m
Ġexage rado
Ġdetes to
ĠInc linou
Ġenru bes
Ġlix eira
ĠPerce bi
ĠAN D
ĠFO I
Ro ger
Ġparal isada
Ġesquele tos
Ġserra gem
Ġtric Ã´
Ġalf inete
Ġtagar ela
Rob erta
Ġborbo letas
Ġveran istas
Ġchuv osa
Ġextrava gante
Ġinsegu ro
Ãºlt ip
Ġagl om
Ġhedi on
ĠDeci di
Ġdesord en
Ġlament Ã¡vel
ĠPit ts
Ġbir uta
Far land
Ġempal ide
Ġcros ta
ĠAÃ© rea
ĠDetter ick
B ru
I TA
K amen
S or
S on
T irou
T oo
f atos
g i
j eito
l Ã©ia
m ington
o thy
p io
t ivesse
v inhas
Ġ !
Ġde ri
Ġs lo
Ġm Ãºltip
ar to
es c
es es
es ota
Ġque ixa
Ġum bral
Ġum bigo
Ġb ÃŃ
de le
Ġem bre
ĠS endo
ĠS AL
Ġca tara
ĠO cidental
po le
ĠT rig
Ġcon haque
Ġsa tÃ©
Ġat endido
sa gem
ĠR io
Ġeu for
ĠÃł quilo
Ġesp rei
Ġan ual
ce go
ĠEle c
Qu atro
Ġdiz Ãª
ĠG osta
ĠG ene
ĠG andalf
Ġcar os
Ġsent im
Ġcer cada
pa ta
Ġch il
ĠEu ropa
ru g
Ġvo ador
Ġmor na
Ġaqu ecido
Ġra sa
id aria
Ġcomp rando
Ġcomp osta
Ġcomp uls
Ġfal aria
ĠW ett
Ġtor cido
Ġro nda
Ġsen il
Ġsol tado
Ġencont radas
Ġba bÃ¡
Ġcol isÃ£o
Ġtran sa
ĠPo nto
Ġpol ido
Ġgra cinha
Ġfun il
Ġban quinho
tu as
Ġenf uma
Ġcontinu ando
Ġesco lhas
ĠmÃ¡ goa
Ġcur sos
Ġ19 30
ide out
Ġacor dÃ¡
ĠHar per
ĠHar vard
th ers
Ġcoloc aria
Ġce po
Ġrec ursos
Ġpla ntÃ£o
Ġfecha vam
ĠCh ero
RA ÃĩÃĥO
che y
Ġrela tÃ³rios
rie dade
Ġespa ntos
ĠLo t
ĠMc K
Ġbrilha m
Ġgo z
ĠNor ville
Ġind ul
Ġil has
Ġboc e
Ġinv entou
ĠMo ran
Ġbre ves
Ġlinha gem
Ãĥ E
Ġrepet iÃ§Ã£o
Ġclar Ãµes
ĠDon nie
Ġpret endesse
fre nte
ĠAm mit
Ġgela tina
Ġenvol vida
Ġmorta lha
Ġdim ensÃ£o
Ġenco lhe
Ġpega joso
AN H
dios amente
Ġexcla maÃ§Ã£o
ĠCha ma
ĠTra zia
ĠTra cker
ff ney
Est endeu
Ġafir maÃ§Ã£o
ĠMcC lat
Ġconclu ÃŃ
Ġfur tivo
Ġdet enta
Ġperten ciam
Ġesquis itos
Ġprefer iu
Ġrecupe rado
Ġassum indo
Ġencer ra
ĠDor is
ĠDor othy
Ġemerg iu
Des l
IC O
Ġdobra das
Ġpom bos
Ġfant Ã¡sticos
Ġestica das
Ġemaran hados
ĠWar rington
aa aa
Ġlit ros
Ch uck
Ġded icado
Ġtravesse iros
GU E
Ġencaix ar
Ġpermanec eram
Ġreta guarda
inn esota
Ġvibra nte
ĠLi guei
ĠFic amos
Ġpsic ologia
Ġamedro ntada
Ġprovid Ãªncias
ĠDem Ã´nio
Ġfazende iros
Ġantiqu ada
ĠSom bras
ĠBlu enote
ĠidÃªnt icas
In c
Ġdesgra Ã§a
Parec e
ĠDonald son
Ġsangre nto
ĠcÃ³p ias
Ġfedore nta
Ġmedon ha
ĠProf essor
ĠENT RADA
Ġestabele cer
Fred dy
ĠcÃ´m ica
Ġparticipa Ã§Ã£o
Ġveteran os
Ġgrosse ira
Ġbis bilho
ĠAnde i
ĠHon da
vana ugh
Fec hou
Ġcafet eira
Ġprud ente
ĠnÃº cleo
ĠDeL esseps
Ġinima gin
ĠCly de
ĠWett ington
ĠMcClat chey
4 7
A fas
L inda
N orris
T e
V enha
b am
c alha
d Ã´
d Ã¢ncia
n amente
n inguÃ©m
s am
s mith
u to
u Ã§Ãµes
Ġ ÃŃdo
ra que
Ġp inho
Ġc un
Ġde feito
Ġm inas
in c
en ciou
Ġb ou
Ġdo br
ei rinho
te d
so no
on g
on eiro
Ġas fix
ĠC rist
ĠD im
ĠD ist
ĠP h
ĠP ho
ran o
Ġfa tor
Ġper n
Ġper pÃ©
Ġin undou
he Ã§a
Ġle p
Ġan e
Ġan ci
Ġcor dÃµes
Ġres son
Ġres sal
ĠDe baixo
ver dade
Ãº rios
Ġmen digo
ĠU tah
ru d
Ġmor didas
Ġtra po
end ar
ĠEs taria
ĠÃº teis
Ġprim Ã¡ria
Ġexp or
Ġexp and
Ġrep ublic
Ġins iste
Ġtrabal hei
Ġinc ent
Ġun icamente
Ġta xa
Ġru gia
ton ic
Ġsim ilares
Ġfu inha
Ġbat ista
Ġped rinhas
Ġban c
Ġim er
Ġag iu
Ġag itar
Ġconf essou
Ġenf iados
ĠrÃ¡ dios
Ġprof issÃ£o
Ġpul ver
Ġneg ocia
ĠBe at
Ġcru cial
ĠAr mita
ĠDE IX
Ġfala nte
Ġbrin cava
ĠSu premo
tr ina
Ġfuncion aria
ĠBo one
ĠBo ok
ĠBob rinha
ĠPar t
Ġau diÃ§Ã£o
ĠCas co
Ġaproxim ado
nos e
Ġven cedor
Ġcompre endo
oo k
Ġado ro
Ġvir iam
ĠCor inne
ĠEx press
umb as
ĠPre to
ĠPre ntiss
ti Ã§os
Ġfug iram
ĠZ elda
Ġ4 2
ĠNew port
Ġretor cida
ĠGre tchen
Ġvig iar
Ġpat er
Ġchei rou
Ġzumb ia
ĠVol ta
ĠÃ´n ix
Ġespalha ram
ester n
Ġtrabalha dor
Ġdesliz ava
Ġinsist indo
EL A
far iz
iqu em
Ġdet entas
Ġbro ch
Ġpan fle
Ġreceb eria
Ġdemo rado
Ġdom ingos
Ġresponde ram
Le ah
Ġacal mÃ¡
ĠCOM O
Ġretra tos
Ġinfeliz es
Ġtesou ros
Ġdivid ia
ĠSab em
ĠPr ice
Ġlamb er
ĠOde io
Ġescal ar
ĠPri est
Ġinicial mente
Ġelim inar
Ġrodop iando
Ġantebra Ã§os
Ġcivil izaÃ§Ã£o
Ġaval iou
ĠpÃŃ er
Ġincont Ã¡veis
Ġcomplica da
ĠestÃ© ril
ĠApro xim
Ġevent ual
Sco tt
ĠEdi fÃŃcio
Ġpim enta
ĠPay ton
Ġvicia dos
ĠMU ITO
ĠGen eral
Ġrebate dor
ĠrefÃº gio
ĠPawtu xet
ĠVirgin ia
Ġsibil ou
ĠADI V
ĠArmita ge
N ÃĥO
S he
T ive
V inte
a la
b rado
g ros
g remes
m eio
p esso
t ty
w ater
Ġ ?
Ġp into
ar re
Ġo ca
in asse
le cer
to i
al idades
al gum
ri lhas
am igo
Ġna z
ĠS car
Ġsu pre
il s
Ġre is
ĠD ie
Ġr ins
om et
ĠT ass
ĠT ÃŃnhamos
Ġdes ven
Ġper if
Ġpar iu
... ]
sa das
Ġmu letas
Ġap uros
it asse
Ġpre Ã§os
Ġass ocia
Ġsegu em
Ġsegu isse
Ġra so
Ġra di
Ġtra go
Ġtra ma
Ġpou sada
nde ga
ĠEs cobar
ĠAl lis
lha da
Ġpos t
Ġpos iÃ§Ãµes
Ġtor ne
Ġro lha
Ġgran dÃ£o
Ġvis itado
Ġestar ÃŃamos
ĠK ar
Ġleva nte
Ġcorre tamente
Ġinter medi
Ġforma da
Ġgra f
Ġant eci
Ġhist ericamente
ÃŃn ios
Ġconf l
Ġposs ui
ĠSa cha
Ġesco lares
Ġmost rara
Ġamar radas
Ġguar dei
Ġdesl ocando
ÃŃs semos
RA L
Ġpeda l
ĠDE R
Ġdese m
Ġagu enta
Ġconcor dando
Ġsomb rias
ena ult
Ġven ham
Ġcompre endido
Ġado rar
ĠTam pa
Ġreun indo
ges on
Ġdec is
Ġconven iÃªncia
dro me
Ġating ira
ĠCont role
Ġempre gos
ĠGra dy
Ġsup osto
Ġfrequ entar
ka tonic
Ġalar mada
ĠTra ga
Ġmaca cos
Ġdesco ne
Ġfix aram
ĠFal ar
cl iffe
Ġsupor tes
Ġdet est
Ġvie la
Ġdomin ar
ĠHu nt
ĠMan da
Ġvit oria
Ġempres tado
rb on
Ġestrem ecendo
Ġacaba vam
Ġrepres entar
Ġconfir maÃ§Ã£o
Ġgarant iu
Ġpavor osa
Ġesma gou
Ġesma gando
Ġorig inais
ĠÃŃn gremes
Ġden om
ĠBer tie
ĠTar de
Ġenvia ndo
Ġfuz is
Ġreluz entes
Ġlamb endo
Ġrelig iÃ£o
Ġrelig iosa
ĠIrm Ã£os
ĠIrm Ã£s
Ġk it
ĠExce lente
Ġespor tivo
ĠlÃº cida
Ġperigos as
Ġmago ado
ĠRoy al
Ġescar late
Ġdeprim ente
ĠFer n
ĠTig er
ĠTig re
ĠminÃºs culas
Ġobriga Ã§Ã£o
Ġdebru Ã§ou
Ġaspir inas
Mc G
ĠaÃ© reo
ĠcontÃŃn ua
Ġmonit ores
Ġdiscre ta
Ġdetec tor
ĠEstre la
Ġcaixo tes
Ġchate ado
Ġdesori entado
Ġalvor ecer
Ġprotu ber
ĠMis katonic
Ġtravess ia
Ġcogum elos
ĠHeming ford
Ġespon ja
Ġfed endo
ĠObserv ou
Ġproxim idades
ĠFlick inger
ĠPea vy
Ġinut ilmente
ĠcÃ³r re
Ġesplendo r
ĠHit ler
Ġamn Ã©sia
Ġeufor ia
A cor
B M
C uthbert
C are
D ick
M M
S Ã£o
T y
e das
g ru
l ique
m ina
m udo
n ings
s inha
u dio
v oca
qu ina
Ġv ocais
Ġpara rem
ei ger
gu er
Ġno no
ĠA dam
ec h
ec tor
Ġma tador
on Ãªs
Ġre vez
Ġre encont
ĠD ock
ĠP OD
ĠM r
ĠM UL
Ġme ramente
Ġdi eta
ĠT en
ĠB E
Ġap e
Ġap anhÃ¡
Ġent idades
ga te
ĠH iggins
it re
Ġex tas
Ġpro a
Ġpro di
ĠF ol
ĠF inal
Ġh astes
ria dos
ĠL itch
ce ras
Ġab ominÃ¡vel
tar em
ĠG eiger
Ġsent imos
Ġsent avam
pe ramente
Ġvo adores
Ġam Ã©m
Ġcha fariz
end emos
ĠI nside
Ġimp ert
Ġman ia
Ġman ÃŃaco
est u
Ġne gou
Ġtor cia
Ġbo is
Ġso avam
cion ava
Ġba by
Ġus ina
Ġbar bado
Ġtran co
Ġun idos
lu z
Ġpol ar
Ġsal tava
Ġsal vado
Ġgra tu
Ġgra videz
Ġfun go
ion s
Ġav ol
Ġolha ra
tu oso
Ġobs essÃ£o
ĠHar kness
Ġmil k
Ġrec reio
ĠEn cos
cip almente
Ġdesaparec iam
Ġcap tado
Ġfam intos
ĠTem p
Ġgal Ã¡x
ĠPro te
itu lado
Ġfuncion asse
Ġdese quilib
Ġsusp ense
Ġri em
Ġagu entou
Ġaco lh
iza Ã§Ãµes
ĠIn fantil
ts worth
Ġven cido
Ġassass inada
Na omi
ÃŃp ios
Ġcruz aram
Ġajuda ntes
Ġ4 00
Ġdep ender
Ġating i
Ġabra Ã§a
Ġvara l
Ġacei tÃ¡vel
Fo ram
bor ough
Ġ7 5
Ġenx ame
Ġtoca vam
Ġdestru iu
Ġron cos
Ġron cou
Ġmud aria
Ġbru xas
Ġindi gnado
Ġavis ando
Ġapren diz
Ġjard inagem
Ġexib iÃ§Ã£o
ĠX V
Ġdemon ÃŃaca
Ġcoch ilar
Ġ196 4
Ġpenet rando
Ġadi ar
ĠGaro tos
Ġmata gal
Ġbloque ada
ĠtÃºn ica
Ġpercor re
Ġderre tida
ĠSha piro
ĠMon ica
ĠJu venil
Ġprotes tar
Ġpeculiar es
Sem pre
Ġretro ce
ĠRoss ington
ĠAnt igamente
ĠBaix ou
Ġchef es
Ġmanuscri tos
Ġultrap assar
Ġbam ba
Ġapara dor
Ġprolon gado
Ġsemic ÃŃrculo
ĠDI Z
ĠInt erior
Ġintest ino
Ġintac to
Ġconfun dir
Ġesbar rou
ĠSher idan
Ġbene fÃŃcio
ĠRip ton
Ġessencial mente
Cu jo
Ġlagos ta
ĠbinÃ³ culos
Ġamis toso
Ġassobia ndo
ĠBai le
Ġalca Ã§uz
ĠcÃ£ ibra
ĠrÃŃg ida
Ġacaricia ndo
Ġvacil ou
Ġrad ical
Ġpse ud
Ġocular es
Ġensurde cedor
ĠfÃºne bre
ĠWoman Care
ĠCotter ie
ĠTass enbaum
ĠLitch field
C as
N as
S orrindo
d im
f rica
g ramas
i gue
k espe
r ina
s ai
ra rem
Ġc estas
nt ia
Ġm inho
Ġco let
es co
ta ntemente
da bi
en ie
en ath
va va
Ġb Ãº
ĠE ileen
de las
Ġl ocutor
co rado
oc h
oc orro
ĠS Ã©
ĠS tr
Ġca cho
Ġas per
Ġas peramente
Ġele gantes
ĠC IDADE
Ġal ce
Ġal Ã´
Ġal tera
ĠD as
ĠT i
Ã§a nte
Ġin iciou
Ġpe p
Ġmu la
Ġmu tila
Ġent alhado
Ġle al
Ġis ca
Ġpro to
ĠF ru
Ġla Ã§os
Ġesp um
Ġho me
Ġar fando
ce le
Ġres sur
Ġass inado
io t
ver sa
mb ros
Ġcabe leira
Ġra b
Ġtra tado
ĠI dade
Ġimp ec
Ġresp lande
Ġir mos
ĠW icker
Ġjo gadas
Ġouv ida
era is
Ġvis itando
Ġmar cador
Ġmar inheiros
der n
ais er
oso fia
Ġaf ei
esta de
Ġins ensa
ĠPe da
ĠPe guem
Ġju deu
Ġju ntado
Ġbal ancei
Ġcan ibal
ĠFo od
ion Ã¡rio
Ġbat ente
ĠCo ntei
Ġped iria
Ġtorn eio
Ġconhec idas
Ġfi Ã©is
Ġolha mos
ĠSa iam
Ġsimp l
Ġrou bando
Ġtri vial
ven ha
Ġtoc has
ĠCh uu
Ġprin cesa
Ġfavor itos
Ġespec ÃŃfica
Ãºs ica
Ġcap ital
Ġsuper gripe
ĠDes aparec
xo xo
Ġapa gados
Ġdeci dida
Ent rei
Ġsaco de
Ġpun iÃ§Ã£o
ĠBa ta
ĠMo ose
ĠVer e
Ġbei jei
Ġencos tando
IN HO
ĠZ a
Ġvel Ã³rio
ĠPete y
Ġengra Ã§ados
Ġconstru indo
Ġpega josa
Ġmont ÃŃculo
Ġsul ista
ĠPen ny
Ġama da
Ġaum entado
Ġanima dos
Ġgrava das
ĠGa ffney
Ãģ S
Ġquebra ra
Ġedi tora
Ġedi fÃŃcios
Ġgrama dos
Ġran cor
Ġfres cos
Ġmi Ãº
AM ENTO
Ġconse lheiro
Ġproje Ã§Ã£o
ĠmÃ¡g icos
ĠmÃ¡g icas
Ġ11 0
Ġdemon ÃŃaco
Ġsolu Ã§ar
Ġprefer iria
Ġpri vil
Ġgen u
Ġgolpe ou
Ġ197 5
Ġdelica das
ama che
Ġdesenh ando
Ġcircunst Ã¢ncia
ĠxÃŃcara s
Des de
ĠÃ¡l ibi
ĠGold en
ĠNO VA
Ġpercor rendo
Ġcompara do
ĠMA INE
Ġmode los
Ġard entes
Ġperd emos
ĠgrÃ¡ tis
ĠNat ional
Ġlava gem
ĠSab emos
Ġflutua nte
Ġespant alho
Ġfren esi
Ġassent indo
ĠÃŃnt ima
ĠLiv ros
Ġprecip ÃŃcio
Ġsalp icado
Ġsubterr Ã¢nea
Ġmaravilha do
Ġenru gado
Leva ntei
Ġdescal Ã§o
Ġfluores cente
ĠOx y
Ġimplo rando
Ġcalaf rios
ĠtÃŃm ida
Ġpant an
ĠcÃŃ mb
Ġindig naÃ§Ã£o
ĠPensa va
Ġgordu cho
Ġperam bul
Ġgrasn ido
Ġvere ador
ĠmÃ³rb ido
ĠAtrav Ã©s
Ġsalt itando
ĠMur phy
ĠautÃªnt ico
ĠfaÃŃs cas
ĠgÃ© lido
ĠSk ipper
Ġfarra pos
ĠServi Ã§o
ĠPur sey
Ġholofo tes
Ġrestaura ntes
Ġopera Ã§Ãµes
Ġema gre
Ġformig amento
ĠGRAN DE
Ġimpon ente
Ġpedes tal
Ġpneum onia
Ġanz ol
ĠespaÃ§ onave
ĠÃªn fase
ĠADIV INHA
B la
B ec
E rgueu
N adine
S arah
W es
i pera
m am
m Ã£e
s eria
x in
z z
z eman
Ġde formado
Ġco Ã§ando
Ġt olos
va i
ĠE wie
Ã³ ticas
Ġca vidade
ĠD igo
ĠD ula
ĠM ist
ĠM innesota
ĠT ashmore
Ġj Ã³
ca gem
ĠB os
Ġfo gueiras
Ġin ci
ul ler
ĠV endo
Ġpr is
Ġh il
ĠÃł quelas
ĠL ob
Ġcor tante
ĠestÃ¡ tuas
Ġres tara
ĠG amache
Ġmo ntando
iz am
Ġcar ran
Ġcar dÃ¡
ig am
Ġesc amos
Ġlu cidez
Ġsab onete
Ġra char
Ġint itulado
Ã¢ mb
Ã¢ ndega
ĠW el
Ġouv em
za da
ut i
Ġro l
Ġro dou
Ġesta cas
Ġcal cular
Ġrep arei
Ã¢n dia
Ġcol i
Ġus aram
Ġer rar
ost y
anh os
Ġins er
vor ou
ĠPo xa
Ġpol ida
Ġdar Ã¡
ĠCo om
tu i
tu osa
Ġtrans c
Ġconta vam
Ġfer ocidade
ula ntes
fei ras
Ġpoder osos
ĠRe pou
ĠPer ry
Ġesquec imento
ĠAr ras
Ġrela tar
Ġsuper vis
ER S
Ġx ingando
Ġobserv ei
ex ceto
Ġeng or
Ġmol hou
til has
Ġsignifica vam
Ġhor Ã¡rios
Ġconside rada
Ġresol ve
Ġform aram
Ġrecor de
Ġcus tar
Ġcus tou
ĠWil bur
Ġprate ados
Ġdig na
ĠWal mart
Ġassustado ramente
Ġlam par
tinha m
Ġapre ensivo
ĠPod iam
Ġarrep iado
Ġflu ÃŃa
ĠsuperfÃŃ cies
Ġdesliz aram
Ġron cava
Ġtiver mos
Ġencolh ida
Ġestra gado
Ġamarela dos
Ġproc essar
Ġarro to
Ġtes Ã£o
Ġsess Ãµes
ĠSta nton
Ġdolor ida
Ġgira tÃ³ria
Ġpon cho
ĠFar nham
Ġconte xto
Ġmoto queiros
Ġrefei tÃ³rio
Ġ16 0
Ġevid Ãªncias
Ġpom bo
Ġarris cado
ĠPergu nte
Per cy
ĠTro voada
ĠNat ureza
Ġtranquil izador
Ġgin Ã¡stica
Ġcircu itos
Ġrom Ã¢nt
Ġmovim entaÃ§Ã£o
Ġnotici Ã¡rios
Ġimbec is
Ġcata cl
Ġempol gado
Ġenla tados
Ġincid entes
ĠAL GU
Ġveem Ãªncia
Ġajei tar
Ġpresum ivelmente
Ġentorpec ido
Ġindes e
Ġinspe Ã§Ã£o
Ġimens os
Ġparaf uso
Cam inhou
Ġaguar dava
Ġcapo ta
Ġrodovi Ã¡ria
ĠclÃ¡ss ico
esp osa
Ġgrosse iro
Ġagress ivo
Ġenlu vada
cap elli
ĠmÃ³rb ida
ĠfaÃŃs ca
Ġassemb leia
ĠHeming way
ĠLaw rence
Ġgestic ulou
Ġentedia do
Ġcassete te
Ġental hes
Ġcamion eta
Obri gado
Ġtahe en
ĠLamp ley
ĠrÃ©de as
ĠKada th
dÃ´ zer
ĠAllis on
ĠDula c
A os
B an
G UN
G wendy
S h
T AS
c ros
c enÃ§a
e de
e Ã§o
f iro
i fer
r icos
Ġde cor
Ġm itos
Ġt in
es pa
ia gu
Ġf Ãªme
Ġse g
Ġes fera
Ġes bura
le p
da nte
Ã§ al
im ar
Ġl Ã©
ĠA ga
ĠA vis
ec tar
Ã³ licos
Ġest rid
Ġma le
Ġca co
ĠN Ã£
ĠO N
ĠO fer
ĠO ntem
ĠD U
ĠP is
Ġme tic
ĠT it
Ġdes apro
ĠB ons
ĠB ILL
Ġpar Ã³
ĠJ ill
ĠJ ustin
ga u
ĠH askell
ens haw
Ġpro gre
Ġver dades
ĠF ri
ĠF eno
Ġesp ess
Ġan or
ĠL I
Ġar dor
Ġres ÃŃduo
Ġparec idas
Ġparec essem
Ġsegu idas
Ġalg as
cont ra
pe y
Ġsobre vo
Ãµ em
Ġtra fica
Ġpou pado
ĠSe x
Ġpra gue
Ġman ic
Ġro ll
Ġro dinhas
Ġestar mos
Ġmar chando
ĠK aiser
ĠEnt ra
Ġdor so
ba go
Ġaf ix
Ġcol oss
Ġpu lava
Ġdent ista
ĠAs enath
ĠPe di
Ġcab anas
ĠPo vo
Ġcan sar
Ġsal tavam
Ġbran da
Ġacredi tara
hou nd
fa ntes
por te
Ġpis cava
Ġbri gando
Ġbri lhos
Ġconf io
Ġenf at
Ġesco mbros
Ġtro ve
rig ht
ĠSim mons
ĠOu via
Ġmost rasse
Ġvoltar iam
vid entemente
ip s
Ġterr ores
Ġor gas
ĠRe ba
Ġmant ivesse
Ãºs so
Ġpal idez
Ġfala Ã§Ã£o
ĠRa fferty
ĠBo y
ĠBo oth
Ġx er
ĠCas ca
Ġfir mar
Ġpun gente
Es sas
ĠCa Ã§adores
Ġinv entado
Ġcompre endendo
ĠLa go
bol ismo
Ġasso b
Ġfug i
Ġfuma nte
Ġbeira is
Ġdef ensiva
Ġengra Ã§adas
her ty
Ġretor cido
AN A
Ġassist iu
Ġcurva dos
Ġdisp ensa
Ġregist rou
Ġhab itua
cal hÃ£o
Ġpers iana
ĠÃģ frica
Ġge radores
Ġesquis itas
Ġtransform ador
Ġbomb eiro
Ġprefer Ãªncia
ĠDick ens
Ġalim entaÃ§Ã£o
Ġconvers aram
Ġassum ido
Ġfale ceu
OC K
ĠSho pla
Ġenlouqu ece
Ġresist ente
ĠPaul ie
Ġconduz indo
Ġfamos os
Ġtec idos
Ġresid encial
Ġresmun gando
Ġpercor ria
Ġderram ar
ĠgÃªme o
Ġdever ÃŃamos
Ġ199 9
Ġaterror izante
Ġsobrenat urais
Ch ris
ĠGor g
ĠReg is
ĠsaÃŃsse m
rit m
Ġcata c
ĠBev vie
Ġindef eso
Ġtranspar entes
40 8
Ġvolum oso
ĠEsp osa
ĠBon nie
Ġarruma da
Ġimper cep
ĠAj uda
ĠTur co
Ġdesn orte
Ġfabul oso
ĠlÃ¡p ides
Ġdiscre tamente
ĠplanÃŃ cies
Ġmaltra tado
Ġbul dÃ´zer
Ġpira ta
suce dido
ĠMach ine
Ġacolcho ado
Ġtempor Ã¡rio
Ġsib ilante
ĠcatÃ³ licos
Ġtecn ologia
Ġmagre lo
ĠameaÃ§ado ra
ĠCAS A
Ġsals ichas
Ġmele ca
Ġalaranja da
Ġprocess ador
Ġreserv as
ĠAlb any
ond ist
ĠMand ers
Ġcoagu lado
Ġassemelha va
Ġcongre gaÃ§Ã£o
Ġretan gular
ĠHold en
ĠSqu are
Ġdesapont amento
Ġfroux amente
Bru tal
ĠcÃŃmb alos
ĠShopla w
! ),
5 00
? ?
B RI
E llie
J esus
P Ã´s
f iciente
g ost
m enos
n ob
w an
Ġde em
nt z
nt il
Ġn am
Ġt ento
Ġf lash
Ġv oc
ĠE rgu
Ġno tara
Ġg ramas
oc Ã¡
te p
ĠS OB
Ġpor no
Ã³ n
ÃŃ bri
Ġsu ce
Ġele fante
ĠC RI
ĠD AS
ĠD Ã³i
ĠM i
lh u
que tas
Ġdes ocu
Ġdes van
Ġcon dom
ĠB OM
Ġin dia
Ġin char
ĠV O
ĠJ or
Ġpr Ã¡tico
ĠF il
Ġh Ã©
Ġan do
ĠL A
ĠL O
Ġho tÃ©is
Ġcor resse
Ġpre ciosa
Ġmo itas
Ġsegu ravam
Ġpes ando
Ġcome ra
ĠU sou
Ġam am
na gem
Ġcomp ulsÃ£o
bo ras
ĠW anda
Ġjo gados
Ġfre ios
Ġne ta
cul oso
Ġesta ca
Ġexp osta
Ġrep olho
Ġob tura
Ġtom Ã¡
Ġba ÃŃa
Ġinter estadual
Ġficar mos
ib el
Ġbe Ã§a
Ġcho calha
Ġvira dos
Ġconhec eram
tÃ³ rias
Ġapo ia
Ġcur vo
ĠTom a
Ġtri Ã¢ngulo
Ġbon zinho
Ġsuf ocou
Ãªm en
ip es
Ġconver sou
Ã´n us
ĠPer dÃ£o
ĠAr lene
Ġdesa ba
ĠPara do
ĠTer rÃŃvel
ĠFa Ã§o
ĠNe ary
Ġfar pas
ĠSu ba
ĠSu ze
ĠDes ceu
ĠDes jardin
Ġamb ulante
Ja cobs
tel Ã£
Ġfir mou
ĠCa vanaugh
ĠCor o
ĠCor te
Ġarras tÃ¡
Ġnerv osas
ĠEsta cion
ĠGar rett
Ġenfer magem
IN DA
Ġexper imentos
ĠAm or
Ġdec orrer
ub us
Ġabra Ã§Ã¡
Ġesfor Ã§ou
Ġmont anh
ĠGra tui
Ġilum inados
Fo ra
Ġsurpre endido
ĠSegu ranÃ§a
ĠAc ei
Ġequi pado
ĠCol umb
Ġesper tos
Ġcurva da
Ġdisp u
Ġenc al
Ġsecre tas
ĠStar key
ĠCur tas
ĠDeix em
Ġfigu rinhas
Ġdel iciosa
bur gh
Ġproje tou
ĠVi Ãºva
To das
Ġpude ra
ĠIr win
Ġhe ranÃ§a
Ġcader ninho
Ġ197 4
Ġdoc emente
Ġsepara do
Le vou
Ġmoto queiro
Ġtap ando
ĠImag inava
ĠShe b
Ġdesbo tadas
Ġesma gar
Ġfing ia
ĠEsper ei
Ġdescre veu
Ho je
ĠPear l
ĠGold smith
Ġconge lados
Ġarris cou
Ġexig ia
Ġpio rando
Ġaluc inado
ĠRu im
Ġodi oso
Ġcircu laÃ§Ã£o
Ġalte rado
Ġadqui riu
ĠtÃºm ulos
Ġapress ou
Ġfebril mente
ĠDem ocrata
Ġdesej asse
Ġobsc eno
Ġobst Ã¡culos
Ġenvergon hada
ĠlÃŃder es
ĠhipÃ³tes es
ĠScho ondist
ĠDur gin
Ġmaravilhos os
Ġformul Ã¡rios
Ġmanifesta Ã§Ã£o
Ġespas mos
Ġadicion al
Ġesclarec er
Ġexecut ivo
Ġunifor m
ĠSum mers
Ġaprop riado
ĠRy an
ĠRy der
Ġestam pada
Ġentrevis tas
Ġparano ia
Ġsobrevi veu
Ġexas pe
Ġchif res
Ġpreca uÃ§Ã£o
Ġatropel ou
Ġpenhas co
Ġenevo ado
Ġpolu iÃ§Ã£o
Ġaconche gante
Ġingles a
Ġilus tra
Ġsolavan co
Ġinstal ou
ĠPalav ras
Ġchoramin gou
ĠBir ch
ĠHaz el
Ġincapa cidade
Lu cy
Ġfarfal har
Ġnecro tÃ©rio
ĠSton es
Pear son
ĠScor e
Ġremor so
ĠbÃŃ ceps
Ġbou rbon
Ġdesven cil
ĠMUL HER
Bec ka
ĠCoom bs
Ġcoloss al
ĠGratui TV
I mag
N I
O llie
O bs
S lo
W ar
c urou
g amentos
h ur
i qui
l iss
m Ã£os
p ha
p idas
ra p
Ġc ut
Ġo fÃŃcio
Ġt Ã©dio
Ġv itais
re p
ou bert
ou fax
en dado
Ġcom enta
Ġcom issÃ£o
Ġb ecos
ĠA eroporto
Ġg rado
so mb
Ġpor tinho
Ġca Ã§ando
Ġca pela
us dale
ĠN y
Ġele ito
Ġre chon
ĠC and
ĠD iver
ĠP U
ĠP RA
ĠP isto
ĠM IN
ĠM INHA
Ġme tan
Ġdis sim
ĠT orn
ĠT entar
ca t
ĠB ast
ĠB ates
ĠÃ© ter
Ġter nos
Ġent a
Ġolh inhos
ĠH es
ĠH ava
ens ÃŃveis
Ġver ificando
Ġcont em
Ġh em
ĠL um
ĠL ippy
ros e
ce beu
Ġpre gar
Ġres fo
ĠQu inta
pe qu
Ġam u
Ġmor r
Ġmor fina
id s
Ġdele gado
ĠI BM
Ġimp edia
orr Ãµes
ĠW ind
Ġne tos
Ġdu zentas
era dos
Ġgran ada
Ġsol as
Ġsol te
ĠCom un
ĠJo h
Ġmar co
Ġaf ug
Ġcu bos
Ġer vilhas
gue tes
ad inha
Ġju deus
ici osamente
Ġsor ridentes
cas o
Ġpres erv
Ġbran cura
Ġgos tara
ĠHa garty
ÃŃn drome
fa ntas
Ġbat u
Ġban didos
Ġconf usas
Ġvia turas
ĠcÃ© lulas
lado ra
ven iente
Ġconta g
Ġcent elha
Ġamar ro
ĠCar lin
Ġrec orrer
Ġz Ã©
ĠBe ar
Ġdesl ocou
Ġarre g
ĠFran Ã§a
ĠEn gra
Ġtrem el
Ġarran hou
Ġesca va
Ġras teira
Ġdesc am
ĠPro cu
Ġsil vo
Ġrev irar
Ġdeci dindo
ĠcomeÃ§ar iam
Ġcul pada
Ġexce pcion
Ġrepet ido
Ġcint ilou
ĠEx celÃªncia
Ġbei jÃ¡
Ġreun iram
ĠAm Ã©m
EM OS
Ġcapa taz
endi dos
Ġacresc entei
Ġmalu cas
mÃ¡ ticos
Ġmin gau
ĠSegu iu
Ġcomb inar
Ġcomun itÃ¡ria
Ġbl usas
Ġrea gir
Ġcaminha vam
IA M
ĠHe inz
uÃŃ zo
Ġdispara va
ĠÃ¢ mb
Ġdura ria
Ġfres cas
Ġcurios as
ĠTr usdale
ĠDar lene
Ġfolha gem
Ġesfre gÃ£o
Ġpren dÃª
Ġtes tar
Ġfamiliar idade
Ġmancha das
ĠSh el
ĠHol loway
Ġalim entava
ĠRes ol
Ġdeb ater
Ġencer rada
ĠHer bert
ĠFar ei
Ġbu f
ĠDiz er
Ġtap as
Ġvas os
Ġori fÃŃcio
ĠfÃŃs icos
Ġconj ec
Ġorig inalmente
Ġmonstru osidade
Ġcro mo
Sa ÃŃ
Ġcorrespond ente
Ġpovo ado
Ġprodu Ã§Ã£o
Ġpercor rido
Ġpersegu indo
Ġarque jou
Ġine gÃ¡vel
Ġlenha dor
Ġperd iam
Ġvin das
ĠÃ³t imos
Ġencaix ou
NC O
ĠBat ista
Ġfare jou
ĠPr Ãªmio
Ġsens ibilidade
Ġenxu gando
Ġrom Ã¢ntico
Ġassent i
Ġarrem essou
mond s
Ġengas gado
Ġdesvia ram
Ġadminist ra
Ġrepro vaÃ§Ã£o
ĠPri us
Ġgargal har
Ġacid ental
Ãł s
Ġelo gio
Ġespir rou
Ġrodop iou
Ġimper me
Ġtrin cheira
Ġjust ifica
Ġgener osa
Ġhomen zar
Ġdispon ÃŃveis
AT RO
Ġchurras queira
ĠSharp ton
ĠclÃ¡ss ica
Ġchuv oso
Ġincons ciÃªncia
Ġrevi gora
Sent i
Par k
ĠRespon da
Ġenfileira dos
ĠcÃ³sm ico
Ġtrom pete
Ġcogum elo
Ġsentin ela
Ġrefu gia
Ġenxa queca
Ġsatisfat Ã³rio
olÃ³g icos
Ġdur ma
Ġpit ores
Ġbombar de
Ġparan ormal
ĠGrey hound
lif os
ĠInfer no
Ġinfern almente
ĠCit go
Ġobl ÃŃqu
ĠChero kee
She emie
ĠRepou so
G ran
L ee
M y
M or
T a
T ad
V EN
a j
c Ã©u
d ice
e co
h en
m elhor
m uda
n cia
Ġd ane
Ġa vel
Ġc urado
Ġde vidamente
qu ie
qu ial
Ġt weed
es qu
Ġf iada
Ġcom emos
ro las
Ġb Ãºsso
Ã© rito
Ã© ticas
Ġl orde
Ġno vel
ĠA jo
ĠA lex
co ran
te ado
ĠS capelli
Ġpor re
Ã³ lu
Ġma de
Ġma cho
Ġma Ã§os
Ġsu gar
Ġca ber
Ġca dar
il es
Ġele tri
Ġre nte
Ġre tÃ³
ĠC U
ĠC res
ĠP ie
ĠP ap
ĠM ES
Ġme todista
Ġdis cou
ida y
ĠT ocou
ĠT chau
Ġsa car
ma cÃª
ĠB and
Ġat um
Ġat enta
Ġat riz
Ġpe tis
Ġac ne
ĠJ oubert
ga tivo
ĠH y
ĠH el
ĠH ector
Ġex or
Ġver s
Ġh ectar
Ġh ÃŃbri
ĠÃł queles
Ġla bar
Ġesp arra
ica das
me t
Ġsob rava
Ġdiz emos
Ġpas tas
Ġsegu iria
Ġfor rada
Ġmor riam
Ġpelo tÃ£o
Ġcha leira
Ġint ruso
est idade
Ġgri tara
ut ores
Ġprim itiva
Ġesta te
Ġvi essem
Ġexp ia
ĠEst as
Ġob tido
ing ado
ĠK ATIE
Ġtom avam
Ġbar reiras
Ġsub estim
Ġsub solo
car ro
ĠPe oria
Ġcab ines
du b
Ġpres un
Ġgra v
ĠAn dar
Ġatra so
ĠCo gan
Ġad qu
Ġvia java
lic es
Ġapo iava
Ġacor re
Ġconta bilidade
Ġaz ulada
ĠCar une
Ġz ar
ĠEn gle
Ġdeixar iam
Ġpreocu po
Ġmant ivera
Ġesquec ia
Ġarran cados
Ġrela xa
Ġesca pe
Ġafas tada
ĠY ates
ĠcalÃ§a dos
Ġdesc rito
hado res
ĠMc Farland
Ġtal Ã£o
Ġapa ga
Ġconcor dÃ¢ncia
Ġsussur rava
my n
ĠCa vell
Ġinv Ã³lu
Ġexplo de
Ġdest inado
Ġguarda das
No vo
Ġbus to
Ġcint os
IN CO
iss or
Ġev itando
gg y
Ġauto gra
Ġur sinho
Ġating ida
Ġabra cei
bil itaÃ§Ã£o
Ġapres entado
Ġapres entavam
Ġfrequ entado
Ġaum enta
Ġdisp uta
Ġbarra gem
Ġenx erg
ĠHe ad
Ġlivre mente
ĠMat ar
Ġextra ter
Ġsecre tos
Ġprome te
Ġmult ip
Ġfasc inada
ĠBrad bury
Ġjard in
Ġperten ces
Ġcant or
ĠTe xa
Ġtu barÃ£o
Ġpont iagu
ĠSE GU
Ġ196 2
Ġautor izaÃ§Ã£o
ĠSco oter
Ġtap ou
Ġ195 7
Ġinteress es
Ġconduz ido
Ġevid Ãªncia
Ġespre guiÃ§a
Ġtec la
Ġpossu ir
Ġbloque ado
Ġconso le
ĠmetÃ¡ fora
Ġencontra rem
Ġocupa vam
Ġocul tos
ĠFiz eram
ĠnÃŃt idas
Ġestilha Ã§ou
Ġaterror izada
any a
Ġescul tura
ĠfrÃ¡ geis
Ġesf riar
ĠBrig gs
ĠAnt igo
Ġcontinha m
ĠPequ ena
Ġdesmoron ar
Ġrez ou
Ġradio patrulha
Ġperplex os
ĠCompre i
Ġescorrega dia
Ġcois inhas
Ġjust ificar
Ġarregal ando
Ġrepux ados
Ġmanob ra
lat ho
Ġband ido
ĠTEM PO
Ġricochete ou
Ġbibliotec Ã¡rio
Ġimpres sas
ĠiP hone
ĠKay leigh
ĠDescob ri
ĠMach en
Ġmura lhas
ĠgenuÃŃ na
Ġespont Ã¢nea
Ġsentin elas
ĠcÃ¡ps ula
Ġmembran a
Ġesgueira r
ĠWins ton
Ġredemo inho
Ġpenit enci
ĠcaÃ§ ula
Ġexube rante
ĠRever endo
ÃŃvo co
Ġlos an
Ġhorizont al
kespe are
macÃª ut
A gar
J an
L in
M art
P arei
S entou
V e
k is
m im
t urou
u lhu
v inda
v Ã©r
Ġ rios
Ġe tÃ©
ra bo
Ġp aixÃ£o
Ġde v
Ġde mos
ar tic
Ġo ita
Ġo rar
is h
Ġt chau
um as
in ador
Ġes feras
ha vam
Ã© p
ĠE theridge
de os
Ġl Ã³
co isas
Ġg iras
ĠS ir
ĠS ky
ec ron
Ġsu ic
ĠC th
Ġme didas
ĠÃ Ķ
un o
ĠT E
Ġcon quista
Ġj ud
Ġen ra
Ġfa Ã§
ido ra
Ġin sa
Ġin duz
ai as
ai te
ĠV ig
ci ntos
Ġle ntas
ĠH il
ĠH end
it Ã¡rias
Ġcont Ã¡
Ġcont Ã©m
Ġla ran
Ġesp anho
ĠL und
ros os
Ġar g
ce tta
Ġpre m
Ġpre da
Ġres ume
Ġab as
Ġab ob
uma Ã§a
ĠG AR
Ġmo rador
Ġsegu imos
ig er
Ġesc am
udo lph
Ġaqu ie
Ġaqu ecer
Ġcomp osiÃ§Ã£o
ĠI mediatamente
quer da
Ġman dasse
ĠW estern
Ġprim itivo
Ġtor cedores
Ġdu reza
Ġro mb
Ġro xas
Ġro teiro
Ġentre gas
Ġvis itou
Ġvi vera
Ġexp an
Ġrep letos
der son
Ġinter veio
Ġcons erto
gado res
Ġpequen inos
Ġun idades
Ġcarro Ã§as
Ġacab am
fa zendo
Ġenf iava
Ġescri tÃ³rios
Ġjan g
Ġdorm ira
Ġapro f
Ġbon itinho
Ġacor dados
Ġapar eÃ§a
ula mente
Ġpul se
Ġpassar inhos
ĠLe da
Ġz um
Ġpla y
ĠCh u
Ġpoder emos
Ġdescob rimos
Ġja leco
Ġarran cÃ¡
Ġfinal idade
Ġfam inta
Ġtermin amos
ĠY o
Ġespa das
ĠLo vie
Ġqueb rei
Ent rou
Ġx aro
Ġtransfor mÃ¡
ĠBla k
Ġponta pÃ©
Ġind Ãºst
pon do
pon Ãªs
Ġcontro lada
Ġdirig i
ena das
Ġinv entando
Ġbus cas
ĠLa vin
ĠCor coran
sim itÃ©rio
ĠDon ati
olo g
Ġgan so
Ġcre tino
Ġench ente
izado res
Ġdro garia
Ġqua nta
Ġanim ou
Ġilum inava
ĠSegu re
Ġmensa geiro
Ġeleva da
Ġeleva va
Ġ6 8
Ġlam entava
Ã³g lifos
Ġjor rava
Ãĩ AS
ĠNos sos
Ġpertur bou
ĠJer myn
Ġarrep iante
Ġquebra ram
Ġpica da
Ġ8 5
Ġadm ito
EL E
ric h
Ġamea Ã§ou
Ġatira va
Ġbur ros
Ġincomo dando
Ġcoto ve
Ġvar rer
Ġretorn ando
ĠSta ns
ier Ã³glifos
Ġbu fando
Ġgigantes cas
Ġava lanche
Ġredo ndas
Ġgostar iam
Ġ198 4
ĠLon ga
ĠHill s
Sa be
Ġiso lante
Ġaban ando
Ġincapaz es
ĠNO ITE
ID OS
ĠCan ad
Ġcolor idos
Ġperd Ãª
ĠalcanÃ§ aram
Ġequ aÃ§Ã£o
Ġincon ceb
Me us
Ġregular idade
Ġadqui rira
ĠtÃ©cn icos
Ġinvestiga Ã§Ãµes
Ġfla gra
ĠGal li
ĠKy le
ĠRich ler
Ġentrela Ã§ados
Ġdisfar ce
ĠPal mer
Ġcompet iÃ§Ã£o
Ġbam bo
Ġespira is
ĠhÃ³spe de
ĠcÃ¢mara s
ĠLin dy
Ġsignific asse
Ġvital idade
Ġinterpre tar
Ġpublica Ã§Ã£o
Ġmaravilhos as
ĠBry n
Ġneu ro
Ġneu tro
Deix ou
ĠdomÃ©st ica
Ġrebo que
ĠKin der
Ġinexpress ivo
ĠIndia n
Ġnebul osa
Par te
Ġtreme ram
Ġdistint ivo
ĠMant enha
Ġrobus to
Ġagl ome
Ġdecad ente
Ġesquiv ar
garo tinha
Ġcicl Ã³p
americ ano
Ġdissip ou
Ġdesenca de
Ne w
Ġpous aram
ĠcÃ¡ps ulas
Ġdelira nte
Ġmelanc Ã³lico
Ġtranst or
Ġterres tre
Ġprema tura
Ġgam bÃ¡
ĠFIL HO
ĠINT ER
qual quer
Ġvagabun dos
Ġabe tos
Ġalde Ãµes
Ġraiv oso
mom ento
ĠLock ridge
Ġslo gan
ĠDER RY
ĠAdam s
ĠVere adores
Ġmetan fetamina
Ġhomenzar rÃ£o
ĠTexa co
" ;
B et
C erta
D is
G a
H e
I MA
W il
b ris
e di
f Ã³
f ront
g assem
m ine
o on
r Ã¡vel
t eiramente
Ġ ze
Ġe c
Ġc Ã´
Ġo mit
in son
Ġes mo
le ge
ic ador
Ãª Ãª
ĠS ecas
ĠS orrindo
ĠS arey
Ġca d
Ġca lados
Ġele var
ĠC ER
ĠP lay
ĠM ELH
Ġdis cu
Ġdis forme
ve tte
ĠT ras
Ġera s
Ġfo dida
Ġfo dendo
Ġin ger
ĠR OL
Ġmu tantes
Ġmu seu
ĠJ ard
ĠJ ory
Ġap oss
Ġle vamos
Ġolh em
ĠF eito
Ġh ierÃ³glifos
Ġto p
me ral
Ġar til
Ġar gola
Ġcor tara
Ġpre gada
Ġab us
ĠG ul
ĠG irou
ĠDe vagar
Ġcas ulos
nta gens
ch eio
Ġam assou
Ġaqu Ã¡rio
Ġte imos
Ġdeix ados
Ã³s ia
Ġro Ã§ando
for Ã§a
Ġentre gÃ¡
Ġesta tel
Ġfil t
Ġso da
ĠJo hanna
ĠÃ¡ vido
ĠK itch
cion a
Ġva gue
Ġaf iadas
Ġmal cheiros
car ias
Ġgu ris
Ġgu iou
Ġinc erto
lu gar
Ġdar iam
Ġta h
Ġta cos
Ġsal ientes
Ġsal gueiros
Ġesqu i
Ġmer ce
Ġim une
Ġnova to
Ġolha dela
ive la
para r
Ġtro tando
ĠMa leen
Ġbon itÃ£o
ven port
Ġcent s
Ġce ia
Ġfer til
Ġchegar Ã¡
ĠDan delo
ender son
Ġor valho
ĠEn gol
ĠvÃ¡ cuo
Ġarma da
Ġarma dura
Ġdesaparec em
ĠAr s
Ġespec ular
che on
ĠTem pleton
Ġras cun
Ġterra Ã§o
Ġfar inha
Ġgal inheiro
ĠSu ÃŃ
tr ic
Ġdeci diram
Ġlimp ava
Ġale gava
Ġale luia
Ġil im
Ġinv entÃ¡rio
ĠMo tel
oo oo
Ġlim itado
Ġrepet i
ĠCor ri
sim as
ome o
Ġgas tos
Ġdep endendo
Ġcolo raÃ§Ã£o
Ġacei taÃ§Ã£o
Ġcapa cho
Ġtur bil
Ġresol uÃ§Ã£o
Ġtemp estu
Ġocu padas
Ġocu pando
li guei
ĠTim e
ĠCol oca
Ġrea b
Ġdisp unha
ĠSent indo
Ġbil hÃµes
Ġcontor cido
Ġpasse ando
Ġcaus ava
Ġmult idÃµes
Ġsuger ido
Ġengol indo
Ġviva mente
RI OS
Ġge rar
Ġexib iam
Ġsubstitu iu
Ġmic ros
Ġplane jar
ĠMan chester
ĠX IX
Ġsolu Ã§ou
Ġpan or
ĠSo f
Ġpont inhos
ĠHol t
ĠHol iday
ier e
Ġ197 9
Ġdelica dos
Ġmec ha
Ġvul tos
ĠVo zes
Ġtap ar
Ãĵ timo
ĠRay mond
ĠCOM P
Ho wie
ĠvÃŃ vido
Ġacompanha da
Ġpercebe ram
ĠPres idente
Ġconce ber
Ġfrou xas
Ġrespons Ã¡veis
ĠWar ren
Ġdesenvol vido
Ġpilo tos
ĠFec hei
Ġcarregado r
Ġous ou
Ġfru ta
Ġfru to
Ġcong elou
Ġdeso lado
Ġfare jando
Ġpei tor
Ġapodre cido
Ġdra ma
Ġcaracter es
Ġvisual izar
Ġcovar des
Ġbigo des
ĠInc rÃŃvel
Ġtransfer Ãªncia
Ġnause ado
Ġimpre g
ĠMac Donald
Ġgalo pe
ĠMost re
Ġferoz mente
Ġol mo
Ġfech asse
Ġencam inhou
Ġaterris sou
Ġinicia tiva
Ġespar ramado
Ġcartu cho
Ġangust iado
Ġinunda Ã§Ã£o
Ġhedi ondo
Ġrepuls ivo
Ġfeitic eira
Ġseren amente
Ġacostuma da
Ġmodes to
Ġeva po
Ġrecol ocou
peu ta
Ġpenhas cos
Ġempert igou
Ġbla zer
ĠCiv il
ĠFir st
ĠciÃº me
Ġchaco al
ĠIncl usive
ĠSna b
ĠprojÃ© til
Ġloj inha
ĠsÃºp lica
Ġtrian gular
ĠHaver Ã¡
Ġchines es
Wes ley
Ġmetic ul
cintos h
ĠStans field
B S
C ON
G ADO
H ugh
I GO
M on
O lhe
P L
R en
V IS
a cho
d ÃŃssimo
g Ãªn
i ers
s angue
w ers
Ġe fica
ra x
Ġc ÃŃnico
Ġs iga
Ġs Ãªmen
do ras
Ġqu i
Ġqu im
Ġco ta
es cri
in go
in aria
Ġf ron
Ġv ast
Ġv ilÃ£o
en ne
ha ra
Ġb ipe
Ġpor tu
Ġca gada
ĠN ecron
ĠC lo
ĠD ats
ĠP elos
Ġr ÃŃs
ĠM ell
om icon
go th
ĠT anya
Ġj ur
Ġac essos
iv elas
ĠV enho
ens ivamente
gar oto
Ġpro ntas
Ġpro testa
Ġver em
Ġmes ura
Ġla trina
Ġla gost
Ġho bby
Ġha bi
Ġres tri
Ġab st
ĠG us
st ros
Ġcar teiras
Ġcar valhos
ĠDe enie
Ġsegu ira
Ġcam balho
Ġtr ico
ĠU se
and est
ĠSe at
Ġfal hou
Ġman gueiras
Ġcasa is
ĠAl gul
za das
Ãªs semos
Ġmar inha
ĠK u
Ġinter nos
ĠpÃ© rolas
Ġgu iar
Ġacha tada
Ġliv rou
ĠNa vio
Ġru gindo
Ġpres unto
Ġbol inhos
Ġcontra tar
Ġespe ram
Ġmer os
qui as
Ġpis caram
ĠsaÃŃ das
lin er
Ġpl Ã¡sticos
Ġrece besse
ĠPer didos
ĠPer feita
Ġarran cadas
Ġdifer enÃ§as
Ġchu vas
Ġdesc em
Ġdesc endente
Ġtre inados
tr Ãªs
Ġfe bris
com be
Ġrecu aram
Es tamos
OR K
Ġil usÃµes
ĠBa by
Ġber ra
Ġexplo raÃ§Ã£o
Ġmurm urei
Ġexist iu
Ġcerca dos
Ġdem issÃ£o
Ġvir g
Ġeng ana
ĠEx cursÃ£o
Ġdisc riÃ§Ã£o
Ġmol es
Ġmem o
ire mos
Ġur ubus
Ġris on
ang ol
ĠKe en
Ġresol vesse
Ġsatis feitos
Ġsop ra
ĠWil low
Ġsul co
ĠDave y
bor ra
ĠCha tsworth
dÃ¡ rias
TA L
Ġprinc ÃŃpios
ĠCam inhou
Ġpertur baÃ§Ã£o
ĠFla herty
Ġenro lados
Ġron dando
Ġavis tado
Ġqueima duras
Ġdesespe rados
Ġenlouqu ecendo
Ġacen ar
Ġescure ceu
Ou vi
Ġdiv ino
Ġiso lados
ĠSha kespeare
Ġentend imento
tom ia
ĠOb viamente
Ġdivid ida
Ġ200 7
Ġsupos iÃ§Ãµes
Ġtranspor tar
Ġpron unciou
Ġrecla mou
ĠSil Ãªncio
ĠDez esse
nis ton
Ġoficial mente
Ġrelig iosos
Ġincha das
Ġesbo Ã§ou
Tinha m
Ġconsta tar
Ġfolhe to
Ġfolhe tos
ĠabenÃ§o ado
Ġfume gantes
ĠPal m
Ġultrap ass
ĠidÃªnt ica
Ġenjo ada
ĠHen rietta
ĠSoc orro
ĠUr so
ĠObs erva
Ġimpre vis
ĠaÃ© reas
Ġexpul so
Ġmam ilos
Ġengat inhando
Ġvib rando
Ġarromb ar
ĠBry ant
ĠXX I
Ġencant amento
ĠMos queta
Ġbrutal mente
Ġole oso
ĠDeb aria
Ġextrava gantes
ĠPO DE
Ġdesconcer tante
ĠRai der
Ġy ou
ĠfÃ³rm ula
Ġexcess ivamente
Ġmartel ando
Lem b
Ġintelec tual
ĠGrin er
ĠHorr ores
ĠpossuÃŃ am
Ġmilag res
Ġmosqu itos
Ġovel ha
ĠlÃŃmp ido
Ġmotocic leta
Ġteor ias
Ġresqu ÃŃcios
Ġdesgren hado
Ġesverde ada
ĠSid ley
ĠPROIBI DA
Ġmatra ca
ĠtÃŃ mp
Ġalucina Ã§Ãµes
Ġidi oma
ĠdecrÃ© p
ĠCris s
ĠAtl Ã¢ntico
Ġafei Ã§Ã£o
ĠHava ÃŃ
ĠNecron omicon
E vie
J am
M el
P S
R U
b orrÃ£o
c lar
f u
f ixo
j asse
k ers
[...]
