{"<|endoftext|>":0,"!":1,"\"":2,"#":3,"$":4,"%":5,"&":6,"'":7,"(":8,")":9,"*":10,"+":11,",":12,"-":13,".":14,"/":15,"0":16,"1":17,"2":18,"3":19,"4":20,"5":21,"6":22,"7":23,"8":24,"9":25,":":26,";":27,"<":28,"=":29,">":30,"?":31,"@":32,"A":33,"B":34,"C":35,"D":36,"E":37,"F":38,"G":39,"H":40,"I":41,"J":42,"K":43,"L":44,"M":45,"N":46,"O":47,"P":48,"Q":49,"R":50,"S":51,"T":52,"U":53,"V":54,"W":55,"X":56,"Y":57,"Z":58,"[":59,"\\":60,"]":61,"^":62,"_":63,"`":64,"a":65,"b":66,"c":67,"d":68,"e":69,"f":70,"g":71,"h":72,"i":73,"j":74,"k":75,"l":76,"m":77,"n":78,"o":79,"p":80,"q":81,"r":82,"s":83,"t":84,"u":85,"v":86,"w":87,"x":88,"y":89,"z":90,"{":91,"|":92,"}":93,"~":94,"¡":95,"¢":96,"£":97,"¤":98,"¥":99,"¦":100,"§":101,"¨":102,"©":103,"ª":104,"«":105,"¬":106,"®":107,"¯":108,"°":109,"±":110,"²":111,"³":112,"´":113,"µ":114,"¶":115,"·":116,"¸":117,"¹":118,"º":119,"»":120,"¼":121,"½":122,"¾":123,"¿":124,"À":125,"Á":126,"Â":127,"Ã":128,"Ä":129,"Å":130,"Æ":131,"Ç":132,"È":133,"É":134,"Ê":135,"Ë":136,"Ì":137,"Í":138,"Î":139,"Ï":140,"Ð":141,"Ñ":142,"Ò":143,"Ó":144,"Ô":145,"Õ":146,"Ö":147,"×":148,"Ø":149,"Ù":150,"Ú":151,"Û":152,"Ü":153,"Ý":154,"Þ":155,"ß":156,"à":157,"á":158,"â":159,"ã":160,"ä":161,"å":162,"æ":163,"ç":164,"è":165,"é":166,"ê":167,"ë":168,"ì":169,"í":170,"î":171,"ï":172,"ð":173,"ñ":174,"ò":175,"ó":176,"ô":177,"õ":178,"ö":179,"÷":180,"ø":181,"ù":182,"ú":183,"û":184,"ü":185,"ý":186,"þ":187,"ÿ":188,"Ā":189,"ā":190,"Ă":191,"ă":192,"Ą":193,"ą":194,"Ć":195,"ć":196,"Ĉ":197,"ĉ":198,"Ċ":199,"ċ":200,"Č":201,"č":202,"Ď":203,"ď":204,"Đ":205,"đ":206,"Ē":207,"ē":208,"Ĕ":209,"ĕ":210,"Ė":211,"ė":212,"Ę":213,"ę":214,"Ě":215,"ě":216,"Ĝ":217,"ĝ":218,"Ğ":219,"ğ":220,"Ġ":221,"ġ":222,"Ģ":223,"ģ":224,"Ĥ":225,"ĥ":226,"Ħ":227,"ħ":228,"Ĩ":229,"ĩ":230,"Ī":231,"ī":232,"Ĭ":233,"ĭ":234,"Į":235,"į":236,"İ":237,"ı":238,"Ĳ":239,"ĳ":240,"Ĵ":241,"ĵ":242,"Ķ":243,"ķ":244,"ĸ":245,"Ĺ":246,"ĺ":247,"Ļ":248,"ļ":249,"Ľ":250,"ľ":251,"Ŀ":252,"ŀ":253,"Ł":254,"ł":255,"Ń":256,"Ġd":257,"Ġe":258,"Ġa":259,"ra":260,"Ġp":261,"Ġc":262,"Ġde":263,"Ġs":264,"qu":265,"nt":266,"os":267,"Ġm":268,"er":269,"do":270,"as":271,"ar":272,"Ġn":273,"Ġqu":274,"Ġo":275,"Ġco":276,"is":277,"Ġt":278,"es":279,"Ã£":280,"um":281,"in":282,"Ã£o":283,"or":284,"Ġque":285,"ia":286,"Ġf":287,"âĢ":288,"âĢĶ":289,"Ġv":290,"ta":291,"re":292,"ou":293,"Ġum":294,"Ġse":295,"an":296,"Ġes":297,"le":298,"da":299,"la":300,"ent":301,"en":302,"Ġcom":303,"va":304,"ha":305,"Ã¡":306,"ara":307,"Ã§":308,"ro":309,"se":310,"Ġb":311,"to":312,"al":313,"Ã©":314,"ĠE":315,"ĠâĢĶ":316,"em":317,"im":318,"de":319,"Ġdo":320,"el":321,"Ġpara":322,"ic":323,"ei":324,"ĠnÃ£o":325,"Ġem":326,"gu":327,"ho":328,"ri":329,"Ġl":330,"Ġno":331,"ando":332,"ente":333,"Ġda":334,"Ġuma":335,"ĠA":336,"Ãª":337,"am":338,"co":339,"Ġg":340,"oc":341,"Ġna":342,"te":343,"so":344,"..":345,"ĠS":346,"ec":347,"ol":348,"Ġpor":349,"Ã³":350,"Ġest":351,"Ġma":352,"ÃŃ":353,"Ġsu":354,"on":355,"Ġca":356,"Ġas":357,"il":358,"ir":359,"inha":360,"us":361,"tava":362,"ĠN":363,"Ġele":364,"Ġre":365,"ĠO":366,"ĠC":367,"Ġal":368,"ĠD":369,"ĠP":370,"Ġou":371,"Ġos":372,"ado":373,"ran":374,"Ġr":375,"ĠM":376,"Ġme":377,"Ġdis":378,"ve":379,"ida":380,"om":381,"ĠÃ":382,"lh":383,"Ġmas":384,"po":385,"que":386,"go":387,"nte":388,"un":389,"dos":390,"Ġdi":391,"ĠT":392,"Ġera":393,"Ġestava":394,"ocÃª":395,"Ġdes":396,"mente":397,"Ġcon":398,"Ġj":399,"Ġsa":400,"Ġen":401,"ca":402,"Ġcomo":403,"ma":404,"Ã§Ã£o":405,"Ġfa":406,"Ġmais":407,"ĠB":408,"ido":409,"ĠÃ©":410,"Ã§a":411,"Ġper":412,"Ġpo":413,"Ġat":414,"Ġpar":415,"Ġfo":416,"Ġin":417,"ai":418,"di":419,"...":420,"Ġpe":421,"Ġdisse":422,"ul":423,"sa":424,"Ġac":425,"nto":426,"ĠR":427,"iv":428,"Ġmu":429,"ĠV":430,"ĠJ":431,"Ġter":432,"ci":433,"Ġeu":434,"iu":435,"Ġap":436,"he":437,"Ġela":438,"ĠvocÃª":439,"ez":440,"Ġpr":441,"Ġent":442,"Ġle":443,"ga":444,"Ġtinha":445,"via":446,"ira":447,"Ã©m":448,"Ġolh":449,"ĠH":450,"it":451,"ob":452,"mo":453,"be":454,"das":455,"isa":456,"Ġis":457,"ens":458,"Ġex":459,"ĠNÃ£o":460,"ura":461,"ito":462,"gar":463,"ento":464,"Ġpro":465,"Ġver":466,"eria":467,"ĠF":468,"Ġcont":469,"Ġtem":470,"Ġmes":471,"Ġsua":472,"Ġao":473,"esse":474,"Ġh":475,"ram":476,"ria":477,"endo":478,"ĠÃł":479,"Ġla":480,"Ġi":481,"Ġesp":482,"ur":483,"les":484,"Ġisso":485,"ica":486,"Ġseu":487,"Ġan":488,"ĠL":489,"ras":490,"vel":491,"Ġto":492,"Ġquando":493,"Ġsem":494,"Ġfaz":495,"Ġho":496,"res":497,"ros":498,"Ġout":499,"me":500,"Ġha":501,"Ġar":502,"lo":503,"ce":504,"at":505,"Ġdos":506,"Ġcor":507,"ĠEle":508,"Ġvez":509,"ĠestÃ¡":510,"Ġpre":511,"ima":512,"elo":513,"Ġres":514,"Ġab":515,"Qu":516,"uma":517,"tar":518,"Ġser":519,"Ġsob":520,"ix":521,"anto":522,"ntes":523,"cia":524,"Ġdiz":525,"idade":526,"ĠG":527,"Ġfoi":528,"st":529,"Ġparec":530,"Ġpas":531,"Ġpod":532,"Ġmo":533,"Ġpa":534,"ndo":535,"iz":536,"eu":537,"Ġcar":538,"ĠatÃ©":539,"Ġass":540,"eira":541,"Ġsent":542,"Ġhavia":543,"ie":544,"Ġcoisa":545,"pois":546,"imp":547,"ĠDe":548,"tas":549,"Ġfic":550,"Ġsegu":551,"ig":552,"io":553,"ver":554,"eiro":555,"Ã§o":556,"tos":557,"indo":558,"Ġcas":559,"ĠQu":560,"Ġcer":561,"Ġvol":562,"Ġbem":563,"Ġmuito":564,"Ġmesmo":565,"inda":566,"Ġalg":567,"mb":568,"ina":569,"Ġesc":570,"cont":571,"Ġcam":572,"Ġfor":573,"rio":574,"pa":575,"Ãº":576,"tou":577,"Ġlu":578,"Ġmen":579,"gora":580,"Ġnos":581,"nta":582,"ita":583,"ĠlÃ¡":584,"aro":585,"Ã¡s":586,"pe":587,"rar":588,"Ġdas":589,"Ġsobre":590,"Ġch":591,"udo":592,"Ġtr":593,"ĠEu":594,"Ġpes":595,"Ãµ":596,"Ġpens":597,"ist":598,"Ġcome":599,"Ãµes":600,"ĠU":601,"vam":602,"ru":603,"ch":604,"Ġvo":605,"inho":606,"aix":607,"Ġdepois":608,"vo":609,"Ġtam":610,"Ġsab":611,"Ã´":612,"Ġolhos":613,"Ġam":614,"vez":615,"ĠsÃ³":616,"inh":617,"ja":618,"iam":619,"Ġcabe":620,"Ġmor":621,"Ġaqu":622,"segu":623,"Ãªn":624,"Ġra":625,"Ġainda":626,"alvez":627,"na":628,"Ġpelo":629,"Ġtra":630,"Ġche":631,"ĠmÃ£":632,"ĠcabeÃ§a":633,"ase":634,"ico":635,"quele":636,"elh":637,"Ġhom":638,"eito":639,"Ġcha":640,"id":641,"ĠVocÃª":642,"osto":643,"Ġcomp":644,"Ġpou":645,"and":646,"Ġpergu":647,"nde":648,"bÃ©m":649,"Ġint":650,"end":651,"Ġdele":652,"Ġtempo":653,"Ġlado":654,"ĠSe":655,"ĠI":656,"rando":657,"rou":658,"ua":659,"bo":660,"Ġte":661,"Ġimp":662,"ĠMas":663,"Ġfal":664,"ĠEs":665,"ior":666,"Ġ(":667,"Ġdia":668,"Ġpass":669,"Ġdeix":670,"Ġpra":671,"Ġresp":672,"Ġconsegu":673,"aria":674,"Ġagora":675,"ĠcomeÃ§":676,"ĠEla":677,"quela":678,"eio":679,"ĠtambÃ©m":680,"Ġvai":681,"ivesse":682,"Ã¢":683,"Ġfazer":684,"ter":685,"rado":686,"pre":687,"ĠÃº":688,"no":689,"ck":690,"tado":691,"ĠmÃ£o":692,"Ġir":693,"quer":694,"Ġman":695,"Ġmeu":696,"amente":697,"Ġdois":698,"Ġquase":699,"ntou":700,"ite":701,"Ġonde":702,"amos":703,"ĠjÃ¡":704,"ĠÃī":705,"Ġcasa":706,"ud":707,"Ġpela":708,"dade":709,"har":710,"Ġ\"":711,"orr":712,"rada":713,"Ġquer":714,"oca":715,"ĠW":716,"est":717,"ess":718,"Ġjo":719,"aram":720,"Ã³s":721,"Ġminha":722,"ill":723,"enas":724,"gou":725,"ĠAl":726,"Ġouv":727,"ĠtÃ£o":728,"za":729,"Ġfre":730,"Ġtudo":731,"Ġantes":732,"Ġdire":733,"Ġeles":734,"Ġpouco":735,"elho":736,"ĠJa":737,"Ġne":738,"lha":739,"ada":740,"undo":741,"Ġporta":742,"Ġseus":743,"Ġgri":744,"Ġpos":745,"Ġhomem":746,"ĠPor":747,"ut":748,"ge":749,"guÃ©m":750,"per":751,"Ġvoz":752,"Ġoutro":753,"gem":754,"aixo":755,"Ġmenos":756,"Ġprim":757,"Ġtor":758,"Ġbo":759,"Ġdu":760,"Ġqual":761,"fer":762,"Ġassim":763,"Ġfora":764,"ÃŃvel":765,"Ġpesso":766,"Ġnada":767,"Ãªs":768,"tante":769,"cul":770,"tamente":771,"Ġlhe":772,"Ġro":773,"Ġdizer":774,"asse":775,"era":776,"gra":777,"for":778,"Ġvolta":779,"ry":780,"Ġtalvez":781,"Ġalgum":782,"ber":783,"Ġ1":784,"osse":785,"almente":786,"Ġdela":787,"Ġentre":788,"inu":789,"Ġgran":790,"Ġti":791,"Ġrosto":792,"Ġvis":793,"dor":794,"des":795,"arec":796,"Ġsen":797,"Ġanos":798,"Ġesta":799,"Ġsol":800,"Ġvi":801,"ĠCom":802,"ne":803,"Ġporque":804,"enta":805,"Ãªncia":806,"Ġprec":807,"Ġgaro":808,"contec":809,"enh":810,"quanto":811,"mos":812,"Ġfil":813,"las":814,"Ġestavam":815,"tor":816,"Ġfrente":817,"Ġfosse":818,"unca":819,"Ġparecia":820,"Ġalguma":821,"Ġexp":822,"Ġso":823,"ela":824,"ke":825,"Ġnas":826,"Ġestar":827,"isas":828,"Ġacontec":829,"Ġnem":830,"rem":831,"if":832,"Ġcal":833,"dia":834,"Ġlugar":835,"Ġapenas":836,"ĠOs":837,"deu":838,"ĠprÃ³":839,"lher":840,"ĠmÃ£os":841,"igo":842,"ĠJo":843,"Ġmar":844,"ĠEst":845,"Ġnovo":846,"tura":847,"irou":848,"Ġrep":849,"Ele":850,"Ġencont":851,"Ġob":852,"Ġcl":853,"--":854,"ing":855,"Ġsom":856,"cho":857,"ĠÃ¡":858,"cos":859,"con":860,"cu":861,"ĠK":862,"hec":863,"Ġverdade":864,"der":865,"osa":866,"Ġmom":867,"Ã§Ãµes":868,"riu":869,"iso":870,"Ġtom":871,"Ã¢n":872,"elhor":873,"Ġleva":874,"Ġoutra":875,"Ġcorre":876,"Ġaqui":877,"Ġsido":878,"Ġnoite":879,"ais":880,"ĠentÃ£o":881,"oso":882,"Ġcoisas":883,"ĠEra":884,"Ġparte":885,"Ġpode":886,"Ġmeio":887,"elas":888,"Ġfez":889,"Ġlemb":890,"Ã§as":891,"ĠEnt":892,"Ġmulher":893,"Ġtent":894,"Ġdor":895,"Ġten":896,"cion":897,"Ġmelhor":898,"rava":899,"imo":900,"Ġva":901,"Ġba":902,"Ġpoderia":903,"ba":904,"Ġvezes":905,"Ġtodos":906,"Ġaf":907,"Ġcol":908,"Ġus":909,"Ġsabia":910,"Ġmal":911,"Ġtivesse":912,"Ġinter":913,"Ġenquanto":914,"Ġbom":915,"Ġcu":916,"Ġer":917,"entos":918,"Ġsempre":919,"Ġpu":920,"Ġcons":921,"Ġlon":922,"dio":923,"Ġnunca":924,"Ġduas":925,"rÃ¡s":926,"ĠpÃ©":927,"Ġbar":928,"ost":929,"Ġperguntou":930,"Ġviu":931,"Ġmomento":932,"gue":933,"die":934,"ĠJack":935,"Ġali":936,"esta":937,"iva":938,"Ġpen":939,"Ġnum":940,"ĠUm":941,"ad":942,"Ġdent":943,"Ġeram":944,"bora":945,"Ã¡rio":946,"gado":947,"ilo":948,"Ġcin":949,"Ġpequ":950,"Ġsub":951,"bal":952,"Ġpodia":953,"iro":954,"Ġson":955,"anh":956,"ino":957,"ĠAs":958,"ns":959,"Ġdentro":960,"Ġrespon":961,"cha":962,"Ġmim":963,"Ġtran":964,"Ġpai":965,"inal":966,"Ã¡vel":967,"lt":968,"Ġcara":969,"Ġins":970,"ĠtrÃªs":971,"vi":972,"ĠNo":973,"ĠEd":974,"Ġficar":975,"car":976,"ivo":977,"sÃ£o":978,"Ġsei":979,"ĠcomeÃ§ou":980,"et":981,"deira":982,"Ġpensou":983,"Ġbra":984,"Ġsabe":985,"ĠatrÃ¡s":986,"Ġsuas":987,"Ġdisso":988,"Ġgrande":989,"ny":990,"Ġcima":991,"cor":992,"Ġqualquer":993,"amento":994,"ph":995,"Ġaquele":996,"ista":997,"Ġcham":998,"Ġembora":999,"ĠÃºlt":1000,"Ġcria":1001,"dar":1002,"vor":1003,"Ġnenh":1004,"Ġgu":1005,"Ġmundo":1006,"oland":1007,"ap":1008,"ĠBill":1009,"ĠPe":1010,"Ġficou":1011,"Ġacha":1012,"ĠQuando":1013,"ĠmÃ£e":1014,"Ġpequen":1015,"Ġvida":1016,"iga":1017,"teza":1018,"ib":1019,"ĠÃłs":1020,"Ġcab":1021,"anÃ§":1022,"Ġquanto":1023,"Ġtrabal":1024,"Ġbe":1025,"Ġju":1026,"Ġtar":1027,"cio":1028,"Ġdeu":1029,"Ġtinham":1030,"Ġinc":1031,"Ġolhou":1032,"tando":1033,"ĠDeus":1034,"Ġun":1035,"rios":1036,"hn":1037,"idos":1038,"Ġlev":1039,"velmente":1040,"elha":1041,"ici":1042,"entes":1043,"imento":1044,"Ġboca":1045,"Ġaca":1046,"Ġpessoas":1047,"Ġmaior":1048,"ĠPo":1049,"lar":1050,"ĠprÃ³p":1051,"Ġtodo":1052,"Ġbal":1053,"Ġluz":1054,"redi":1055,"Ġquar":1056,"lu":1057,"Ġvelho":1058,"Ġlo":1059,"Ġsor":1060,"Ã§os":1061,"Ġquem":1062,"emos":1063,"ĠhÃ¡":1064,"Ġpol":1065,"Ġqueria":1066,"Ġdar":1067,"bra":1068,"Ġsur":1069,"Ġolhar":1070,"cas":1071,"ios":1072,"ava":1073,"jo":1074,"Ġfec":1075,"Ġseria":1076,"pos":1077,"lav":1078,"du":1079,"Ġescu":1080,"int":1081,"gua":1082,"ick":1083,"Ġcerteza":1084,"Ġcarro":1085,"ĠIs":1086,"mais":1087,"Ġliv":1088,"tal":1089,"Ela":1090,"Ġessa":1091,"cer":1092,"Ġalgo":1093,"Ġta":1094,"ĠEntÃ£o":1095,"Ġnuma":1096,"Ġdeles":1097,"Ġsorr":1098,"son":1099,"ĠNa":1100,"Ġru":1101,"Ġcan":1102,"je":1103,"Ġforma":1104,"Ġsan":1105,"Ġcidade":1106,"dy":1107,"Ġpres":1108,"ĠtrÃ¡s":1109,"Ġsal":1110,"ĠEm":1111,"Ġaquela":1112,"Ġbol":1113,"ton":1114,"ero":1115,"Ġgente":1116,"ĠRoland":1117,"Ġsim":1118,"Ġgra":1119,"Ġsi":1120,"Ġant":1121,"ana":1122,"rim":1123,"Ġcada":1124,"Ġcontra":1125,"Ġfun":1126,"ĠUma":1127,"Ġbran":1128,"Ġhist":1129,"ine":1130,"Ġpalav":1131,"ĠJohn":1132,"ĠAn":1133,"Ġfu":1134,"lhe":1135,"elos":1136,"Ġteria":1137,"los":1138,"hos":1139,"ntar":1140,"raÃ§Ã£o":1141,"sas":1142,"mas":1143,"ard":1144,"Ġdemais":1145,"eles":1146,"Ġtarde":1147,"Ġacab":1148,"ĠFo":1149,"Ã³ria":1150,"ĠEddie":1151,"Ġgos":1152,"ĠalguÃ©m":1153,"Ġestivesse":1154,"Ġacredi":1155,"Ġesqu":1156,"ntas":1157,"Ġimpor":1158,"Ġgar":1159,"Ġvou":1160,"inhas":1161,"ial":1162,"hou":1163,"Ġestou":1164,"has":1165,"ĠHa":1166,"ÃŃn":1167,"Ġfim":1168,"ĠTalvez":1169,"ĠsÃ£o":1170,"man":1171,"Ġhora":1172,"Ġacho":1173,"Ġima":1174,"Ġestran":1175,"fa":1176,"tros":1177,"pres":1178,"tes":1179,"alph":1180,"ĠÃºn":1181,"ly":1182,"Ġatra":1183,"Ġespe":1184,"ĠAcho":1185,"emente":1186,"ion":1187,"Ġnome":1188,"Ġmer":1189,"Ġia":1190,"Ġfica":1191,"ĠComo":1192,"Ġtoda":1193,"ĠnÃ³s":1194,"Ġcho":1195,"hor":1196,"qui":1197,"Ġbat":1198,"Ġtele":1199,"ĠCo":1200,"ĠDa":1201,"Ġbas":1202,"Ġped":1203,"paz":1204,"ris":1205,"Ġvira":1206,"Ġesse":1207,"Ġsaber":1208,"Ġfalar":1209,"lho":1210,"rir":1211,"por":1212,"Ġban":1213,"iver":1214,"Ġaj":1215,"vida":1216,"usa":1217,"ĠâĢĶ,":1218,"min":1219,"Ġpis":1220,"par":1221,"),":1222,"Ġim":1223,"ĠIsso":1224,"Ġav":1225,"Ġbri":1226,"inguÃ©m":1227,"Ġgaroto":1228,"Ġtorn":1229,"tic":1230,"Ġsr":1231,"Ġperce":1232,"guns":1233,"Ġperto":1234,"Ġ--":1235,"Ġconhec":1236,"Ġnova":1237,"Ġsus":1238,"atro":1239,"Ġclaro":1240,"Ġmedo":1241,"deia":1242,"Ġpassa":1243,"Ġag":1244,"Ġfi":1245,"cada":1246,"ĠdireÃ§Ã£o":1247,"Ġolha":1248,"Ġolhando":1249,"tra":1250,"Ġad":1251,"gando":1252,"ĠMar":1253,"ĠSÃ³":1254,"vavelmente":1255,"ntos":1256,"cil":1257,"Ġomb":1258,"Ġconf":1259,"Ġprimeira":1260,"rias":1261,"nda":1262,"Ġfazendo":1263,"Ġposs":1264,"este":1265,"Ġaos":1266,"Ġcerto":1267,"tu":1268,"Ġprimeiro":1269,"Ġvia":1270,"baixo":1271,"Ġpud":1272,"ĠchÃ£o":1273,"urante":1274,"erv":1275,"ass":1276,"Ġfiz":1277,"Ġoutros":1278,"Ġalto":1279,"tÃ³":1280,"ĠSa":1281,"Ġenf":1282,"Ġprecisa":1283,"ĠcÃ©":1284,"NÃ£o":1285,"Ġcaminho":1286,"ed":1287,"Ġtrans":1288,"Ġescri":1289,"one":1290,"Ġtira":1291,"ĠdÃº":1292,"Ġverm":1293,"Ġbaixo":1294,"Ġjan":1295,"mp":1296,"Ġcontinu":1297,"ĠestÃ£o":1298,"Ġcrian":1299,"Ġcorpo":1300,"lic":1301,"ĠRalph":1302,"Ġesco":1303,"ĠTo":1304,"Ġexa":1305,"Ġsimp":1306,"Ġsangue":1307,"Ġfilho":1308,"ive":1309,"ĠRic":1310,"ĠAgora":1311,"ĠÃ³":1312,"rin":1313,"Ġdorm":1314,"Ã¢ncia":1315,"Ġeste":1316,"tro":1317,"ĠrÃ¡":1318,"Ġsala":1319,"Ġpap":1320,"cado":1321,"Ġapo":1322,"essa":1323,"ias":1324,"ĠQue":1325,"Ġtanto":1326,"Ġgritou":1327,"Ġsenhor":1328,"Ġestrada":1329,"enry":1330,"Ġpensar":1331,"vem":1332,"ĠFoi":1333,"Ġsou":1334,"Ġatrav":1335,"Ġsorriso":1336,"Ġtipo":1337,"Ġprof":1338,"cob":1339,"len":1340,"usan":1341,"para":1342,"Ġobs":1343,"Ġpare":1344,"Ġtro":1345,"elhos":1346,"ĠEstÃ¡":1347,"ĠpÃ¡":1348,"ĠpÃ´":1349,"Ġbaix":1350,"veis":1351,"Ġrespondeu":1352,"Ġmesma":1353,"Ġrou":1354,"ĠsaÃŃ":1355,"ano":1356,"ĠmÃ¡":1357,"Ġimag":1358,"fe":1359,"ĠEstava":1360,"Ġquatro":1361,"Ġnenhum":1362,"Ġcur":1363,"Ġesquer":1364,"ĠHavia":1365,"rig":1366,"Ġdevia":1367,"lado":1368,"Ã©s":1369,"ble":1370,"tam":1371,"Ġalguns":1372,"Ġmente":1373,"ĠSim":1374,"alha":1375,"Ġboa":1376,"rei":1377,"ĠMa":1378,"hÃ£":1379,"Ġergu":1380,"Ġquarto":1381,"ze":1382,"vis":1383,"zinha":1384,"gre":1385,"ĠhistÃ³ria":1386,"Ġ19":1387,"Ġideia":1388,"dou":1389,"isse":1390,"ĠTom":1391,"Ġtri":1392,"Ġmodo":1393,"ide":1394,"ĠmanhÃ£":1395,"Ġapro":1396,"Ġbon":1397,"ven":1398,"bro":1399,"eiros":1400,"Ġlogo":1401,"Ġnaquele":1402,"ĠDepois":1403,"Ġacor":1404,"ĠHar":1405,"Ġconta":1406,"Ġpux":1407,"th":1408,"Ġemp":1409,"ral":1410,"nas":1411,"Ġhomens":1412,"Ġquis":1413,"Ġtelef":1414,"ĠOu":1415,"Ġano":1416,"Ġcaix":1417,"Ġsimples":1418,"Ġrealmente":1419,"ĠEles":1420,"Ġsuf":1421,"Ġrua":1422,"Ãªm":1423,"Ġ2":1424,"ĠforÃ§a":1425,"Ġtodas":1426,"ĠHenry":1427,"Ġhou":1428,"Ġtenho":1429,"iÃ§Ã£o":1430,"Ġminu":1431,"ĠÃ¡gua":1432,"Ġcoloc":1433,"rid":1434,"Ġcinco":1435,"Ġaber":1436,"Ġmost":1437,"fÃŃ":1438,"Ġcos":1439,"ĠbraÃ§o":1440,"Ġvoltar":1441,"orre":1442,"Ġcent":1443,"ĠHo":1444,"Ġlou":1445,"iar":1446,"vid":1447,"Ġaz":1448,"Ġmil":1449,"Ġaper":1450,"ip":1451,"Ġpassou":1452,"ores":1453,"Ġaquilo":1454,"Ġpudesse":1455,"Ġsair":1456,"Ġproble":1457,"igar":1458,"vol":1459,"ressÃ£o":1460,"Ġparece":1461,"endeu":1462,"ĠSusan":1463,"lin":1464,"\",":1465,"Ġce":1466,"Ġdez":1467,"Ġmesa":1468,"gas":1469,"Ġvirou":1470,"rer":1471,"ĠninguÃ©m":1472,"Ġapar":1473,"Ġprovavelmente":1474,"Ġtrabalho":1475,"Ġfeito":1476,"Ġamar":1477,"Ġcama":1478,"Ġuns":1479,"ĠaÃŃ":1480,"ĠGe":1481,"Ġbastante":1482,"Ġpl":1483,"Ġfer":1484,"ĠCar":1485,"itos":1486,"Ġtenha":1487,"Ġtoc":1488,"gan":1489,"ula":1490,"Ġfalou":1491,"dado":1492,"sos":1493,"anÃ§a":1494,"Ġrepente":1495,"ilha":1496,"Ġdedos":1497,"Ġterr":1498,"Ġchegar":1499,"Ġguar":1500,"culo":1501,"Ġchama":1502,"ĠcaÃŃ":1503,"ila":1504,"iria":1505,"Ġbeb":1506,"Ġpul":1507,"Ġpassar":1508,"tÃ£o":1509,"Eu":1510,"Ġfl":1511,"ll":1512,"Ġneg":1513,"Ġconver":1514,"icos":1515,"gada":1516,"ley":1517,"ĠDan":1518,"Ġrec":1519,"Ġnaquela":1520,"enho":1521,"ĠLe":1522,"Ġz":1523,"Ġdias":1524,"Ġteve":1525,"ador":1526,"sei":1527,"Ġprecis":1528,"idas":1529,"ocu":1530,"Mas":1531,"diu":1532,".âĢĶ":1533,"Ġforam":1534,"Ġjeito":1535,"Ġpla":1536,"Ġdurante":1537,"ĠBar":1538,"ende":1539,"eta":1540,"itas":1541,"\".":1542,"mes":1543,"Ġfecha":1544,"Ġvoltou":1545,"Ġdesde":1546,"ĠBe":1547,"Ġpegou":1548,"aparec":1549,"Ġdesl":1550,"Ġfazia":1551,"Ġve":1552,"ĠvocÃªs":1553,"cie":1554,"Ġponto":1555,"inhos":1556,"ĠCh":1557,"Ġarre":1558,"fei":1559,"imos":1560,"zia":1561,"Ġpart":1562,"ender":1563,"cou":1564,"Ġpoder":1565,"Ġsuj":1566,"Ġforte":1567,"Ġprin":1568,"Ġpensa":1569,"ÃŃs":1570,"Ġcabelo":1571,"cre":1572,"ĠFran":1573,"guei":1574,"Ġsentiu":1575,"ÃŃcia":1576,"ĠGeor":1577,"ĠCl":1578,"Ġor":1579,"Ġnovamente":1580,"leiro":1581,"ĠEn":1582,"ĠTudo":1583,"Ã´n":1584,"ĠpÃ©s":1585,"Ġdeixar":1586,"Ġhorr":1587,"quei":1588,"Ġrece":1589,"ĠvÃ¡":1590,"Ãºm":1591,"igos":1592,"ĠdÃºvida":1593,"Ġandar":1594,"tei":1595,"Ġseja":1596,"Ġcomple":1597,"ĠCon":1598,"Ġcru":1599,"Ġtrem":1600,"Ġescre":1601,"ĠRe":1602,"Ġpreocu":1603,"ific":1604,"Ġsufici":1605,"lia":1606,"Ġlonge":1607,"Ġouvir":1608,"inheiro":1609,"ados":1610,"Ġcheiro":1611,"Ġdescob":1612,"mit":1613,"mou":1614,"ĠBilly":1615,"Ġfra":1616,"Ġposso":1617,"Ġfavor":1618,"ĠquÃª":1619,"Ġabriu":1620,"ular":1621,"ty":1622,"Ġpelos":1623,"ĠsÃ©":1624,"Ġsaiu":1625,"ĠJake":1626,"dido":1627,"Ġja":1628,"Ġquero":1629,"Ġarma":1630,"uda":1631,"ĠalÃ©m":1632,"Ġfato":1633,"Ġisto":1634,"Ġcostas":1635,"ĠrÃ¡p":1636,"gos":1637,"Ġrel":1638,"sur":1639,"Ġmant":1640,"tada":1641,"Ġaparec":1642,"Ġconseguia":1643,"ger":1644,"au":1645,"culos":1646,"cip":1647,"teu":1648,"Ġpalavras":1649,"ĠTinha":1650,"ĠEstou":1651,"Ġdesaparec":1652,"Ġmeus":1653,"ĠPer":1654,"Ġhum":1655,"tÃ¡":1656,"Ġesquec":1657,"Ġfundo":1658,"Ġdeve":1659,"De":1660,"Ġnor":1661,"RA":1662,"ĠDo":1663,"Ġlar":1664,"ĠSr":1665,"Ġarran":1666,"Ġsensa":1667,"ĠcoraÃ§Ã£o":1668,"Ġfin":1669,"Ġpequeno":1670,"ĠcÃ©u":1671,"Ġalgumas":1672,"pas":1673,"olly":1674,"lei":1675,"ĠvÃª":1676,"ĠAr":1677,"Ġaprox":1678,"Ġmaneira":1679,"cura":1680,"ĠbraÃ§os":1681,"Ġpessoa":1682,"Ġreal":1683,"taria":1684,"Ġespec":1685,"ĠÃºltima":1686,"Ġcadeira":1687,"Ġpeda":1688,"inte":1689,"tÃ³rio":1690,"Ġdifer":1691,"metros":1692,"ĠVamos":1693,"Ġsentir":1694,"Ġquil":1695,"Ġvento":1696,"itar":1697,"entou":1698,"Ġlig":1699,"hard":1700,"Ġhaviam":1701,"ĠParec":1702,"ĠGeorge":1703,"Ġacima":1704,"Ġid":1705,"bu":1706,"tivo":1707,"gia":1708,"orn":1709,"ĠDE":1710,"eix":1711,"nah":1712,"Ġjanela":1713,"Ġcaiu":1714,"Ġcaminh":1715,"Ġdesa":1716,"Ġinf":1717,"Ãºs":1718,"Ġnenhuma":1719,"Ġdizia":1720,"vas":1721,"che":1722,"ĠvÃ£o":1723,"iram":1724,"Ġpergunta":1725,"Ġconseguiu":1726,"Ġfinal":1727,"ĠPara":1728,"Ġexatamente":1729,"Ġpapel":1730,"Ġrela":1731,"Ġesquerda":1732,"Ġminutos":1733,"enÃ§Ã£o":1734,"Ġhoras":1735,"ĠprÃ³x":1736,"Ġachava":1737,"inua":1738,"osta":1739,"ĠVou":1740,"Ġpal":1741,"Ġvest":1742,"lica":1743,"ĠprÃ³prio":1744,"ifica":1745,"inas":1746,"Ġfala":1747,"Ġpisto":1748,"resc":1749,"ĠSeu":1750,"ĠJohnny":1751,"beu":1752,"Ġcach":1753,"Ġmeia":1754,"Ġpegar":1755,"Ġvelha":1756,"ĠporÃ©m":1757,"Ġdeixou":1758,"Ġder":1759,"ĠÃºnica":1760,"Ġcap":1761,"Ġelas":1762,"Ġpareceu":1763,"Ġvamos":1764,"isso":1765,"Ġpensando":1766,"Ġcuida":1767,"Ġnu":1768,"ranÃ§a":1769,"Ġsuper":1770,"veria":1771,"Ġfam":1772,"ĠTer":1773,"Ġfalando":1774,"icial":1775,"ĠRa":1776,"ĠRo":1777,"Ġvisto":1778,"Ġesca":1779,"Ġcaso":1780,"Ġdaqu":1781,"Ġtermin":1782,"Ġchu":1783,"Ġinstante":1784,"Ġirm":1785,"Ġquad":1786,"Ġespera":1787,"Ġoutras":1788,"Ġafas":1789,"Ġref":1790,"rÃ¡":1791,"ĠTem":1792,"gio":1793,"ses":1794,"ĠMe":1795,"Ġparou":1796,"Ġaconteceu":1797,"Ġras":1798,"eliz":1799,"Ġamigo":1800,"ĠY":1801,"ĠcalÃ§a":1802,"ĠBem":1803,"bi":1804,"Ġbrin":1805,"anÃ§ou":1806,"tre":1807,"Ġsegundo":1808,"Ġnar":1809,"Ġparar":1810,"nie":1811,"Ġvid":1812,"ĠmÃ©":1813,"Ġmaioria":1814,"iÃ£o":1815,"tÃ©":1816,"entemente":1817,"Ġdesc":1818,"rm":1819,"Ġtre":1820,"Ã§ou":1821,"zinho":1822,"Ġenor":1823,"ĠFa":1824,"ces":1825,"Ġcober":1826,"ĠNe":1827,"Ġdizendo":1828,"Ġpequena":1829,"ĠlÃ¡b":1830,"reu":1831,"ign":1832,"ins":1833,"rie":1834,").":1835,"ceu":1836,"Ġterra":1837,"hado":1838,"Ġespa":1839,"Ġmorto":1840,"Ġsuficiente":1841,"cara":1842,"ress":1843,"Ġpois":1844,"Ġfar":1845,"Ġparede":1846,"old":1847,"Ġgal":1848,"Ġdireita":1849,"ĠSu":1850,"Ġdaquele":1851,"ĠChar":1852,"ell":1853,"Ġchegou":1854,"amais":1855,"Ġcaixa":1856,"enda":1857,"iado":1858,"unda":1859,"ones":1860,"Ġassus":1861,"ĠprÃ³pria":1862,"Ġconc":1863,"Ġseis":1864,"ĠDes":1865,"Ġsentia":1866,"Ġcarre":1867,"Ġcerta":1868,"Ġtentando":1869,"ĠsensaÃ§Ã£o":1870,"Ġcozinha":1871,"tr":1872,"ord":1873,"ixo":1874,"hando":1875,"ĠPro":1876,"Ġjunto":1877,"Ġpalavra":1878,"Ġproblema":1879,"Ġsil":1880,"entar":1881,"eral":1882,"Ġlivro":1883,"idamente":1884,"ĠAh":1885,"itu":1886,"Ġtelefone":1887,"Ġdist":1888,"tiva":1889,"Ġdinheiro":1890,"ÃŃt":1891,"duz":1892,"Ġfuncion":1893,"Ġficava":1894,"Ġcontar":1895,"ĠBo":1896,"Ġentrar":1897,"ĠCla":1898,"Ġouviu":1899,"Ġcontinua":1900,"ĠpossÃŃvel":1901,"Ġment":1902,"cias":1903,"ĠLo":1904,"Ġmotor":1905,"Ġmenino":1906,"ĠBob":1907,"ĠSua":1908,"Ġpernas":1909,"Ġcava":1910,"ĠMc":1911,".\"":1912,"Ġtive":1913,"xo":1914,"ĠSusannah":1915,"bre":1916,"Ġsimplesmente":1917,"Ġempur":1918,"Os":1919,"Ġagar":1920,"ER":1921,"Ġembaixo":1922,"mar":1923,"cando":1924,"vesse":1925,"orro":1926,"dando":1927,"Ġpelas":1928,"ntando":1929,"gava":1930,"Ġsemana":1931,"endia":1932,"ĠPar":1933,"erto":1934,"stru":1935,"Ġgru":1936,"ivos":1937,"Ġsorriu":1938,"Ġdese":1939,"xa":1940,"Ġpareciam":1941,"Ġau":1942,"Ġrev":1943,"ĠnÃºm":1944,"Ġsof":1945,"Ġsendo":1946,"ĠÃĢ":1947,"Ġsusp":1948,"Ã§ado":1949,"Ġrapaz":1950,"tados":1951,"Ġmov":1952,"ĠRichard":1953,"Ġri":1954,"lares":1955,"Ġtal":1956,"Ġcorredor":1957,"OS":1958,"ÃŃdo":1959,"Ġbranco":1960,"ice":1961,"Ġmorte":1962,"Ġombros":1963,"Ġpior":1964,"ĠespÃ©":1965,"ĠexpressÃ£o":1966,"ĠJÃ¡":1967,"Ġmerda":1968,"iou":1969,"Ġapa":1970,"Ġbrilha":1971,"ĠdÃ³":1972,"Ġga":1973,"Ġdentes":1974,"Ġseguinte":1975,"ĠSte":1976,"ĠdÃ¡":1977,"Ġlevantou":1978,"Ġjamais":1979,"Ġsentado":1980,"Ġombro":1981,"Ġpassado":1982,"Ġdeci":1983,"oss":1984,"ren":1985,"Ġ-":1986,"Ġquente":1987,"ĠPorque":1988,"Ġlongo":1989,"Ġmon":1990,"Ãªncio":1991,"tavam":1992,"lie":1993,"Ġagu":1994,"itou":1995,"ĠÃºltimo":1996,"tan":1997,"Ġtesta":1998,"Ġcair":1999,"Ġbolso":2000,"bri":2001,"Ġqueb":2002,"ĠÃ©p":2003,"Ġjovem":2004,"Quando":2005,"Ġgo":2006,"Ã³r":2007,"Ġfogo":2008,"Ġprov":2009,"Ġfe":2010,"Ġfol":2011,"ĠAp":2012,"Ġbanh":2013,"ĠcrianÃ§as":2014,"Ent":2015,"com":2016,"tamento":2017,"Ġfoto":2018,"bado":2019,"Ġx":2020,"Por":2021,"Ġazul":2022,"vil":2023,"inos":2024,"Ġraz":2025,"Ġaqueles":2026,"enÃ§a":2027,"emp":2028,"Ġaco":2029,"Ġgrandes":2030,"iza":2031,"Ġhoje":2032,"ĠquilÃ´":2033,"esar":2034,"zer":2035,"ocal":2036,"Ã¡ria":2037,"ĠCas":2038,"ĠIn":2039,"ans":2040,"Ġpeito":2041,"ona":2042,"Ġbor":2043,"rvor":2044,"Ġachou":2045,"Ġcamisa":2046,"Ġdaquela":2047,"tis":2048,"Ġbura":2049,"Ġtransfor":2050,"Ġnot":2051,"Ġcorrendo":2052,"cy":2053,"into":2054,"ÃŃamos":2055,"pet":2056,"ĠlÃ¡bios":2057,"Ġcapaz":2058,"Ġext":2059,"Ġescuro":2060,"ĠMu":2061,"Ġresto":2062,"ĠespÃ©cie":2063,"Ġlimp":2064,"ĠcomeÃ§a":2065,"Ġrecu":2066,"vido":2067,"Ġvaz":2068,"ĠMeu":2069,"ntade":2070,"ĠÃºnico":2071,"anha":2072,"Ġret":2073,"Ġcheg":2074,"inar":2075,"Ġsurpres":2076,"ĠatravÃ©s":2077,"ĠÃ©poca":2078,"Ġconseguir":2079,"Ġcausa":2080,"Ġconcor":2081,"ĠBla":2082,"Ġencontrar":2083,"Ġponta":2084,"Ġsign":2085,"ĠrÃ¡pido":2086,"Ġveio":2087,"ĠcomeÃ§ar":2088,"Ġnisso":2089,"ema":2090,"Ġvontade":2091,"icas":2092,"Ġale":2093,"Ġreg":2094,"Ġsussur":2095,"Ġpesco":2096,"Ġsonho":2097,"ĠMor":2098,"Ġsaco":2099,"Ġfalei":2100,"Ġnele":2101,"conhec":2102,"red":2103,"Ã¢m":2104,"ĠsilÃªncio":2105,"erva":2106,"ĠNor":2107,"Ġamb":2108,"Ã¡st":2109,"Ġpele":2110,"Ġamor":2111,"ike":2112,"ĠSem":2113,"Ġnariz":2114,"Ġind":2115,"ĠClaro":2116,"Ġcomigo":2117,"ts":2118,"Ja":2119,"NT":2120,"tel":2121,"Ġresposta":2122,"ĠAinda":2123,"vos":2124,"ane":2125,"ulho":2126,"Ã£e":2127,"rido":2128,"'s":2129,"eram":2130,"tica":2131,"Ġdiante":2132,"Ġolho":2133,"ĠpescoÃ§o":2134,"veu":2135,"Ġestre":2136,"land":2137,"idades":2138,"Ġleve":2139,"feito":2140,"ntei":2141,"atos":2142,"ĠdifÃŃ":2143,"ĠBen":2144,"Ġpend":2145,"Ġrap":2146,"Ġvermelho":2147,"Ġfinalmente":2148,"ĠEl":2149,"ĠverÃ£o":2150,"Ġaproxim":2151,"ecess":2152,"Ġfir":2153,"ĠatenÃ§Ã£o":2154,"Ġmeta":2155,"ilidade":2156,"Ġusando":2157,"Ġtornou":2158,"ĠcrianÃ§a":2159,"Com":2160,"Ġdireito":2161,"let":2162,"Ġverde":2163,"Ġsujeito":2164,"ĠÃ¡rvor":2165,"fo":2166,"ĠPode":2167,"Ġpun":2168,"ĠAndy":2169,"leira":2170,"Ġprincip":2171,"AR":2172,"Ġentrou":2173,"dida":2174,"Ġdelas":2175,"Ġmuita":2176,"ique":2177,"ulo":2178,"urou":2179,"Ġlevar":2180,"Ġfei":2181,"fÃ©":2182,"Ġajud":2183,"Ġu":2184,"ĠtÃªm":2185,"ĠMais":2186,"Ġ3":2187,"Ġestado":2188,"pon":2189,"bert":2190,"Ġergueu":2191,"Es":2192,"vamos":2193,"Ġobserv":2194,"Ġacreditar":2195,"Ġcontro":2196,"cido":2197,"fic":2198,"OR":2199,"my":2200,"Ġpistoleiro":2201,"Ġil":2202,"Ġsomb":2203,"rea":2204,"Ġhouve":2205,"ÃŃveis":2206,"Ġboc":2207,"iada":2208,"Ġdessa":2209,"ĠJim":2210,"Ġdirig":2211,"elhas":2212,"Ġseguida":2213,"pado":2214,"Ġvidro":2215,"cla":2216,"ĠpolÃŃcia":2217,"Ġestacion":2218,"Ġbateu":2219,"ĠBa":2220,"entiu":2221,"Ġcost":2222,"ock":2223,"nos":2224,"irar":2225,"eiramente":2226,"bar":2227,"ridÃ£o":2228,"cÃ£o":2229,"Ġcir":2230,"Ġescada":2231,"Ġchamado":2232,"vio":2233,"Ġabri":2234,"Ġprecisava":2235,"Ġamigos":2236,"inaÃ§Ã£o":2237,"ĠCa":2238,"Ġber":2239,"Ġdormir":2240,"unto":2241,"ena":2242,"sar":2243,"Ġdava":2244,"Ġlevou":2245,"Ġlembrar":2246,"ance":2247,"Ġmetros":2248,"rados":2249,"Ġneve":2250,"ĠQuem":2251,"uro":2252,"ĠmÃºs":2253,"Ã©r":2254,"Ġparado":2255,"ÃŃcio":2256,"Ġros":2257,"ĠJoe":2258,"ÃŃa":2259,"Ġenorme":2260,"Ġlate":2261,"Ġvinte":2262,"obo":2263,"Ġdesta":2264,"Ġinv":2265,"ĠFrank":2266,"ĠMo":2267,"Ġven":2268,"hei":2269,"Ġcul":2270,"Ġexplo":2271,"ĠnÃºmero":2272,"Ġabaixo":2273,"Ġdest":2274,"lou":2275,"Ġgarota":2276,"hie":2277,"Ġvinha":2278,"ron":2279,"Ġaltura":2280,"Ġguarda":2281,"Ġtentou":2282,"jar":2283,"ĠmÃ©d":2284,"Ġcr":2285,"Ã¡rios":2286,"Ġlen":2287,"Ġestranho":2288,"Ġesperando":2289,"ĠquilÃ´metros":2290,"Ġtirou":2291,"Ġsum":2292,"ĠterrÃŃvel":2293,"amentos":2294,"ĠdifÃŃcil":2295,"Ġliga":2296,"Ġcomer":2297,"Ġlocal":2298,"Ġfantas":2299,"Ġagra":2300,"Ġnossa":2301,"Ġcontinuou":2302,"Ġfeliz":2303,"No":2304,"Ġesposa":2305,"00":2306,"ers":2307,"cios":2308,"Ġbre":2309,"Ġcompre":2310,"Ġpedra":2311,"var":2312,"ĠTenho":2313,"edia":2314,"Ġlinha":2315,"Ġvendo":2316,"ntamente":2317,"ener":2318,"Ġentanto":2319,"Ġcigar":2320,"Ġmurm":2321,"ĠescuridÃ£o":2322,"Ġdebaixo":2323,"ouis":2324,"Ġbus":2325,"iste":2326,"Ġpreciso":2327,"Ġindo":2328,"ital":2329,"Ġcachorro":2330,"tico":2331,"Ġmetade":2332,"Ġexist":2333,"Ġestranha":2334,"ĠDanny":2335,"Ġbanco":2336,"gens":2337,"inado":2338,"ĠMike":2339,"Ġexce":2340,"Se":2341,"Ġquest":2342,"oo":2343,"iros":2344,"ĠdÃ³lares":2345,"Ġgarga":2346,"Ġterc":2347,"Ġdiver":2348,"Ġtirar":2349,"Ãĥ":2350,"ĠNova":2351,"ÃŃlia":2352,"Ġnecess":2353,"Ġestaria":2354,"Ġescon":2355,"Ġcerca":2356,"EntÃ£o":2357,"Ġata":2358,"uras":2359,"radas":2360,"ĠNÃ³s":2361,"lhou":2362,"lada":2363,"icou":2364,"Ġmorrer":2365,"Ġli":2366,"ques":2367,"Ġfrio":2368,"Ġalta":2369,"Ġgarganta":2370,"vens":2371,"grim":2372,"Ġdem":2373,"Ġdesse":2374,"Ġessas":2375,"Ġpert":2376,"Ġsentindo":2377,"ES":2378,"Ġlim":2379,"ĠGard":2380,"Ġado":2381,"Ġrepet":2382,"Ġsegunda":2383,"Ġimedia":2384,"Ġruim":2385,"Ġfran":2386,"Ġouvido":2387,"Ġpercebeu":2388,"ham":2389,"grimas":2390,"rian":2391,"Ġmulheres":2392,"Ġbanheiro":2393,"ĠcafÃ©":2394,"Ġtotal":2395,"eric":2396,"Ġgara":2397,"ĠHolly":2398,"tasse":2399,"Ġinclin":2400,"forma":2401,"anas":2402,"Ġvir":2403,"Ġtomar":2404,"veja":2405,"Ġsono":2406,"mal":2407,"ĠNem":2408,"Ġpolicial":2409,"Ġbaixa":2410,"Ġassass":2411,"Ġburaco":2412,"ĠapÃ³s":2413,"raram":2414,"Ġcint":2415,"Ġacontecer":2416,"ĠBra":2417,"Ġrespeito":2418,"Ġclar":2419,"As":2420,"Ġsin":2421,"ĠLa":2422,"Ġfui":2423,"Ãºb":2424,"ĠfÃ¡":2425,"pec":2426,"ĠCor":2427,"itua":2428,"sim":2429,"icia":2430,"Ġapesar":2431,"Ġmuitos":2432,"Ġsorte":2433,"Ġinfer":2434,"Ã©dio":2435,"ĠNada":2436,"ĠJones":2437,"Ġarras":2438,"ĠtÃ¡":2439,"leta":2440,"anos":2441,"Ġnosso":2442,"Ġsentido":2443,"Ġcheio":2444,"Ġlivros":2445,"eno":2446,"Ġmuitas":2447,"ome":2448,"Ġtentar":2449,"erry":2450,"Ġpensamento":2451,"ex":2452,"Ġescola":2453,"Ġsra":2454,"ĠSeus":2455,"Na":2456,"eiras":2457,"ĠPeter":2458,"Ġnerv":2459,"Ġbranca":2460,"bol":2461,"ĠVer":2462,"fia":2463,"Ġtorno":2464,"Um":2465,"ĠTam":2466,"Ġminhas":2467,"Ġeng":2468,"Ġjoelhos":2469,"anho":2470,"ĠEx":2471,"Ġadia":2472,"Ġbei":2473,"Ã©ia":2474,"Ġporra":2475,"Ãī":2476,"ĠChe":2477,"umb":2478,"Ġgarra":2479,"ĠQuer":2480,"ĠPre":2481,"ĠEsta":2482,"ĠrelÃ³":2483,"Ġmadeira":2484,"ĠCharlie":2485,"br":2486,"Ġescorre":2487,"esmo":2488,"ĠVai":2489,"Ã§ar":2490,"Ġmist":2491,"Ġacabou":2492,"Ġatravess":2493,"ĠDon":2494,"ĠPa":2495,"Ġdisc":2496,"Ġmex":2497,"AS":2498,"ĠrazÃ£o":2499,"cial":2500,"Ġmol":2501,"Ġdeveria":2502,"Ġmenor":2503,"ntado":2504,"Ġespecial":2505,"timo":2506,"riga":2507,"ĠAo":2508,"QU":2509,"imentos":2510,"Ġsitua":2511,"ĠRichie":2512,"ÃĥO":2513,"olo":2514,"Ġcanto":2515,"Ġvindo":2516,"assem":2517,"lio":2518,"chu":2519,"Ġnela":2520,"Ġsinal":2521,"ensa":2522,"Ġdaqui":2523,"Ġpreto":2524,"Ġpensei":2525,"Ġhouvesse":2526,"Ġerrado":2527,"Ġapos":2528,"ĠAlg":2529,"ĠlÃ¡grimas":2530,"Ġcuidado":2531,"Ġquiser":2532,"umo":2533,"Ġpret":2534,"ĠmÃ¡qu":2535,"solu":2536,"Ġasso":2537,"Ġencos":2538,"ÃŃp":2539,"Ġperfei":2540,"Ġtrase":2541,"ĠpÃ¡l":2542,"gal":2543,"esso":2544,"Ġconsegue":2545,"tador":2546,"Ġens":2547,"ĠHal":2548,"Ġgrito":2549,"ti":2550,"ĠGar":2551,"erior":2552,"AD":2553,"Ġdito":2554,"Ġriu":2555,"ĠClay":2556,"Ġsegurando":2557,"Ġfug":2558,"Ġconversa":2559,"orris":2560,"Ġmaldi":2561,"Ġdedo":2562,"Ġfuma":2563,"Al":2564,"Ġpasso":2565,"ouve":2566,"Ġcinz":2567,"Jack":2568,"ÃŃr":2569,"Ġcolocou":2570,"ĠSam":2571,"Ġgan":2572,"Ġestive":2573,"Ġenfer":2574,"Ġidio":2575,"Ġjogo":2576,"Ġusar":2577,"Ġcruz":2578,"ramente":2579,"ĠrelÃ³gio":2580,"ciente":2581,"Ġel":2582,"gh":2583,"Ġcarne":2584,"IN":2585,"pÃ©":2586,"gn":2587,"Ġanda":2588,"til":2589,"Ġprocura":2590,"inou":2591,"Ġaba":2592,"Ġcheia":2593,"osso":2594,"Ġhorror":2595,"ume":2596,"Ġentrada":2597,"Ġimporta":2598,"dem":2599,"amp":2600,"isÃ£o":2601,"ĠLouis":2602,"idente":2603,"Ġpodem":2604,"Ġreun":2605,"lante":2606,"Ġouvi":2607,"Ġbola":2608,"Ġcontinuava":2609,"Ġfundos":2610,"quilo":2611,"Ġconsigo":2612,"ĠbebÃª":2613,"jou":2614,"uth":2615,"Ġcentro":2616,"fre":2617,"ĠdistÃ¢ncia":2618,"iss":2619,"lados":2620,"ĠZ":2621,"Ġdepres":2622,"como":2623,"Ġev":2624,"Ġredor":2625,"Ġexper":2626,"Ã³l":2627,"gÃ£o":2628,"Ġop":2629,"amÃ£e":2630,"Ġcarros":2631,"entado":2632,"Ġajuda":2633,"ĠDu":2634,"ĠAlan":2635,"ĠfamÃŃlia":2636,"ĠBarb":2637,"ĠCal":2638,"Ġprop":2639,"gg":2640,"ĠAm":2641,"Ġauto":2642,"Ġmem":2643,"Ġbic":2644,"ĠUn":2645,"Ġchave":2646,"ĠStu":2647,"ĠserÃ¡":2648,"Ġcerveja":2649,"Ġfilha":2650,"ĠDavid":2651,"Ġanterior":2652,"ĠpedaÃ§o":2653,"ĠParecia":2654,"Ġsignifica":2655,"den":2656,"eca":2657,"Ġiria":2658,"ismo":2659,"ĠHÃ¡":2660,"irem":2661,"Ġon":2662,"ire":2663,"Ġgeral":2664,"Ġsurg":2665,"Ġdando":2666,"Ġ4":2667,"Ġsai":2668,"idÃ£o":2669,"Ġur":2670,"erta":2671,"ĠNick":2672,"osp":2673,"ges":2674,"Ġsonhos":2675,"Ġhaver":2676,"ĠescritÃ³rio":2677,"had":2678,"Ġdec":2679,"Ġcla":2680,"ĠPelo":2681,"Ġprote":2682,"tido":2683,"Ġperman":2684,"rasse":2685,"Ġhor":2686,"Ġficando":2687,"Ġpress":2688,"Ġexam":2689,"Ġvista":2690,"Ġconven":2691,"Ġquerer":2692,"usÃ£o":2693,"Ġmotivo":2694,"Ġmatar":2695,"ult":2696,"pada":2697,"Ġdeixando":2698,"rÃ£o":2699,"ual":2700,"Ġcorrer":2701,"Ġaquelas":2702,"Ġfechou":2703,"Ġpendura":2704,"Ġdegra":2705,"Ġsorrindo":2706,"erÃ¡":2707,"Ġgas":2708,"Ġgol":2709,"Ġabsolu":2710,"Ġcabelos":2711,"Ġcre":2712,"Ġdeva":2713,"nter":2714,"Ã¡stico":2715,"ĠidÃ©ia":2716,"esto":2717,"pera":2718,"vou":2719,"taÃ§Ã£o":2720,"avam":2721,"ĠAtÃ©":2722,"EM":2723,"Ġoito":2724,"Ġbeira":2725,"entava":2726,"Ġconside":2727,"ub":2728,"dro":2729,"Ġdep":2730,"ĠJonesy":2731,"Ġalc":2732,"Ġpuxou":2733,"Ġpausa":2734,"ĠQuero":2735,"ork":2736,"Ġassunto":2737,"VocÃª":2738,"Ġluzes":2739,"Ġraiva":2740,"ĠpÃ´s":2741,"ĠMesmo":2742,"Ġench":2743,"Ã³rias":2744,"ĠTambÃ©m":2745,"ĠbalanÃ§ou":2746,"ele":2747,"raria":2748,"Ġating":2749,"iraÃ§Ã£o":2750,"Ġaberta":2751,"ĠsituaÃ§Ã£o":2752,"pou":2753,"Ġabra":2754,"Ġdef":2755,"urt":2756,"ĠLar":2757,"Ġvara":2758,"Ġpassando":2759,"ĠÃĢs":2760,"Ġcolo":2761,"Ġvel":2762,"eceu":2763,"Ġmarido":2764,"Ġinterro":2765,"Ġacontecendo":2766,"lor":2767,"ĠNunca":2768,"ĠirmÃ£o":2769,"Ġesperar":2770,"Ġbase":2771,"Ġesses":2772,"Ġimportante":2773,"ravam":2774,"ay":2775,"Ġtemos":2776,"izado":2777,"Ġsozinho":2778,"Em":2779,"Ġgrupo":2780,"Ġdou":2781,"Ġoeste":2782,"Ġgela":2783,"Ġabrir":2784,"Ġvelhos":2785,"Ġcompletamente":2786,"Ġenvol":2787,"ker":2788,"ites":2789,"ĠCont":2790,"dre":2791,"Ġdro":2792,"Ġacei":2793,"anÃ§ando":2794,"jando":2795,"rida":2796,"Ġarm":2797,"Ġdesper":2798,"Ġmorta":2799,"Ġofer":2800,"Ġcapa":2801,"eixe":2802,"endi":2803,"Ġprepara":2804,"Ġsete":2805,"ĠÃ¡rea":2806,"IS":2807,"tara":2808,"Ġacresc":2809,"Ġcampo":2810,"Ġgarotos":2811,"itado":2812,"anÃ§ar":2813,"ose":2814,"Ġesfor":2815,"ĠvisÃ£o":2816,"Ġgostava":2817,"Ġsenho":2818,"Ġfaria":2819,"Ġler":2820,"Ġreco":2821,"Ġestamos":2822,"mento":2823,"ĠcomeÃ§aram":2824,"izar":2825,"Ġmalu":2826,"ĠYork":2827,"ĠAlÃ©m":2828,"tt":2829,"Ġido":2830,"ĠPete":2831,"inada":2832,"ĠquestÃ£o":2833,"sse":2834,"Ġlentamente":2835,"Ġencontrou":2836,"Ġsombra":2837,"Ġengra":2838,"Ġumas":2839,"ĠirmÃ£":2840,"Ġocor":2841,"Ġrapidamente":2842,"dges":2843,"adas":2844,"dores":2845,"Ġtamanho":2846,"Ã¡veis":2847,"Ġdescon":2848,"Ġgosto":2849,"Ġdevagar":2850,"Ġassentiu":2851,"Ġtur":2852,"ĠRob":2853,"irando":2854,"Ġidade":2855,"lhas":2856,"Ġmeses":2857,"Ġcompanh":2858,"Ġchamar":2859,"dÃ¡vel":2860,"Ġavi":2861,"Ġmorreu":2862,"Ġloja":2863,"her":2864,"taram":2865,"Ġreconhec":2866,"Uma":2867,"Ġart":2868,"Ġsentou":2869,"bia":2870,"Ġmara":2871,"Ġandando":2872,"Ġnesse":2873,"ĠDerry":2874,"Ġviv":2875,"ĠmÃ©dico":2876,"Ġmand":2877,"Ġris":2878,"Ġdim":2879,"ang":2880,"ospital":2881,"cri":2882,"ĠFred":2883,"iblio":2884,"Ġdissera":2885,"Ġpais":2886,"Ġdepressa":2887,"ise":2888,"Ġparecer":2889,"ĠKe":2890,"Ġcalor":2891,"Ġcob":2892,"Ġvem":2893,"Ġperguntar":2894,"Ġbater":2895,"ibliote":2896,"Ġjantar":2897,"Ġresol":2898,"Ġpi":2899,"ĠEssa":2900,"Ġnorte":2901,"ĠNew":2902,"Ġbreve":2903,"Ġlados":2904,"Ġusava":2905,"Ġcole":2906,"Ġsatis":2907,"Ġdaqueles":2908,"Ġparecendo":2909,"Ġcriatura":2910,"Ġcontou":2911,"Ġform":2912,"Ġacabar":2913,"Ġcigarro":2914,"Ġenco":2915,"Ġescrever":2916,"Ġperna":2917,"Ġincl":2918,"quil":2919,"Ġval":2920,"Ġcarta":2921,"ĠfÃ¡cil":2922,"Ġretor":2923,"ĠGran":2924,"rador":2925,"Ġestiver":2926,"fi":2927,"Ġdesen":2928,"Ġmovimento":2929,"ĠlÃŃn":2930,"Ġchuva":2931,"ĠPat":2932,"xe":2933,"Ġacomp":2934,"ĠSei":2935,"Ġvivo":2936,"Ġrecor":2937,"ĠHom":2938,"ĠMary":2939,"ĠLem":2940,"Ġsop":2941,"ĠMinha":2942,"ĠGre":2943,"Ġmorre":2944,"Ġcus":2945,"Ġtemp":2946,"Ġgritar":2947,"Ġexplic":2948,"vin":2949,"Ġconstru":2950,"Ġpega":2951,"Ġafinal":2952,"ornal":2953,"Ġdiferente":2954,"Ġesperava":2955,"ner":2956,"Ġempre":2957,"Ġroupas":2958,"Ġqua":2959,"ĠGardener":2960,"AN":2961,"rara":2962,"uros":2963,"ndos":2964,"Ġcel":2965,"Ġsurpresa":2966,"dios":2967,"Ġdesp":2968,"Ġdescobrir":2969,"dir":2970,"ore":2971,"illy":2972,"Ġestu":2973,"ĠÃºltimos":2974,"Ġajudar":2975,"Ġanim":2976,"ĠMuito":2977,"istas":2978,"Ġportas":2979,"tem":2980,"Ġsilen":2981,"ust":2982,"Ġbarulho":2983,"Ġbarriga":2984,"dendo":2985,"Ġesquerdo":2986,"Ġjanelas":2987,"EN":2988,"ĠcÃ¡":2989,"Ġabando":2990,"idar":2991,"ivers":2992,"van":2993,"Ġcresc":2994,"ĠhorrÃŃvel":2995,"ĠfumaÃ§a":2996,"Ġentender":2997,"ĠWil":2998,"Ġfossem":2999,"pÃ£o":3000,"Ġmont":3001,"ticamente":3002,"pero":3003,"ĠGra":3004,"Ġestivera":3005,"Ġblo":3006,"Ġsup":3007,"Ġassist":3008,"Ġvazio":3009,"ĠnegÃ³":3010,"ĠmÃ¡quina":3011,"Ġsul":3012,"Ġdessas":3013,"Ġsubir":3014,"Ġ5":3015,"ĠcÃ©re":3016,"Ġvig":3017,"lava":3018,"Era":3019,"Ġgem":3020,"Ġrisa":3021,"by":3022,"Ġgor":3023,"stitu":3024,"Ġolhada":3025,"ĠPen":3026,"ĠprÃ³ximo":3027,"rinho":3028,"Ġenter":3029,"ciÃªncia":3030,"ves":3031,"Ġjornal":3032,"ĠBu":3033,"ĠBro":3034,"ok":3035,"RO":3036,"Ġlembrava":3037,"ensÃ£o":3038,"tle":3039,"inava":3040,"ĠespaÃ§o":3041,"Ġtrou":3042,"Ġgritando":3043,"Ġilum":3044,"ĠpÃ¡s":3045,"anhÃ£":3046,"ĠrÃ¡dio":3047,"eza":3048,"Ġbatendo":3049,"ude":3050,"Ġocu":3051,"iando":3052,"Ġservi":3053,"tanto":3054,"Ġpensamentos":3055,"bil":3056,"Ġmanter":3057,"ĠlÃŃngua":3058,"Ġseguir":3059,"endendo":3060,"Ġteto":3061,"Ġprate":3062,"Ġocas":3063,"ĠTV":3064,"icamente":3065,"ulas":3066,"Ġapres":3067,"Ġcontinuar":3068,"ade":3069,"ĠTodos":3070,"ĠÃ¡rvores":3071,"han":3072,"ĠLÃ¡":3073,"Ġpassava":3074,"Ġterror":3075,"ĠmÃºsica":3076,"Fo":3077,"Ġama":3078,"Ġcontas":3079,"Eles":3080,"Ġimagem":3081,"ĠcomeÃ§ando":3082,"Ġquisesse":3083,"Ġcelular":3084,"Ġfrequ":3085,"Ġsoltou":3086,"besse":3087,"mÃ¡":3088,"ĠimpressÃ£o":3089,"gon":3090,"Ġmin":3091,"ife":3092,"Ġpat":3093,"Ġcopo":3094,"ecido":3095,"ĠObri":3096,"ificar":3097,"lex":3098,"Ġficado":3099,"Ġjuntos":3100,"espe":3101,"Ġcostuma":3102,"Ġpeso":3103,"Ġperguntas":3104,"Ġrir":3105,"Ã§ando":3106,"Ġexcla":3107,"Ġrealidade":3108,"Ãªncias":3109,"Ġfilhos":3110,"Ġbochec":3111,"ece":3112,"Ġprincipal":3113,"Ġpoucos":3114,"Ġof":3115,"Ġhes":3116,"ĠDave":3117,"ĠBea":3118,"Ġlonga":3119,"Ġchorar":3120,"Ġconcordou":3121,"Ġesteja":3122,"itando":3123,"Ġidiota":3124,"Ġpessoal":3125,"ĠcÃ©rebro":3126,"Ġsemanas":3127,"Ġcart":3128,"chas":3129,"Ġobri":3130,"ĠmÃ¡x":3131,"Ġolhava":3132,"Ġapertou":3133,"ĠMer":3134,"Ġprocu":3135,"Ã¢nico":3136,"Ġinterior":3137,"Ġobserva":3138,"Ġsap":3139,"ky":3140,"Ġcedo":3141,"Ġextrem":3142,"ĠOi":3143,"Ġjogou":3144,"wn":3145,"ĠinÃŃcio":3146,"Ġquais":3147,"li":3148,"Ġmortos":3149,"Ġplaca":3150,"Ġsaindo":3151,"andy":3152,"lhos":3153,"ĠDen":3154,"ĠcÃŃr":3155,"ĠBrian":3156,"cional":3157,"ĠCO":3158,"port":3159,"Ġame":3160,"ĠOh":3161,"jos":3162,"ecer":3163,"Ġmotorista":3164,"Ġdiminu":3165,"imas":3166,"Ġdig":3167,"ĠTim":3168,"Ġfilme":3169,"ĠMaine":3170,"Ġnessa":3171,"Ġdegraus":3172,"ĠThad":3173,"Ġgostaria":3174,"ĠpÃ¡g":3175,"Ġviagem":3176,"ump":3177,"Ġouvindo":3178,"Ġinteressa":3179,"jam":3180,"ĠAquele":3181,"Ġchefe":3182,"ĠhistÃ³rias":3183,"tural":3184,"hÃ£o":3185,"ĠpÃ´r":3186,"ĠpÃ´de":3187,"Ġsenhora":3188,"ÃŃb":3189,"Ġsegundos":3190,"ĠcaminhÃ£o":3191,"vera":3192,"Ġvermelha":3193,"damente":3194,"ĠchapÃ©":3195,"Ġputa":3196,"Ġbolsa":3197,"ĠcÃ¢":3198,"ka":3199,"sado":3200,"tri":3201,"ocidade":3202,"Ġenca":3203,"Ġvestido":3204,"Ġhospital":3205,"ĠHarold":3206,"Ġsurpre":3207,"uz":3208,"Ġcomida":3209,"ĠSegu":3210,"ĠfazÃª":3211,"TO":3212,"Ġgros":3213,"Ġmachu":3214,"Ġmensa":3215,"Ġprofunda":3216,"ĠLarry":3217,"Ġdr":3218,"Ġpia":3219,"iciais":3220,"iblioteca":3221,"ĠBom":3222,"ĠQual":3223,"Ãºn":3224,"DO":3225,"Ġmun":3226,"Ġbr":3227,"ĠAc":3228,"Ġeleva":3229,"lando":3230,"Ã©rio":3231,"Ġligar":3232,"Ġcorreu":3233,"ĠEsse":3234,"Ġequi":3235,"galha":3236,"Ġqueim":3237,"iente":3238,"ĠseguranÃ§a":3239,"Ġ6":3240,"issÃ£o":3241,"Ġcontrole":3242,"bor":3243,"Ġexemp":3244,"Ġtrinta":3245,"Ġestacionamento":3246,"verno":3247,"Jo":3248,"Ġperdido":3249,"Ġpeg":3250,"Ġmurmurou":3251,"Ã³lver":3252,"bou":3253,"tie":3254,"ĠES":3255,"ĠCha":3256,"Agora":3257,"Ġigu":3258,"ĠBobbi":3259,"Ġimediatamente":3260,"Ġgarrafa":3261,"Ġamo":3262,"gular":3263,"Ġlua":3264,"Ġ7":3265,"Ġcomb":3266,"Ġsussurrou":3267,"ĠCol":3268,"ĠWal":3269,"dei":3270,"Ġperder":3271,"Ġesper":3272,"Ġproblemas":3273,"ile":3274,"Ġchei":3275,"ĠHodges":3276,"Ġgesto":3277,"Ġlouco":3278,"Ġdistante":3279,"ĠprÃ©dio":3280,"Ġpassos":3281,"ĠBow":3282,"ecei":3283,"ÃŃpio":3284,"ĠrevÃ³lver":3285,"dÃ¡":3286,"erra":3287,"ĠPosso":3288,"Ġficaram":3289,"ĠÃ³culos":3290,"Ġident":3291,"Ġflor":3292,"Ġbrilho":3293,"Ġaum":3294,"ĠOnde":3295,"ĠLobo":3296,"Ġlevantar":3297,"En":3298,"Ġtendo":3299,"ĠbÃª":3300,"Ġficaria":3301,"ĠLois":3302,"Ġcomun":3303,"Ġassustado":3304,"ora":3305,"Ġsex":3306,"rante":3307,"Ġbl":3308,"Ġmonte":3309,"ĠprÃ³xima":3310,"ĠWill":3311,"rum":3312,"Ġore":3313,"tet":3314,"Ġcurva":3315,"ali":3316,"ĠOl":3317,"TA":3318,"Ġdado":3319,"itÃ£o":3320,"Ġmarca":3321,"aso":3322,"Ġnove":3323,"visÃ£o":3324,"ĠaviÃ£o":3325,"ĠCin":3326,"Ġchega":3327,"Ġimposs":3328,"Ġtocar":3329,"ĠvÃ¡rias":3330,"Ġaut":3331,"Ġrea":3332,"ilar":3333,"Ġexplos":3334,"ĠJam":3335,"Ġador":3336,"Ġinteiramente":3337,"ĠcaÃŃdo":3338,"cun":3339,"ĠAssim":3340,"Ġtanta":3341,"ĠnÃ©":3342,"jado":3343,"Ġdisp":3344,"Ġirri":3345,"ĠarmÃ¡rio":3346,"Ġbarra":3347,"Ġarrega":3348,"Ġtiro":3349,"Ġdiss":3350,"Ġparedes":3351,"camente":3352,"dÃ£o":3353,"Ġfria":3354,"Ã©tr":3355,"Ġculpa":3356,"Ġinclinou":3357,"Ġcem":3358,"ĠGu":3359,"ĠcentÃŃ":3360,"Ġlateral":3361,"Is":3362,"Ġpreocupa":3363,"ĠVocÃªs":3364,"Ġpossa":3365,"Ed":3366,"Roland":3367,"Ġsuor":3368,"ĠTed":3369,"Ġsenti":3370,"Ġnegro":3371,"Ġvisita":3372,"ĠEnquanto":3373,"ĠplÃ¡stico":3374,"ĠmÃ¡ximo":3375,"Ġlam":3376,"Ġanima":3377,"ticular":3378,"Ġchamava":3379,"Ã©is":3380,"ĠNinguÃ©m":3381,"Ġacer":3382,"Ġlago":3383,"Ġsombras":3384,"Ha":3385,"esus":3386,"Ġtivessem":3387,"Ġfiquei":3388,"Ġvelocidade":3389,"dinha":3390,"mado":3391,"ĠlÃ¢m":3392,"Ġpodiam":3393,"Ġenx":3394,"Ġprinc":3395,"Ġare":3396,"tantes":3397,"Ġmaravil":3398,"ÃŃculo":3399,"Ġapontou":3400,"Ġazu":3401,"Ġsegurou":3402,"ramos":3403,"Ġdeixado":3404,"Ã³g":3405,"enha":3406,"mago":3407,"ĠSou":3408,"ĠNenh":3409,"pete":3410,"Ġpequenos":3411,"ity":3412,"Ġtempos":3413,"Ġescrito":3414,"quinho":3415,"endy":3416,"Ġregist":3417,"Ġgrava":3418,"Ġsoube":3419,"Ġsapatos":3420,"Ġjor":3421,"gados":3422,"ĠGa":3423,"Ġtotalmente":3424,"ĠtÃªn":3425,"ĠestÃº":3426,"Ġdormindo":3427,"cesso":3428,"Ġamp":3429,"Ġcaminha":3430,"Ġsoubesse":3431,"Ġachar":3432,"dura":3433,"Ġalmo":3434,"Ġsac":3435,"Ġtocou":3436,"tinha":3437,"Ġpodemos":3438,"Ġpesade":3439,"IA":3440,"nÃ£o":3441,"ĠRock":3442,"Ġtela":3443,"Ġpapai":3444,"pis":3445,"Ġquerendo":3446,"Ġderru":3447,"ireman":3448,"dd":3449,"ĠSent":3450,"Ġconv":3451,"Ġenc":3452,"ĠchapÃ©u":3453,"Ġpermit":3454,"ĠcomeÃ§o":3455,"Ġchegando":3456,"Ġparada":3457,"Ġperguntei":3458,"ĠfaÃ§a":3459,"ĠVic":3460,"Ġnatural":3461,"Ãĩ":3462,"ĠAlice":3463,"Ġperfeitamente":3464,"Foi":3465,"ĠCam":3466,"Ġemb":3467,"jas":3468,"ĠSra":3469,"Ġalar":3470,"velo":3471,"Ġconsegui":3472,"ĠHe":3473,"ĠBlaze":3474,"vendo":3475,"ental":3476,"cons":3477,"Ġlivre":3478,"Ġtempesta":3479,"Ġbil":3480,"Ġencar":3481,"gante":3482,"jeto":3483,"ĠPrec":3484,"Ġgiga":3485,"Ġprocurando":3486,"cida":3487,"mag":3488,"Ã³sito":3489,"Ġacontecido":3490,"Ġfizera":3491,"entando":3492,"Ġgritos":3493,"Ġlembro":3494,"Ġantigo":3495,"ĠserviÃ§o":3496,"Ġpint":3497,"ĠStre":3498,"essie":3499,"Ġzumb":3500,"ĠSerÃ¡":3501,"cente":3502,"iquei":3503,"Ġjogar":3504,"ĠNos":3505,"Ġrindo":3506,"Ġpoderiam":3507,"Ġexclamou":3508,"Ã³p":3509,"Ġlanter":3510,"ĠParece":3511,"Ġdaquelas":3512,"uÃŃ":3513,"Ġdescul":3514,"Ġchance":3515,"ee":3516,"Ġalu":3517,"Ġsubiu":3518,"ĠEntre":3519,"Ġagarrou":3520,"Ġpertur":3521,"Ġinforma":3522,"ĠVol":3523,"Ġvirar":3524,"raty":3525,"Ġcres":3526,"Ġparticular":3527,"Ġameric":3528,"Ġinvest":3529,"ĠprincÃŃpio":3530,"ĠTra":3531,"Ġpros":3532,"llie":3533,"ff":3534,"mer":3535,"ĠmoÃ§a":3536,"Ġapre":3537,"Ġpreso":3538,"ĠMat":3539,"ĠVÃ¡":3540,"Ġans":3541,"Ġbrilhante":3542,"Ġserv":3543,"ĠPod":3544,"ĠÃ´":3545,"ĠQuanto":3546,"ĠTerry":3547,"wen":3548,"ĠÃ³timo":3549,"Ġachei":3550,"utu":3551,"ĠSara":3552,"forme":3553,"Est":3554,"ĠFla":3555,"Ġinteiro":3556,"ÃŃvio":3557,"ĠJer":3558,"ĠJesus":3559,"Ġinst":3560,"chado":3561,"Ġmaca":3562,"Ġgaragem":3563,"ler":3564,"Ġneste":3565,"Ġdesco":3566,"ĠRus":3567,"ĠimpossÃŃvel":3568,"queles":3569,"Ġje":3570,"quenta":3571,"Ġestendeu":3572,"iedade":3573,"endido":3574,"riam":3575,"ĠIsto":3576,"Ġarrep":3577,"Ġterceiro":3578,"Ġligou":3579,"nÃ§a":3580,"Ġfotos":3581,"ĠamanhÃ£":3582,"Ġ15":3583,"Ġtomou":3584,"ĠÃ´n":3585,"ĠaÃ§o":3586,"Ġextra":3587,"Ġconhecia":3588,"Havia":3589,"ĠAt":3590,"Ġhotel":3591,"Ġvaranda":3592,"ĠHouve":3593,"cendo":3594,"Ġ.":3595,"ĠOlhou":3596,"metro":3597,"Ġpedras":3598,"Ġdob":3599,"Ã´mago":3600,"Ġmergu":3601,"ĠvÃ¡rios":3602,"vemente":3603,"ĠStan":3604,"Ġjeans":3605,"RE":3606,"Ġ9":3607,"ĠCerto":3608,"Ġflu":3609,"ĠrespiraÃ§Ã£o":3610,"ington":3611,"Ġvazia":3612,"ĠsÃ©rio":3613,"erife":3614,"Ġdeixa":3615,"ĠcomeÃ§ava":3616,"Ġpensava":3617,"Ãģ":3618,"dava":3619,"Ã§ada":3620,"ĠProvavelmente":3621,"iÃµes":3622,"verly":3623,"Ġbusca":3624,"ĠcÃ£o":3625,"Ġquebra":3626,"ribu":3627,"Ġdispara":3628,"Ġhab":3629,"Ġdiria":3630,"Ġdescer":3631,"Ġcertamente":3632,"ibus":3633,"Ġdesses":3634,"ĠestÃ´mago":3635,"ĠcalÃ§as":3636,"Ġlugares":3637,"Ġchamou":3638,"ĠQU":3639,"Ġterm":3640,"Ġnormal":3641,"ĠAbra":3642,"tores":3643,"Ġprecisar":3644,"hes":3645,"Ġmau":3646,"ĠbalcÃ£o":3647,"Ġfalava":3648,"Ġresul":3649,"Ġabaix":3650,"Ġfix":3651,"ĠÃ¢":3652,"Ġespalha":3653,"ĠcÃ¢me":3654,"Ġdura":3655,"ĠAcha":3656,"Ġchamada":3657,"Ġgato":3658,"pal":3659,"zes":3660,"Ġenro":3661,"Ã´m":3662,"Ġareia":3663,"Ġcaras":3664,"Ġfirme":3665,"Pe":3666,"Ġtoca":3667,"ĠAch":3668,"ĠSal":3669,"Ġambos":3670,"elig":3671,"Ġdesceu":3672,"ivas":3673,"asc":3674,"Ġsequer":3675,"Ġdup":3676,"Ġpoliciais":3677,"tinho":3678,"Ġleste":3679,"ĠalÃŃvio":3680,"Ġlata":3681,"Ġtorna":3682,"jei":3683,"yn":3684,"ĠmÃªs":3685,"Ġlixo":3686,"Ġagrade":3687,"Ġdiga":3688,"Ġenfiou":3689,"Ġedi":3690,"inze":3691,"Ġgrama":3692,"Ġperceber":3693,"Ġferro":3694,"Ġran":3695,"ĠMorris":3696,"ĠSteve":3697,"itaÃ§Ã£o":3698,"Ã´s":3699,"Ġminuto":3700,"ester":3701,"Ġpagar":3702,"Ġouvidos":3703,"tadas":3704,"Ġposto":3705,"Ġseco":3706,"ĠEram":3707,"Ġrodo":3708,"ĠLu":3709,"ĠcentÃŃmetros":3710,"Ġjul":3711,"Ġtrabalhar":3712,"Ġcano":3713,"ĠBarbie":3714,"ĠsuperfÃŃ":3715,"Ġsecre":3716,"eld":3717,"ĠOut":3718,"Ġcontor":3719,"estes":3720,"Ġtrabalha":3721,"Ġcomprar":3722,"Ġacabado":3723,"Ġpica":3724,"anhou":3725,"Ġaproxima":3726,"ĠsÃ©rie":3727,"Eddie":3728,"Ġfaca":3729,"Ġinqu":3730,"Ġbala":3731,"fas":3732,"dados":3733,"Ġpena":3734,"fica":3735,"ĠStar":3736,"Ġdestru":3737,"sada":3738,"Ġacidente":3739,"Ġquarenta":3740,"cal":3741,"Ã³is":3742,"Ġlembra":3743,"Ġlembrou":3744,"Ġ8":3745,"Ġnuvens":3746,"Ġfizeram":3747,"Ġcavalo":3748,"Ġfres":3749,"Ġbara":3750,"iliar":3751,"Ġadm":3752,"Ġmostrar":3753,"Ġfechada":3754,"Ġresponder":3755,"ĠpedaÃ§os":3756,"bos":3757,"feira":3758,"ĠAquela":3759,"Ġafir":3760,"ÃŃo":3761,"Ġremo":3762,"ĠBig":3763,"Ġrodas":3764,"tras":3765,"lento":3766,"ald":3767,"Ġrem":3768,"Ġmoe":3769,"ĠelÃ©tr":3770,"Ġcora":3771,"rioso":3772,"ĠCur":3773,"ĠprisÃ£o":3774,"Ġiam":3775,"ticos":3776,"Ġcolocar":3777,"ĠÃ´nibus":3778,"Ġrio":3779,"Ġacreditava":3780,"ĠFal":3781,"Ralph":3782,"ĠmaÃ§":3783,"ĠJud":3784,"Ġpronto":3785,"Ġprome":3786,"Ġface":3787,"Ġantiga":3788,"ĠaparÃªncia":3789,"hil":3790,"rom":3791,"ĠJe":3792,"ĠAb":3793,"bale":3794,"cl":3795,"Ġ'":3796,"grama":3797,"Ġcansado":3798,"Ġpilha":3799,"Ġfizesse":3800,"Ġaberto":3801,"ĠObrigado":3802,"sem":3803,"Ġdesliz":3804,"Ġexceto":3805,"olina":3806,"ilho":3807,"ĠAlgum":3808,"Ġdeter":3809,"Ġpers":3810,"java":3811,"Ġprazer":3812,"Ġespal":3813,"Ġimportava":3814,"Ġtempestade":3815,"AL":3816,"Ġnoites":3817,"Ġcaindo":3818,"ĠCu":3819,"Depois":3820,"iÃªncia":3821,"osamente":3822,"Ġsacu":3823,"Ġtraz":3824,"Ġinsist":3825,"Ġcuidados":3826,"ĠÃ¡rvore":3827,"lico":3828,"Ġmi":3829,"ĠlÃŃ":3830,"lhando":3831,"ĠVe":3832,"Ġcinza":3833,"Ġenferm":3834,"Ġsentada":3835,"ĠMcC":3836,"Ġcump":3837,"ĠpÃ¡t":3838,"ĠcalÃ§ada":3839,"ĠPol":3840,"Ġvozes":3841,"ranja":3842,"ĠTorre":3843,"Ġpartir":3844,"Ġterminar":3845,"Ġmensagem":3846,"vado":3847,"Ġpequenas":3848,"Ġ20":3849,"ĠCastle":3850,"ĠPens":3851,"Ġinteresse":3852,"Ġconcent":3853,"EL":3854,"entas":3855,"ney":3856,"Ġobservando":3857,"tivos":3858,"Ġterceira":3859,"Ġcompu":3860,"Ġron":3861,"ĠSabe":3862,"ĠEi":3863,"Ġsupor":3864,"Ġpediu":3865,"Ġpasse":3866,"idez":3867,"ĠmamÃ£e":3868,"ĠJun":3869,"ergia":3870,"rito":3871,"ocou":3872,"ĠAli":3873,"enso":3874,"Ġmetal":3875,"Ġdific":3876,"far":3877,"Ġcaus":3878,"greja":3879,"Ġjus":3880,"iras":3881,"ntava":3882,"itamente":3883,"ĠbotÃ£o":3884,"aunt":3885,"Ġfita":3886,"Ġcurios":3887,"ĠBur":3888,"Ġbrancos":3889,"Isso":3890,"ĠTr":3891,"cava":3892,"ĠsuperfÃŃcie":3893,"Ġmatou":3894,"Ġcorrente":3895,"AM":3896,"ntada":3897,"Ġimpress":3898,"ĠDeix":3899,"Ġpedir":3900,"Ġafastou":3901,"Ġadorm":3902,"erg":3903,"ĠporÃ£o":3904,"Ġseguiu":3905,"rup":3906,"ĠesforÃ§o":3907,"Ġinteira":3908,"ĠKing":3909,"?âĢĶ":3910,"ĠElas":3911,"ĠruÃŃdo":3912,"Ġmud":3913,"igh":3914,"ĠposiÃ§Ã£o":3915,"Ġtiver":3916,"Ġdescar":3917,"Ġadiante":3918,"Ġmult":3919,"ĠcomeÃ§ado":3920,"Ġcinquenta":3921,"Ġestivessem":3922,"Ġroupa":3923,"gno":3924,"ĠDia":3925,"Ġcarrinho":3926,"Ġencolh":3927,"Ġfigu":3928,"Ġprincipalmente":3929,"Ġcomum":3930,"ÃŃm":3931,"Ġseguro":3932,"Ġterre":3933,"Ġcinto":3934,"Ġimaginar":3935,"inando":3936,"Ġouvia":3937,"igou":3938,"Ġconse":3939,"Ġchegado":3940,"Ġlevado":3941,"Ġcri":3942,"Ã¢ne":3943,"Ġverdadeiro":3944,"Ġconclu":3945,"Ġabandon":3946,"Ġdali":3947,"hete":3948,"ĠAlguÃ©m":3949,"ĠcÃŃrculo":3950,"ĠFlagg":3951,"Ġtio":3952,"Ġflores":3953,"Ġazuis":3954,"gueira":3955,"ĠSt":3956,"ĠperÃŃo":3957,"Ġmenina":3958,"Ġescura":3959,"ENT":3960,"tono":3961,"chel":3962,"Ġvolante":3963,"Ġcalma":3964,"Ġbata":3965,"Ġprofess":3966,"ĠdiferenÃ§a":3967,"Ġsurpreso":3968,"art":3969,"Ġfasc":3970,"Ġbru":3971,"Ġsuger":3972,"Ġindi":3973,"Ġapareceu":3974,"Ġmonst":3975,"mon":3976,"vie":3977,"Ġintelig":3978,"ĠEste":3979,"Ġirre":3980,"Ġloucura":3981,"zo":3982,"Ġconseguisse":3983,"Ġmoc":3984,"Ġengol":3985,"ĠSÃ£o":3986,"Ġdireto":3987,"yd":3988,"ĠpÃ¢nico":3989,"Ġfur":3990,"Ġmat":3991,"Ġcontemp":3992,"ood":3993,"icion":3994,"ĠtelevisÃ£o":3995,"Ġtelefon":3996,"ĠpÃ¡lido":3997,"Ġchorando":3998,"Ġavis":3999,"Ġxerife":4000,"ĠnegÃ³cio":4001,"iqu":4002,"Ġdel":4003,"ĠGaunt":4004,"Ġfloresta":4005,"ric":4006,"ui":4007,"Ġsente":4008,"igas":4009,"Ġimport":4010,"ĠcapitÃ£o":4011,"ĠtrÃªm":4012,"ĠpÃ¡tio":4013,"lhes":4014,"ĠRichards":4015,"Ġsegre":4016,"Ġpraia":4017,"Ãį":4018,"Ġviva":4019,"ÃŃss":4020,"Ġestra":4021,"Ġpaz":4022,"Ġpresente":4023,"ĠHow":4024,"ĠHomem":4025,"ĠÃģ":4026,"Ġaleg":4027,"Ġfum":4028,"Ġmencion":4029,"bur":4030,"leo":4031,"ĠEmb":4032,"icar":4033,"ville":4034,"lac":4035,"Ġrosa":4036,"Ġmudar":4037,"Ġapren":4038,"Ġproje":4039,"Ġtopo":4040,"Ġmedida":4041,"Ġengan":4042,"Ġdeixava":4043,"ĠDisse":4044,"Ġcorda":4045,"ÃĬ":4046,"ĠmÃ¡s":4047,"Ġdeserto":4048,"Ġtampa":4049,"ĠBrad":4050,"Ġcambale":4051,"Ġtrouxe":4052,"Ġreflet":4053,"ĠPu":4054,"Ġhip":4055,"Ġcasas":4056,"ĠBeverly":4057,"Ġamea":4058,"sou":4059,"anhar":4060,"Ġperdeu":4061,"ramado":4062,"Ġfaziam":4063,"Ġacordo":4064,"Ġconseguiria":4065,"Ġinterromp":4066,"Ġprossegu":4067,"low":4068,"Ġchor":4069,"Ġfolhas":4070,"ĠligaÃ§Ã£o":4071,"legar":4072,"ĠAqui":4073,"Ġatira":4074,"rais":4075,"isco":4076,"ibilidade":4077,"Ġanimal":4078,"RI":4079,"Ġquinze":4080,"Ġqueixo":4081,"Ġjard":4082,"Ġfacil":4083,"cid":4084,"Ġentende":4085,"izada":4086,"Ġrato":4087,"Ġboas":4088,"Ġcrim":4089,"field":4090,"Ġbur":4091,"Ġge":4092,"Ġsuave":4093,"Ġincr":4094,"Ġtoque":4095,"Ġdeixe":4096,"Ġinferno":4097,"sh":4098,"semos":4099,"Ġresta":4100,"Ġempurrou":4101,"Ġcostumava":4102,"ene":4103,"adores":4104,"ĠrelaÃ§Ã£o":4105,"fal":4106,"Ġproduz":4107,"ĠtÃªnis":4108,"Ġdeta":4109,"Ġsoc":4110,"ĠMort":4111,"ert":4112,"ĠSeria":4113,"Ġexib":4114,"Ġsobrev":4115,"ĠGarraty":4116,"Ġinquie":4117,"Ġdet":4118,"osos":4119,"osas":4120,"ĠCarter":4121,"Ġ*":4122,"Ġdespe":4123,"loyd":4124,"Ġprofun":4125,"Ġsilenci":4126,"ĠMal":4127,"Ġdiabo":4128,"Ġcarteira":4129,"Co":4130,"ĠVi":4131,"Ġarmas":4132,"Ġsubstitu":4133,"Como":4134,"Ġprateleira":4135,"Ġfut":4136,"omos":4137,"Ġpontos":4138,"Ġnossos":4139,"Ġlevava":4140,"Ġchoque":4141,"Ġesto":4142,"Ã³vel":4143,"unha":4144,"cular":4145,"CA":4146,"ple":4147,"Ã¡vamos":4148,"Ġfechar":4149,"Ġbons":4150,"Ġligeiramente":4151,"ĠGrande":4152,"bul":4153,"ĠpÃºb":4154,"ĠsÃ¡":4155,"Ġamarela":4156,"ast":4157,"andou":4158,"ĠJessie":4159,"Ġvaga":4160,"ĠdÃºzia":4161,"Ġlhes":4162,"didos":4163,"Ġproc":4164,"ander":4165,"Ġdiscut":4166,"Ġmic":4167,"Ġvom":4168,"Ġgargalha":4169,"Ġsacud":4170,"ony":4171,"ĠFin":4172,"nada":4173,"ĠmÃ¡g":4174,"Ġvie":4175,"ÃŃda":4176,"inais":4177,"Ġapartamento":4178,"TE":4179,"Ġparecido":4180,"Ġps":4181,"dual":4182,"DA":4183,"vada":4184,"Ġespelho":4185,"Ġabsolutamente":4186,"Ġrevel":4187,"Ġ12":4188,"Ġbeber":4189,"Ġdesapareceu":4190,"Ġassomb":4191,"rick":4192,"Ġviz":4193,"ĠDar":4194,"ĠimportÃ¢ncia":4195,"UL":4196,"Ġencontrado":4197,"Ġpassagem":4198,"Ġataque":4199,"Ġarregalados":4200,"ĠFre":4201,"rindo":4202,"amo":4203,"Ġamarelo":4204,"telo":4205,"Ġcela":4206,"Ġdevo":4207,"ĠestÃ¡vamos":4208,"Ġfazem":4209,"Ġfalta":4210,"Ġpraticamente":4211,"Ġmaluco":4212,"bus":4213,"Ġpec":4214,"Ġinverno":4215,"Ġexiste":4216,"Ġperten":4217,"Ġlanterna":4218,"rivelmente":4219,"Ġsabendo":4220,"Ġesquis":4221,"Ġgent":4222,"Ġcant":4223,"ivamente":4224,"Ġgosta":4225,"Ġdescobriu":4226,"rgu":4227,"elhado":4228,"ĠsofÃ¡":4229,"Ġtraseiro":4230,"ps":4231,"tch":4232,"aneta":4233,"izo":4234,"ĠTre":4235,"Ġacredito":4236,"Ġgasolina":4237,"Ġjogado":4238,"Ġsubindo":4239,"ĠPedro":4240,"Ġquadro":4241,"ĠcÃ¢mera":4242,"Ġmag":4243,"Ġleit":4244,"itada":4245,"Ġbate":4246,"Ġadvo":4247,"olos":4248,"ĠAnder":4249,"parou":4250,"Ġtransform":4251,"Ġmistura":4252,"Ġarro":4253,"ĠTe":4254,"ivel":4255,"Ġrapazes":4256,"ioso":4257,"eias":4258,"Ġsentar":4259,"Ġtivera":4260,"final":4261,"Ġcouro":4262,"Ġfio":4263,"Ġestrelas":4264,"lente":4265,"ime":4266,"Ġenergia":4267,"Ġincomo":4268,"Ġinsta":4269,"Ġmercado":4270,"Ġdomin":4271,"ĠQuase":4272,"ĠesperanÃ§a":4273,"assou":4274,"Ġfolha":4275,"tta":4276,"ntem":4277,"Ġquebrado":4278,"Ġbomb":4279,"Ġcintura":4280,"Ġbro":4281,"Ġquerida":4282,"Ġencontro":4283,"ĠgraÃ§a":4284,"Ġpalma":4285,"ĠengraÃ§ado":4286,"Ġdei":4287,"Ġcamis":4288,"Ġconhecido":4289,"Ġescapar":4290,"ĠHu":4291,"Ġsabem":4292,"ĠprÃ³prios":4293,"Ġplane":4294,"ĠStreet":4295,"?\"":4296,"Ric":4297,"ĠMan":4298,"Ġperig":4299,"Ġ11":4300,"tland":4301,"ÃŃst":4302,"Ġteriam":4303,"Ġnegra":4304,"Ġbicic":4305,"ĠbÃªbado":4306,".)":4307,"Da":4308,"ecia":4309,"uss":4310,"Ġbotas":4311,"John":4312,"cadas":4313,"Ġcoloca":4314,"ĠTodd":4315,"ĠAlguma":4316,"Po":4317,"ĠX":4318,"Ġcoto":4319,"ĠBre":4320,"Ġpolegar":4321,"ĠAlguns":4322,"Ġdiferentes":4323,"Ġviver":4324,"hamos":4325,"Ġdizem":4326,"Ġcartas":4327,"Ġcasaco":4328,"Ġossos":4329,"ĠRose":4330,"Ġdemon":4331,"isebol":4332,"Ġcomprim":4333,"To":4334,"inta":4335,"ĠHarry":4336,"Ġconversar":4337,"Ġfotogra":4338,"gido":4339,"Ġesfre":4340,"ĠCent":4341,"Ġsolu":4342,"Ġdesagra":4343,"ĠmÃŃn":4344,"Ġapavo":4345,"Ġpunho":4346,"ubro":4347,"Ġala":4348,"Ġdesma":4349,"Ġhaveria":4350,"Ġenormes":4351,"Ġfranz":4352,"Ġpan":4353,"icha":4354,"onas":4355,"Ġencara":4356,"ĠpoÃ§o":4357,"ĠÃºm":4358,"Ġpretendia":4359,"uck":4360,"ĠAntes":4361,"Ġpoeira":4362,"Ġpren":4363,"Ġfique":4364,"Ġtremendo":4365,"ĠdÃ©":4366,"Ġqueima":4367,"ĠportÃ£o":4368,"ĠLiz":4369,"Ġtriste":4370,"endente":4371,"Ġreceb":4372,"ĠBru":4373,"ĠRachel":4374,"Ġaproximou":4375,"Ġrepetiu":4376,"Ã¡tico":4377,"ranc":4378,"Ã£os":4379,"Ġvar":4380,"Ġvit":4381,"ĠPhil":4382,"oston":4383,"Ġpassaram":4384,"ional":4385,"Ġcabo":4386,"diÃ§Ã£o":4387,"Ġprefer":4388,"ĠRuth":4389,"Ġ10":4390,"cola":4391,"Ġpuder":4392,"Ġtes":4393,"Ġcomecei":4394,"ril":4395,"Ġlan":4396,"ĠSo":4397,"Ġouro":4398,"ĠKen":4399,"Ġcolina":4400,"ĠbalanÃ§a":4401,"ĠDois":4402,"Ġmandar":4403,"Ġdemo":4404,"lhei":4405,"Ġponte":4406,"respon":4407,"Ġpulso":4408,"Ġfamiliar":4409,"Ġdoce":4410,"Ġater":4411,"Ġletras":4412,"Ġbeisebol":4413,"Ġbebida":4414,"Ġdificul":4415,"Ġsar":4416,"Ġmancha":4417,"ĠperÃŃodo":4418,"ĠBoston":4419,"ĠViu":4420,"Ġsacudiu":4421,"tÃ¡vel":4422,"onde":4423,"ĠCity":4424,"Ġparque":4425,"Ġing":4426,"Ġexemplo":4427,"hÃµes":4428,"Ġsess":4429,"Ġdespre":4430,"Ġimpul":4431,"Ġempres":4432,"ĠconsciÃªncia":4433,"Ġterminou":4434,"ĠApenas":4435,"ĠmultidÃ£o":4436,"ac":4437,"ĠsÃºb":4438,"Ġrever":4439,"una":4440,"ĠsaÃŃram":4441,"rb":4442,"Ġtu":4443,"Ġsel":4444,"pÃ§Ã£o":4445,"xas":4446,"Ġmelhores":4447,"ĠagradÃ¡vel":4448,"Billy":4449,"Ã¡tica":4450,"Ġprimeiros":4451,"Ġpiso":4452,"Ġmandou":4453,"ĠDick":4454,"Ġoutono":4455,"vidas":4456,"ĠsaÃŃdo":4457,"nat":4458,"yer":4459,"Ġ...":4460,"Ġsegurava":4461,"tÃ³rios":4462,"Ġpesadelo":4463,"taque":4464,"Ġacontece":4465,"gum":4466,"reza":4467,"Ġmato":4468,"ixa":4469,"Ġficara":4470,"Ġvoando":4471,"Ġcuidar":4472,"Ġtornar":4473,"Ġesquecer":4474,"ĠPensei":4475,"Ġdoente":4476,"ĠCoisa":4477,"ĠsaÃŃda":4478,"Ġchegaram":4479,"Ġpri":4480,"Ġcoch":4481,"Ġnota":4482,"ĠpeÃ§a":4483,"Ġigreja":4484,"Ã´mo":4485,"Ġpude":4486,"Ġadmit":4487,"rimento":4488,"oria":4489,"dam":4490,"laÃ§Ã£o":4491,"ĠSh":4492,"Ġestrem":4493,"ĠDean":4494,"Ġfios":4495,"Ġvio":4496,"Ġpont":4497,"Ġcalc":4498,"ĠcartÃ£o":4499,"Ġchegava":4500,"Ġuni":4501,"Ġassassina":4502,"Ġbiblioteca":4503,"Ġpub":4504,"ĠDale":4505,"Ġretorn":4506,"ĠStark":4507,"An":4508,"Ġigno":4509,"Ġdom":4510,"orrer":4511,"ĠClint":4512,"Ġlin":4513,"Ġacaso":4514,"Ġpassara":4515,"ĠexplosÃ£o":4516,"Ġsug":4517,"Ġacrescentou":4518,"Ġemprego":4519,"gamente":4520,"tina":4521,"lain":4522,"ĠSta":4523,"ĠversÃ£o":4524,"ster":4525,"Ġdevol":4526,"ĠDO":4527,"ĠHol":4528,"Ġprograma":4529,"ĠLila":4530,"Ġroman":4531,"Ġcruza":4532,"ĠSuas":4533,"Ġmaravilh":4534,"ĠFicou":4535,"Ġimped":4536,"Ġprato":4537,"Ġesquina":4538,"Ġbochechas":4539,"Ġprima":4540,"Ġsinto":4541,"Sim":4542,"ĠfÃ©":4543,"ĠSE":4544,"ranha":4545,"eriam":4546,"ĠFl":4547,"Ġtomando":4548,"Ġsuperior":4549,"ĠprovÃ¡vel":4550,"Ġnotas":4551,"tivamente":4552,"Ġobservou":4553,"Ġdivert":4554,"ivelmente":4555,"Ġbos":4556,"Ġriso":4557,"Ġprova":4558,"Ġviram":4559,"Ġfila":4560,"ĠnotÃŃcia":4561,"Ġtru":4562,"ĠIr":4563,"!\"":4564,"?,":4565,"uthbert":4566,"Ġdroga":4567,"Ġimpression":4568,"Ġbrinque":4569,"bilidade":4570,"Ġbaixou":4571,"Ġfirm":4572,"Ġopin":4573,"bun":4574,"centes":4575,"ier":4576,"ÃĢ":4577,"Ġalim":4578,"Ġdeste":4579,"Ġocorreu":4580,"pul":4581,"dada":4582,"ĠMill":4583,"ĠTerra":4584,"Ġexter":4585,"Ġpresa":4586,"vei":4587,"Ġinde":4588,"Ġsemelha":4589,"Ġsons":4590,"Ġceleiro":4591,"MA":4592,"ĠtÃª":4593,"Ġlat":4594,"Ġcento":4595,"ĠRes":4596,"Ġacordar":4597,"ĠCasa":4598,"Ġnervoso":4599,"EI":4600,"ĠJan":4601,"ural":4602,"ĠincÃªn":4603,"ĠNatal":4604,"Ġconfia":4605,"Ġvan":4606,"ranÃ§as":4607,"ĠPodia":4608,"Ġexplicar":4609,"Ġcomputador":4610,"cidade":4611,"uso":4612,"Ġplano":4613,"vÃ£o":4614,"entei":4615,"icidade":4616,"Ġ196":4617,"louqu":4618,"Ġsignificava":4619,"teiro":4620,"sava":4621,"ĠJul":4622,"Ġlaranja":4623,"key":4624,"Ġlevando":4625,"Ġtapete":4626,"Ġadul":4627,"Ġdescober":4628,"Ġterreno":4629,"Ġseca":4630,"Ġabre":4631,"ĠWireman":4632,"ĠbalanÃ§ando":4633,"Ġcoberto":4634,"Ġeletr":4635,"ĠPra":4636,"ĠPrim":4637,"ĠPolly":4638,"ĠRen":4639,"ĠRad":4640,"Ġconvers":4641,"Ġquilos":4642,"ÃŃtulo":4643,"Ġrecupe":4644,"Ġtest":4645,"ĠdeixÃ¡":4646,"Ġbaixinho":4647,"ĠmÃ¡scara":4648,"Ġselva":4649,"zar":4650,"Ġhe":4651,"ĠTa":4652,"ĠWendy":4653,"Ġmarcas":4654,"Ġchamas":4655,"ĠgalpÃ£o":4656,"ĠSempre":4657,"Ġrostos":4658,"Ġci":4659,"Ġsho":4660,"Ġpobre":4661,"Ġnossas":4662,"Ġduro":4663,"Ġcurto":4664,"Ġcontato":4665,"Ġreceber":4666,"Ġnecessidade":4667,"ĠRusty":4668,"Ġpicape":4669,"SÃ³":4670,"Ġdolor":4671,"Ġdesconhec":4672,"Ġhumano":4673,"Ġclara":4674,"Ġbicicleta":4675,"garam":4676,"Ġrumo":4677,"ford":4678,"Ġflutu":4679,"ĠmemÃ³ria":4680,"Ġgen":4681,"Ġgelo":4682,"Ġdesenho":4683,"Ġescuros":4684,"Ġanimais":4685,"ĠAchei":4686,"Ġcamiseta":4687,"Ġdeb":4688,"ĠÃĵ":4689,"Ġmassa":4690,"Ġperf":4691,"Ġintens":4692,"Ġvoltando":4693,"ĠAng":4694,"Ġordem":4695,"ĠpÃ¡gina":4696,"TI":4697,"Ġacaba":4698,"dÃ¡ver":4699,"Ġbilhete":4700,"pro":4701,"hada":4702,"Ġsozinha":4703,"Ġrecus":4704,"Ġfugir":4705,"Ġrisada":4706,"Ġpista":4707,"Ġemit":4708,"Ġjovens":4709,"ĠimaginaÃ§Ã£o":4710,"Ġalegre":4711,"Ġcircun":4712,"Ġmos":4713,"Ġjoelho":4714,"Ġprofundo":4715,"Ġcoberta":4716,"Ġobrigado":4717,"ĠdÃª":4718,"Ġassum":4719,"Ġindic":4720,"Ġsurgiu":4721,"ws":4722,"Ġcader":4723,"ĠPA":4724,"Ġdesespe":4725,"Ġfale":4726,"Ġtrabalhando":4727,"creto":4728,"Ġsand":4729,"eros":4730,"cados":4731,"Ġpenet":4732,"Ġautor":4733,"Ġajo":4734,"ĠAfinal":4735,"Ġgira":4736,"ĠSco":4737,"ĠprÃ©":4738,"Ġpesado":4739,"ĠconfusÃ£o":4740,"ĠNenhum":4741,"OC":4742,"ĠLloyd":4743,"cel":4744,"Ġofe":4745,"ĠcadÃ¡ver":4746,"jada":4747,"Ġdescobri":4748,"Ġigual":4749,"way":4750,"ath":4751,"voa":4752,"Ġprocurar":4753,"Ġgolpe":4754,"Ġequil":4755,"ĠfÃ´":4756,"Ġencer":4757,"Ġinfor":4758,"Ġpesada":4759,"Ġ197":4760,"ĠÃ¢n":4761,"ON":4762,"ante":4763,"Ġsobranc":4764,"Ġparecem":4765,"noite":4766,"Ġandou":4767,"nete":4768,"Ġcaixas":4769,"Ġafastar":4770,"Ġbrinca":4771,"Ġsinist":4772,"ĠTrÃªs":4773,"Ġdelica":4774,"Ġvelhas":4775,"Ġcorte":4776,"Ġevitar":4777,"Enquanto":4778,"ĠDor":4779,"ĠlembranÃ§a":4780,"Ġaparentemente":4781,"Ġmec":4782,"entada":4783,"enos":4784,"icÃŃ":4785,"Ġrepres":4786,"ĠLee":4787,"ĠRoger":4788,"eitos":4789,"ĠOra":4790,"Ġexec":4791,"Ġfilmes":4792,"Ġtrilha":4793,"Ġaparecer":4794,"Ġefeito":4795,"ĠHer":4796,"entaÃ§Ã£o":4797,"Ġesquecido":4798,"esa":4799,"Ġvermelhos":4800,"Ġbonita":4801,"saros":4802,"run":4803,"Ġdeus":4804,"ĠLau":4805,"Ġpreta":4806,"vern":4807,"Ġrepu":4808,"Ġvul":4809,"ĠAquilo":4810,"ocar":4811,"ĠSho":4812,"Ġenlouqu":4813,"Ġcorpos":4814,"Ġpain":4815,"jante":4816,"Ã¢ncias":4817,"Ġadoles":4818,"ĠBrady":4819,"dela":4820,"ama":4821,"itÃ¡rio":4822,"Ġresist":4823,"Ġcareta":4824,"Ġvale":4825,"Ġresponde":4826,"Ġtare":4827,"Ġconfir":4828,"ĠrÃ¡pida":4829,"Ġprimavera":4830,"udou":4831,"Ġrepent":4832,"Ġestranhos":4833,"ĠPaul":4834,"Ġfeita":4835,"Ġpon":4836,"Ġdoc":4837,"Ġaspec":4838,"ĠFar":4839,"inger":4840,"Ġverdadeira":4841,"Ġenferru":4842,"Ġenvelo":4843,"IL":4844,"pido":4845,"Ġsepara":4846,"ĠTemos":4847,"Ġencontrava":4848,"Ġbarba":4849,"urtz":4850,"Ġmorrendo":4851,"Ġdera":4852,"Ã¡gua":4853,"Ġarqu":4854,"Ġrecuou":4855,"Ġliber":4856,"Ġfuturo":4857,"Houve":4858,"Ġbu":4859,"ird":4860,"Ġgarotas":4861,"Ġmental":4862,"Ġdecidiu":4863,"Ġdeitado":4864,"encial":4865,"ĠfrequÃªncia":4866,"dez":4867,"ĠDud":4868,"ĠPop":4869,"ÃŃnhamos":4870,"Ġbrilhantes":4871,"Ġberrou":4872,"Ġmaldito":4873,"lum":4874,"Ã£es":4875,"Ġfesta":4876,"ons":4877,"Ġreve":4878,"ĠlenÃ§":4879,"Ġgigantes":4880,"ĠfÃº":4881,"Ã§am":4882,"Ġentra":4883,"gadas":4884,"Ġabsur":4885,"Ġbonito":4886,"Ġhumor":4887,"ĠopiniÃ£o":4888,"Le":4889,"Ġconte":4890,"ĠCome":4891,"mith":4892,"ĠVo":4893,"Ġperceb":4894,"pouco":4895,"saro":4896,"tte":4897,"Ġmostrou":4898,"Ġescreveu":4899,"ĠEmbora":4900,"Dan":4901,"Ġlegal":4902,"Ġmorrido":4903,"ificado":4904,"ĠPercy":4905,"Ġdescendo":4906,"rÃµes":4907,"laram":4908,"Ġtrail":4909,"fant":4910,"Ġfileira":4911,"ridente":4912,"ĠLogo":4913,"Ġarco":4914,"Ġpossibilidade":4915,"ision":4916,"Ġlista":4917,"ĠThe":4918,"enhor":4919,"Ġcabine":4920,"ĠMcG":4921,"ĠCuthbert":4922,"ĠTony":4923,"Que":4924,"Ġsubitamente":4925,"Ġguerra":4926,"Ġgrave":4927,"Ġseriam":4928,"Do":4929,"ue":4930,"ĠEstavam":4931,"igu":4932,"leza":4933,"ĠlanÃ§ou":4934,"ĠMel":4935,"Ġsaia":4936,"Ġperde":4937,"Ġentendeu":4938,"ĠFord":4939,"Ġconsul":4940,"Ġpistola":4941,"izaÃ§Ã£o":4942,"ĠSarah":4943,"fado":4944,"mor":4945,"Ġpiada":4946,"lhar":4947,"Ġquant":4948,"ĠAnderson":4949,"lon":4950,"Ġdan":4951,"Ġpalha":4952,"ĠdesagradÃ¡vel":4953,"mentos":4954,"tÃµes":4955,"Ġdesist":4956,"Ġdeixara":4957,"anhas":4958,"Ġrespondi":4959,"ĠEstamos":4960,"Ġexperim":4961,"ĠpressÃ£o":4962,"Ã¡rias":4963,"Ġator":4964,"ĠexperiÃªncia":4965,"Ġcoragem":4966,"ĠNÃĥO":4967,"Ġpeguei":4968,"ĠJonas":4969,"Ġescritor":4970,"Ġescolh":4971,"Ġgave":4972,"Ġgarant":4973,"portun":4974,"OL":4975,"Ġganhar":4976,"Ġzumbido":4977,"Ġadvogado":4978,"Ġonda":4979,"ĠOwen":4980,"ings":4981,"Ġmonstro":4982,"Talvez":4983,"fone":4984,"ilhas":4985,"icatri":4986,"Ġaparelho":4987,"Ġfechado":4988,"HA":4989,"Ġato":4990,"Ġnov":4991,"ĠDiz":4992,"Ġvapor":4993,"Ġacredita":4994,"Para":4995,"bie":4996,"ĠgÃ¡s":4997,"Ġserem":4998,"Ġmoto":4999,"Ġatirou":5000,"ĠWh":5001,"Ġdesaparecido":5002,"Ġesconder":5003,"lÃ¡":5004,"Ġava":5005,"Ġprestes":5006,"Ġtap":5007,"Ġaliv":5008,"Ġria":5009,"uncia":5010,"Ġfacul":5011,"Ġpontas":5012,"Ġatirar":5013,"ĠImag":5014,"ĠWilliam":5015,"Ġcena":5016,"Ġpavor":5017,"Ġcuja":5018,"Ġcujo":5019,"Ġsorrir":5020,"Ġconhece":5021,"ries":5022,"Ġrelu":5023,"heÃ§o":5024,"Ġraio":5025,"apai":5026,"ĠpÃ¡ssaros":5027,"vÃ´":5028,"Ġficasse":5029,"Ã´nica":5030,"Ġpreocupado":5031,"ĠfÃ³s":5032,"Ġnomes":5033,"ĠSob":5034,"padas":5035,"Ġpoltro":5036,"Ġruas":5037,"Ġcompleto":5038,"Ġcompanhia":5039,"ah":5040,"Ġtia":5041,"Ġtido":5042,"Ġreduz":5043,"ĠDel":5044,"ĠpaÃŃs":5045,"ĠlevÃ¡":5046,"Ġacordou":5047,"Ġnuvem":5048,"Mais":5049,"vando":5050,"Ġontem":5051,"guÃ£o":5052,"Ġgat":5053,"Ġabrindo":5054,"radores":5055,"Ġinse":5056,"Ġacen":5057,"rÃ¡rio":5058,"Ġadi":5059,"Ġvas":5060,"Ġsujo":5061,"Ġficam":5062,"ette":5063,"ĠdepÃ³sito":5064,"tetive":5065,"Ġori":5066,"ÃŃcias":5067,"Ġtorre":5068,"Ġfantasma":5069,"Ġinferior":5070,"Ġorelhas":5071,"quelas":5072,"Ġoportun":5073,"ĠTh":5074,"licou":5075,"Ġbloco":5076,"Ġresultado":5077,"dits":5078,"ĠFiquei":5079,"Ġdiziam":5080,"Ġdeviam":5081,"Ġfrase":5082,"ĠMamÃ£e":5083,"Ġdesvi":5084,"Ġinvis":5085,"ĠestaÃ§Ã£o":5086,"Ġsolo":5087,"Ġescure":5088,"risto":5089,"ĠSadie":5090,"Ġhumana":5091,"Ġassassinato":5092,"Ġmis":5093,"ĠShe":5094,"Ġdesbo":5095,"ĠinÃº":5096,"ĠcontrÃ¡rio":5097,"Ġpassag":5098,"ĠsaÃŃa":5099,"ĠbonÃ©":5100,"ĠAlgumas":5101,"ĠincÃªndio":5102,"ĠsaguÃ£o":5103,"Ġperguntando":5104,"wood":5105,"ĠÃ¡s":5106,"Ġcicatri":5107,"Ġcomentou":5108,"ĠOr":5109,"Ġcertas":5110,"Ġprofundamente":5111,"lph":5112,"Ġaula":5113,"Ġgramado":5114,"Ġjun":5115,"Ġsegurar":5116,"ndeu":5117,"fÃŃcio":5118,"ĠfÃŃs":5119,"Ġbrincando":5120,"Ġgirou":5121,"ÃŃg":5122,"nais":5123,"Ġdiretamente":5124,"Ġprofessor":5125,"Ġnamo":5126,"ĠMia":5127,"Ġficavam":5128,"Ġdaria":5129,"queta":5130,"ĠlÃ¡pis":5131,"Ġrabo":5132,"ĠcomeÃ§ara":5133,"anc":5134,"Ġesma":5135,"ĠLeva":5136,"Ġhorizo":5137,"ĠpÃ¡ssaro":5138,"Ġcuidadosamente":5139,"Ġemerg":5140,"ĠWest":5141,"Ġexplica":5142,"turas":5143,"Ġbomba":5144,"Ġbalas":5145,"Ġ195":5146,"Ġtocando":5147,"ĠmudanÃ§a":5148,"Ġdevem":5149,"Ġredo":5150,"Ġconj":5151,"Ġmudou":5152,"Ġcarona":5153,"Ġassento":5154,"ĠsalÃ£o":5155,"Ġvermelhas":5156,"Ġfraco":5157,"Ġnotur":5158,"ĠfÃ³sfor":5159,"ÃŃna":5160,"usive":5161,"Ġdispos":5162,"Ġenche":5163,"Ġcamp":5164,"ĠSabia":5165,"Ġrit":5166,"ĠnÃŃvel":5167,"itÃ©rio":5168,"Ġhon":5169,"ĠCharles":5170,"Ġdirigir":5171,"ĠBarbara":5172,"Ġmicro":5173,"Ãĵ":5174,"Ġante":5175,"ĠTad":5176,"Ġjulho":5177,"Ġtij":5178,"Ġsang":5179,"ĠSon":5180,"Ġinca":5181,"Ġcorrespon":5182,"vaninha":5183,"ĠOlha":5184,"ĠFez":5185,"Ġtrope":5186,"Ġexplodiu":5187,"Ġelevador":5188,"Ġmuda":5189,"Ġcomprido":5190,"Ġjogando":5191,"Ġmentira":5192,"ĠJean":5193,"Ġdemonst":5194,"pando":5195,"are":5196,"Ġfina":5197,"Ġnovos":5198,"Ã³i":5199,"Ã¢ncer":5200,"ĠRadar":5201,"Ġrefei":5202,"Ġchaves":5203,"Ġmomentos":5204,"Ġextremamente":5205,"Ġalegria":5206,"Ġpne":5207,"ÃŃnio":5208,"angor":5209,"Ġcrescente":5210,"mun":5211,"gulo":5212,"Ġacal":5213,"Ġconseguido":5214,"Ġafo":5215,"Ġexaus":5216,"Bem":5217,"unt":5218,"Ġlum":5219,"ÃŃdos":5220,"ĠDiga":5221,"essem":5222,"pee":5223,"Ġcheguei":5224,"Ġbaba":5225,"ĠMorgan":5226,"Ġpin":5227,"ĠpÃ³":5228,"Ġquie":5229,"Ġolhei":5230,"Ġcorria":5231,"ĠpreÃ§o":5232,"Ġamiga":5233,"Ġantigos":5234,"Ġvejo":5235,"Ġdificuldade":5236,"Ġeco":5237,"Ġimagin":5238,"Ã´nio":5239,"Ġdono":5240,"ĠDA":5241,"Ġgostar":5242,"Ġescrivaninha":5243,"ĠPatrick":5244,"Ġorig":5245,"ÃŃcara":5246,"Ġacendeu":5247,"Ġ18":5248,"bras":5249,"Ġvent":5250,"alho":5251,"emas":5252,"beth":5253,"Ġcasamento":5254,"ĠMart":5255,"ort":5256,"Ãªme":5257,"irÃ¡":5258,"Ġinex":5259,"itch":5260,"ĠcabeÃ§as":5261,"ĠÃŃn":5262,"ĠdanÃ§a":5263,"Ġcenta":5264,"rige":5265,"Ġreb":5266,"Ġdesenh":5267,"ticas":5268,"ĠsanduÃŃ":5269,"Ġusou":5270,"ĠRay":5271,"ĠPare":5272,"Ġsuspirou":5273,"ĠCOM":5274,"DE":5275,"Ġalun":5276,"Ġmanda":5277,"Ao":5278,"su":5279,"Ġnesta":5280,"Ġtomado":5281,"ĠÃºltimas":5282,"ĠBlaine":5283,"Ġestranhamente":5284,"disse":5285,"wyer":5286,"ĠPrin":5287,"Ġmetro":5288,"Ġexc":5289,"ĠnecessÃ¡rio":5290,"Ġtraseira":5291,"irei":5292,"tudo":5293,"Ġbunda":5294,"ĠHan":5295,"Ġescor":5296,"Ġerrada":5297,"ĠIng":5298,"Ġamericano":5299,"ĠQUE":5300,"gamento":5301,"Ġmus":5302,"Ġverdes":5303,"ĠchÃ¡":5304,"Ġjardim":5305,"Ġnatu":5306,"Ġ16":5307,"Ġorgu":5308,"Ġatravessar":5309,"ussander":5310,"caram":5311,"fada":5312,"ĠSandy":5313,"ÃŃf":5314,"Ġrevista":5315,"Ġgeladeira":5316,"lis":5317,"Ġganha":5318,"ativa":5319,"Ġpasta":5320,"Ġlevanta":5321,"partamento":5322,"Ġpreocupar":5323,"ĠPou":5324,"Ġacele":5325,"ciar":5326,"Ġmargem":5327,"Ġsobreviv":5328,"cula":5329,"Ġenfre":5330,"cobs":5331,"Ġacordado":5332,"Ġrisco":5333,"ĠCinza":5334,"Ġbrincadeira":5335,"bros":5336,"Ġah":5337,"Ġroda":5338,"Ġunivers":5339,"Ġrosn":5340,"ĠJunior":5341,"!,":5342,"Bill":5343,"Ġul":5344,"Ġdigo":5345,"Ġfaces":5346,"Ġnatureza":5347,"pira":5348,"Ġsist":5349,"Ġfri":5350,"ĠSenhor":5351,"ĠRed":5352,"Ġleite":5353,"radamente":5354,"ĠAlbert":5355,"Ġinteress":5356,"Ġenxer":5357,"Ġtentava":5358,"tebol":5359,"Ġpegando":5360,"Ġsomos":5361,"Ġguard":5362,"ĠPois":5363,"ĠJimmy":5364,"Ġenvelope":5365,"ĠDuddits":5366,"gÃ¡":5367,"mu":5368,"Ġade":5369,"ĠEllie":5370,"Ġacesso":5371,"inados":5372,"ĠTodo":5373,"Ġborda":5374,"Ã©rica":5375,"quia":5376,"Ġestilo":5377,"ĠCer":5378,"Ġconduz":5379,"Ġlendo":5380,"ĠQueria":5381,"Ġmeninos":5382,"Ġpouquinho":5383,"buas":5384,"bec":5385,"Ġrid":5386,"Ġmad":5387,"ĠDal":5388,"Ġcortar":5389,"Ġseguindo":5390,"Ġvoltaram":5391,"ĠKurtz":5392,"Ġcinema":5393,"Ġnegros":5394,"ĠDonna":5395,"Ġrecome":5396,"ĠalmoÃ§o":5397,"Ġtestem":5398,"Ġcircunst":5399,"bada":5400,"Ġemo":5401,"itivo":5402,"chos":5403,"ĠgraÃ§as":5404,"Ġdefin":5405,"Ġfaculdade":5406,"kins":5407,"Ġquint":5408,"Ġestranhas":5409,"Ġsrta":5410,"ĠregiÃ£o":5411,"Ġimpulso":5412,"icÃŃdio":5413,"ntemente":5414,"Ġpop":5415,"Ġpad":5416,"uais":5417,"Ġ198":5418,"ĠBrown":5419,"Ġinteressante":5420,"Ġequip":5421,"Cl":5422,"Ġbrancas":5423,"Ġaga":5424,"Ġneles":5425,"ĠdaÃŃ":5426,"ĠnotÃŃcias":5427,"lan":5428,"Ġlinhas":5429,"Ġretra":5430,"Ġacost":5431,"ĠVenha":5432,"ĠpresenÃ§a":5433,"Ġpano":5434,"Ġfing":5435,"ĠAce":5436,"Ġconcreto":5437,"Ġinclu":5438,"Ġdesligou":5439,"Ġcaminhar":5440,"Ġnuca":5441,"ĠxÃŃcara":5442,"Ġandava":5443,"Ġcriaturas":5444,"Ġbrisa":5445,"Des":5446,"use":5447,"ĠsenÃ£o":5448,"Ġmarrom":5449,"ĠFaz":5450,"ĠtÃ¡buas":5451,"ĠJerome":5452,"Ġsegura":5453,"Ġfortes":5454,"Ġvisse":5455,"Ġcigarros":5456,"Ġconfor":5457,"Ġvoltado":5458,"Ġmonstru":5459,"izabeth":5460,"Ġmontanhas":5461,"Ġcoro":5462,"Ġfome":5463,"Ġobjeto":5464,"Ġpartici":5465,"ĠreuniÃ£o":5466,"Susan":5467,"hh":5468,"pp":5469,"viu":5470,"lego":5471,"uls":5472,"cera":5473,"Ġsabiam":5474,"Ġimpro":5475,"ĠConsegu":5476,"ĠDescul":5477,"caria":5478,"ĠtÃŃnhamos":5479,"Ġsuja":5480,"ĠGin":5481,"ĠEsper":5482,"bird":5483,"Ã£s":5484,"ĠAca":5485,"Ãªnt":5486,"Ġfazenda":5487,"Ġabertos":5488,"ĠveÃŃculo":5489,"ĠmaÃ§aneta":5490,"ĠincrÃŃvel":5491,"bine":5492,"Ġmelho":5493,"gui":5494,"Ġesticou":5495,"ĠCara":5496,"ĠTy":5497,"xi":5498,"Ġeter":5499,"Ġora":5500,"ocado":5501,"ĠSinto":5502,"rugada":5503,"Ġguin":5504,"Ġbeijo":5505,"Ġcomendo":5506,"Ġbando":5507,"ĠSp":5508,"ĠBet":5509,"Ġparc":5510,"ezer":5511,"Ġoutubro":5512,"Ġfutebol":5513,"Ġesteve":5514,"itude":5515,"cam":5516,"Ġevid":5517,"ĠSto":5518,"ĠfaÃ§o":5519,"Ġinfant":5520,"erial":5521,"urso":5522,"Ġerro":5523,"Ġinfeliz":5524,"Ġcrep":5525,"lÃ©":5526,"Ġcro":5527,"Ġtan":5528,"Ġdescia":5529,"Ġdescre":5530,"Ġprom":5531,"Ġcompor":5532,"Ġpuxar":5533,"Ġaproximando":5534,"Ġpatas":5535,"Ġcheios":5536,"Ġuniforme":5537,"Ho":5538,"lec":5539,"Ġasas":5540,"Ġcintila":5541,"Ġperigoso":5542,"Ġrei":5543,"ĠGlen":5544,"Ã´nia":5545,"Ġborra":5546,"Ġondas":5547,"Ġatingiu":5548,"ĠPoderia":5549,"Ou":5550,"ĠcÃ´mo":5551,"ĠmatÃ¡":5552,"ĠTor":5553,"ater":5554,"Ġraste":5555,"ĠNegra":5556,"Ġsegredo":5557,"Ġinte":5558,"Ġtiras":5559,"Ġmaldita":5560,"ĠfÃ´lego":5561,"born":5562,"Ã§ados":5563,"Ġlei":5564,"ĠLon":5565,"ĠEspero":5566,"Ġimediato":5567,"Ġproprie":5568,"Ġestup":5569,"ĠRennie":5570,"SE":5571,"iava":5572,"icado":5573,"ecas":5574,"doso":5575,"cito":5576,"rosa":5577,"Ġcertos":5578,"Ġmarcha":5579,"ĠPapai":5580,"ettie":5581,"iais":5582,"andolph":5583,"vert":5584,"Ġprata":5585,"Ġsomente":5586,"Ġsumiu":5587,"IC":5588,"fio":5589,"Ġden":5590,"queÃ§a":5591,"dasse":5592,"[âĢĶ":5593,"ĠDeixe":5594,"ĠBangor":5595,"ĠPear":5596,"Ġbolas":5597,"Ġpercebi":5598,"ĠGage":5599,"consciente":5600,"Ġgargalhada":5601,"Ġmel":5602,"ditch":5603,"Ġforn":5604,"ĠÃ¡l":5605,"ĠSawyer":5606,"Ġmostrando":5607,"Ġcavalos":5608,"ĠautomÃ¡":5609,"gonha":5610,"Ġoportunidade":5611,"brou":5612,"hila":5613,"Ġconto":5614,"Ġalma":5615,"Ġdiv":5616,"didas":5617,"Ġapla":5618,"ĠEstados":5619,"Ã¢nt":5620,"Ġdesejo":5621,"Ġinteligente":5622,"Richard":5623,"ĠfÃºria":5624,"Ġtrailer":5625,"more":5626,"rann":5627,"ĠHill":5628,"ĠHamp":5629,"licado":5630,"Ġapontando":5631,"ĠBowditch":5632,"Ah":5633,"Don":5634,"Sa":5635,"Ġka":5636,"ĠtÃ©":5637,"ĠOlhe":5638,"ĠGeral":5639,"Ġbotar":5640,"ĠpÃ¡ginas":5641,"Ġtig":5642,"Ġfamos":5643,"Ġdobra":5644,"Ġdesf":5645,"ĠDeve":5646,"Ġsabemos":5647,"ĠFora":5648,"Ġorgan":5649,"elli":5650,"ĠnÃºmeros":5651,"Ġespecialmente":5652,"Ġbochecha":5653,"Ġesperou":5654,"Ġgentil":5655,"Ġsessenta":5656,"Ġimpedir":5657,"Ġpainel":5658,"Ġaro":5659,"vaÃ§Ã£o":5660,"Ġger":5661,"ĠCou":5662,"ĠMun":5663,"Ġpedido":5664,"Ġpudessem":5665,"Ġatravessou":5666,"Ġsatisfeito":5667,"ĠsÃ¡bado":5668,"gara":5669,"veiro":5670,"wer":5671,"zentos":5672,"aran":5673,"eman":5674,"ĠSlo":5675,"ĠSmith":5676,"ĠGold":5677,"izou":5678,"Ġseios":5679,"Ġextremidade":5680,"Ġtelhado":5681,"ĠvÃŃ":5682,"Ġvende":5683,"ĠBan":5684,"Ġespero":5685,"Ġquerem":5686,"Ġbatia":5687,"ĠUnidos":5688,"Ġesgo":5689,"ĠCada":5690,"ĠDun":5691,"ates":5692,"ĠimÃ³vel":5693,"Ġpulm":5694,"Ġespre":5695,"ider":5696,"Ġagente":5697,"Ġclaramente":5698,"ĠocasiÃ£o":5699,"ĠÃĵtimo":5700,"Ġsobrancelhas":5701,"ĠcÃ¢ncer":5702,"ĠAd":5703,"dito":5704,"Ġpensado":5705,"chou":5706,"Ġpoucas":5707,"Ġlargo":5708,"ĠAcredi":5709,"Vries":5710,"Ġthe":5711,"ĠDeu":5712,"Ġcondado":5713,"ĠrecÃ©m":5714,"ordan":5715,"Ġvinho":5716,"ĠAÃŃ":5717,"idado":5718,"Ġvoltei":5719,"Ġprimeiras":5720,"Ġjuiz":5721,"ĠHaven":5722,"Ġchegasse":5723,"ĠEntretanto":5724,"11":5725,"dinho":5726,"Ġcoz":5727,"Ġcantar":5728,"Ġexci":5729,"Ġarbus":5730,"Ġbolsos":5731,"Ġsuspei":5732,"Ġinclusive":5733,"ĠSentia":5734,"ies":5735,"orou":5736,"ĠMÃ£e":5737,"Ġenvi":5738,"Ġentregou":5739,"Ġagon":5740,"Ġretira":5741,"ĠBuick":5742,"Ġorelha":5743,"ĠLucy":5744,"ĠPrimeiro":5745,"Ġtec":5746,"ĠCristo":5747,"ĠrÃ©":5748,"Ġpartes":5749,"ĠRei":5750,"ĠÃłquela":5751,"Ġmover":5752,"ĠintenÃ§Ã£o":5753,"tadores":5754,"Ġcansa":5755,"Ġfrag":5756,"ĠpÃºblico":5757,"orte":5758,"Ġbela":5759,"Ġcadeia":5760,"Ġdistra":5761,"Ġlama":5762,"Ġouvira":5763,"Ġdaquilo":5764,"ĠCalla":5765,"Ġleg":5766,"Ġleu":5767,"Ġher":5768,"Ġpartida":5769,"ĠinfÃ¢ncia":5770,"ĠcrÃ¢n":5771,"Ġsemelhante":5772,"Ġjunho":5773,"Henry":5774,"Tom":5775,"ash":5776,"ĠterÃ¡":5777,"ĠGaro":5778,"ĠpegÃ¡":5779,"Ġcuriosidade":5780,"Ġcorrespond":5781,"Ġconge":5782,"Ġresid":5783,"ĠAlgo":5784,"adine":5785,"chada":5786,"Ġfuncionar":5787,"Ġmochila":5788,"eci":5789,"ĠMy":5790,"Ġsentados":5791,"Ġsuspiro":5792,"Ġlimpar":5793,"Ġbuscar":5794,"ĠdecisÃ£o":5795,"Ã§ava":5796,"urar":5797,"ĠLinda":5798,"Ġreserva":5799,"Ġfechados":5800,"ĠSteph":5801,"Ġjornais":5802,"jet":5803,"Ġpom":5804,"Ġpura":5805,"Ġcola":5806,"Ġlas":5807,"usos":5808,"ĠDurante":5809,"Ġperfeito":5810,"Ġentrando":5811,"terra":5812,"ĠJacobs":5813,"Ġqueriam":5814,"ĠJulia":5815,"cÃ¡":5816,"pu":5817,"tenta":5818,"Ġtenta":5819,"Ġtiros":5820,"entro":5821,"Ġvirando":5822,"Ġlivrar":5823,"Ġagosto":5824,"Ġtais":5825,"emie":5826,"Ġmata":5827,"viam":5828,"Ġusado":5829,"ĠlenÃ§o":5830,"Ġpoltrona":5831,"inco":5832,"riosa":5833,"Ġpovo":5834,"Ġign":5835,"ĠGos":5836,"Ġcere":5837,"Ġviol":5838,"Ġsoou":5839,"ĠÃ³leo":5840,"ffe":5841,"Ġpel":5842,"Ġpeixe":5843,"iados":5844,"Ġcantos":5845,"Ġprog":5846,"Ġpau":5847,"Ġgritava":5848,"Ġtirando":5849,"Ġlevantando":5850,"Ġlouca":5851,"ĠGreg":5852,"Ġaus":5853,"Ġobe":5854,"Ġfaixa":5855,"Ġterno":5856,"Ġpergunt":5857,"ĠsÃ©culo":5858,"ĠPARA":5859,"iosa":5860,"tig":5861,"ĠvÃŃt":5862,"lavam":5863,"Ã³veis":5864,"Ġiso":5865,"Ġarris":5866,"Ġresmun":5867,"Ġpossu":5868,"anÃ§o":5869,"lete":5870,"Ġnotou":5871,"Ġburacos":5872,"Ġvinham":5873,"Ġdissesse":5874,"Ap":5875,"Ġbob":5876,"Ġatro":5877,"Ġcasos":5878,"Ġsexta":5879,"ston":5880,"Ġw":5881,"Ġfitou":5882,"Ġrefer":5883,"Ġexer":5884,"Ġacontecia":5885,"ĠNaquele":5886,"ADO":5887,"ĠPreciso":5888,"ÃŃssimo":5889,"quis":5890,"Ġfoc":5891,"ront":5892,"mava":5893,"Ġmaiores":5894,"Ġbatida":5895,"Ġvirado":5896,"Ġconhecimento":5897,"Ġcadeiras":5898,"Jake":5899,"ĠmÃºsculos":5900,"Ġgeralmente":5901,"Ġbloque":5902,"Ġadiv":5903,"Ġhorizonte":5904,"Ġquintal":5905,"HO":5906,"Ġbisco":5907,"ĠEM":5908,"ĠFique":5909,"ĠFui":5910,"hares":5911,"ulaÃ§Ã£o":5912,"ĠcircunstÃ¢ncias":5913,"15":5914,"ror":5915,"rew":5916,"Ġmatado":5917,"ĠHam":5918,"Ġsuavemente":5919,"Ġaban":5920,"Ġmostrava":5921,"ĠFreddy":5922,"Ġmoedas":5923,"Ġaspecto":5924,"Ġgaveta":5925,"Ġincapaz":5926,"Ġpneus":5927,"iÃ§Ãµes":5928,"ĠÃŃ":5929,"anda":5930,"ĠEv":5931,"Ġconso":5932,"ulos":5933,"ĠespÃŃ":5934,"Ġencontraram":5935,"posta":5936,"Ġcentral":5937,"Ġdrogas":5938,"30":5939,"Ġtoss":5940,"ĠlanÃ§a":5941,"Ġcompras":5942,"Ġtorta":5943,"ĠcaminhÃµes":5944,"ĠAtrÃ¡s":5945,"Ġdetalhes":5946,"Mar":5947,"dicion":5948,"sha":5949,"Ġcesta":5950,"Ġinva":5951,"ĠVin":5952,"Ġlad":5953,"Ġmole":5954,"Ġfraca":5955,"Ġquantidade":5956,"ĠpÃ£o":5957,"ĠtÃºn":5958,"ĠhÃ¡b":5959,"icky":5960,"ĠMattie":5961,"lÃªs":5962,"sor":5963,"Ġreme":5964,"gavam":5965,"Ġpassei":5966,"Ġsegui":5967,"Ġsoltar":5968,"Ġtantos":5969,"ĠEncont":5970,"Ġesqueceu":5971,"Ġ30":5972,"Ã©rcito":5973,"Ġsumido":5974,"10":5975,"ĠNO":5976,"Ġentendia":5977,"Ġprodu":5978,"Ġtornoz":5979,"Ġtesou":5980,"ID":5981,"malmente":5982,"dora":5983,"Ġemba":5984,"Ġnovas":5985,"teve":5986,"Ġpercor":5987,"Ġsentimento":5988,"Ġderre":5989,"Ġderram":5990,"ĠpreocupaÃ§Ã£o":5991,"Ġnave":5992,"ĠSha":5993,"Ġrum":5994,"Ġpersegu":5995,"Ġentend":5996,"Ġenfiar":5997,"Ġpuxando":5998,"Ġchegara":5999,"Ġmexer":6000,"ind":6001,"Ġdoze":6002,"guas":6003,"ĠSol":6004,"ÃŃl":6005,"Ġach":6006,"Ġcompara":6007,"ĠTommy":6008,"Ġassassino":6009,"Ġdocum":6010,"peedy":6011,"UN":6012,"US":6013,"Ġfenda":6014,"ĠDussander":6015,"Ġcorrida":6016,"Ġvolume":6017,"ĠBobby":6018,"Ġacompanha":6019,"ko":6020,"lorann":6021,"Ġtex":6022,"Ġpercebe":6023,"ĠCarol":6024,"Ġbocado":6025,"Ġpendurado":6026,"gam":6027,"letas":6028,"ĠBer":6029,"ĠVera":6030,"ĠHum":6031,"Ġpaco":6032,"vore":6033,"Ġpalmas":6034,"Ġbrus":6035,"vÃª":6036,"ÃŃculos":6037,"ĠRandolph":6038,"Ġcontando":6039,"ĠQua":6040,"Ġgrita":6041,"Ġimagens":6042,"Ġborracha":6043,"bados":6044,"Ġdirigindo":6045,"ĠGraÃ§as":6046,"zy":6047,"isto":6048,"letÃ³":6049,"ranhas":6050,"ĠMon":6051,"ĠmetÃ¡":6052,"Ġarque":6053,"Ġdestino":6054,"Ġcoment":6055,"tom":6056,"Ġrevis":6057,"ĠTar":6058,"Ġenvia":6059,"gaÃ§Ã£o":6060,"Ġformas":6061,"Ġtris":6062,"ĠPorÃ©m":6063,"Ġsoldados":6064,"Ġord":6065,"ĠPergu":6066,"Ġconcl":6067,"Ġcrista":6068,"Ġrestaurante":6069,"ĠcrÃ¢nio":6070,"cina":6071,"resse":6072,"doma":6073,"Ġfras":6074,"Ġratos":6075,"dere":6076,"Ġguardar":6077,"ĠlÃ¡bio":6078,"ĠPark":6079,"Ġsacola":6080,"ĠJamie":6081,"runh":6082,"II":6083,"gente":6084,"arou":6085,"ĠOb":6086,"ĠCra":6087,"ĠMA":6088,"aiu":6089,"Ġcontorn":6090,"Ġrestava":6091,"Ġcolocado":6092,"volta":6093,"ĠChris":6094,"Ġdescans":6095,"Ġpendurada":6096,"Ġsistema":6097,"Ġqueda":6098,"ĠPela":6099,"Ã§adas":6100,"mba":6101,"Ġmanchas":6102,"Ġcego":6103,"Ġnervos":6104,"Ġcreio":6105,"EC":6106,"Ġovos":6107,"Ġcores":6108,"dades":6109,"ĠCul":6110,"itais":6111,"Ġobje":6112,"Ġpresidente":6113,"Ġbrilhando":6114,"Ġrelax":6115,"Ġretru":6116,"ĠContudo":6117,"ĠKevin":6118,"ĠmÃŃnimo":6119,"yna":6120,"arem":6121,"ared":6122,"Ġfel":6123,"Ġgirando":6124,"diÃ§Ãµes":6125,"Ġarrum":6126,"Ġrestos":6127,"Ġpassada":6128,"Ġaceitar":6129,"Ġenfermeira":6130,"Ġtarefa":6131,"Ġdetetive":6132,"Ġgl":6133,"Ġenso":6134,"Ġlenta":6135,"urado":6136,"ĠpaletÃ³":6137,"Ġseguido":6138,"ides":6139,"Ġ17":6140,"Ġsubia":6141,"Ġfurioso":6142,"Ġligado":6143,"Estava":6144,"Ġexecu":6145,"Tudo":6146,"Ġfant":6147,"Ġine":6148,"Ġrespirar":6149,"Ġbeleza":6150,"ĠTodas":6151,"ĠcaÃŃram":6152,"ĠmÃ©dio":6153,"Ġilha":6154,"nton":6155,"delia":6156,"Ġmala":6157,"ĠDei":6158,"cidos":6159,"Ġtrazer":6160,"Ġcruel":6161,"ĠmÃ©dicos":6162,"Ġcusp":6163,"bando":6164,"pend":6165,"reo":6166,"ĠOver":6167,"Ġdivid":6168,"Ġcurvou":6169,"Ġjaqueta":6170,"Ġmovendo":6171,"queiro":6172,"sona":6173,"une":6174,"ĠpeÃ§as":6175,"Ġpulou":6176,"Ã³gica":6177,"laterra":6178,"rans":6179,"essas":6180,"Ġencontrei":6181,"Ġsaltou":6182,"ĠtÃªmpo":6183,"brica":6184,"Ġdupla":6185,"Ġmagro":6186,"Ġben":6187,"Ġempo":6188,"ocos":6189,"ĠCre":6190,"Ġmode":6191,"ĠÃ³b":6192,"Ã©ssemos":6193,"Ã³rter":6194,"Ġultra":6195,"oter":6196,"ĠgÃªme":6197,"ĠSun":6198,"Ġtampouco":6199,"Ġfigura":6200,"Ġdisparou":6201,"lhÃ£o":6202,"ross":6203,"Ġencontra":6204,"Ġtenham":6205,"Ãºsculo":6206,"Ġrazo":6207,"Ġlenha":6208,"ĠHelen":6209,"ĠInglaterra":6210,"Ġope":6211,"ĠPres":6212,"itÃ¡ria":6213,"ÃŃaco":6214,"Ġocupa":6215,"Ġmadrugada":6216,"gento":6217,"Ã³rio":6218,"ĠNettie":6219,"Ġpot":6220,"ĠfogÃ£o":6221,"Ġcert":6222,"ĠEscu":6223,"Ġbanho":6224,"Ġconfuso":6225,"Ġencarou":6226,"Ġinterrompeu":6227,"Ġritmo":6228,"Ġpropriedade":6229,"Ainda":6230,"El":6231,"ĠEstÃ£o":6232,"Ġantigas":6233,"ĠpapÃ©is":6234,"Ġtron":6235,"Ġerguer":6236,"ĠRedoma":6237,"Ġfantasmas":6238,"ĠnegÃ³cios":6239,"inbird":6240,"ÃŃsque":6241,"Ġgordo":6242,"Ġencolheu":6243,"ĠHowie":6244,"Ġfacilidade":6245,"ĠKenne":6246,"Ġdeuses":6247,"Ġcentavos":6248,"lida":6249,"wald":6250,"ĠAmb":6251,"Ġexig":6252,"Ġpretos":6253,"ĠChuck":6254,"Ġdescan":6255,"Ġgole":6256,"Ġfedor":6257,"Ġblusa":6258,"Ġrodovia":6259,"Sua":6260,"Ġentendo":6261,"Ġard":6262,"Ġimpa":6263,"Ġbolo":6264,"Ġcurta":6265,"Ã´nico":6266,"Ġrecebeu":6267,"ĠfarÃ³is":6268,"pes":6269,"ĠlanÃ§":6270,"gacia":6271,"Ġexpress":6272,"icipal":6273,"Ġinfin":6274,"Johnny":6275,"DI":6276,"Ġdeco":6277,"Ġderam":6278,"Ġbelo":6279,"tera":6280,"ĠSentiu":6281,"Ġide":6282,"Ġvoltasse":6283,"Ġabsoluta":6284,"Ġsatisfa":6285,"ĠinformaÃ§Ãµes":6286,"Ġmaterial":6287,"orros":6288,"Ġgrunh":6289,"Ġsust":6290,"Ġconce":6291,"ĠLixo":6292,"imples":6293,"Ġtate":6294,"Ġ200":6295,"ĠcemitÃ©rio":6296,"ĠMicha":6297,"ĠTess":6298,"Ġpunhos":6299,"Ġequipe":6300,"ĠPrincip":6301,"Meu":6302,"Nick":6303,"Ġocul":6304,"ĠSan":6305,"Ġacontecera":6306,"ĠrepÃ³rter":6307,"Ġolharam":6308,"cador":6309,"Ġabertas":6310,"Ġveja":6311,"Ġbeijou":6312,"Ġescorrendo":6313,"ĠestÃºdio":6314,"ĠcÃ£es":6315,"ĠBiblioteca":6316,"ĠFica":6317,"Ãªnio":6318,"Ġunhas":6319,"Ġacabara":6320,"Ġmilhares":6321,"Ġdesaparecer":6322,"ĠFinalmente":6323,"OCÃĬ":6324,"tur":6325,"Ġsucesso":6326,"ĠRos":6327,"ĠSeja":6328,"Ġ14":6329,"Ġgarotinha":6330,"Ġtiveram":6331,"Ġaranha":6332,"Ġestro":6333,"Ġtinta":6334,"Ġmoment":6335,"anhando":6336,"Ã¢mara":6337,"Ġamonto":6338,"ĠBrutal":6339,"Ġmaravilhoso":6340,"ladas":6341,"ĠTeria":6342,"obil":6343,"Ġsorri":6344,"eropor":6345,"Ġconhecer":6346,"ls":6347,"mÃ£":6348,"ualmente":6349,"Ġdecla":6350,"ecendo":6351,"ĠNadine":6352,"atia":6353,"Ġestariam":6354,"Ġquebrar":6355,"Ġproteg":6356,"ĠelÃ©trica":6357,"Ġbosque":6358,"ube":6359,"Ġnaqueles":6360,"ĠSer":6361,"ĠCan":6362,"ĠCap":6363,"ĠDesta":6364,"ĠThor":6365,"ĠTive":6366,"Ġendere":6367,"Ġrocha":6368,"Ġboneca":6369,"Ġexplodir":6370,"shire":6371,"well":6372,"Ġfrou":6373,"ridas":6374,"Ġsupos":6375,"ĠRua":6376,"ivemos":6377,"Ġextre":6378,"Ġlatas":6379,"ĠDevore":6380,"ĠQuatro":6381,"Ġabertura":6382,"Ġvazias":6383,"Ġtruque":6384,"ĠSheemie":6385,"Ġdever":6386,"Ġtum":6387,"encia":6388,"hados":6389,"ĠAlain":6390,"Ġaltos":6391,"Ġouve":6392,"Ġsaberia":6393,"tembro":6394,"Ġmoeda":6395,"ĠPensou":6396,"Ġcess":6397,"espero":6398,"ĠColo":6399,"ĠMai":6400,"Ġfogueira":6401,"Ġcarga":6402,"Ġconsciente":6403,"Ġaviso":6404,"ĠBoa":6405,"Ġtornava":6406,"ĠfÃ©rias":6407,"ĠSloat":6408,"ĠnÃ¡":6409,"rel":6410,"cker":6411,"Ġdormia":6412,"ĠBarry":6413,"Ġ50":6414,"ĠfurgÃ£o":6415,"uga":6416,"ĠHou":6417,"ĠuÃŃsque":6418,"ĠDuas":6419,"Ġcrime":6420,"rinha":6421,"ritÃ³rios":6422,"Ġestuda":6423,"und":6424,"char":6425,"inhar":6426,"ocais":6427,"Ġcolor":6428,"Ġlongos":6429,"Ġchocola":6430,"ĠEllen":6431,"ĠajudÃ¡":6432,"ĠtrÃªmula":6433,"Ġfocinho":6434,"resso":6435,"Ġgarras":6436,"ĠMcVries":6437,"Ġquebrou":6438,"Ġlimpa":6439,"GO":6440,"ep":6441,"lido":6442,"Ġades":6443,"Ġcalado":6444,"ĠDou":6445,"Ġperm":6446,"ĠFiz":6447,"Ġarte":6448,"Ġreplicou":6449,"Ġbaque":6450,"Ġcansada":6451,"ĠCoffe":6452,"Ġdecidir":6453,"Ġmexeu":6454,"Ġencosta":6455,"ĠEST":6456,"Ġtristeza":6457,"fle":6458,"vent":6459,"ines":6460,"Ġseda":6461,"Ġsede":6462,"ĠVia":6463,"ceram":6464,"Ġtentativa":6465,"Ġruins":6466,"Ġajude":6467,"Ġarrastando":6468,"Ġpression":6469,"ĠQualquer":6470,"lay":6471,"ĠRol":6472,"Ġprision":6473,"Ġprocesso":6474,"Ġraios":6475,"Ġchamam":6476,"Ġquartei":6477,"Ġtornara":6478,"Ġapertar":6479,"ĠabraÃ§ou":6480,"Ġnaturalmente":6481,"Ġcomprimidos":6482,"Ġpilhas":6483,"ĠnÃŃt":6484,"ĠPOR":6485,"Ġdelegacia":6486,"utch":6487,"ĠprÃ³prias":6488,"quila":6489,"Ġerguendo":6490,"Ġsujeira":6491,"ĠAu":6492,"Ġasfal":6493,"Ġchar":6494,"Ġquerido":6495,"Ġcontrolar":6496,"Ġlimpo":6497,"Ġtrabalhava":6498,"od":6499,"Ġ,":6500,"Ġfino":6501,"Ġcantando":6502,"Ġestadual":6503,"Ġlevemente":6504,"Ġcurso":6505,"Ġplata":6506,"Ġvege":6507,"Ġdoutor":6508,"ÃĩÃĥO":6509,"Ġservir":6510,"ĠDesculpe":6511,"Ġful":6512,"Ġestica":6513,"ussÃ£o":6514,"diram":6515,"ciou":6516,"Ġvergonha":6517,"Ġcard":6518,"Ġchegada":6519,"Ġcurioso":6520,"Ġtranspor":6521,"Ġrouca":6522,"Ġcompleta":6523,"ĠContinu":6524,"Ġresolver":6525,"Ġgatilho":6526,"Ġconvida":6527,"Ġescuras":6528,"Ġpedindo":6529,"Ġcaminhou":6530,"Ġamava":6531,"ĠHugh":6532,"ĠHampshire":6533,"Ġarbustos":6534,"Ġedu":6535,"lena":6536,"deiro":6537,"Ġcauda":6538,"ĠJordan":6539,"cete":6540,"Ġluvas":6541,"itante":6542,"Ġmostra":6543,"Seu":6544,"nia":6545,"deado":6546,"Ġcaut":6547,"Ġdisco":6548,"Ġperd":6549,"Ġdisseram":6550,"Ġachando":6551,"Ġacamp":6552,"Ġcontente":6553,"Ġtirado":6554,"Ġferram":6555,"Ġquadril":6556,"centos":6557,"win":6558,"ĠRec":6559,"ĠJu":6560,"ĠJen":6561,"look":6562,"Ġ199":6563,"Ġindica":6564,"Ġescondido":6565,"Ġdomingo":6566,"Ġsepul":6567,"Ġemaran":6568,"...\"":6569,"ĠLen":6570,"Ġvagamente":6571,"Ġquarta":6572,"ĠterrÃŃveis":6573,"Ġmantinha":6574,"ĠBuck":6575,"OM":6576,"Âº":6577,"Ġtime":6578,"Ġbai":6579,"ĠNesse":6580,"Ġenga":6581,"Ġlento":6582,"meu":6583,"Ġcastan":6584,"Ġquartos":6585,"Ġajudou":6586,"eixes":6587,"Ġperfeita":6588,"Per":6589,"Ġestradas":6590,"ĠNorris":6591,"ĠDis":6592,"Ġentendi":6593,"Ġconstante":6594,"Ġrespons":6595,"ĠNaquela":6596,"Ġprecisou":6597,"ĠBeaver":6598,"ĠJames":6599,"Ġvieram":6600,"Fran":6601,"wick":6602,"rendo":6603,"omi":6604,"Ġinstru":6605,"Ġbarco":6606,"Ġfizer":6607,"ĠFrannie":6608,"Ġempurrando":6609,"ight":6610,"ĠinglÃªs":6611,"ĠCoffey":6612,"bb":6613,"bas":6614,"ijo":6615,"ĠMelhor":6616,"cher":6617,"Ġgostou":6618,"ĠÃ³rb":6619,"ĠTomÃ¡s":6620,"Ġcient":6621,"ĠOverlook":6622,"eroporto":6623,"ii":6624,"Ġentus":6625,"Ġentraram":6626,"Ġprotes":6627,"ĠLester":6628,"Ġcalmo":6629,"Ġimaginou":6630,"Ã¡stica":6631,"ĠinformaÃ§Ã£o":6632,"Cont":6633,"ĠScott":6634,"ĠinvisÃŃvel":6635,"IM":6636,"Ġaulas":6637,"ĠcÃ³":6638,"Ġlite":6639,"ĠVOCÃĬ":6640,"Ġcapacidade":6641,"rinhos":6642,"ĠdoenÃ§a":6643,"ariamente":6644,"Ġlona":6645,"Ġlongas":6646,"vidos":6647,"ĠmilhÃµes":6648,"ologia":6649,"ĠpulmÃµes":6650,"Ġram":6651,"ingu":6652,"Ġgris":6653,"Ġpron":6654,"Ãµe":6655,"ĠWar":6656,"Ġescolha":6657,"ĠcaÃŃda":6658,"Ġpreocupe":6659,"ĠexceÃ§Ã£o":6660,"Ġgelado":6661,"bran":6662,"pcion":6663,"sey":6664,"Ġmortal":6665,"Ġ25":6666,"Ġdivertido":6667,"Ġviole":6668,"aa":6669,"Ġut":6670,"ĠaÃ§Ã£o":6671,"Ġcidades":6672,"Ġsequ":6673,"ĠsuicÃŃdio":6674,"Ġreci":6675,"Ġpersona":6676,"Ġanivers":6677,"Ġconseguira":6678,"ĠavanÃ§a":6679,"Ġpassavam":6680,"Ġtribun":6681,"Ġlareira":6682,"Ġescadas":6683,"ĠreaÃ§Ã£o":6684,"19":6685,"itava":6686,"Ġvin":6687,"ĠSpeedy":6688,"Ġsupon":6689,"obos":6690,"Ġpaci":6691,"Ġusa":6692,"Ġapertando":6693,"Ġtecido":6694,"Ã¡culo":6695,"Ġterem":6696,"Ġentrado":6697,"ĠforÃ§as":6698,"Ġmenin":6699,"Ġguardas":6700,"Ġchamavam":6701,"Ġmentir":6702,"Ġexplicou":6703,"ĠNenhuma":6704,"Ġdesculpas":6705,"ĠtÃºnel":6706,"ota":6707,"Ġsetenta":6708,"Ġestilha":6709,"ressa":6710,"Ġvoltava":6711,"Ġcomprida":6712,"Ġconser":6713,"Ġtornando":6714,"Ġescrita":6715,"ĠalcanÃ§":6716,"Ġdesconfia":6717,"Ġdesenvol":6718,"Ġinfantil":6719,"rens":6720,"Ġbron":6721,"ĠCad":6722,"ĠTro":6723,"Ġcontei":6724,"Ġmeninas":6725,"Ġcompart":6726,"Ġsalto":6727,"Ġbanda":6728,"ĠDesde":6729,"Ġensino":6730,"Ġacostum":6731,"Acho":6732,"Ġsetembro":6733,"Ġganhou":6734,"ĠmaÃ§o":6735,"uliar":6736,"ĠDeke":6737,"Ġcheira":6738,"ĠestarÃ¡":6739,"Ġbaru":6740,"Ġpenso":6741,"Ġcarregando":6742,"Ġaterror":6743,"Ġmotivos":6744,"Ġsentira":6745,"ĠÃ³dio":6746,"ĠcaÃŃa":6747,"ĠdanÃ§ar":6748,"osco":6749,"arda":6750,"rilha":6751,"Ġlit":6752,"ĠconheÃ§o":6753,"viamente":6754,"Ġespanto":6755,"ĠWard":6756,"Ġestalo":6757,"ett":6758,"Ġbebe":6759,"vembro":6760,"Ġaproximar":6761,"ĠHallorann":6762,"ĠlÃŃqu":6763,"duras":6764,"nd":6765,"Ġmila":6766,"taÃ§Ãµes":6767,"albert":6768,"ĠPes":6769,"hea":6770,"Ġtempera":6771,"Ġmorava":6772,"Ġdeixei":6773,"Ġrecla":6774,"Ġsilencios":6775,"ÃŃbrio":6776,"Ġcaminhada":6777,"Ġburro":6778,"ĠinÃºtil":6779,"Ġacon":6780,"Ġdemas":6781,"Ġqueira":6782,"Ġbuz":6783,"emo":6784,"mada":6785,"Ġvidas":6786,"Ġexato":6787,"ĠÃ³t":6788,"ĠCons":6789,"Ġcostum":6790,"ĠtÃ¡xi":6791,"ĠsÃºbito":6792,"emin":6793,"Ġgro":6794,"ĠDoc":6795,"quete":6796,"ĠBal":6797,"Ġluar":6798,"Ġmortas":6799,"neau":6800,"Ġtransformou":6801,"Ġsaiba":6802,"Ġalarme":6803,"Ġgigante":6804,"ULO":6805,"Ġtijolos":6806,"Gard":6807,"Lo":6808,"Ġsinais":6809,"ocia":6810,"tein":6811,"ĠcaÃ§a":6812,"Ġtermos":6813,"Ġcastelo":6814,"Ġsobrenat":6815,"inhou":6816,"Ġobra":6817,"ĠBeezer":6818,"Ġfebre":6819,"Ġencher":6820,"ĠconstruÃ§Ã£o":6821,"Ġmontanha":6822,"ĠComeÃ§ou":6823,"ejo":6824,"assa":6825,"Ġlinda":6826,"ĠgrÃ¡":6827,"ĠVa":6828,"itz":6829,"Ġverificar":6830,"ĠPortland":6831,"Ġgarotinho":6832,"Ġcobertas":6833,"ĠnÃ©voa":6834,"Ġpeculiar":6835,"ĠCallahan":6836,"Ġobede":6837,"Ġentusias":6838,".]":6839,"tendo":6840,"Ġquinta":6841,"orth":6842,"Ã©st":6843,"els":6844,"ĠTho":6845,"Ġand":6846,"ĠavÃ´":6847,"Ġtrecho":6848,"ĠNorma":6849,"aneamente":6850,"Ġcompanheiro":6851,"lem":6852,"Ã©gio":6853,"ocando":6854,"Ġperda":6855,"idge":6856,"Ġavent":6857,"Ġdesajei":6858,"Ġrefle":6859,"Ġaproximava":6860,"ĠJudy":6861,"any":6862,"Ġmapa":6863,"ĠCob":6864,"Ġhumanos":6865,"Ġarrancar":6866,"Ġsombria":6867,"ĠCurtis":6868,"Ġsilencioso":6869,"Ġimprov":6870,"Ġplataforma":6871,"tivas":6872,"Ġequ":6873,"Ġcoxas":6874,"Ġvivos":6875,"Ġconfer":6876,"Ġvisitar":6877,"ĠbalanÃ§o":6878,"Ġfuz":6879,"ĠMarsha":6880,"ĠdÃºvidas":6881,"Ġsombrio":6882,"Ġalcance":6883,"ĠGreen":6884,"Ġmundos":6885,"ÃĢs":6886,"Ch":6887,"ostas":6888,"Ġsejam":6889,"gulares":6890,"dire":6891,"Ġseguia":6892,"verm":6893,"Ãºst":6894,"Ġsoava":6895,"Ġuniver":6896,"Ġtransmit":6897,"ressal":6898,"ficina":6899,"ĠexistÃªncia":6900,"Ġhesitou":6901,"Ġtestemun":6902,"ĠespÃŃrito":6903,"Ġded":6904,"Ġfomos":6905,"ĠCorre":6906,"rance":6907,"Ġincom":6908,"Ġmesmos":6909,"Ġcamada":6910,"chando":6911,"dial":6912,"Ġcaneta":6913,"Ġprecisamos":6914,"Ġrelacion":6915,"ĠNossa":6916,"Ã¢nea":6917,"Sem":6918,"overn":6919,"Ġcai":6920,"ĠBou":6921,"Ġperdendo":6922,"Ġinespe":6923,"Ġlav":6924,"Ġtornado":6925,"Ġpalco":6926,"ificaÃ§Ã£o":6927,"Bar":6928,"tter":6929,"vÃŃamos":6930,"Ġpente":6931,"Ġpilo":6932,"Ġodor":6933,"estava":6934,"ĠSimples":6935,"nteve":6936,"Ġatual":6937,"mont":6938,"Ġpresos":6939,"Ġrefrige":6940,"Ġcontinuavam":6941,"Ġbanheira":6942,"ĠmÃ¡quinas":6943,"ansas":6944,"leiros":6945,"Ġnovembro":6946,"Ġcaver":6947,"Ġcaro":6948,"Ġacontecesse":6949,"Ġtentei":6950,"ÃŃtica":6951,"Ġconselho":6952,"Ġcicatriz":6953,"Ġpio":6954,"Ġesva":6955,"ĠVÃ£o":6956,"Ġsolta":6957,"Ġsorria":6958,"Ġproteger":6959,"Ġfotografia":6960,"Ġromance":6961,"Ġchocolate":6962,"ĠaniversÃ¡rio":6963,"OU":6964,"Ġcoron":6965,"ĠNan":6966,"ĠDol":6967,"ĠJared":6968,"izados":6969,"ĠlembranÃ§as":6970,"Ġtapa":6971,"Ġgraus":6972,"Ġenfi":6973,"Ġatravessa":6974,"ordin":6975,"ĠlÃ¢mpada":6976,"Ġconcluiu":6977,"ĠHolmes":6978,"Ġshow":6979,"zinhos":6980,"arra":6981,"Ġcobra":6982,"ĠSil":6983,"ecida":6984,"Ġmed":6985,"oma":6986,"Ġconst":6987,"ĠRon":6988,"Ġpaciente":6989,"Ġtrazia":6990,"Ġlargou":6991,"Ġvazios":6992,"Ġestreita":6993,"Ġcompreender":6994,"Ġvalor":6995,"Antes":6996,"vilha":6997,"ismÃ£":6998,"Ġenfia":6999,"Ġimagino":7000,"ĠmistÃ©rio":7001,"Ġgemeu":7002,"Ġvomitar":7003,"Susannah":7004,"gin":7005,"ĠHei":7006,"Ġtoma":7007,"Ġfresco":7008,"Ġfumar":7009,"ĠequilÃŃbrio":7010,"Ġtanque":7011,"ĠPearson":7012,"fera":7013,"uu":7014,"Ġreto":7015,"Ġtratava":7016,"ĠencontrÃ¡":7017,"adre":7018,"Ġinsp":7019,"Ġpalp":7020,"Ġtrein":7021,"Ġcobertura":7022,"Ġperturbado":7023,"Ġdescoberto":7024,"LE":7025,"iper":7026,"Ġtend":7027,"Ġtabu":7028,"Ġsalvar":7029,"ĠgarÃ§":7030,"ĠHarris":7031,"Ġpiores":7032,"Assim":7033,"cÃª":7034,"sy":7035,"Ã©tica":7036,"Ġparados":7037,"ĠAven":7038,"ĠSand":7039,"ĠNat":7040,"ĠCurt":7041,"Ġosso":7042,"ĠBas":7043,"ĠFec":7044,"Ġvoou":7045,"Ġtravesse":7046,"Ġdeixaram":7047,"Ġtranquil":7048,"Ġequipamento":7049,"Ġparceiro":7050,"gie":7051,"Ġef":7052,"Ġcomando":7053,"riet":7054,"ĠcondiÃ§Ãµes":7055,"Ġjogos":7056,"ĠvisÃŃvel":7057,"ĠFaÃ§a":7058,"Ġsussurro":7059,"ĠbarracÃ£o":7060,"Ġaluc":7061,"Ġbrinquedo":7062,"LÃ¡":7063,"ning":7064,"pia":7065,"vocÃª":7066,"nth":7067,"Ġcomeu":7068,"Ġcachorros":7069,"Ġdeslizou":7070,"Ġreverendo":7071,"Ġvenda":7072,"Ġvaso":7073,"ĠExa":7074,"ĠEast":7075,"Ġperigo":7076,"ĠEstrada":7077,"Ġrepara":7078,"Ġconsider":7079,"ostei":7080,"Ġcanal":7081,"ĠRobert":7082,"Ġcotovelo":7083,"Ġflutuando":7084,"Wireman":7085,"ientes":7086,"ute":7087,"ian":7088,"ily":7089,"ĠDr":7090,"ĠDez":7091,"Ġsobressal":7092,"Ġraramente":7093,"ÃŃnas":7094,"Ġviatura":7095,"Ġambas":7096,"Ġlaterais":7097,"Ġvenha":7098,"Car":7099,"Nada":7100,"Ġcic":7101,"ical":7102,"Ġoscil":7103,"ĠRat":7104,"Ġdose":7105,"aixon":7106,"ĠLew":7107,"Ġtremer":7108,"ĠquilÃ´metro":7109,"Ġgarrafas":7110,"ĠlÃ¢mina":7111,"Ġbarato":7112,"Ġdiscutir":7113,"GU":7114,"dinhas":7115,"rantes":7116,"Ġgirar":7117,"ĠDer":7118,"logo":7119,"Ġintro":7120,"mouth":7121,"ĠTinham":7122,"ĠprÃ³ximos":7123,"ĠAposto":7124,"ĠWalter":7125,"Ġabaixou":7126,"Ġajoelh":7127,"Ġgrotes":7128,"12":7129,"cn":7130,"gil":7131,"Ġcoelho":7132,"Ġpararam":7133,"ĠalÃ§a":7134,"Ġveria":7135,"Ġresponsa":7136,"ĠCarrie":7137,"feita":7138,"Ġagudo":7139,"Ġinstrum":7140,"PÃį":7141,"Ġdescont":7142,"ĠbotÃµes":7143,"Ġlevaria":7144,"Ġgalhos":7145,"Ġtransformar":7146,"ĠcrÃ©":7147,"Ġabafado":7148,"Ġturma":7149,"ĠDenis":7150,"Ġfirmeza":7151,"Ġpromessa":7152,"Che":7153,"Out":7154,"cimento":7155,"maÃ§Ã£o":7156,"Ġmudado":7157,"Ġradia":7158,"Ġapostar":7159,"ĠpropÃ³sito":7160,"Andy":7161,"Ġtribunal":7162,"ey":7163,"nal":7164,"Ġcen":7165,"Ġsexo":7166,"ilando":7167,"Ġlavar":7168,"ĠHoje":7169,"Ġderra":7170,"Ġdecidido":7171,"Ġdirigiu":7172,"ĠBaker":7173,"Ġabril":7174,"Ġlimite":7175,"Ġaposento":7176,"ĠÃ¢ngulo":7177,"ĠSobre":7178,"ĠhÃ¡bito":7179,"AA":7180,"ĠEr":7181,"imbo":7182,"ĠtrÃ¡":7183,"Ġpousou":7184,"Ġpratos":7185,"curo":7186,"lice":7187,"Ġplanos":7188,"Ġsincer":7189,"ĠdiscussÃ£o":7190,"ĠUnder":7191,"Ġencaix":7192,"Ġextraordin":7193,"ĠDarcy":7194,"Ġatordo":7195,"Ġinsetos":7196,"pida":7197,"reira":7198,"ĠesqueÃ§a":7199,"cante":7200,"lavan":7201,"Ġfeitas":7202,"Ġcinzento":7203,"ĠAmÃ©rica":7204,"Ġprocurou":7205,"Ġadmitir":7206,"Ġoriginal":7207,"Ġasfalto":7208,"Ġalter":7209,"Ġincon":7210,"...?":7211,"itenta":7212,"Ġdeixaria":7213,"ĠTerritÃ³rios":7214,"ĠApÃ³s":7215,"Ġjusto":7216,"BI":7217,"NC":7218,"alidade":7219,"Ġgera":7220,"ĠEssas":7221,"ĠcanÃ§Ã£o":7222,"minist":7223,"Ġenfiado":7224,"Ġpartiu":7225,"Ġcarregado":7226,"Ġquantos":7227,"Ġoh":7228,"ĠBus":7229,"aio":7230,"Ġmoveu":7231,"jantes":7232,"Ġclasse":7233,"Ġbalde":7234,"press":7235,"Ġdezesse":7236,"Ġprecisam":7237,"Ġclareza":7238,"Ġmister":7239,"Ġcruzou":7240,"Ġcheias":7241,"ĠfÃ³sforo":7242,"Ġodia":7243,"Ġvender":7244,"ĠRu":7245,"Ġhorre":7246,"ramas":7247,"Ġcampos":7248,"Ġtrilhos":7249,"Ġpular":7250,"Ġescrevendo":7251,"Ġrapidez":7252,"Ġabriram":7253,"Ġgemido":7254,"ĠTeddy":7255,"calho":7256,"ĠsanduÃŃche":7257,"ĠGerald":7258,"nis":7259,"Ġcil":7260,"lene":7261,"emor":7262,"ich":7263,"Ġlava":7264,"Ġsobretudo":7265,"Ġsenso":7266,"assado":7267,"Ġexcelente":7268,"Ġesquisito":7269,"Ġselvagem":7270,"ĠKennedy":7271,"ĠMarshall":7272,"Be":7273,"Me":7274,"rine":7275,"lheiro":7276,"ĠBud":7277,"Ġfonte":7278,"dira":7279,"Ġfechando":7280,"Ġassustada":7281,"Ġmaluca":7282,"ĠremÃ©dio":7283,"ĠconfianÃ§a":7284,"Ġalunos":7285,"Ġrevistas":7286,"agem":7287,"ciam":7288,"Ġescan":7289,"Ġnega":7290,"utua":7291,"Ġromp":7292,"Ġlevant":7293,"Ġlembrando":7294,"ĠruÃŃnas":7295,"Ġcaminhando":7296,"ĠApesar":7297,"ĠcorrespondÃªncia":7298,"Ġretrucou":7299,"ĠresponsÃ¡vel":7300,"Ġous":7301,"Ġfen":7302,"ÃŃram":7303,"Ġtranquila":7304,"icker":7305,"Ġtantas":7306,"ulada":7307,"Ġconcorda":7308,"Ġgancho":7309,"Ġpermanec":7310,"ĠmÃ¡gico":7311,"ĠlenÃ§ol":7312,"Ġestrondo":7313,"ĠMaitland":7314,"Con":7315,"TULO":7316,"ling":7317,"Ġdrin":7318,"ĠsÃŃ":7319,"Ġmira":7320,"Ġentor":7321,"ingando":7322,"ĠEdgar":7323,"Ġuso":7324,"Ġexistia":7325,"ĠdemÃ´nio":7326,"Ġempresa":7327,"Ġaonde":7328,"Ġfone":7329,"Ġgin":7330,"Ġreta":7331,"Ġparcial":7332,"Ãºde":7333,"ntados":7334,"Ġimpe":7335,"Ġirra":7336,"Ġsubst":7337,"tual":7338,"Ġtroca":7339,"Ġrecebe":7340,"Ġbrevemente":7341,"Ġpasseio":7342,"Ġsugest":7343,"Ġeletricidade":7344,"Ġindicador":7345,"Ġdesenhos":7346,"NÃ³s":7347,"Vol":7348,"Ġsint":7349,"inn":7350,"Ã©u":7351,"ĠAqueles":7352,"Ġcala":7353,"Ġregular":7354,"Ġprovas":7355,"ĠDevia":7356,"itantes":7357,"Ġentrei":7358,"Ġvibra":7359,"Ġsurdo":7360,"Ġarrancou":7361,"ĠBlack":7362,"Ġenchar":7363,"Ġobservava":7364,"Ġenxergar":7365,"Ġtemperatura":7366,"Ġodi":7367,"Ġfru":7368,"ÃŃcios":7369,"ĠDrew":7370,"Ġcong":7371,"ulha":7372,"ĠWe":7373,"Ġrolou":7374,"chonete":7375,"ĠSab":7376,"Ġferida":7377,"CAPÃį":7378,"ĠShooter":7379,"Ġabanou":7380,"CAPÃįTULO":7381,"Ġlidar":7382,"ĠTina":7383,"Ġinje":7384,"ĠDele":7385,"ĠDetta":7386,"Ġcasca":7387,"Ġtrav":7388,"Ġdiretor":7389,"Ġobjet":7390,"Ġreluz":7391,"ĠconclusÃ£o":7392,"mÃ£o":7393,"tion":7394,"Ġfemin":7395,"sol":7396,"ĠDÃ¡":7397,"Ġsorris":7398,"endell":7399,"Ġclareira":7400,"ĠocasiÃµes":7401,"ĠÃºmido":7402,"ĊĠ":7403,"Ġaeroporto":7404,"Ã©tico":7405,"Ġcontos":7406,"Ġabria":7407,"vers":7408,"ĠIÃ©":7409,"Ġimaginava":7410,"Ġcontagem":7411,"Ġmilho":7412,"Ġapagar":7413,"Ġfeia":7414,"Ã¢mpa":7415,"Ġoficial":7416,"Ġmicrofone":7417,"ĠGinelli":7418,"Holly":7419,"bon":7420,"Ġlocais":7421,"Ġretro":7422,"Ġinda":7423,"Ġinconsciente":7424,"Ġacos":7425,"ĠVan":7426,"not":7427,"Ġbebendo":7428,"Ġsupermer":7429,"Ġcircu":7430,"ĠirmÃ£os":7431,"ĠGuerra":7432,"Ġmacaco":7433,"Ġobjetos":7434,"ĠSimplesmente":7435,"Olhou":7436,"Ġmanteve":7437,"iriam":7438,"Ġalte":7439,"ĠME":7440,"caÃ§Ã£o":7441,"Ġfalado":7442,"Ġcortina":7443,"Ġlutar":7444,"Ġsotaque":7445,"Ġtentado":7446,"Ġadqui":7447,"ĠclarÃ£o":7448,"Ġtroux":7449,"Ġremex":7450,"mando":7451,"ynth":7452,"Ġtim":7453,"imamente":7454,"Ġembar":7455,"Ġalvo":7456,"Ġfico":7457,"Ġaven":7458,"Ġtrocar":7459,"Ġreflex":7460,"Ġfuncionando":7461,"Ġagarrar":7462,"Ġabrigo":7463,"Ġquestion":7464,"ĠPodemos":7465,"Ġsilenciosa":7466,"Ġinteressado":7467,"ĠCraig":7468,"ĠsatisfaÃ§Ã£o":7469,"ynthia":7470,"ag":7471,"tia":7472,"Ġdeso":7473,"leck":7474,"ĠLi":7475,"Ġbotou":7476,"ificou":7477,"Ġterminado":7478,"Ġbrincar":7479,"Ġrifle":7480,"ĠcÃŃrculos":7481,"Ġchoro":7482,"Ġtransformando":7483,"Ġuniverso":7484,"Ġconstran":7485,"ye":7486,"Ġfront":7487,"ĠNum":7488,"ĠBat":7489,"ĠGor":7490,"Ġreparou":7491,"Ġpuro":7492,"Ġbateria":7493,"Ġaperto":7494,"Ġarreb":7495,"Ġagarrando":7496,"ĠcombinaÃ§Ã£o":7497,"Ġorgulho":7498,"Ġpacote":7499,"45":7500,"Ġtol":7501,"Ġlic":7502,"Ġlindo":7503,"Ġporco":7504,"Ġpreen":7505,"Ġabsor":7506,"Ġpesar":7507,"ĠKansas":7508,"Ġtrancada":7509,"Ġfare":7510,"Ġqueimado":7511,"ĠAchava":7512,"ĠrefeiÃ§Ã£o":7513,"ot":7514,"Ġdavam":7515,"ĠNas":7516,"ĠOllie":7517,"ĠDin":7518,"Ġdesespero":7519,"ĠFic":7520,"ĠficÃ§Ã£o":7521,"Ġluta":7522,"Ġvoo":7523,"ĠPortanto":7524,"Ã¢ns":7525,"minado":7526,"Ġprofiss":7527,"ĠRainbird":7528,"ĠextensÃ£o":7529,"ĠlÃ¢mpadas":7530,"Ġpsic":7531,"Ġconversando":7532,"Ġencheu":7533,"Ġacampamento":7534,"daria":7535,"Ġdona":7536,"Ġparava":7537,"Ġlido":7538,"ĠShar":7539,"ĠBÃŃb":7540,"itÃ¡":7541,"Ġparecida":7542,"inheiros":7543,"Ġchamando":7544,"ĠPegou":7545,"Ġnormalmente":7546,"Ġquebrada":7547,"Ã³rnia":7548,"Ġassistir":7549,"Ġsacudindo":7550,"Claro":7551,"Gardener":7552,"parec":7553,"Ġpei":7554,"ĠtÃºm":7555,"angu":7556,"ĠTex":7557,"Ġapaixon":7558,"estra":7559,"ifÃ³rnia":7560,"Ġvirada":7561,"issem":7562,"brisa":7563,"Ã³gico":7564,"ĠDessa":7565,"ĠTÃ¡":7566,"Ġescul":7567,"Ġrespira":7568,"Ġclique":7569,"onete":7570,"Ġflutua":7571,"Ġconjunto":7572,"Ã¢nsito":7573,"Char":7574,"fias":7575,"ipo":7576,"Ġdeitada":7577,"quen":7578,"erson":7579,"ulÃ¢ncia":7580,"Ġterrivelmente":7581,"itÃª":7582,"Ġcontado":7583,"ches":7584,"udia":7585,"Ġportanto":7586,"ĠCoisas":7587,"Ġapodre":7588,"ĠtrovÃ£o":7589,"venen":7590,"ĠReg":7591,"Ġclaridade":7592,"ĠpÃ¡lida":7593,"Ġcolegas":7594,"Ġmergulha":7595,"Ġtermina":7596,"Ġescorria":7597,"ĠMenos":7598,"Ġapress":7599,"Ġesperto":7600,"Ġcasal":7601,"Ġvoar":7602,"ĠusÃ¡":7603,"Ġcapazes":7604,"Ġartigo":7605,"Ġirritado":7606,"Ġpesadelos":7607,"dindo":7608,"sent":7609,"Ġasp":7610,"Ġaltas":7611,"ĠPr":7612,"Ġterras":7613,"taruga":7614,"ĠavanÃ§ou":7615,"visor":7616,"izante":7617,"Ġinclinado":7618,"ĠabraÃ§o":7619,"Ġdigitais":7620,"ĠCujo":7621,"lito":7622,"Ġcura":7623,"Ġdevido":7624,"ĠvÃ´m":7625,"embora":7626,"ĠMundo":7627,"Ġmeter":7628,"veram":7629,"Ġdeserta":7630,"Ġsaud":7631,"Ġenver":7632,"Ġatre":7633,"ĠRam":7634,"ĠFor":7635,"Ġracional":7636,"Ġnevo":7637,"entais":7638,"Ġsorridente":7639,"ĠNaomi":7640,"Ġfuga":7641,"Ġagir":7642,"Ġdesconf":7643,"Ġanimado":7644,"ENTE":7645,"Ġriacho":7646,"Re":7647,"Ġ0":7648,"Ġdece":7649,"Ġoitenta":7650,"anhado":7651,"Ġparando":7652,"Ġrede":7653,"Ġdisto":7654,"diÃ§o":7655,"Ġlamb":7656,"toso":7657,"Ġescutar":7658,"Ġchuveiro":7659,"ĠVern":7660,"ĠemergÃªncia":7661,"ĠtÃ©cn":7662,"Ġcristal":7663,"Ġsobrenatural":7664,"cter":7665,"enÃ§o":7666,"Ġanuncia":7667,"Ġtranquilo":7668,"ĠOuvi":7669,"Ġcentenas":7670,"Ġpreocupada":7671,"Ġjato":7672,"ĠdÃ³lar":7673,"Ġfantasia":7674,"tiÃ§a":7675,"Ġamedro":7676,"Ġcalcanhar":7677,"bres":7678,"fos":7679,"giu":7680,"uas":7681,"Ġcris":7682,"Ġquentes":7683,"Ġlobo":7684,"ĠtrÃ¢nsito":7685,"Ġracha":7686,"Ġintenso":7687,"Ġsens":7688,"Ġcorreio":7689,"Ġcoluna":7690,"Ġbande":7691,"Ġdeslig":7692,"ĠalcanÃ§ar":7693,"Estou":7694,"hill":7695,"pel":7696,"vÃ³":7697,"Ġdra":7698,"inente":7699,"ĠOde":7700,"ĠVie":7701,"Ġcort":7702,"Ġcarn":7703,"Ġsabor":7704,"Ġrota":7705,"Ġinterrup":7706,"Ġsusto":7707,"Ġzan":7708,"ĠLemb":7709,"ĠVictor":7710,"Ġtocava":7711,"Ġacostamento":7712,"Ġfeio":7713,"anÃ§as":7714,"Ġess":7715,"Ġino":7716,"Ġacar":7717,"Ġmora":7718,"Ġsoldado":7719,"Ġcalm":7720,"deiras":7721,"ĠcaixÃ£o":7722,"Ġretribu":7723,"Ġnervosa":7724,"ĠAmeric":7725,"Ġurso":7726,"Ġofereceu":7727,"Ġdisposto":7728,"Ġenxu":7729,"Ġcrescer":7730,"Ġdescarga":7731,"Ġrevelando":7732,"Ġbabaca":7733,"ĠendereÃ§o":7734,"Ġsupermercado":7735,"pra":7736,"xou":7737,"Ġmeias":7738,"iche":7739,"ĠAmy":7740,"inah":7741,"Ġcomprou":7742,"Ġtriun":7743,"Ġrelig":7744,"Ġinfec":7745,"Ġespant":7746,"Ġrecuar":7747,"Ġonze":7748,"Ġinvestiga":7749,"ĠmÃ¡gica":7750,"Danny":7751,"ĠcrÃ©dito":7752,"Ġcra":7753,"esas":7754,"Ġfla":7755,"entamente":7756,"Ã§aram":7757,"icando":7758,"ĠGal":7759,"Ġrom":7760,"Ġpisca":7761,"Ġplacas":7762,"Ġmovim":7763,"Ġvigor":7764,"Ġprosseguiu":7765,"ĠpalhaÃ§o":7766,"ÃŃfico":7767,"ĠcrepÃºsculo":7768,"Ġbiscoitos":7769,"cro":7770,"up":7771,"vidade":7772,"Ġpus":7773,"ingar":7774,"Ġmaio":7775,"Ġmascul":7776,"Ġpodre":7777,"Ġcareca":7778,"ĠDeep":7779,"Ġchame":7780,"Ġpense":7781,"ĠalgodÃ£o":7782,"Ġpareceram":7783,"ĠRoad":7784,"ĠChev":7785,"Ġencostou":7786,"ĠCalifÃ³rnia":7787,"Ġconsiderando":7788,"Ġrecolh":7789,"Ġformando":7790,"Ġpegadas":7791,"Ġenterrado":7792,"rguer":7793,"ĠsÃºbita":7794,"Ġadequ":7795,"SO":7796,"ilas":7797,"Ġrecon":7798,"ĠPla":7799,"Ġanal":7800,"ĠvovÃ´":7801,"Ġduzentos":7802,"Ġsoco":7803,"ĠAss":7804,"Ġapertado":7805,"Ġgoverno":7806,"Ġestreito":7807,"Ġpunhado":7808,"Ġdegrau":7809,"Ġacertou":7810,"ĠSally":7811,"Ġadolescente":7812,"Louis":7813,"Ġcofre":7814,"ĠSU":7815,"Ġincha":7816,"Ġacender":7817,"urch":7818,"Ġtoalha":7819,"Ġvisitas":7820,"Ġestabe":7821,"ĠsaÃŃsse":7822,"Ġdesligar":7823,"Ġjazia":7824,"Ġafastando":7825,"Ġobservar":7826,"Ġconvencer":7827,"ĠKee":7828,"ĠHoward":7829,"ĠBradley":7830,"ĠGaroto":7831,"Ġdemasiado":7832,"gs":7833,"mm":7834,"rus":7835,"ys":7836,"ĠEvie":7837,"Ġperple":7838,"Ãºrguer":7839,"Ġfren":7840,"Ġvoltara":7841,"entados":7842,"Ġafun":7843,"Ġgrade":7844,"ĠToda":7845,"Ġbaixos":7846,"Ġmentindo":7847,"Ġgotas":7848,"Ġlimpou":7849,"umont":7850,"Ġocupado":7851,"Ġdeterm":7852,"Ġfacilmente":7853,"tida":7854,"ĠnÃ³":7855,"rit":7856,"Ġsacos":7857,"Ġacus":7858,"ĠRoss":7859,"riado":7860,"Ġassent":7861,"Ġcascalho":7862,"ĠpraÃ§a":7863,"Ġinterva":7864,"ĠchamÃ¡":7865,"Ġsaltar":7866,"Ġbrilhava":7867,"ĠMcGovern":7868,"Ġretrato":7869,"17":7870,"IV":7871,"inoso":7872,"Ġpromo":7873,"ĠIrm":7874,"Ġrespostas":7875,"Ġajus":7876,"Ġaprovei":7877,"ĠOuviu":7878,"bril":7879,"Ġpiquen":7880,"Ġprivada":7881,"Ġferramentas":7882,"Ġk":7883,"ĠfrÃ¡":7884,"Ã³rida":7885,"ĠPRO":7886,"beÃ§a":7887,"Ġarrem":7888,"Ġcortou":7889,"ĠComp":7890,"Ġobviamente":7891,"Ġintermin":7892,"Ġconsiga":7893,"Ġpulsa":7894,"tÃ¡ria":7895,"Ġquadris":7896,"Ġvidra":7897,"onato":7898,"ĠcomeÃ§avam":7899,"Ġhipnot":7900,"Nenh":7901,"bis":7902,"sÃµes":7903,"Ġoc":7904,"Ġfis":7905,"Ġesbo":7906,"lantes":7907,"Ġnavio":7908,"ĠTri":7909,"Ġmuro":7910,"Ġmesas":7911,"Ġlap":7912,"Ġrespirando":7913,"Ġmanif":7914,"Ġjuntas":7915,"ĠAndre":7916,"feitos":7917,"Ġarmaz":7918,"Ġcaval":7919,"Ġnotici":7920,"Ġcruzamento":7921,"Ġ40":7922,"Ġpermaneceu":7923,"Ġdourado":7924,"Ġabandonado":7925,"mond":7926,"Ġcambaleou":7927,"ĠFlÃ³rida":7928,"Ġpopular":7929,"Ġbruscamente":7930,"Ġempoeira":7931,"Tinha":7932,"ure":7933,"quinha":7934,"tora":7935,"Ġentrava":7936,"ĠÃłquele":7937,"Ġespuma":7938,"naÃ§Ã£o":7939,"net":7940,"tamentos":7941,"Ġlarga":7942,"ĠpÃ¡lpe":7943,"Ġpreparando":7944,"Ġgrosso":7945,"EstÃ¡":7946,"Ġbatalha":7947,"ĠTeve":7948,"ĠprÃ©dios":7949,"ĠvÃ´mito":7950,"lock":7951,"Ġparalis":7952,"ĠMil":7953,"Ġsapa":7954,"ĠBran":7955,"ramento":7956,"Ġcobertor":7957,"Ġfunciona":7958,"Ġexistem":7959,"Ġsingular":7960,"rgueu":7961,"Ġdesviou":7962,"Ġsangrando":7963,"bineau":7964,"Ġordens":7965,"Elizabeth":7966,"ĠlÃŃquido":7967,"Ġembr":7968,"Ġconforme":7969,"Ġengas":7970,"idando":7971,"endida":7972,"iff":7973,"Ġconsta":7974,"Ġfechadas":7975,"ĠtalismÃ£":7976,"Ġfolhe":7977,"ĠmacacÃ£o":7978,"Ġintegra":7979,"Ġaroma":7980,"ĠsubstÃ¢ncia":7981,"Ben":7982,"Ġmesinha":7983,"ĠWendell":7984,"Ġtomada":7985,"Ġcaracter":7986,"ibil":7987,"Ġjuntar":7988,"Ġgrau":7989,"Ġempurrar":7990,"ĠambulÃ¢ncia":7991,"Ġbicho":7992,"Ġfluxo":7993,"Ġpassageiro":7994,"Ġetern":7995,"ĠBÃŃblia":7996,"bel":7997,"Ġesf":7998,"ĠmatÃ©":7999,"ĠBrig":8000,"Ġespiando":8001,"Ġparecesse":8002,"ĠUM":8003,"Ġrolando":8004,"ĠKy":8005,"Ġcabec":8006,"Ġfechadura":8007,"ĠCinco":8008,"Ġrecuperar":8009,"Ġnoventa":8010,"Ġdescanso":8011,"cÃ³p":8012,"Ġnoj":8013,"Ġnaquilo":8014,"cipe":8015,"Ġentendendo":8016,"Ġ(\"":8017,"Ġsoltando":8018,"Ġvirei":8019,"Ġvaca":8020,"Ġjuntou":8021,"ĠRich":8022,"fego":8023,"Ġcolocando":8024,"Ġzom":8025,"Ġfracas":8026,"Ġjaz":8027,"Ġapagou":8028,"ĠObrigada":8029,"Ġafirmou":8030,"Ã¢neo":8031,"gios":8032,"grÃ¡":8033,"lm":8034,"pit":8035,"Ġdente":8036,"Ġsecun":8037,"roto":8038,"ĠJalbert":8039,"Ġsemelh":8040,"ceis":8041,"anderia":8042,"Ġacabaria":8043,"ĠrelÃ¢mpa":8044,"20":8045,"ward":8046,"Ġpendia":8047,"Ġlun":8048,"ĠPassou":8049,"ĠRhea":8050,"Ġsopa":8051,"Ġlevaram":8052,"Ġtentasse":8053,"Ġusavam":8054,"Ġcidadezinha":8055,"Ġimbec":8056,"Ġgalho":8057,"Ġassustador":8058,"Ġcircular":8059,"Ġexaminou":8060,"Ġintensidade":8061,"Ġofegante":8062,"comp":8063,"Ġdila":8064,"ĠTal":8065,"Ġpaisa":8066,"Ġentrela":8067,"Ġlojas":8068,"Ġsalvo":8069,"Ġcaminhonete":8070,"Ġferido":8071,"Ġsuficientemente":8072,"Ġaparece":8073,"RAN":8074,"Ġpreparado":8075,"Ġ60":8076,"ĠVeja":8077,"Ġtexto":8078,"untos":8079,"tamos":8080,"Ġestud":8081,"ĠMaria":8082,"Ġdistantes":8083,"Ġperc":8084,"Ġatmos":8085,"Ġpronta":8086,"ĠFe":8087,"inadas":8088,"ĠKi":8089,"posiÃ§Ã£o":8090,"Ġvoltaria":8091,"ĠUnivers":8092,"ilead":8093,"Ġfranziu":8094,"ĠJeanette":8095,"Ġvendedor":8096,"Ġtravesseiro":8097,"Ġavenida":8098,"humo":8099,"ruma":8100,"we":8101,"Ġet":8102,"Ġlia":8103,"ĠAud":8104,"Ġenvenen":8105,"Ġleito":8106,"Ġescal":8107,"Ġouviram":8108,"ĠJackie":8109,"Ġpiscou":8110,"Alan":8111,"Ġreconheceu":8112,"ĠBeaumont":8113,"Ġdeitar":8114,"inalmente":8115,"Ġvamp":8116,"Ã©ter":8117,"ĠSul":8118,"Ġcata":8119,"ĠCH":8120,"pot":8121,"cidas":8122,"Ġprovid":8123,"ĠGilead":8124,"Ġmoder":8125,"Ġduvida":8126,"lett":8127,"Ġmolhado":8128,"Ġcobrir":8129,"Ġespalhando":8130,"Ġacenou":8131,"ĠÃŃnt":8132,"ĠTexas":8133,"Ġnevoeiro":8134,"quem":8135,"Ġtou":8136,"ori":8137,"Ã©d":8138,"ĠAba":8139,"ĠDÃª":8140,"Ġrock":8141,"Ġsonha":8142,"Ġaudi":8143,"Ġaliviado":8144,"Ġluminos":8145,"ak":8146,"gro":8147,"kie":8148,"deo":8149,"ĠporÃ§Ã£o":8150,"Ġconden":8151,"Ġinoc":8152,"ĠabenÃ§o":8153,"ĠOswald":8154,"Ġcolinas":8155,"Ġacorda":8156,"Ġpuxa":8157,"Ãªmio":8158,"Ġnegras":8159,"Ġorden":8160,"Ġcachimbo":8161,"Ġmembros":8162,"Ġconvencido":8163,"ANDO":8164,"Ġcrescendo":8165,"Ġvitrine":8166,"Ġsinistro":8167,"ĠPouco":8168,"Gar":8169,"Ġbest":8170,"ĠEll":8171,"ĠSA":8172,"garia":8173,"Ġproib":8174,"ĠchalÃ©":8175,"terr":8176,"Ġpresas":8177,"Ġconhecida":8178,"ĠEnf":8179,"Ġfelizes":8180,"ĠVerm":8181,"Ġsurpreendeu":8182,"Ġgravata":8183,"ĠEspere":8184,"ĠVince":8185,"Ġideias":8186,"ĠcardÃŃaco":8187,"ĠCadil":8188,"14":8189,"ĠOlhei":8190,"Ġparda":8191,"Ġparentes":8192,"gala":8193,"utor":8194,"Ġpressa":8195,"ÃŃncipe":8196,"licar":8197,"ĠGary":8198,"ADA":8199,"adrez":8200,"Ġcoin":8201,"omin":8202,"Ġtrajeto":8203,"bate":8204,"Ġtalento":8205,"Ġpresentes":8206,"ĠAnnie":8207,"ĠBev":8208,"ĠSub":8209,"Ġaguentar":8210,"Ġfebril":8211,"ĠestÃºpido":8212,"Ġbrinquedos":8213,"Ġuniversidade":8214,"ĠDallas":8215,"ĠCadillac":8216,"Cap":8217,"can":8218,"Ġbico":8219,"ĠApo":8220,"ĠAcontec":8221,"Ġpego":8222,"Ġpref":8223,"izando":8224,"Ġseguiram":8225,"Ġfort":8226,"Ãºrio":8227,"Ġmanga":8228,"ĠrecepÃ§Ã£o":8229,"Ġensangu":8230,"Ġcartaz":8231,"Ġembara":8232,"Ġpintura":8233,"Todos":8234,"Ġdemorar":8235,"ĠCarolyn":8236,"Ġbronze":8237,"VA":8238,"fando":8239,"sando":8240,"Ġdepartamento":8241,"Ġtosse":8242,"Ġbizar":8243,"Ġsuc":8244,"ĠDire":8245,"ĠGil":8246,"Ġmorce":8247,"Ġconseguem":8248,"Ġcabana":8249,"ĠAnne":8250,"Ġlouro":8251,"cren":8252,"Ġfantasmag":8253,"ĠRoberta":8254,"angborn":8255,"ĠsecretÃ¡ria":8256,"Ġestremeceu":8257,"ĠtrÃ¡fego":8258,"__":8259,"pl":8260,"Ġaura":8261,"issa":8262,"Ġfume":8263,"uscri":8264,"Ġosci":8265,"ĠTentou":8266,"Ġdesmor":8267,"Ġmenores":8268,"Ã¡sio":8269,"ĠEsses":8270,"gador":8271,"Ġempol":8272,"ĠanotaÃ§Ãµes":8273,"ĠsÃ©ria":8274,"Ġveneno":8275,"ADE":8276,"Ġsugeriu":8277,"Ġesgu":8278,"leto":8279,"illson":8280,"Ġcriado":8281,"Ġbancada":8282,"Ġerguia":8283,"Ġdesliga":8284,"ĠExce":8285,"Ġbeirada":8286,"Ġdesconfor":8287,"ĠPrecisa":8288,"ĠlenÃ§Ã³is":8289,"Ge":8290,"neu":8291,"inz":8292,"ĠAnt":8293,"Ġestridente":8294,"ĠClar":8295,"ĠCynthia":8296,"ĠBaix":8297,"ĠVelho":8298,"Ġolhe":8299,"Ġapoiou":8300,"ĠsaÃŃam":8301,"ĠcolocÃ¡":8302,"Ġguardou":8303,"Ġuiv":8304,"ĠHalleck":8305,"Ġcinzentos":8306,"Ġviera":8307,"ĠHerb":8308,"Ġpondo":8309,"Ġagonia":8310,"ĠGostaria":8311,"ĠÃ³tima":8312,"bÃ¡":8313,"rica":8314,"Ġpir":8315,"Ġcimento":8316,"Ã©dios":8317,"ĠDinah":8318,"Ġdestro":8319,"Ġfatos":8320,"ĠButch":8321,"ĠRom":8322,"Ġcamara":8323,"Ġjoga":8324,"Ġergue":8325,"ĠAnd":8326,"Ġtransm":8327,"ĠBabineau":8328,"Ġcomercial":8329,"Ġautom":8330,"Ġpreparar":8331,"Ġrecordar":8332,"ĠMerce":8333,"Ġmachucar":8334,"Ġcomuns":8335,"Ġparticularmente":8336,"ĠPolÃŃcia":8337,"ĠAliÃ¡s":8338,"Ġaprender":8339,"David":8340,"ĠStephen":8341,"ĠÃ³rbitas":8342,"13":8343,"LA":8344,"Pen":8345,"Stu":8346,"vemos":8347,"Ġcoc":8348,"roix":8349,"ÃŃam":8350,"Ġdesvia":8351,"Ġencren":8352,"ĠVirou":8353,"Ġespet":8354,"ĠDelac":8355,"ntadas":8356,"ĠsÃ³tÃ£o":8357,"Ġposte":8358,"Ġvisual":8359,"Ġchamin":8360,"Ġacham":8361,"Ġgrades":8362,"Ġadminist":8363,"Ġidiotas":8364,"Ġcriar":8365,"Ġexterior":8366,"Ġenfrentar":8367,"Ġbarulh":8368,"Ġparcialmente":8369,"Ġcortinas":8370,"Ġcalmamente":8371,"Ar":8372,"Vou":8373,"ostos":8374,"seu":8375,"ĠEU":8376,"gura":8377,"Ġmatando":8378,"Ġmagia":8379,"Ġsentimentos":8380,"Ġchin":8381,"ister":8382,"ĠKo":8383,"Ġbancos":8384,"Ġtornaram":8385,"thy":8386,"ĠChurch":8387,"Ġcarreira":8388,"Ġgrupos":8389,"Ġdirigia":8390,"Ġcompreendeu":8391,"Ġrisadinha":8392,"Ġequilib":8393,"Ġpercebido":8394,"Ġavalia":8395,"ĠridÃŃculo":8396,"Ġfamoso":8397,"ĠpossuÃŃa":8398,"ĠDeepneau":8399,"ĠDelacroix":8400,"Pro":8401,"Ra":8402,"wendy":8403,"Ġdeitou":8404,"Ġcoxa":8405,"Ġflex":8406,"ĠAz":8407,"ĠPass":8408,"Ġdescu":8409,"Ġene":8410,"irado":8411,"Ġcontinha":8412,"ĠanÃºn":8413,"Ġabor":8414,"Ġcheque":8415,"berto":8416,"ĠPeyna":8417,"ÃŃtico":8418,"Ġampl":8419,"Ġfotografias":8420,"Ġapavorado":8421,"Ġcaderno":8422,"ĠvegetaÃ§Ã£o":8423,"VE":8424,"Ġcig":8425,"dom":8426,"estas":8427,"Ã§oso":8428,"ÃŃfica":8429,"Ġsuco":8430,"Ġparei":8431,"ividade":8432,"Ġespor":8433,"ĠpaciÃªncia":8434,"Ġrepro":8435,"ĠmilhÃ£o":8436,"ĠbebÃªs":8437,"Ã³rico":8438,"Ġansioso":8439,"ĠOutra":8440,"ĠOutro":8441,"ĠfÃŃsica":8442,"lim":8443,"reas":8444,"ĠdoÃŃa":8445,"teis":8446,"ecta":8447,"ĠsuÃ©ter":8448,"ĠPam":8449,"Ġserp":8450,"duÃ§Ã£o":8451,"ĠDay":8452,"Ġxadrez":8453,"Ġengoliu":8454,"Ġsargento":8455,"ĠvÃŃtima":8456,"Minha":8457,"ĠlÃº":8458,"Ġacum":8459,"Ġmesmas":8460,"igamente":8461,"culas":8462,"entavam":8463,"ĠÃ¡guas":8464,"ĠcompreensÃ£o":8465,"ĠRobin":8466,"Ġinclinada":8467,"Ġmunicipal":8468,"Ġgarantir":8469,"Ġbengala":8470,"Ġrampa":8471,"Ġlavanderia":8472,"Ġatmosfera":8473,"Clay":8474,"Fa":8475,"ki":8476,"ĠÃª":8477,"Ġpneu":8478,"Ġshor":8479,"Ġviam":8480,"set":8481,"ĠDem":8482,"Ġdisfar":8483,"Ġfazende":8484,"Ġassal":8485,"Ġ13":8486,"Ġlevara":8487,"Ġbebeu":8488,"ĠHora":8489,"ĠChip":8490,"Ġcarregar":8491,"ĠSamu":8492,"Ġgolfe":8493,"Ġblocos":8494,"Ġsegredos":8495,"Ġfumando":8496,"ĠSonny":8497,"Ġquieto":8498,"Ġreflexo":8499,"',":8500,"Ġpip":8501,"iana":8502,"anidade":8503,"dalhÃ£o":8504,"ÃŃper":8505,"ĠPangborn":8506,"Ġperp":8507,"urada":8508,"Ġhabil":8509,"Ġpregui":8510,"Ġcomprado":8511,"Ġfalso":8512,"ĠWes":8513,"Ġincrivelmente":8514,"ĠpÃ¡ra":8515,"ĠLata":8516,"ĠsupÃ´s":8517,"Ġdesconhecido":8518,"ĠWhite":8519,"ĠlicenÃ§a":8520,"Ġcabeceira":8521,"CapÃŃtulo":8522,"UM":8523,"gasse":8524,"Ġaram":8525,"Ġfr":8526,"romp":8527,"Ġnotar":8528,"Ġenla":8529,"Ġentranhas":8530,"Ġanel":8531,"Ġcortes":8532,"Ġintu":8533,"ĠIm":8534,"ĠcomeÃ§asse":8535,"bral":8536,"Ġantiqu":8537,"ĠpÃ´ster":8538,"ĠveÃŃculos":8539,"Ġaux":8540,"Ġprovoca":8541,"Ġdiscurso":8542,"Ġimportantes":8543,"Ġpermanecia":8544,"Ġoferecer":8545,"ĠelÃ©trico":8546,"Geor":8547,"?)":8548,"nÃ³":8549,"aste":8550,"eck":8551,"Ġestendia":8552,"Ġincid":8553,"digo":8554,"Ġpresta":8555,"gail":8556,"ĠHÃ£":8557,"Ġidos":8558,"ruz":8559,"Ġmandado":8560,"Ġdores":8561,"talvez":8562,"ĠDavis":8563,"licos":8564,"ordred":8565,"Ġcinzenta":8566,"Ġondu":8567,"ĠengraÃ§ada":8568,"Ġvivia":8569,"Ġconsequ":8570,"Hodges":8571,"ĠCullum":8572,"ĠÃ³bvio":8573,"Ġmilagre":8574,"tua":8575,"Ġoce":8576,"ĠtÃŃtulo":8577,"rene":8578,"embro":8579,"ĠPal":8580,"ĠPri":8581,"ĠMiss":8582,"Ġperigos":8583,"ĠRE":8584,"Ġpadre":8585,"Ġdiabos":8586,"Ġconfusa":8587,"Ġpartido":8588,"Ġchegamos":8589,"ĠfÃ¡brica":8590,"Ġcobria":8591,"Ġencur":8592,"ĠStillson":8593,"ĠemoÃ§Ã£o":8594,"Ġexerc":8595,"ĠgÃªmeos":8596,"CO":8597,"rulha":8598,"Ġmago":8599,"icaÃ§Ã£o":8600,"Ġanc":8601,"Ġcortado":8602,"Ġencontrara":8603,"ĠpÃ©ss":8604,"ĠRoy":8605,"Ġexistir":8606,"Ġmolho":8607,"Ġocorre":8608,"Ġigualmente":8609,"Ġdesmaiar":8610,"dezas":8611,"Ġdescansar":8612,"Ġbandeja":8613,"ĠtensÃ£o":8614,"ory":8615,"ĠSom":8616,"Ġestendendo":8617,"Ġtrata":8618,"ĠWy":8619,"Ġtorres":8620,"Ġviesse":8621,"Ġaconteceria":8622,"Ġarmad":8623,"nerman":8624,"ĠCentral":8625,"Ġmaravilhosa":8626,"Ġvulto":8627,"Ġperdera":8628,"ĠLewis":8629,"ĠsemelhanÃ§a":8630,"ĠAbagail":8631,"guma":8632,"Ġcovar":8633,"deus":8634,"ĠlÃ³gica":8635,"Ġporcaria":8636,"Ġestru":8637,"ĠCA":8638,"Ġconosco":8639,"Ġinicial":8640,"ĠRidge":8641,"Ġletra":8642,"ĠFA":8643,"ĠLiv":8644,"Ġargum":8645,"Ġabat":8646,"Ġabrup":8647,"Ġmoradores":8648,"ntavam":8649,"Ġintensa":8650,"Ġclube":8651,"ĠKat":8652,"Ġcorredores":8653,"Ġrecente":8654,"ĠhorÃ¡rio":8655,"ĠautomÃ¡tica":8656,"Ġpeixes":8657,"umbo":8658,"top":8659,"ĠBlu":8660,"itei":8661,"Ġpropor":8662,"ĠLane":8663,"Ġseres":8664,"ĠAllen":8665,"Ġqualidade":8666,"iosos":8667,"ĠavÃ³":8668,"ĠavanÃ§ar":8669,"ĠpercepÃ§Ã£o":8670,"ipp":8671,"Ġsujeitos":8672,"Ġescapou":8673,"tsfield":8674,"Ġdespensa":8675,"ĠremÃ©dios":8676,"Ġleitura":8677,"ĠAngel":8678,"Ġresponsabilidade":8679,"Sam":8680,"Ġere":8681,"Ġcompet":8682,"ĠPasse":8683,"vete":8684,"ĠBel":8685,"Ġprecip":8686,"ntagem":8687,"Ġpouca":8688,"ĠirÃ¡":8689,"Ã³spe":8690,"Ġlevantei":8691,"Ġraposa":8692,"Ġinstant":8693,"Ġcruzadas":8694,"ĠLaurel":8695,"Ġcoincid":8696,"GA":8697,"ismos":8698,"Ġvelh":8699,"Ġbel":8700,"ĠAL":8701,"ild":8702,"ĠpoÃ§a":8703,"Ġaposto":8704,"Ġcampa":8705,"Ġchef":8706,"Ġmanuscri":8707,"Ã¢nica":8708,"Ġjunt":8709,"Ġfizemos":8710,"ĠMax":8711,"Ġempilha":8712,"Ġzona":8713,"Ġmantendo":8714,"ĠDES":8715,"Naquela":8716,"Ġaposentado":8717,"Ġcobriu":8718,"Ġquantas":8719,"Ġtrazido":8720,"Ġrefletiu":8721,"ĠexplicaÃ§Ã£o":8722,"ĠExatamente":8723,"Vamos":8724,"ares":8725,"Ġfeno":8726,"Ġfitando":8727,"daÃ§Ã£o":8728,"ridos":8729,"ĠnoÃ§Ã£o":8730,"Ġsupe":8731,"ĠDava":8732,"omia":8733,"ĠLou":8734,"ĠGas":8735,"Ġsegue":8736,"endiam":8737,"Ġimpren":8738,"ĠsolitÃ¡rio":8739,"Ġbarbe":8740,"Ġbriga":8741,"Ġolhavam":8742,"Ġquadrado":8743,"ĠMeus":8744,"Ġcarregava":8745,"ĠLembra":8746,"Ġhabitu":8747,"ĠAbriu":8748,"Ġirregular":8749,"Ġultrap":8750,"uta":8751,"Ġciv":8752,"arry":8753,"Ã§ador":8754,"Ġparasse":8755,"Ġatirando":8756,"Ġapanha":8757,"ĠLud":8758,"Ġsentisse":8759,"Ġcujos":8760,"ĠPequ":8761,"Ġsalp":8762,"ĠForam":8763,"Ġchorava":8764,"Ġadvert":8765,"ther":8766,"Seus":8767,"ĠproteÃ§Ã£o":8768,"Ġexaminar":8769,"ĠCertamente":8770,"Ġit":8771,"Ġbam":8772,"ĠSor":8773,"ecimento":8774,"Ġapara":8775,"Ġlac":8776,"Ġpretas":8777,"jadas":8778,"ĠtevÃª":8779,"Ġlembre":8780,"Ġvala":8781,"Ġinternet":8782,"Ġsubterr":8783,"Ġgargal":8784,"Ġbasta":8785,"ĠMarty":8786,"ĠzÃŃper":8787,"Ġtransformado":8788,"ĠLembro":8789,"Ġqueimar":8790,"Ġinsistiu":8791,"Ġbatatas":8792,"Ġprofessores":8793,"Ġindifer":8794,"Ġindef":8795,"Ġadivinha":8796,"ĠThorin":8797,"Ġcoca":8798,"Ġcoma":8799,"ĠShan":8800,"ĠBol":8801,"Ġperdi":8802,"Ġespira":8803,"Ġpesqu":8804,"Ġintri":8805,"hecer":8806,"Ġtremor":8807,"ĠidÃªnt":8808,"ĠCale":8809,"Ġberrando":8810,"Ġpermitir":8811,"Ġafirma":8812,"ÃŃstica":8813,"ĠKeeton":8814,"In":8815,"lagem":8816,"ÃŃcula":8817,"Ġalco":8818,"Ġconter":8819,"ĠhÃ³spe":8820,"inante":8821,"harton":8822,"Ġjogada":8823,"Ġencontrasse":8824,"Ġpuse":8825,"Ġsignificado":8826,"ĠNorton":8827,"INHA":8828,"Ġmaravilha":8829,"Ġcadernos":8830,"Ġemaranhado":8831,"ĠtÃºmulo":8832,"Bob":8833,"ĠquÃŃm":8834,"Ġtat":8835,"ÃŃzes":8836,"Ġrevol":8837,"ĠsaÃºde":8838,"Ġhamb":8839,"Ġhaja":8840,"Ġformar":8841,"pados":8842,"nava":8843,"Ġentregar":8844,"risse":8845,"Ġpiscando":8846,"ĠsaÃŃra":8847,"ipse":8848,"Ġpulo":8849,"Ã´nios":8850,"Ġrastro":8851,"Ġaguda":8852,"Ġrepetir":8853,"ĠVegas":8854,"ĠpÃ¡lpebras":8855,"Ġsapato":8856,"ffer":8857,"ĠmissÃ£o":8858,"rill":8859,"Ġnaquelas":8860,"Ġsentidos":8861,"Ġaman":8862,"ĠIl":8863,"Ġescuta":8864,"Ġtaco":8865,"Ġsalva":8866,"Ġapoio":8867,"ĠcaÃŃra":8868,"olds":8869,"Ġacomo":8870,"Ġacompanhar":8871,"ĠAchou":8872,"ĠrecomeÃ§ou":8873,"Ġseguintes":8874,"Ġtronco":8875,"ĠBucky":8876,"ĠDelevan":8877,"Ġprofissional":8878,"Ġdesmoron":8879,"Ġimprensa":8880,"UT":8881,"gle":8882,"xim":8883,"ÃŃdas":8884,"ĠOS":8885,"Ġperdida":8886,"Ġacid":8887,"gantes":8888,"Ġaborre":8889,"Ġpassam":8890,"Ġtorcendo":8891,"Ġ100":8892,"Ġrepou":8893,"Ġconserva":8894,"Ġpiscina":8895,"ĠMarcy":8896,"Ġescolher":8897,"Ġplan":8898,"Ġtremia":8899,"ĠRoth":8900,"ĠParker":8901,"Ġacrescentar":8902,"Ġidentificar":8903,"Ġdobrou":8904,"Ġbombas":8905,"Ġfragmentos":8906,"ĠMercedes":8907,"lder":8908,"worth":8909,"Ãł":8910,"Ġelo":8911,"anie":8912,"haram":8913,"ĠAS":8914,"ilmente":8915,"unas":8916,"Ġdesgra":8917,"Ġatitude":8918,"Ġinim":8919,"ĠHigh":8920,"Ġcompra":8921,"Ġtemporada":8922,"ĠmarÃ§o":8923,"Ġescutando":8924,"Ġgostam":8925,"Ġexage":8926,"Ġimaginando":8927,"Ġperguntava":8928,"Ġmovimentos":8929,"Ġliguei":8930,"Ġpretende":8931,"Ġexemplar":8932,"ĠPrecis":8933,"ĠMcCar":8934,"Ġgerador":8935,"Ġvizinhos":8936,"ĠBrenda":8937,"ĠmÃŃnima":8938,"Ġabsurdo":8939,"ĠemoÃ§Ãµes":8940,"Ġpiquenique":8941,"urando":8942,"ĠcÃ¢mara":8943,"inÃ¡rio":8944,"ence":8945,"Ġretar":8946,"ulsa":8947,"Ġdeixasse":8948,"Ġiriam":8949,"estrada":8950,"ĠAlÃ´":8951,"Ġexpecta":8952,"Ġmartelo":8953,"Ġcolar":8954,"Ġguitar":8955,"ĠPeguei":8956,"Ġveem":8957,"Ġsuficientes":8958,"Ġfuncionava":8959,"Ġdecidi":8960,"Entre":8961,"Ġretirou":8962,"Ġabsoluto":8963,"Ġdeslizando":8964,"Ġsuportar":8965,"Ġlanchonete":8966,"ĠIrv":8967,"Ġadulto":8968,"Ġatrope":8969,"bio":8970,"plo":8971,"Ġcutu":8972,"Ġdetes":8973,"estar":8974,"imer":8975,"Ġdoer":8976,"gues":8977,"Ġrecos":8978,"Ġreais":8979,"Ġmur":8980,"esses":8981,"Ġgritei":8982,"Ġbota":8983,"Ġfurios":8984,"Ġacabei":8985,"Ġroubado":8986,"Ġsufoca":8987,"Ġprecisaria":8988,"ĠpoderÃŃamos":8989,"Ġcinzas":8990,"ĠopÃ§Ã£o":8991,"Ġmorreram":8992,"ĠWilma":8993,"ĠOlson":8994,"ĠbalanÃ§ava":8995,"ĠEscute":8996,"?\",":8997,"Mu":8998,"pelo":8999,"ulado":9000,"Ġnua":9001,"Ġteste":9002,"inamente":9003,"Ġvaria":9004,"tec":9005,"ĠNell":9006,"ĠCoca":9007,"ĠTirou":9008,"Ġchan":9009,"tero":9010,"Ġtirei":9011,"Ġmalig":9012,"Ġinscri":9013,"Ġloucos":9014,"ĠCarver":9015,"Ġtremenda":9016,"Ġarranjar":9017,"Ġespantado":9018,"Ġsofrimento":9019,"Ġgelada":9020,"Ġdiminuir":9021,"Ġdiminuiu":9022,"Ġembria":9023,"Ġansiedade":9024,"Ġjulgar":9025,"Ġbosques":9026,"Ġmoscas":9027,"Ġadolescentes":9028,"ĠUniversidade":9029,"CI":9030,"HÃ¡":9031,"Ver":9032,"hu":9033,"ug":9034,"Ġquinto":9035,"Ã¡culos":9036,"ĠEver":9037,"ÃŃdu":9038,"ĠDentro":9039,"diz":9040,"Ġhavido":9041,"ĠGri":9042,"ĠArdelia":9043,"Ġvestindo":9044,"ĠPeterson":9045,"Ġescorregou":9046,"ĠBrook":9047,"Ġgrossa":9048,"Ġprofundezas":9049,"Ġrecebido":9050,"Ġdesprezo":9051,"Ġretornou":9052,"Ġextremo":9053,"ĠespetÃ¡culo":9054,"Fiquei":9055,"gor":9056,"ĠdÃ£o":9057,"Ġnelas":9058,"Ġtil":9059,"escuro":9060,"Ġgord":9061,"Ġrez":9062,"ĠDi":9063,"Ġperu":9064,"ĠFra":9065,"ĠLin":9066,"ĠDepartamento":9067,"ĠKel":9068,"Ġajei":9069,"Ġpedac":9070,"ornou":9071,"Ġelim":9072,"ynolds":9073,"Ġcriou":9074,"ĠThomas":9075,"ĠmatÃ©ria":9076,"JÃ¡":9077,"uÃ§Ã£o":9078,"ĠAcor":9079,"Ġmeteu":9080,"ĠLand":9081,"Ġcorvo":9082,"Ġvolte":9083,"Ġradio":9084,"estre":9085,"ĠcolÃ©gio":9086,"Ġsonhado":9087,"Ġescute":9088,"ĠavanÃ§":9089,"ĠmonÃ³":9090,"Ġarrastar":9091,"Ġcoloquei":9092,"Ġsenhoras":9093,"Ġiluminado":9094,"ĠRatinho":9095,"hum":9096,"reria":9097,"lara":9098,"elar":9099,"ĠCase":9100,"Ġatendeu":9101,"Ġabismo":9102,"Ġescar":9103,"Ġluva":9104,"javam":9105,"ĠSeis":9106,"ĠWharton":9107,"Ġcueca":9108,"Ġimobil":9109,"Ġesqueci":9110,"Ġcaptura":9111,"Ġcirur":9112,"Ġdeprim":9113,"Ġassistindo":9114,"Ġdeterminado":9115,"Ġespalhar":9116,"Ġtubo":9117,"Ġpassageiros":9118,"Ġperplex":9119,"mie":9120,"Ġgatos":9121,"Ġenjo":9122,"Ġinac":9123,"Ġexpe":9124,"Ġespingar":9125,"Ġcordas":9126,"ĠUsava":9127,"Ġbatidas":9128,"ĠHartsfield":9129,"ĠLeah":9130,"Ġgota":9131,"Ġgola":9132,"Ġestacionado":9133,"ĠSegundo":9134,"Ġencarre":9135,"ĠhipÃ³":9136,"pping":9137,"ventude":9138,"Ġfronteira":9139,"ĠfrÃ¡gil":9140,"Ġarame":9141,"ĠhambÃºrguer":9142,".,":9143,"ipe":9144,"quando":9145,"Ġvimos":9146,"cavam":9147,"Ġlamp":9148,"igan":9149,"Ġcast":9150,"Ġlutando":9151,"Ġcomprimento":9152,"Ġvago":9153,"Ġinterna":9154,"ralmente":9155,"Ġguardava":9156,"Ġocasion":9157,"ĠcartÃµes":9158,"ĠrevÃ³lveres":9159,"Ġencarar":9160,"ĠtÃªmporas":9161,"Ġpaisagem":9162,"bua":9163,"cle":9164,"ĠdanÃ§ando":9165,"ĠvÃªm":9166,"tane":9167,"Ġbigo":9168,"Ġdoces":9169,"Ġemper":9170,"ĠVem":9171,"Ġcorriam":9172,"Ġamal":9173,"Ġbarreira":9174,"Ġtranspar":9175,"rigan":9176,"ĠInc":9177,"Ġambiente":9178,"Ġatingido":9179,"ĠNews":9180,"Ġsupunha":9181,"Ġlampe":9182,"Ġcaminhava":9183,"ĠDeixa":9184,"Ġmencionar":9185,"Ġchorou":9186,"bbins":9187,"ĠBoulder":9188,"Ġtreinador":9189,"Ġodiava":9190,"Ġobjetivo":9191,"Ġsecund":9192,"Brian":9193,"bios":9194,"jur":9195,"teria":9196,"vista":9197,"valho":9198,"Ã¡cio":9199,"ĠAC":9200,"ĠDra":9201,"Ġfais":9202,"sados":9203,"ĠRandy":9204,"ciais":9205,"chÃ£o":9206,"ĠsÃ³b":9207,"radora":9208,"Ġrolar":9209,"ĠsolitÃ¡ria":9210,"Ġlembrei":9211,"Ġesperado":9212,"Ġdormiu":9213,"Ġprofesso":9214,"ridge":9215,"Ġflan":9216,"Ġdesejava":9217,"Porque":9218,"Ġestrela":9219,"tempo":9220,"Ġprateleiras":9221,"ĠImagino":9222,"ĠÃ¡spero":9223,"ĠrazoÃ¡vel":9224,"Ġcertificar":9225,"Ex":9226,"NinguÃ©m":9227,"OD":9228,"pla":9229,"Ġult":9230,"Ġnit":9231,"inam":9232,"alhas":9233,"Ġdoido":9234,"Ġgostei":9235,"irley":9236,"ivÃ©ssemos":9237,"Ġsentava":9238,"Ġconfiar":9239,"Ġprecisasse":9240,"Ġdesaparecera":9241,"Ġdesej":9242,"Ġdesemb":9243,"Come":9244,"ĠdiversÃ£o":9245,"ĠLake":9246,"Ġpropriet":9247,"Ġcompanheiros":9248,"ĠOld":9249,"Ġcomportamento":9250,"ĠoperaÃ§Ã£o":9251,"ĠColorado":9252,"ĠquarteirÃ£o":9253,"ĠSilver":9254,"George":9255,"40":9256,"Bo":9257,"Olhei":9258,"Ġalavan":9259,"Ġfral":9260,"lake":9261,"entara":9262,"ĠAla":9263,"unciou":9264,"Ġenru":9265,"ulando":9266,"ĠHilly":9267,"isada":9268,"Ġprolon":9269,"Ġespir":9270,"Ġespiou":9271,"ĠWash":9272,"Ġtipos":9273,"elhados":9274,"thur":9275,"ĠcaÃŃsse":9276,"Ġsumir":9277,"Ġoposto":9278,"Ġexame":9279,"Ġsurpreend":9280,"ĠMorrison":9281,"Ġcumprir":9282,"Ġadultos":9283,"Leva":9284,"Ġtivemos":9285,"ĠErgueu":9286,"Ġrus":9287,"Ġdesfa":9288,"Ġespiada":9289,"mbio":9290,"inhando":9291,"jados":9292,"ĠEsqu":9293,"Ġsonhando":9294,"inter":9295,"Ġpresum":9296,"trav":9297,"Ġpuxado":9298,"ĠChester":9299,"Ġfolga":9300,"Ġronco":9301,"ĠMartin":9302,"ĠHeidi":9303,"aÃ§Ã£o":9304,"ban":9305,"diam":9306,"Ġecon":9307,"Ġbin":9308,"ÃŃqu":9309,"ĠMordred":9310,"Ġforas":9311,"Ġrestante":9312,"ĠGib":9313,"Ġpastor":9314,"Ġvolum":9315,"Ġralo":9316,"ĠEsp":9317,"Ġconseguindo":9318,"Ġmanche":9319,"undou":9320,"Ġbarras":9321,"ĠJackson":9322,"Ġbrilhavam":9323,"ĠEstadual":9324,"Ġatravessando":9325,"Ġcreme":9326,"Ġsurpreendente":9327,"ĠFreeman":9328,"ĠBrett":9329,"Ġfirmemente":9330,"Ġconfirmou":9331,"ĠginÃ¡sio":9332,"16":9333,"Durante":9334,"Mike":9335,"etas":9336,"rist":9337,"Ġdeca":9338,"eios":9339,"ĠPesso":9340,"Ġrico":9341,"pont":9342,"ĠTR":9343,"cabeÃ§a":9344,"ĠVicky":9345,"ĠterÃ§a":9346,"ĠFer":9347,"terior":9348,"essos":9349,"Ġtortura":9350,"Ġgrana":9351,"ĠbaÃº":9352,"Ġolhares":9353,"ĠcarroÃ§a":9354,"Ġimportar":9355,"ĠÃºnicos":9356,"Ġimenso":9357,"Ġobsc":9358,"ĠhorrÃŃveis":9359,"ĠFazia":9360,"Ġprovocou":9361,"Ġampla":9362,"Ġnamorada":9363,"ĠviolÃªncia":9364,"ĠOdetta":9365,"dÃ¡veis":9366,"eter":9367,"ĠpÃªn":9368,"arro":9369,"Ġquinh":9370,"col":9371,"ĠSai":9372,"Ġestim":9373,"Ġacusa":9374,"ĠRou":9375,"cioso":9376,"ĠHen":9377,"Ġsenta":9378,"very":9379,"essou":9380,"Ġcujas":9381,"Ġsurra":9382,"Ġformato":9383,"Ġtransfer":9384,"Ġrelance":9385,"ĠFrankie":9386,"Ġsoprava":9387,"Ġgorda":9388,"ĠameaÃ§a":9389,"Ġutil":9390,"Ġcampainha":9391,"IT":9392,"kn":9393,"Ġep":9394,"Ġcren":9395,"Ġviria":9396,"lenta":9397,"lamento":9398,"ĠSoc":9399,"Ġestri":9400,"Ġrele":9401,"Ġinchado":9402,"Ġcontudo":9403,"Ġprendeu":9404,"Ġconseguiram":9405,"Ġcalar":9406,"Ġtelep":9407,"Ġpossivelmente":9408,"Ġcostura":9409,"ĠLey":9410,"ĠNorth":9411,"brindo":9412,"ĠKey":9413,"ustÃŃvel":9414,"Ġagradecer":9415,"bury":9416,"At":9417,"cÃªs":9418,"dge":9419,"ĠÃŃm":9420,"Ġcopos":9421,"Ġqueijo":9422,"Ġemoc":9423,"ĠBon":9424,"Ġpegado":9425,"Ġservia":9426,"Ġcampe":9427,"Ãºr":9428,"Ġobst":9429,"Ġconsum":9430,"ĠaliÃ¡s":9431,"Ġcontinuaram":9432,"tropos":9433,"Ġpensativo":9434,"Ġtremeu":9435,"ĠMuitos":9436,"Ġrosas":9437,"ĠChegou":9438,"Ġdespertar":9439,"Ġreconhecer":9440,"Ġhesitante":9441,"Ġdesculpe":9442,"Ġcumprim":9443,"Ġdetalhe":9444,"ĠcenÃ¡rio":9445,"ĠsÃŃmb":9446,"Mesmo":9447,"NA":9448,"zinhas":9449,"ĠĊ":9450,"Ġcand":9451,"Ġalerta":9452,"ĠPas":9453,"ĠexÃ©rcito":9454,"Ġhero":9455,"ĠWay":9456,"grafia":9457,"licas":9458,"Ġacordada":9459,"Ġpoderoso":9460,"Ġfeitos":9461,"ĠChef":9462,"Ġ45":9463,"Ġinstint":9464,"ĠLaurie":9465,"Ġaconse":9466,"Ġentusiasmo":9467,"22":9468,"antes":9469,"vimento":9470,"Ġdevesse":9471,"ĠSap":9472,"Ã³leo":9473,"Ġmaus":9474,"Ġrefor":9475,"ensivo":9476,"Ġespinha":9477,"icago":9478,"ĠLos":9479,"Ġtambor":9480,"nados":9481,"ĠÃºtil":9482,"grafo":9483,"Ġcoldre":9484,"Ġbatido":9485,"ilante":9486,"Ġzela":9487,"ĠDool":9488,"ghlin":9489,"Ġdisser":9490,"Ġadormecido":9491,"ĠtrÃªmulo":9492,"Ġgargalhadas":9493,"Ġperigosa":9494,"Ġenferrujado":9495,"Ġescurecer":9496,"Ġtornozelos":9497,"Ġachasse":9498,"ĠQuantos":9499,"ĠRolando":9500,"Ġretrovisor":9501,"lig":9502,"erÃ¡ria":9503,"umbra":9504,"Ġumidade":9505,"lam":9506,"val":9507,"ĠbÃ¡s":9508,"Ã©dia":9509,"ĠlanÃ§ando":9510,"Ġestas":9511,"ĠMad":9512,"omem":9513,"ĠFilho":9514,"ĠEspe":9515,"Ġduvido":9516,"Ġfuriosa":9517,"sass":9518,"ĠChicago":9519,"Ġligando":9520,"Ġsignific":9521,"Ġmolhada":9522,"Ġabajur":9523,"Ġmorrera":9524,"Ġfixamente":9525,"palhÃ£o":9526,"Ġeditor":9527,"Ġtornozelo":9528,"Ġdrinque":9529,"ĠÃªx":9530,"bom":9531,"gamos":9532,"stein":9533,"Ġmina":9534,"dore":9535,"eso":9536,"orta":9537,"ann":9538,"elic":9539,"Ġlix":9540,"Ġnause":9541,"ĠNA":9542,"ĠPai":9543,"ĠTig":9544,"fadas":9545,"Ġviraram":9546,"Ġviajar":9547,"Ġdeslizar":9548,"ĠPerce":9549,"Ġlimites":9550,"Ġarrastou":9551,"ĠtÃ¡bua":9552,"ĠDuke":9553,"Ġdeclar":9554,"Ġdespeito":9555,"ĠminÃºs":9556,"Ġassustadora":9557,"Ġacertar":9558,"Ġespalhados":9559,"Ġbaile":9560,"Ġenvergon":9561,"ĠamaldiÃ§o":9562,"sta":9563,"ĠaÃ§":9564,"Ġsino":9565,"ĠquÃ£o":9566,"Ġesvoa":9567,"Ġdata":9568,"ĠSente":9569,"Ġcadela":9570,"ĠNed":9571,"ĠRosa":9572,"ĠVen":9573,"urÃ£o":9574,"velos":9575,"Ãºp":9576,"Ġencontraria":9577,"Ġconsist":9578,"correu":9579,"Ġachado":9580,"Ġacabaram":9581,"ĠSaia":9582,"Ġroubar":9583,"Ġhouver":9584,"Ġchegaria":9585,"Ġrelut":9586,"ĠParte":9587,"Ġquebrando":9588,"ĠMerda":9589,"Ġrodop":9590,"ĠFalou":9591,"Ġenganado":9592,"Ġpertencia":9593,"Ġperfume":9594,"Ġfileiras":9595,"Ġmelhorar":9596,"ĠPescador":9597,"Ġsilenciosamente":9598,"Ġentorpec":9599,"!\",":9600,"Hal":9601,"SA":9602,"Ġcolher":9603,"Ġtente":9604,"deral":9605,"come":9606,"Ġcaub":9607,"ĠBell":9608,"itiva":9609,"Ġcerim":9610,"Ġcamisas":9611,"Ġforno":9612,"ĠUr":9613,"Ġcuriosa":9614,"ĠruÃŃdos":9615,"Ġenfim":9616,"Ã©spera":9617,"Ġmilitar":9618,"Ġamargo":9619,"Ġsujas":9620,"ĠRealmente":9621,"Ġcobertos":9622,"ĠClaude":9623,"Essa":9624,"Ġhouvera":9625,"ĠmurmÃºrio":9626,"ĠHall":9627,"ĠreuniÃµes":9628,"Ġofus":9629,"ĠbÃªbados":9630,"Ġesfregando":9631,"Ġprender":9632,"Ġtigela":9633,"Ġmodelo":9634,"Ġajoelhou":9635,"ĠsaudÃ¡vel":9636,"!)":9637,"iano":9638,"Ġfero":9639,"hadas":9640,"rons":9641,"iciado":9642,"ĠMus":9643,"ĠTÃ£o":9644,"ĠcondiÃ§Ã£o":9645,"Ġcarinho":9646,"Ã´metro":9647,"Ġfalsa":9648,"ĠcomeÃ§am":9649,"Ġbagu":9650,"Ġfundam":9651,"Ġfraque":9652,"Ġdescal":9653,"ignifica":9654,"ĠCort":9655,"ĠcombustÃŃvel":9656,"ÃĩA":9657,"ĠfÃ³sforos":9658,"ĠCreio":9659,"Ġcaverna":9660,"Pensei":9661,"Ġoceano":9662,"iel":9663,"tidÃ£o":9664,"raÃ§Ãµes":9665,"Ġcomido":9666,"Ġatender":9667,"Ġina":9668,"Ġarruma":9669,"berta":9670,"Ġtomava":9671,"Ġsanidade":9672,"Ġestrangu":9673,"Ġcontinuasse":9674,"Ġaparecia":9675,"ĠArk":9676,"NTE":9677,"ocks":9678,"Ġcolega":9679,"Ġinclina":9680,"Ġmonstros":9681,"ĠObs":9682,"ĠnoticiÃ¡rio":9683,"ĠrelutÃ¢ncia":9684,"gr":9685,"Ġecl":9686,"quÃª":9687,"Ġvela":9688,"our":9689,"enÃ§as":9690,"Ġcatre":9691,"usÃµes":9692,"ĠTw":9693,"ĠVinte":9694,"Ġcerve":9695,"ĠInter":9696,"Ġimper":9697,"Ġmarcado":9698,"Ġamarelos":9699,"ĠZap":9700,"ĠMerrill":9701,"ĠSegunda":9702,"Ġfluores":9703,"ĠedifÃŃcio":9704,"Ġcotovelos":9705,"ĠTorrance":9706,"Ġcautel":9707,"Ġbuzina":9708,"ĠKyra":9709,"jÃ£o":9710,"zie":9711,"ragia":9712,"Ġcida":9713,"iadas":9714,"ĠAM":9715,"Ġsauda":9716,"Ġfoder":9717,"Ġserve":9718,"pais":9719,"aroid":9720,"Ġroxo":9721,"ĠCompre":9722,"Ġafrou":9723,"icioso":9724,"Ġ24":9725,"ĠClaudia":9726,"ĠExÃ©rcito":9727,"Ġsurgir":9728,"Ġconsiderar":9729,"ĠOlÃ¡":9730,"ilares":9731,"ĠGuar":9732,"Ġpersist":9733,"Ġperspec":9734,"Ġbombeiros":9735,"Ġantebra":9736,"ĠSamuels":9737,"Ġciente":9738,"Ġdecom":9739,"estos":9740,"ianÃ§a":9741,"deau":9742,"Ġempa":9743,"ĠAN":9744,"ĠMeio":9745,"Ġconcha":9746,"Ġatras":9747,"Ġfogos":9748,"Ġlentes":9749,"Ġsemic":9750,"Ġrabis":9751,"Ġchapa":9752,"Ġimpre":9753,"Ġmangas":9754,"Ġsozinhos":9755,"Ġobriga":9756,"choque":9757,"carre":9758,"Ġgostando":9759,"Ġjaneiro":9760,"Ġescrevi":9761,"Ġagulha":9762,"ĠCorvo":9763,"Ġtraseiras":9764,"ĠAcima":9765,"tetter":9766,"Ġlanternas":9767,"ĠCurwen":9768,"Ġprossegue":9769,"Ġprofund":9770,"Ġdelicadamente":9771,"Ġexausto":9772,"ĠcomentÃ¡rio":9773,"ĠMichaela":9774,"ĠPrincipal":9775,"Ġmomentaneamente":9776,"utela":9777,"Ġarmadilha":9778,"ockstetter":9779,"ju":9780,"teira":9781,"Ġtolo":9782,"inat":9783,"Ġves":9784,"Ġvim":9785,"Ġgre":9786,"Ġestendi":9787,"Ġalpend":9788,"ĠPon":9789,"itinho":9790,"ensou":9791,"Ġpassasse":9792,"Ġtrancado":9793,"Ġescutou":9794,"Ġapoiado":9795,"Ġfecharam":9796,"Ã³rdia":9797,"Segu":9798,"Ġescorrega":9799,"Peter":9800,"ĠlÃŃder":9801,"ĠPolaroid":9802,"Ġdebru":9803,"Ġevidente":9804,"Ġdocumentos":9805,"Ġaspir":9806,"PE":9807,"Parec":9808,"grado":9809,"non":9810,"ĠpÃ¢nt":9811,"Ġox":9812,"ĠtirÃ¡":9813,"Ġvilar":9814,"Ġesbu":9815,"letes":9816,"ĠFeixe":9817,"pape":9818,"Ġconseguiam":9819,"uddie":9820,"Ġpercebia":9821,"ĠCarl":9822,"ĠpapelÃ£o":9823,"ĠElizabeth":9824,"Ġclare":9825,"Ġpijam":9826,"Ġgravador":9827,"ĠSenti":9828,"Ġduplo":9829,"Ġcontemplou":9830,"Richie":9831,"ĠcadÃ¡veres":9832,"Ġrepentina":9833,"ĠBannerman":9834,"Ġestrutura":9835,"ĠcoincidÃªncia":9836,"Mc":9837,"Ġada":9838,"Ġoficina":9839,"ĠtÃŃp":9840,"Ã¡l":9841,"Ã¡ticos":9842,"ĠlÃª":9843,"Ġcautela":9844,"ĠOeste":9845,"ĠTentei":9846,"Ġdesd":9847,"Ġpedi":9848,"Quem":9849,"Ġmorro":9850,"Ġchap":9851,"ĠIa":9852,"lass":9853,"Ġestarem":9854,"ĠEntendeu":9855,"Ġtenso":9856,"Ġafe":9857,"ĠbalanÃ§ar":9858,"ĠJohnson":9859,"ĠCox":9860,"Ġtirava":9861,"ĠHarrigan":9862,"Ġquadros":9863,"ĠilusÃ£o":9864,"ĠBala":9865,"heila":9866,"Ġfugiu":9867,"Joe":9868,"Ġpintado":9869,"ĠVoltou":9870,"ĠOutros":9871,"Ġdesviar":9872,"Ġignorou":9873,"Ġsupostamente":9874,"ĠpermissÃ£o":9875,"Ġperplexo":9876,"Jones":9877,"dÃª":9878,"ĠvÃ©spera":9879,"ĠSar":9880,"ĠDro":9881,"Ġatentamente":9882,"ĠFO":9883,"Ġmovia":9884,"ĠElaine":9885,"essar":9886,"cure":9887,"Ġficarem":9888,"Ġanoite":9889,"Ġcosta":9890,"Ġnarinas":9891,"ĠSupon":9892,"Ġvencer":9893,"Ġregistros":9894,"Ġcambaleando":9895,"ĠJanice":9896,"ĠMcGee":9897,"ĠgrÃ¡vida":9898,"AtÃ©":9899,"CH":9900,"gri":9901,"ĠaÃ©":9902,"ison":9903,"Ġtub":9904,"rey":9905,"elido":9906,"Ġdadas":9907,"ĠDI":9908,"Ġperson":9909,"ĠRubro":9910,"ĠUMA":9911,"Ġcompridas":9912,"randon":9913,"Ġrob":9914,"ders":9915,"ĠEmp":9916,"Ġ22":9917,"ĠBarrens":9918,"ĠpoderÃ¡":9919,"ĠReynolds":9920,"tÃ¡veis":9921,"Ġvestir":9922,"Ġprovar":9923,"Ġmurmura":9924,"malas":9925,"Ġmembro":9926,"Ġsoprou":9927,"Ġdesculpa":9928,"Ġresmungou":9929,"ĠWashington":9930,"Ġalpendre":9931,"Ġmelo":9932,"Ġrejei":9933,"ĠPAR":9934,"Ġperdo":9935,"...âĢĶ":9936,"Ġtemer":9937,"Ġmorar":9938,"igra":9939,"deste":9940,"Ġobter":9941,"Ġsorvete":9942,"Ġsaltos":9943,"tral":9944,"ivera":9945,"Ġamarelas":9946,"Ġmentalmente":9947,"ĠBenny":9948,"ĠhesitaÃ§Ã£o":9949,"Ġinquieto":9950,"Ġorigem":9951,"Ġcoroa":9952,"ĠAcredito":9953,"ĠcansaÃ§o":9954,"Ġancest":9955,"Ġamanhecer":9956,"Ġalavanca":9957,"cut":9958,"mem":9959,"orde":9960,"riÃ§Ã£o":9961,"ĠAj":9962,"ĠAndo":9963,"ÃŃra":9964,"Ġaspira":9965,"Ġrecom":9966,"ull":9967,"ulou":9968,"ĠJas":9969,"Ġtema":9970,"ĠGwendy":9971,"Ġpaga":9972,"Ġrolo":9973,"Ġacabasse":9974,"ĠesperanÃ§as":9975,"ĠHotel":9976,"ĠfeiÃ§Ãµes":9977,"Ġcostumavam":9978,"ĠTrabal":9979,"Ġmergulhou":9980,"ĠCuidado":9981,"Ġestojo":9982,"Ġemitiu":9983,"ĠÃ¡spera":9984,"ĠDunning":9985,"Ġimpaciente":9986,"Ġsorrisinho":9987,"Ġimbecil":9988,"Ġespingarda":9989,"Ġcandida":9990,"ĠZappit":9991,"cross":9992,"fun":9993,"ld":9994,"uri":9995,"ĠpÃµe":9996,"Ġnisto":9997,"Ġnotado":9998,"Ġgras":9999,"Ġalgemas":10000,"Ġamigas":10001,"ĠPorra":10002,"Ġcalou":10003,"Ġlevei":10004,"Ġpiscar":10005,"Ġcega":10006,"ÃŃsse":10007,"Ġarrancado":10008,"Ġcapacete":10009,"Ġdespen":10010,"Ġestudos":10011,"Ġamericana":10012,"Ġhabitantes":10013,"ĠDeixou":10014,"Ġcontemplando":10015,"Ġarquivo":10016,"Ġultimamente":10017,"18":10018,"oto":10019,"Ġpinheiros":10020,"Ġmagn":10021,"Ġcaip":10022,"ĠTur":10023,"Ġendire":10024,"vereiro":10025,"ntac":10026,"Ġchumbo":10027,"ĠIN":10028,"Ġfilhas":10029,"ĠPegue":10030,"Ġbeco":10031,"Ġconheci":10032,"ĠMac":10033,"Ġdistingu":10034,"Ġbordo":10035,"Ġsexual":10036,"Ġfixos":10037,"Ġfascinado":10038,"Ġrevelou":10039,"Ġdevolveu":10040,"Ġdescoberta":10041,"Ġalegremente":10042,"ĠWhit":10043,"Ġtigre":10044,"dicionado":10045,"Ġgrisalho":10046,"Ġfrust":10047,"dis":10048,"lumb":10049,"Ġcois":10050,"teran":10051,"Ġcadeado":10052,"nteÃ§a":10053,"obre":10054,"Ġhar":10055,"ĠLily":10056,"ĠraÃŃzes":10057,"Ġtorto":10058,"Ġentreol":10059,"Ġdissol":10060,"Ġchocado":10061,"Ġagentes":10062,"Ġgaleria":10063,"ĠProme":10064,"Ġvenen":10065,"Ġchegavam":10066,"Ġsecreta":10067,"ĠAngeles":10068,"ILL":10069,"ĠAvenida":10070,"Ġduvidava":10071,"elicÃ³p":10072,"bum":10073,"jÃ¡":10074,"tÃŃvel":10075,"wson":10076,"Ġsinos":10077,"arei":10078,"Ġcobrindo":10079,"Ġvelas":10080,"Ġvital":10081,"alie":10082,"Ġlist":10083,"amar":10084,"Ã³rios":10085,"Ġdiscos":10086,"Ġdespo":10087,"ĠHospital":10088,"Ġidoso":10089,"Ã¡ss":10090,"jak":10091,"endesse":10092,"Ġteia":10093,"essÃ£o":10094,"Ġboquia":10095,"Ġencontramos":10096,"Ġvagar":10097,"Ġafunda":10098,"Ġcaramba":10099,"Ġacreditou":10100,"ĠMay":10101,"Ġloucamente":10102,"Ġplantas":10103,"ĠArthur":10104,"Ġcapim":10105,"ĠRodo":10106,"Ġquadra":10107,"Ġpendendo":10108,"Ġvivas":10109,"Ġabandonada":10110,"Ġinev":10111,"Ġpersonagem":10112,"ociaÃ§Ã£o":10113,"ĠgarÃ§onete":10114,"Ġcalcanhares":10115,"Ġprofundidade":10116,"sia":10117,"Ġplen":10118,"ĠEX":10119,"ĠgÃªn":10120,"Ġmedi":10121,"Ġsacri":10122,"ĠÃ©ramos":10123,"ĠprÃªmio":10124,"ensar":10125,"ĠFico":10126,"Ġcontribu":10127,"Ãºdo":10128,"andro":10129,"Ġgripe":10130,"utter":10131,"Ġencontravam":10132,"Ġpistas":10133,"Ġpossam":10134,"Ġplaneta":10135,"Ġdemorou":10136,"tassem":10137,"Ġenchendo":10138,"Ġderrubou":10139,"Ġfresca":10140,"Ġvizinho":10141,"Ġmosca":10142,"Ġdesbotado":10143,"ĠStone":10144,"Ġsequest":10145,"ĠinvestigaÃ§Ã£o":10146,"Nos":10147,"Ro":10148,"Thad":10149,"fat":10150,"ĠpÃª":10151,"Ġnessas":10152,"Ġton":10153,"guem":10154,"mante":10155,"Ġlabora":10156,"Ġcortada":10157,"ĠmarÃ©":10158,"Ġobras":10159,"Ġcliente":10160,"ĠpolÃŃtica":10161,"Ġhorrores":10162,"ĠArroto":10163,"ĠcapÃ´":10164,"Ġdistribu":10165,"Ã§adores":10166,"Ġanteriores":10167,"Ġresolveu":10168,"ĠGrandes":10169,"Ġserviu":10170,"Ġinexp":10171,"ĠsanduÃŃches":10172,"ĠchaminÃ©":10173,"ĠIlse":10174,"Fui":10175,"fou":10176,"rÃ©":10177,"ary":10178,"ĠtÃ©r":10179,"ĠCidade":10180,"Ġpoema":10181,"ĠJamais":10182,"ĠJane":10183,"Ġcortando":10184,"Ġchico":10185,"ĠWat":10186,"Ġsolto":10187,"Ġsolen":10188,"Ġbaga":10189,"nside":10190,"Ġavental":10191,"Ġdezenas":10192,"Ġgalo":10193,"ĠMont":10194,"Ġdestran":10195,"ĠVerdade":10196,"Ġmexendo":10197,"Ġocorrido":10198,"Ġenterro":10199,"Ġaumentou":10200,"Ġcoronha":10201,"ĠSanders":10202,"Ġinacredi":10203,"Ba":10204,"IX":10205,"tim":10206,"Ġdepos":10207,"Ġparal":10208,"ĠCath":10209,"Ġdesn":10210,"Ġapanhou":10211,"Ġesprem":10212,"ĠLiga":10213,"Ġsentei":10214,"entadas":10215,"Ġexpul":10216,"ĠJacky":10217,"Ġalien":10218,"ĠAssass":10219,"Ġinstantes":10220,"Ġtrabalhado":10221,"iosamente":10222,"Ġaju":10223,"Ġconversas":10224,"Ġzero":10225,"mesmo":10226,"Ġrelva":10227,"ĠParou":10228,"Ġpontada":10229,"Ġ35":10230,"ĠDonald":10231,"Ġencostado":10232,"Ġrecomp":10233,"ĠWillett":10234,"Ġamplo":10235,"Ġrang":10236,"Ġtelefonema":10237,"ĠÃģtropos":10238,"Ġsacudir":10239,"ĠAndrew":10240,"Nesse":10241,"iei":10242,"xu":10243,"osiÃ§Ã£o":10244,"inei":10245,"Ġesquele":10246,"tod":10247,"ame":10248,"Ġassegu":10249,"ĠPiper":10250,"Ġfoda":10251,"Ġindes":10252,"Ġinvas":10253,"ĠhelicÃ³p":10254,"ĠDevo":10255,"Ġtrin":10256,"Ġrode":10257,"Ġmalas":10258,"ĠIsland":10259,"Ġandares":10260,"ĠfuncionÃ¡rio":10261,"rench":10262,"Ġoferec":10263,"ĠHomer":10264,"ĠCamber":10265,"Ġliberdade":10266,"ĠtropeÃ§ou":10267,"Barbie":10268,"ĠRobinson":10269,"ĠhipÃ³tes":10270,"Ġcervejas":10271,"Finalmente":10272,"bara":10273,"cinha":10274,"Ġave":10275,"ĠAvery":10276,"Ġmaci":10277,"ĠcatÃ¡":10278,"Ġjust":10279,"ĠFrench":10280,"ĠserÃ£o":10281,"ĠGo":10282,"Ġescut":10283,"ĠdireÃ§Ãµes":10284,"ĠMag":10285,"Ġaperta":10286,"Ġarregal":10287,"Ġhumil":10288,"ĠYune":10289,"Ġgalinha":10290,"Ġapagado":10291,"ĠStebbins":10292,"ĠNorman":10293,"ĠCON":10294,"Ġqueimando":10295,"Ġespere":10296,"Ġinvestig":10297,"Ġquebradas":10298,"Ġsobreviver":10299,"Ġjogador":10300,"ĠShirley":10301,"Ġgigantesco":10302,"ĠcÃ´modo":10303,"ĠinstruÃ§Ãµes":10304,"Ġpiloto":10305,"Ġpardais":10306,"ĠDooling":10307,"Ġesbugalha":10308,"!âĢĶ":10309,"Larry":10310,"Oh":10311,"ratura":10312,"anim":10313,"tola":10314,"elia":10315,"rite":10316,"ĠAT":10317,"Ġganhando":10318,"Ġmacia":10319,"Ġelegante":10320,"ĠOx":10321,"Ġcorrig":10322,"Ġsobe":10323,"Ġficamos":10324,"itados":10325,"ĠtrapalhÃ£o":10326,"ĠMassa":10327,"Ġpessoalmente":10328,"Ġrochas":10329,"Ġnascer":10330,"Ġinterpre":10331,"Ġacredite":10332,"licidade":10333,"Ġbaixas":10334,"Ġbaixar":10335,"Ġpoderosa":10336,"ĠConhec":10337,"ĠrÃ¡pidos":10338,"Ġespeciais":10339,"Ġdescida":10340,"ĠNorcross":10341,"ĠdifÃŃceis":10342,"Ġvivendo":10343,"ĠBeach":10344,"Ġ70":10345,"ĠStanley":10346,"Ġexibindo":10347,"Ġgentile":10348,"ĠdÃ©cada":10349,"Ġrepentino":10350,"ĠDalton":10351,"Richards":10352,"Ġfazendeiro":10353,"Ġexpectativa":10354,"gÃŃn":10355,"iri":10356,"Ġdoendo":10357,"ĠScho":10358,"Ġmast":10359,"Ġdesas":10360,"Ġdesfi":10361,"Ġacende":10362,"ĠRita":10363,"ĠFort":10364,"Ġarru":10365,"aixÃ£o":10366,"Ġrainha":10367,"corre":10368,"ĠbalÃ£o":10369,"Ġchoram":10370,"ĠHogan":10371,"llman":10372,"Ġriram":10373,"rariamente":10374,"Ġturno":10375,"Ġsopro":10376,"Ġvisitante":10377,"Ġbruxa":10378,"ĠPuta":10379,"ÃŃstico":10380,"ĠÃºmida":10381,"Ġpublica":10382,"muito":10383,"ĠpadrÃ£o":10384,"ĠcÃ´moda":10385,"ĠmetÃ¡lico":10386,"Ġpalpite":10387,"Ġserpente":10388,"ĠWesley":10389,"Ġtatua":10390,"Ġprofessora":10391,"PA":10392,"cei":10393,"nado":10394,"arborn":10395,"Ġfura":10396,"Ã©us":10397,"ĠAper":10398,"ocas":10399,"teia":10400,"ĠNeste":10401,"ĠOk":10402,"ĠMost":10403,"Ġenvel":10404,"dific":10405,"Ġaceno":10406,"Ġcontava":10407,"ĠcontÃŃn":10408,"loto":10409,"pava":10410,"ĠvovÃ³":10411,"ĠEdward":10412,"Ġcabos":10413,"Ġrugido":10414,"Ġsangre":10415,"Ġestejam":10416,"Ġtransforma":10417,"ĠMuitas":10418,"Ġprocurava":10419,"Ġpendurados":10420,"Ġacerca":10421,"Ġaprecia":10422,"Ġdisparar":10423,"ĠmudanÃ§as":10424,"Ġsugeria":10425,"Ġenviar":10426,"ĠcomparaÃ§Ã£o":10427,"Ġensola":10428,"Ġcuspiu":10429,"ĠBuddy":10430,"Ġhabitual":10431,"ĠcaubÃ³i":10432,"Ġferoz":10433,"Ca":10434,"PO":10435,"gÃªncia":10436,"Ġcera":10437,"Ġestes":10438,"Ġletre":10439,"Ġmontes":10440,"ĠComecei":10441,"Ġbair":10442,"Ġantigamente":10443,"Ġsujos":10444,"Ġliqu":10445,"Ġdesenro":10446,"Ġsoprando":10447,"ĠconcentraÃ§Ã£o":10448,"Ġcausar":10449,"Ġinformou":10450,"Ġrepux":10451,"Ġnamorado":10452,"ĠvÃŃtimas":10453,"ĠPrincipalmente":10454,"Ġpacientes":10455,"Ġrefrigerante":10456,"Ġdeclarou":10457,"Ġoxig":10458,".'":10459,"Morris":10460,"Pre":10461,"Ġplena":10462,"Ġol":10463,"Ġovo":10464,"indro":10465,"Ġqueix":10466,"Ġseio":10467,"alo":10468,"ĠSomos":10469,"Ġreca":10470,"ĠDur":10471,"Ġmete":10472,"ĠdiÃ¡rio":10473,"Ġsaem":10474,"Ġintes":10475,"Ġrajada":10476,"Ġtratamento":10477,"Ġimplo":10478,"ĠEstar":10479,"Ġinspe":10480,"Ġachavam":10481,"Ġguardado":10482,"ĠmantÃª":10483,"ĠdÃ³i":10484,"ĠaconteÃ§a":10485,"Ġlimpando":10486,"ĠÃ¢ns":10487,"Frank":10488,"Ġcivil":10489,"ĠhÃ³spedes":10490,"Ġchances":10491,"IO":10492,"deria":10493,"hava":10494,"riz":10495,"Ã³tico":10496,"ĠBrandon":10497,"Ġentendido":10498,"Ġisqueiro":10499,"tosa":10500,"Ġcercado":10501,"ĠInt":10502,"Ġmanob":10503,"Ġfech":10504,"Ġimens":10505,"ĠtelefÃ´nica":10506,"Ġ23":10507,"Ġferimento":10508,"ĠSrta":10509,"ĠprÃ³ximas":10510,"Ġfevereiro":10511,"izadas":10512,"Ġuivo":10513,"Ġassassin":10514,"pecial":10515,"Ġensinar":10516,"Ġcruzar":10517,"Ġveludo":10518,"Ġrisadas":10519,"ĠWalker":10520,"ĠmaÃ§Ã£":10521,"Ġespalhou":10522,"ÃŃssima":10523,"Ġimpressionante":10524,"Ġaluno":10525,"Ġconsolo":10526,"Ġinstrumentos":10527,"Charlie":10528,"Ġlaptop":10529,"Ġintest":10530,"Ab":10531,"pat":10532,"Ġcop":10533,"ense":10534,"Ġbosta":10535,"Ġparaf":10536,"usp":10537,"ĠCho":10538,"ĠTher":10539,"Ġmorresse":10540,"Ġdiant":10541,"Ġrespirou":10542,"Ġmaneiras":10543,"Ġentrega":10544,"Ġmarcada":10545,"Ġlevavam":10546,"Ġlevasse":10547,"ĠMark":10548,"Ġconfro":10549,"ĠÃ³r":10550,"greme":10551,"Ġpulsos":10552,"Ġlargos":10553,"Ġindis":10554,"Ġpunha":10555,"Ġuiva":10556,"Ġcostelas":10557,"Ġescondida":10558,"Ġpressent":10559,"ĠKeene":10560,"Ġassistente":10561,"Ġquaisquer":10562,"Ġencam":10563,"Ġenrolado":10564,"Pete":10565,"Ġengolir":10566,"ĠÃŃngreme":10567,"brough":10568,"ĠladrÃ£o":10569,"ĠtÃªmpora":10570,"Ġcalaf":10571,"ĠtÃ©rreo":10572,"bei":10573,"joso":10574,"mi":10575,"vindo":10576,"Ġcens":10577,"ĠcÃ³p":10578,"Ġfle":10579,"ĠAi":10580,"ĠAst":10581,"ĠprÃŃncipe":10582,"Ġvertig":10583,"Ġintac":10584,"Ġparecera":10585,"ĠDees":10586,"Ġusara":10587,"Ġfuneral":10588,"Ġenfiando":10589,"Ġtocado":10590,"Ġmonit":10591,"Ġfedore":10592,"Ġculpado":10593,"quesis":10594,"ĠVermont":10595,"ĠZona":10596,"ĠHomens":10597,"Ġterminal":10598,"Ġdesesperado":10599,"Ġresistir":10600,"Ġdesistir":10601,"Ġaplausos":10602,"ĠvÃŃdeo":10603,"ĠimprovÃ¡vel":10604,"Garraty":10605,"ĠAzul":10606,"Jonesy":10607,"tn":10608,"teiros":10609,"Ġmam":10610,"entaram":10611,"eiga":10612,"Ġgener":10613,"Ġconex":10614,"mail":10615,"dias":10616,"Ġacion":10617,"urras":10618,"Ġvoltas":10619,"Ġdeixam":10620,"jeta":10621,"Ġprecisavam":10622,"Ġprecisando":10623,"Ġarredores":10624,"Deus":10625,"Ġnormais":10626,"ificada":10627,"Ġnarra":10628,"ĠPronto":10629,"Ġsofre":10630,"Ġsofrendo":10631,"Ġregras":10632,"lette":10633,"Ġadorava":10634,"Ġfugindo":10635,"Ġartista":10636,"Ġsinistra":10637,"Ġmiseric":10638,"Ġprisioneiro":10639,"ĠRonnie":10640,"Ġcilindro":10641,"Ġescancara":10642,"ĠsugestÃ£o":10643,"Ġshort":10644,"ĠBalazar":10645,"Tem":10646,"casse":10647,"dil":10648,"kin":10649,"pso":10650,"tÃ³ria":10651,"yl":10652,"Ġple":10653,"Ġpingando":10654,"Ġcrer":10655,"Ġmentes":10656,"lador":10657,"Ġbobo":10658,"Ġreino":10659,"Ġdistor":10660,"Ġtemia":10661,"Ġladeira":10662,"Ġserra":10663,"Ġassoc":10664,"Ġescorrer":10665,"Ġhomen":10666,"Ġjuventude":10667,"ĠhÃ¡lito":10668,"Ġmerece":10669,"Ġimensa":10670,"ĠavanÃ§ando":10671,"Ġsenhores":10672,"Ġdezembro":10673,"ĠrelatÃ³rio":10674,"ĠrazÃµes":10675,"ĠBowie":10676,"Ġregistro":10677,"ĠadmiraÃ§Ã£o":10678,"Ġjogadores":10679,"Ġaterris":10680,"Ġhein":10681,"Ġtapinha":10682,"Ġinseto":10683,"ĠSangue":10684,"ĠAmerican":10685,"Ġtriunfo":10686,"Ġabruptamente":10687,"ĠdecomposiÃ§Ã£o":10688,"Ġgentileza":10689,"avelmente":10690,"iÃªncias":10691,"ten":10692,"Ġdeteve":10693,"ĠtÃŃm":10694,"cool":10695,"ĠMÃ¡":10696,"ĠHem":10697,"Ġpropa":10698,"ced":10699,"izava":10700,"ĠDearborn":10701,"Ãºva":10702,"Ġmangueira":10703,"udy":10704,"Ġfreio":10705,"Ġtique":10706,"Ġvislumb":10707,"ĠJoy":10708,"Ġcorrentes":10709,"Ġunha":10710,"Ġmedon":10711,"ĠagitaÃ§Ã£o":10712,"Ġconfun":10713,"alhado":10714,"Ġbebidas":10715,"Ġpulando":10716,"Ġrecei":10717,"Ġfariam":10718,"ĠProf":10719,"Ġlibe":10720,"AlÃ©m":10721,"ĠChamb":10722,"Ġmaravilhos":10723,"ĠtÃªnue":10724,"Ġjulgamento":10725,"Ġsuporte":10726,"Ġdesesperadamente":10727,"ĠfÃŃsico":10728,"ĠSpr":10729,"Ġsuponho":10730,"ĠDinky":10731,"Ġinterruptor":10732,"ĠRothstein":10733,"Ġperspectiva":10734,"Ġvilarejo":10735,"igrafia":10736,"Rus":10737,"km":10738,"zias":10739,"Ġfeira":10740,"Ġbibliote":10741,"ĠENT":10742,"ĠMou":10743,"Ġpote":10744,"riamente":10745,"ĠLei":10746,"Ġresga":10747,"Ġpata":10748,"ĠcarvÃ£o":10749,"Ãºcar":10750,"pela":10751,"cheira":10752,"Ġmorib":10753,"ĠraÃ§a":10754,"Ġtemporariamente":10755,"ĠWilly":10756,"ĠKa":10757,"Ġsalvou":10758,"Ġrouco":10759,"ĠTome":10760,"Ġassustou":10761,"Ġsatisfeita":10762,"Ġvaler":10763,"ĠestÃºpida":10764,"Ġadmira":10765,"ĠinteligÃªncia":10766,"Ġnoturno":10767,"Ġfrasco":10768,"Ġfelicidade":10769,"Ġcompartimento":10770,"Ġestabele":10771,"Ġzelador":10772,"ĠlaboratÃ³rio":10773,"Cam":10774,"Tim":10775,"bem":10776,"cra":10777,"param":10778,"Ġpenas":10779,"Ġdeli":10780,"Ġcoio":10781,"inaram":10782,"Ġfision":10783,"Ġvelo":10784,"Ġdoent":10785,"rive":10786,"ĠSheila":10787,"Ġasse":10788,"unciar":10789,"ĠRan":10790,"ĠFeliz":10791,"ĠcolchÃ£o":10792,"Ġbalbu":10793,"Ġpisou":10794,"Ġobstante":10795,"Ġtelefones":10796,"ĠBart":10797,"Ġsofreu":10798,"Ġconsiderava":10799,"Ġobrigada":10800,"Ġdigamos":10801,"Ġidentidade":10802,"Ġrevelar":10803,"Ġesquisita":10804,"ĠCentro":10805,"Ġpancada":10806,"Ġcalcinha":10807,"Ġguincho":10808,"ĠausÃªncia":10809,"Ġengat":10810,"ĠClark":10811,"\"?":10812,"Pa":10813,"pan":10814,"Ġepis":10815,"Ġcelas":10816,"erÃ¡vel":10817,"ormal":10818,"laÃ§Ãµes":10819,"Ġlisa":10820,"ÃŃticos":10821,"Ġric":10822,"Ġfabul":10823,"Ġinicia":10824,"itÃ¡vel":10825,"Ġcontador":10826,"Ġtric":10827,"Ġamassado":10828,"Ġdeixavam":10829,"Ġclientes":10830,"Ġcuidando":10831,"ĠfunÃ§Ã£o":10832,"Ġ21":10833,"vidar":10834,"ĠcaÃŃdos":10835,"Ġbebia":10836,"ĠFalei":10837,"ĠfuncionÃ¡rios":10838,"ĠChega":10839,"ĠmandÃŃb":10840,"ĠTimes":10841,"Ġpiadas":10842,"ĠBurny":10843,"ĠTrent":10844,"Ġbateram":10845,"Ġassumir":10846,"Donald":10847,"ĠCoughlin":10848,"Ġanoitecer":10849,"Fred":10850,"iÃ¡":10851,"pol":10852,"rinhas":10853,"Ġcav":10854,"Ġfax":10855,"Ġatribu":10856,"Ġpegue":10857,"ĠprÃ¡tica":10858,"itivos":10859,"Ġmoda":10860,"Ġassuntos":10861,"Ġvolunt":10862,"Ġluxo":10863,"Ġpensaria":10864,"Ġmorder":10865,"ĠtraÃ§os":10866,"Ġcompar":10867,"ĠvisÃµes":10868,"Ġtranca":10869,"Ġcaneca":10870,"ĠSuper":10871,"Ġlendas":10872,"Ġgolfo":10873,"Ġdespertou":10874,"Ġamericanos":10875,"Ġsecreto":10876,"Ġshopping":10877,"Ġ1958":10878,"Ġadesivo":10879,"ĠnÃŃtida":10880,"Bra":10881,"Emb":10882,"een":10883,"iÃ¡rio":10884,"lina":10885,"Ġaverm":10886,"Ġcobre":10887,"inville":10888,"Ġsecos":10889,"deza":10890,"Ġdados":10891,"ĠAmar":10892,"olÃ³gico":10893,"Ġdispon":10894,"ĠTru":10895,"Ġressa":10896,"Ã¡ssemos":10897,"Ġpensara":10898,"endem":10899,"Ġrespei":10900,"Ġestalar":10901,"Ġusada":10902,"Ġguia":10903,"iciou":10904,"Ġapertados":10905,"Ġrecebi":10906,"Ġrelativamente":10907,"Ġdesejar":10908,"Ġprovocar":10909,"ĠdemÃ´nios":10910,"Ġmandando":10911,"Ġqueimada":10912,"Ġlingua":10913,"Ġrecusou":10914,"Ġcastanho":10915,"Nenhuma":10916,"Ġeternidade":10917,"Ġbesteira":10918,"ĠLewiston":10919,"ĠEverett":10920,"xos":10921,"ĠcÃ´m":10922,"Ġfon":10923,"Ġcomia":10924,"ĠcomitÃª":10925,"Ã§ara":10926,"elle":10927,"Ġparam":10928,"ĠAke":10929,"ĠApar":10930,"Ġganh":10931,"Ġrecado":10932,"ĠCle":10933,"ĠClu":10934,"Ġcond":10935,"Ġatur":10936,"ĠJose":10937,"Ġangu":10938,"Ġpant":10939,"ĠDepape":10940,"ĠQuar":10941,"Ġmordida":10942,"Ġpassaria":10943,"Ġjogava":10944,"Ġentrevista":10945,"isola":10946,"Ġcorreto":10947,"Ġsubiram":10948,"Ġinsu":10949,"icks":10950,"Ġbasicamente":10951,"Ġerguida":10952,"ĠHoff":10953,"Ġdesaf":10954,"ĠClaire":10955,"ĠBateu":10956,"Ġligava":10957,"Ġinterrom":10958,"Ġprateado":10959,"Ġmachucado":10960,"ĠBowers":10961,"Ġaumentar":10962,"Ġmiolos":10963,"Ġmencionou":10964,"ĠLevantou":10965,"ĠÃ¡lbum":10966,"ĠÃ¡lcool":10967,"ĠherÃ³i":10968,"ÃŃlulas":10969,"Ġpronuncia":10970,"Ġconsertar":10971,"ĠintuiÃ§Ã£o":10972,"ĠproprietÃ¡rio":10973,"Ġpijama":10974,"AT":10975,"ceria":10976,"ht":10977,"oito":10978,"rt":10979,"Ġmul":10980,"iscons":10981,"lat":10982,"ĠCerta":10983,"ĠMen":10984,"Ġjura":10985,"dioso":10986,"Ġapanhar":10987,"Ġentrasse":10988,"ensÃµes":10989,"Ġproba":10990,"Ġtemor":10991,"ĠhavÃŃamos":10992,"Ġprefeito":10993,"Ġmontar":10994,"Ġvib":10995,"postas":10996,"fante":10997,"Ġinflu":10998,"Ġsofrido":10999,"Ġenvolvido":11000,"ĠDenver":11001,"ĠDenbrough":11002,"ĠmuniÃ§Ã£o":11003,"Ġarrepio":11004,"Ġplanejando":11005,"Ġimpressionado":11006,"Ġsemelhantes":11007,"Ġacalmar":11008,"iffany":11009,"ĠcrenÃ§a":11010,"ĠaÃ§Ãºcar":11011,"ĠgÃªnero":11012,"Ac":11013,"bulo":11014,"Ġente":11015,"ĠcÃŃ":11016,"Ã©rios":11017,"Ġlus":11018,"Ã³lica":11019,"Ġalf":11020,"ĠMÃ©":11021,"ĠLas":11022,"ĠGosto":11023,"Ġperguntado":11024,"perou":11025,"Ġinterno":11026,"Ġtagar":11027,"Ġpossibil":11028,"Ġenfei":11029,"ĠdÃºzias":11030,"ĠCarla":11031,"ĠLeo":11032,"Ġlargar":11033,"ĠPareciam":11034,"ĠYan":11035,"ells":11036,"Ã³rica":11037,"Ġchegam":11038,"ĠNorrie":11039,"ĠmaldiÃ§Ã£o":11040,"Ġartigos":11041,"Ġcobras":11042,"Ġformul":11043,"Ġ80":11044,"Ġpecado":11045,"wsky":11046,"Ġaval":11047,"Ġdensa":11048,"Ġdezesseis":11049,"ĠfenÃ´m":11050,"ĠChevro":11051,"Ġeclipse":11052,"ĠpÃ¢ntano":11053,"?]":11054,"ATI":11055,"Ficou":11056,"Ste":11057,"cur":11058,"ks":11059,"pito":11060,"Ġrig":11061,"ĠpÃŃ":11062,"Ġsed":11063,"rola":11064,"Ġgai":11065,"Ġmatem":11066,"ĠDuma":11067,"Ġpegava":11068,"ulsÃ£o":11069,"Ġaplica":11070,"Ġhid":11071,"Ġespar":11072,"less":11073,"Ġressent":11074,"pergu":11075,"Ġestamp":11076,"Ġsoar":11077,"cionais":11078,"Ġbafo":11079,"Ġsaltando":11080,"Ġmilha":11081,"Ã¡sticos":11082,"Ġadiantou":11083,"Ġdourada":11084,"ĠBeav":11085,"Ġdiminuindo":11086,"Ġiguais":11087,"Ġconvic":11088,"ĠsubstituÃŃdo":11089,"Ġarromb":11090,"Ġesfregou":11091,"Ġtarefas":11092,"Ġtesoura":11093,"Ġparalisado":11094,"Ġinocente":11095,"Ġquinhentos":11096,"Dei":11097,"Har":11098,"gÃµes":11099,"ibo":11100,"jor":11101,"don":11102,"isomem":11103,"Ġteias":11104,"eson":11105,"Ġlom":11106,"ames":11107,"Ġrud":11108,"lheiros":11109,"Ġfadas":11110,"ĠBry":11111,"Ġincont":11112,"roso":11113,"Ġcoru":11114,"ĠlÃ¡p":11115,"Ġchurras":11116,"Ġtomara":11117,"Ġrugas":11118,"Ġmerecia":11119,"Ġbasquete":11120,"Ġnucle":11121,"Ġafastado":11122,"Ġaguar":11123,"anscom":11124,"Ġcinzeiro":11125,"Ġatingir":11126,"Ġartrite":11127,"Ġterminava":11128,"ĠcÃ¢meras":11129,"Ġdurar":11130,"Ġbarata":11131,"Ġacabava":11132,"Ġenferrujada":11133,"Dois":11134,"ĠinterminÃ¡vel":11135,"Ġmanifesta":11136,"humorado":11137,"Ġcamarada":11138,"setts":11139,"Ġincidente":11140,"Ġcovarde":11141,"Ġmanuscrito":11142,"ĠepisÃ³":11143,"Alice":11144,"Big":11145,"Desta":11146,"Tenho":11147,"gen":11148,"geiro":11149,"vÃ¡":11150,"ĠpÃ³s":11151,"Ġfos":11152,"Ġfixo":11153,"Ġdama":11154,"ĠAno":11155,"Ġmataria":11156,"Ġdiscre":11157,"Ġespiar":11158,"cey":11159,"cedor":11160,"Ġresf":11161,"ĠmoÃ§o":11162,"ĠmoÃ§as":11163,"Ġmotel":11164,"Ġsentiria":11165,"Ġcamisola":11166,"Ġpratas":11167,"Ġentrea":11168,"Ġreporta":11169,"condicionado":11170,"Ġputo":11171,"falantes":11172,"ĠsimpÃ¡tico":11173,"Ġtripas":11174,"Ġderro":11175,"Ġborri":11176,"Ġlimpeza":11177,"Esta":11178,"Ġdeveriam":11179,"Ġprometeu":11180,"ĠXX":11181,"ĠdÃ©bil":11182,"Ġfalecido":11183,"Ġtijolo":11184,"Ġcozinheiro":11185,"ĠrelÃ¢mpago":11186,"ĠGasher":11187,"Ġguitarra":11188,"ĠPessoas":11189,"ĠÃ¢nsia":11190,"Aquele":11191,"Tam":11192,"iÃ§o":11193,"Ġaze":11194,"Ġdetec":11195,"Ġvinda":11196,"ĠAgar":11197,"Ġcapo":11198,"ĠPÃ´s":11199,"Ġprende":11200,"Ġmorreria":11201,"Ġjuro":11202,"Ġformavam":11203,"Ġbastava":11204,"Ġpassadas":11205,"Ġviagens":11206,"Ġvestidos":11207,"Ġcapric":11208,"Ġtrevas":11209,"Ġfrango":11210,"Ġinfernal":11211,"ĠContinua":11212,"Ġaceitou":11213,"Ġencantado":11214,"Ġgrossos":11215,"Ġconvuls":11216,"view":11217,"Ġvagab":11218,"ĠCenter":11219,"Ġcochilo":11220,"Ġdesconhecida":11221,"Ġrepresenta":11222,"Ġabsurda":11223,"ĠMyra":11224,"Ġliteratura":11225,"ĠDiretor":11226,"ĠanÃºncio":11227,"Ġletreiro":11228,"ME":11229,"jara":11230,"Ġferv":11231,"tais":11232,"ĠseÃ§Ã£o":11233,"Ġesm":11234,"ĠScou":11235,"usas":11236,"Ġespas":11237,"Ġpagamento":11238,"Ġcarvalho":11239,"Ġcasar":11240,"ĠUllman":11241,"Ġamost":11242,"endimento":11243,"undon":11244,"Ġcanos":11245,"ĠagÃªncia":11246,"Ġfitava":11247,"Ġconfi":11248,"Ġcachorr":11249,"Ġcavalheiro":11250,"Ġescondendo":11251,"QUI":11252,"chusetts":11253,"ĠirmÃ£s":11254,"Ġindig":11255,"celana":11256,"ĠmecÃ¢nico":11257,"Ġrosnado":11258,"ĠStephanie":11259,"ĠAmberson":11260,"ĠMichael":11261,"ĠUnderhill":11262,"ickering":11263,"Ġcrise":11264,"Ġinof":11265,"ĠplanÃŃ":11266,"ĠinscriÃ§Ã£o":11267,"):":11268,"Lobo":11269,"ĠaÃ§Ãµes":11270,"Ġdevemos":11271,"Ġopa":11272,"Ġfrios":11273,"Ġfitas":11274,"entÃ¡":11275,"coisa":11276,"ĠSch":11277,"illa":11278,"ĠPensa":11279,"Ġprost":11280,"itivamente":11281,"ensÃŃvel":11282,"Quanto":11283,"ixon":11284,"ndowsky":11285,"pac":11286,"ĠmenÃ§Ã£o":11287,"voada":11288,"Ġtratar":11289,"idÃ¡vel":11290,"Ġirromp":11291,"ĠWin":11292,"Ġvantagem":11293,"Ġsangu":11294,"Ġsirene":11295,"Ġconheceu":11296,"Ġimagina":11297,"Ġdesapareceram":11298,"Ġdesabou":11299,"Ġfalam":11300,"ĠberÃ§o":11301,"Ġinterroga":11302,"ĠcoleÃ§Ã£o":11303,"Ġencant":11304,"ĠFalls":11305,"Ġromances":11306,"Ġventila":11307,"Ġdobradi":11308,"Ġcolapso":11309,"Ġcerebral":11310,"ĠESTÃģ":11311,"Ġcautelos":11312,"Ġdesajeitada":11313,"ĠBuster":11314,"Ġperplexidade":11315,"ĠalienÃŃg":11316,"ĠJoseph":11317,"Aquela":11318,"jus":11319,"ĠpÃŃlulas":11320,"Ġesbar":11321,"Ġcomemo":11322,"town":11323,"ĠlanÃ§ar":11324,"ĠAbaixo":11325,"ondo":11326,"ĠNosso":11327,"Ġatento":11328,"Ġaposta":11329,"Ġcasinha":11330,"Ġfaltava":11331,"Ġvislum":11332,"ĠBillings":11333,"luvas":11334,"ĠbastÃ£o":11335,"Ġadicion":11336,"Ġcurtas":11337,"ĠMain":11338,"Ġ29":11339,"Ġrecentemente":11340,"Ġfinos":11341,"Ġfaminto":11342,"ĠMulher":11343,"ĠMorte":11344,"ĠNorte":11345,"Ġpretendo":11346,"ĠAmanhÃ£":11347,"Ġexaminando":11348,"ĠGrace":11349,"Ġiluminou":11350,"ĠMatt":11351,"ĠdelÃŃ":11352,"Ġalimentar":11353,"dicional":11354,"kov":11355,"ĠRosalie":11356,"Ġamontoado":11357,"ĠScout":11358,"!!":11359,"\"'":11360,"?\".":11361,"ainda":11362,"cem":11363,"sÃ³":11364,"vÃµes":11365,"Ġaer":11366,"asso":11367,"Ġtit":11368,"Ġband":11369,"ĠErin":11370,"icida":11371,"ĠAB":11372,"ochete":11373,"Ġrenda":11374,"ĠCos":11375,"ĠCat":11376,"ĠalianÃ§a":11377,"Ġmudo":11378,"Ġapet":11379,"vial":11380,"ĠHockstetter":11381,"ensiva":11382,"ĠanÃ©is":11383,"meda":11384,"endÃª":11385,"ĠWiscons":11386,"ĠÃ¡cido":11387,"Ġbarril":11388,"Ġboliche":11389,"ĠTower":11390,"Ġrevira":11391,"emato":11392,"ĠinvÃ©s":11393,"ĠligaÃ§Ãµes":11394,"QUE":11395,"Ġdecl":11396,"Ġpenduradas":11397,"Ġconsiderado":11398,"Ġdespro":11399,"ĠidentificaÃ§Ã£o":11400,"Ġrodovi":11401,"ĠPuxa":11402,"Ġnoturnos":11403,"Ġgerente":11404,"Ġarriscar":11405,"ĠEastlake":11406,"Ġindagou":11407,"ĠSharp":11408,"Ġforasteiro":11409,"50":11410,"The":11411,"bes":11412,"ek":11413,"jamos":11414,"larec":11415,"von":11416,"Ġefeitos":11417,"Ġpinheiro":11418,"Ġode":11419,"oro":11420,"Ã©ns":11421,"ĠgÃªnio":11422,"ĠSER":11423,"ĠNÃ³":11424,"ĠTique":11425,"ĠTEM":11426,"Ġhipo":11427,"Ġesporte":11428,"Ġesclarec":11429,"Ġpesquis":11430,"now":11431,"Ġtentara":11432,"Ġpenumbra":11433,"ibre":11434,"ĠincÃ´mo":11435,"Ġruidos":11436,"Ġenfiada":11437,"chefe":11438,"Ġcarregada":11439,"Ġaposentos":11440,"Ġreunir":11441,"ĠDuvido":11442,"Ġfrequentemente":11443,"Ġgrossas":11444,"Ġpiano":11445,"ĠVolte":11446,"ĠimpressÃµes":11447,"Mary":11448,"ĠalucinaÃ§Ã£o":11449,"ĠKojak":11450,"ĠArkham":11451,"Ġadap":11452,"ĠoxigÃªnio":11453,"OO":11454,"Pelo":11455,"fico":11456,"vest":11457,"ĠcÃ³s":11458,"Ġcenho":11459,"quase":11460,"Ġneu":11461,"Ġnesses":11462,"Ġcolh":11463,"Ġestante":11464,"ĠAos":11465,"ĠSher":11466,"ĠMOR":11467,"Ġfoco":11468,"ciosa":11469,"itÃŃssimo":11470,"Ġimpostos":11471,"Ġqueremos":11472,"Ġcaligrafia":11473,"Ġlevantado":11474,"Ġcorreram":11475,"Ġtenda":11476,"Ġbale":11477,"ĠPoder":11478,"ĠcÃ©us":11479,"ĠhaverÃ¡":11480,"Ġaumentando":11481,"ĠStreeter":11482,"Ġleitores":11483,"ĠinvisÃŃveis":11484,"ĠHank":11485,"Ġincluindo":11486,"Ġpotencial":11487,"Ġliteralmente":11488,"ĠMassachusetts":11489,"IR":11490,"bry":11491,"ik":11492,"quin":11493,"Ġtestes":11494,"lentos":11495,"enton":11496,"decker":11497,"ritos":11498,"Ġmacio":11499,"Ġsuti":11500,"ĠNuma":11501,"ĠPER":11502,"ĠMos":11503,"ĠMÃ©dio":11504,"Ġdivis":11505,"cies":11506,"Ġseguros":11507,"verde":11508,"Ġimpac":11509,"ĠAll":11510,"Ġoutrora":11511,"Ġrodando":11512,"Ġvirilha":11513,"Ġnasceu":11514,"Ġchamaria":11515,"ĠPodem":11516,"Ġcanive":11517,"Ġsaliva":11518,"ÃŃnica":11519,"fato":11520,"Ġagitando":11521,"ĠMarina":11522,"assar":11523,"Ġtrip":11524,"Ġacordei":11525,"ĠPerkins":11526,"ĠpalÃ¡cio":11527,"Ġatacar":11528,"ĠiluminaÃ§Ã£o":11529,"Ġapresentar":11530,"Ġcuriosos":11531,"Ġbrutal":11532,"Ġmecan":11533,"Ġcongelado":11534,"Ġrazoavelmente":11535,"ĠLeng":11536,"Ġviolentamente":11537,"Ġatordoado":11538,"Ġluminosidade":11539,"ĠRommie":11540,"Ġassassinatos":11541,"ĠChevrolet":11542,"Bom":11543,"NO":11544,"light":11545,"Ġcate":11546,"ĠOndowsky":11547,"riault":11548,"ĠsegurÃ¡":11549,"Ãºcia":11550,"Ġpergunto":11551,"Ġconseguimos":11552,"Ġpostes":11553,"ĠclÃ¡ss":11554,"Ġprestar":11555,"ĠConte":11556,"ĠimÃ³veis":11557,"Ġ27":11558,"Ġrecepcion":11559,"Ġvidros":11560,"Ġeventos":11561,"Ġbichos":11562,"Ġacompanhou":11563,"ÃŃbulo":11564,"Ġpegaram":11565,"Ġresultados":11566,"ĠsoluÃ§os":11567,"Ġrepentinamente":11568,"ĠThur":11569,"Ġhonra":11570,"Ġacelerador":11571,"Ġparticipa":11572,"ĠnÃ¡de":11573,"ĠHouston":11574,"ĠNancy":11575,"ĠcocaÃŃna":11576,"ĠMcCarthy":11577,"Ġdelibe":11578,"Rob":11579,"nar":11580,"Ãķ":11581,"Ġoposta":11582,"Ġfest":11583,"Ġporcelana":11584,"Ġmatei":11585,"ÃŃgio":11586,"Ġreno":11587,"omo":11588,"Ġdesce":11589,"ĠUns":11590,"Ġacontecimentos":11591,"Ġincessa":11592,"iciente":11593,"Ġbastar":11594,"ĠMarinville":11595,"Ġescritas":11596,"Ġescritores":11597,"Ġescolar":11598,"Ġroubou":11599,"ĠcaÃŃam":11600,"Ġcompletar":11601,"Ġaparecendo":11602,"Ġborbo":11603,"ĠdiversÃµes":11604,"ĠSammy":11605,"ĠColocou":11606,"Ġdisparada":11607,"Ġretornar":11608,"Ġperguntara":11609,"ĠHouse":11610,"ĠContinue":11611,"ĠeducaÃ§Ã£o":11612,"ĠconsiderÃ¡vel":11613,"Ġestudar":11614,"Ġtilint":11615,"Deix":11616,"Pou":11617,"ndas":11618,"tton":11619,"lata":11620,"iclo":11621,"Ġestende":11622,"Ġreaparec":11623,"Ġenfor":11624,"Ġperver":11625,"Ġfodido":11626,"Ġcontara":11627,"Ġhemato":11628,"Ġpassamos":11629,"Ġposterior":11630,"Ġvacas":11631,"Ġusam":11632,"Ġconserv":11633,"ĠhistÃ©r":11634,"ĠJohnnie":11635,"ĠLevou":11636,"Ġveran":11637,"Ġfavorito":11638,"Ġmanteiga":11639,"Ġapareceram":11640,"Ġcapuz":11641,"Ġchuv":11642,"cesa":11643,"Ġcompreendia":11644,"Ġtransformara":11645,"Ġcomprimido":11646,"ĠconteÃºdo":11647,"ĠconfortÃ¡vel":11648,"Ġdescrever":11649,"Ġcharu":11650,"Ġmenininha":11651,"Ġcheirava":11652,"Ġincomum":11653,"Ġenvelhec":11654,"ĠJoyland":11655,"ÃķES":11656,"!\".":11657,"gir":11658,"pper":11659,"tinhos":11660,"trans":11661,"udos":11662,"zier":11663,"Ġpran":11664,"esp":11665,"Ġbene":11666,"todo":11667,"Ġpede":11668,"Ġlamento":11669,"ceb":11670,"ĠabÃ³":11671,"Ġcheiros":11672,"Ġprazo":11673,"zak":11674,"Ġvive":11675,"Ġbacon":11676,"Ġsubida":11677,"ĠNora":11678,"Ġficariam":11679,"ĠjuÃŃ":11680,"Ġseriamente":11681,"Ġsalas":11682,"ĠpossÃŃveis":11683,"ĠroupÃ£o":11684,"Ġaparecido":11685,"Ġfirma":11686,"Ġpropriamente":11687,"ĠaviÃµes":11688,"Ġvisitantes":11689,"Ġjustamente":11690,"Ġfrases":11691,"ĠquarteirÃµes":11692,"Ġreflexos":11693,"Ġintervalo":11694,"Ġfundamental":11695,"Ġbairro":11696,"ficial":11697,"gran":11698,"yll":11699,"daÃ§Ãµes":11700,"Ã¡gio":11701,"Ġsuando":11702,"ĠPickering":11703,"Ġmetido":11704,"ĠTrans":11705,"Ġenros":11706,"ĠRip":11707,"ĠcordÃ£o":11708,"orrÃ£o":11709,"forth":11710,"ĠEstre":11711,"Ġmaltra":11712,"Ġcabel":11713,"Ġtornaria":11714,"Ġaponta":11715,"Ġazar":11716,"Ġveteran":11717,"tÃ©is":11718,"ĠfarÃ¡":11719,"Ġsofrer":11720,"Ġajudando":11721,"ĠVerde":11722,"Ġcruzando":11723,"Ġgrosse":11724,"Ġpegara":11725,"Ġhabilidade":11726,"iquia":11727,"ĠdomÃ©st":11728,"Ġarrumar":11729,"ĠAugu":11730,"Lois":11731,"Ġpromotor":11732,"Ġocorr":11733,"cÃ³pio":11734,"Ġtransparente":11735,"ĠsÃ³brio":11736,"ITO":11737,"dra":11738,"sua":11739,"zi":11740,"Ġpur":11741,"Ġninho":11742,"ĠnÂº":11743,"Ġole":11744,"esia":11745,"ĠvÃ´":11746,"Ġblas":11747,"Ġparale":11748,"gulos":11749,"ĠAlec":11750,"Ġmax":11751,"Ġcantava":11752,"Ġconster":11753,"Ġfatal":11754,"Ġincons":11755,"Ġtermo":11756,"Ġapanhado":11757,"ĠHuddie":11758,"ĠHanscom":11759,"ĠDeb":11760,"ĠDev":11761,"Ġcamundon":11762,"ĠWei":11763,"adamente":11764,"Ġestalou":11765,"kee":11766,"ĠÃ¡reas":11767,"Ġcaralho":11768,"ibi":11769,"duzia":11770,"Ġtorneira":11771,"Ġagress":11772,"Ġamarrado":11773,"Ġlargura":11774,"Ġquadrinhos":11775,"Ġmotores":11776,"ĠCaso":11777,"Ġextrava":11778,"letcher":11779,"Ġligada":11780,"ĠPeters":11781,"Ġexames":11782,"Ġcomunidade":11783,"ĠBurke":11784,"Ġatirado":11785,"Ġexecut":11786,"ĠMundial":11787,"Muito":11788,"ĠTherriault":11789,"Rusty":11790,"Ġressaca":11791,"Ġlinguagem":11792,"Nunca":11793,"fund":11794,"Ġced":11795,"Ã§Ã¡":11796,"Ã©ticos":11797,"rip":11798,"ĠSide":11799,"ilou":11800,"Ġren":11801,"Ġrevi":11802,"ĠPet":11803,"ĠTiffany":11804,"Ġdesceram":11805,"Ġprontos":11806,"Ġpesadas":11807,"Ġmordeu":11808,"berg":11809,"Ġquartel":11810,"ĠgratidÃ£o":11811,"Ġbandeira":11812,"minas":11813,"ĠimitaÃ§Ã£o":11814,"Ġnub":11815,"ĠCharity":11816,"Ġdesejando":11817,"ĠelÃ¡stico":11818,"ĠdepressÃ£o":11819,"Ġpermanecer":11820,"Ġderrubar":11821,"Ġaprende":11822,"Ġdestruir":11823,"Ġunifor":11824,"Ġcruzados":11825,"ĠrefeiÃ§Ãµes":11826,"binete":11827,"Ġtesouro":11828,"ĠcomentÃ¡rios":11829,"Ġtroncos":11830,"ĠWarwick":11831,"ĠavanÃ§ava":11832,"Ġretribuiu":11833,"ĠExceto":11834,"ĠCasey":11835,"Ġrecepcionista":11836,"bs":11837,"nec":11838,"tÃŃ":11839,"Ġdelicado":11840,"quinhos":11841,"sete":11842,"guel":11843,"riar":11844,"ĠAquelas":11845,"Ġasc":11846,"Ġrebo":11847,"ĠDig":11848,"Ġdipl":11849,"cioc":11850,"ĠLuz":11851,"ĠestÃ¡tua":11852,"Ġpapo":11853,"ĠSelena":11854,"Ġervas":11855,"tude":11856,"Ġcedeu":11857,"Ġchegarem":11858,"Ã¢mica":11859,"ggins":11860,"ĠalcanÃ§ou":11861,"Ġarquivos":11862,"Ġgigantesca":11863,"Ġfingindo":11864,"ĠCaramba":11865,"ĠexpressÃµes":11866,"ĠrepÃ³rteres":11867,"Ġpersonagens":11868,"Ġtabuleta":11869,"Ġpreench":11870,"AtrÃ¡s":11871,"Ġesbugalhados":11872,"gÃŃnqu":11873,"Ġfisionomia":11874,"Aquilo":11875,"Onde":11876,"sal":11877,"uber":11878,"Ġtons":11879,"Ġvassou":11880,"Ġgr":11881,"ĠSum":11882,"ĠPel":11883,"Ġdesar":11884,"Ġtempe":11885,"Ġrestavam":11886,"Ġpago":11887,"nante":11888,"ĠKin":11889,"Ġcaixo":11890,"fÃŃcios":11891,"oody":11892,"hany":11893,"Ġmensagens":11894,"Ġenfermaria":11895,"Ġrefletir":11896,"Ġestoque":11897,"Ġapavorante":11898,"Ġignorando":11899,"Ġcicatrizes":11900,"Ġgrunhido":11901,"Ġindicava":11902,"Ġtestemunhas":11903,"ĠErnie":11904,"Ġsincero":11905,"Ġalternat":11906,"ĠvibraÃ§Ã£o":11907,"ĠAndrea":11908,"Ġbigode":11909,"ĠTiquetaque":11910,"**":11911,"Cor":11912,"Cur":11913,"SerÃ¡":11914,"quente":11915,"Ġcoa":11916,"Ġfaro":11917,"Ġsele":11918,"ĠAir":11919,"Ġmacon":11920,"Ġregra":11921,"ĠCava":11922,"Ġconec":11923,"Ġconstitu":11924,"Ġatendente":11925,"Ġatualmente":11926,"ĠolhÃ¡":11927,"Ġolhasse":11928,"ittle":11929,"Ġespan":11930,"icada":11931,"Ġprej":11932,"Ġpagou":11933,"Ġcervo":11934,"inavam":11935,"Ġimplac":11936,"Ġirland":11937,"Ġjoguei":11938,"ĠlongÃŃnqu":11939,"ĠNacional":11940,"Ġfalara":11941,"Ġrasgou":11942,"Ġritual":11943,"Ġescorreu":11944,"Ġresolvido":11945,"Ġirritante":11946,"Ġdisparado":11947,"Ġdevolver":11948,"Ġagachado":11949,"ĠdistraÃŃdo":11950,"ĠresidÃªncia":11951,"Ġdocumento":11952,"Ġaventura":11953,"Ġessencial":11954,"Ġintrigado":11955,"Ġpleno":11956,"ATIE":11957,"Ġcanivete":11958,"az":11959,"ya":11960,"ĠmÃ³veis":11961,"erts":11962,"Ġveias":11963,"Ġlobos":11964,"ĠsuÃŃ":11965,"Ġpobres":11966,"Ġresum":11967,"Ġvoaram":11968,"ĠIgreja":11969,"Ġestalando":11970,"Ġrepulsa":11971,"Ġtomei":11972,"ĠEntendo":11973,"anhÃ¡":11974,"lula":11975,"ĠCora":11976,"Ġtirada":11977,"Ġdormido":11978,"Ġobscura":11979,"ĠpuxÃ£o":11980,"Ġplateia":11981,"ĠGeorgie":11982,"Ġesquecera":11983,"Ġdeseja":11984,"Ġdesejou":11985,"Ġgabinete":11986,"ĠEld":11987,"Ġrepetidamente":11988,"Naquele":11989,"ĠLembrou":11990,"Ġjornada":11991,"Ġdobrado":11992,"ĠEvans":11993,"ĠimpaciÃªncia":11994,"Ġaterrorizado":11995,"Ġinspirou":11996,"ĠdragÃ£o":11997,"ĠvidraÃ§a":11998,"ĠheroÃŃna":11999,"ĠAstrid":12000,"Ġpossibilidades":12001,"TambÃ©m":12002,"Ġblasf":12003,"ROS":12004,"agora":12005,"ds":12006,"Ġput":12007,"Ġfinais":12008,"Ġving":12009,"Ġsever":12010,"ÃŃris":12011,"Ġcacete":12012,"Ġdescas":12013,"Ġengre":12014,"ĠatÃ´n":12015,"Ġpares":12016,"ĠVelha":12017,"Ġprevis":12018,"Ġsobrou":12019,"izos":12020,"Ġcasado":12021,"ĠforÃ§ar":12022,"Ġracioc":12023,"ingos":12024,"guete":12025,"iciar":12026,"Ġvirava":12027,"Ġagitado":12028,"Ġapoiada":12029,"Ġerguido":12030,"Ġamarga":12031,"Ġfins":12032,"ĠPareceu":12033,"ĠYou":12034,"Esse":12035,"Ġescorregar":12036,"ĠRoberts":12037,"Ġretorno":12038,"Ġvigia":12039,"Ġpermitiu":12040,"Ġcresceu":12041,"Ġtrazendo":12042,"Ġproduzir":12043,"ĠWilliams":12044,"Ġredondo":12045,"ĠdisposiÃ§Ã£o":12046,"Ġimaginei":12047,"Ġinexpress":12048,"ĠTyler":12049,"Ġcantarol":12050,"ĠTartaruga":12051,"Ġardente":12052,"Ġtumor":12053,"Ġacostumado":12054,"ĠVale":12055,"ĠarmazÃ©m":12056,"Ġembrul":12057,"ComeÃ§ou":12058,"Ġveloz":12059,"xico":12060,"Ġdinam":12061,"aron":12062,"ianas":12063,"havia":12064,"tona":12065,"ĠliÃ§Ã£o":12066,"ĠCross":12067,"Ġmeados":12068,"Ġenig":12069,"Ġfacho":12070,"Ġperdidos":12071,"ĠRicky":12072,"ĠHist":12073,"ĠFBI":12074,"Ġile":12075,"urÃ¡":12076,"Ġchec":12077,"Ġpesados":12078,"Ġcompro":12079,"ĠEspera":12080,"Ġmarrons":12081,"Ġinspira":12082,"Ġtrabalhos":12083,"Ġtape":12084,"Ġapontar":12085,"Ġbonecas":12086,"Ġfinas":12087,"Ġespectral":12088,"Ġsuperst":12089,"Ġmentiras":12090,"ĠNorm":12091,"Ġconsidera":12092,"ĠirritaÃ§Ã£o":12093,"Ġaluguel":12094,"Ġinstinto":12095,"Ġcontorno":12096,"Ġmijar":12097,"Ġtelefonar":12098,"EIRO":12099,"Ġaspectos":12100,"Ġtestemunha":12101,"Ġespreita":12102,"Ġdezessete":12103,"Ġintegral":12104,"Ġpesquisa":12105,"Ġpropagan":12106,"Nem":12107,"bby":12108,"grada":12109,"Ġdurou":12110,"Ġduras":12111,"reiro":12112,"gueiro":12113,"ĠCÃ¢mara":12114,"Ġalon":12115,"ĠPO":12116,"adora":12117,"Ã§avam":12118,"diente":12119,"ĠFun":12120,"Ġmestre":12121,"imaÃ§Ã£o":12122,"igg":12123,"Ġcaminhos":12124,"Ġforem":12125,"Ġraro":12126,"Ġcomplica":12127,"Ġcompridos":12128,"ĠSea":12129,"Ġmancando":12130,"Ġmanchado":12131,"ĠEstendeu":12132,"ĠNoite":12133,"Ġbati":12134,"Ġimpot":12135,"ĠpÃ´quer":12136,"Ġferidas":12137,"Ġprecisei":12138,"Ġfalavam":12139,"ĠfarmÃ¡":12140,"Ġassustados":12141,"PorÃ©m":12142,"ĠIndia":12143,"Ġconcordar":12144,"Ġligue":12145,"Ġlimitou":12146,"Ġestiverem":12147,"Ġgordu":12148,"Ġabandonar":12149,"Ġprofundas":12150,"Ġassombrado":12151,"ĠsoluÃ§Ã£o":12152,"ĠBetsy":12153,"ÃŃlias":12154,"ĠautomÃ³vel":12155,"ĠLanding":12156,"Ġfluorescentes":12157,"ĠrobÃ´":12158,"tnÃ£":12159,"ĠAugusta":12160,"bit":12161,"uo":12162,"Ġtelhados":12163,"Ġgram":12164,"ĠSenho":12165,"Ġcacos":12166,"ĠOK":12167,"Ġdesva":12168,"Ġperam":12169,"Ġanunciou":12170,"ixi":12171,"Ġchiado":12172,"tern":12173,"Ġesperasse":12174,"Ġconceito":12175,"izade":12176,"Ġcompreende":12177,"Alguma":12178,"ĠLembre":12179,"ecedor":12180,"ĠdestruÃŃdo":12181,"ĠpÃºblica":12182,"Ġleitor":12183,"Ġencarando":12184,"Ġ1960":12185,"ĠQuantas":12186,"ĠÃŃntimo":12187,"ĠtransmissÃ£o":12188,"Ġcirurgia":12189,"Ġmanchete":12190,"ĠCathy":12191,"Ġricochete":12192,"ss":12193,"uf":12194,"endas":12195,"Ã³rm":12196,"Ġesteira":12197,"Ġmachado":12198,"ĠCAR":12199,"Ġdeser":12200,"Ġjurar":12201,"Ġterri":12202,"Ġexal":12203,"Ġardendo":12204,"Ġcorri":12205,"Ġseguiam":12206,"ĠmÃ£es":12207,"idan":12208,"Ġnebul":12209,"Ġpostos":12210,"Ġtorcer":12211,"neticamente":12212,"Ġaprop":12213,"ĠflÃ¡":12214,"Ġrecusa":12215,"Ġchute":12216,"duzir":12217,"duziu":12218,"ronia":12219,"Ġexibia":12220,"Ġpsiquia":12221,"Ġindicando":12222,"Ġautoridade":12223,"ancei":12224,"Ġredonda":12225,"Ġtateou":12226,"Ġcostumam":12227,"Ġintrome":12228,"lmutter":12229,"Ġpercorrer":12230,"Ġabatido":12231,"ÃŃduo":12232,"Ġgrasn":12233,"Ġbibliotec":12234,"Ġimpacto":12235,":âĢĶ":12236,"Sent":12237,"gol":12238,"Ġpenh":12239,"erÃ¡rio":12240,"iante":12241,"ĠSaiu":12242,"Ġenlu":12243,"cientemente":12244,"ĠHat":12245,"ĠFim":12246,"ĠGan":12247,"chei":12248,"ĠAlf":12249,"Ġtorceu":12250,"Ã¢ngulo":12251,"Ġvagas":12252,"fados":12253,"ĠEstÃ¡vamos":12254,"ĠcaÃŃdas":12255,"ĠGeorgia":12256,"Ġescrevia":12257,"Ġrevest":12258,"Ġassoalho":12259,"Ġmalditos":12260,"AlguÃ©m":12261,"Ġenchia":12262,"Ġcrescido":12263,"ĠpreocupaÃ§Ãµes":12264,"claro":12265,"ENTO":12266,"ĠinquietaÃ§Ã£o":12267,"Ġfamiliares":12268,"Ġdeboc":12269,"ApÃ³s":12270,"Ġprisioneiros":12271,"Ġdesconfiava":12272,"ĠVietnÃ£":12273,"Ġpipoca":12274,"ĠantebraÃ§o":12275,"Cu":12276,"cÃµes":12277,"ilado":12278,"Ġdil":12279,"Ġsinu":12280,"erente":12281,"inosa":12282,"Ġventos":12283,"law":12284,"Ã§osa":12285,"ĠAdo":12286,"Ġgel":12287,"Ġghou":12288,"Ġost":12289,"Ġdisper":12290,"its":12291,"Ġcontam":12292,"Ġhos":12293,"Ġlagos":12294,"izador":12295,"ĠEscre":12296,"Ġmane":12297,"Ġsoa":12298,"Ġlembrado":12299,"Ġtartaruga":12300,"Ġbalsa":12301,"Ġ192":12302,"ĠHart":12303,"lini":12304,"ĠBaronato":12305,"Ġescreve":12306,"Ġrasgado":12307,"Ã³rcio":12308,"Ġfirmes":12309,"Ġcirco":12310,"ĠfrancÃªs":12311,"Ġformado":12312,"Ġvalia":12313,"Ġdigital":12314,"Ġsexto":12315,"Ġbarraca":12316,"Isto":12317,"Ġdescarre":12318,"Ġparticipar":12319,"ĠMunicipal":12320,"Ġatravessava":12321,"Outra":12322,"Ġsinceridade":12323,"ĠpulsaÃ§Ã£o":12324,"ĠbinÃ³":12325,"Ġaspirina":12326,"Ġentreolharam":12327,"ĠAssassino":12328,"kovitch":12329,"VI":12330,"ft":12331,"fim":12332,"gico":12333,"iques":12334,"peito":12335,"vy":12336,"ĠoraÃ§Ã£o":12337,"Ġbis":12338,"Ġlance":12339,"Ġestender":12340,"ĠFis":12341,"Ġteoria":12342,"Ġdireitos":12343,"bava":12344,"Ġusados":12345,"ady":12346,"ĠficarÃ¡":12347,"etes":12348,"Ġcriando":12349,"Ġcontrato":12350,"Ġacreditaria":12351,"Ġagrada":12352,"Ġcurvas":12353,"Ġsairia":12354,"Ġpassarem":12355,"Ġtremiam":12356,"Ġaparecesse":12357,"Ġterminando":12358,"Ġchutou":12359,"Ġgalinhas":12360,"Ġxixi":12361,"Ġberrar":12362,"ĠCordelia":12363,"Ġquiserem":12364,"Ġencostar":12365,"Ġhorrivelmente":12366,"ĠWilson":12367,"ĠESTA":12368,"Ġquebrados":12369,"ĠPolicial":12370,"Ġcomputadores":12371,"Ġcausado":12372,"Ġfiguras":12373,"Ġvomitou":12374,"ĠSox":12375,"Ġenlouquecido":12376,"Ġescolhido":12377,"ĠJeannie":12378,"ĠtÃ©rm":12379,"Ġboba":12380,"ĠcientÃŃfica":12381,"branqui":12382,"Ġpacientemente":12383,"ĠDolan":12384,"Ġpusera":12385,"ĠPrecisamos":12386,"ĠlampiÃ£o":12387,"ĠinevitÃ¡vel":12388,"Ġchicote":12389,"Ġreportagem":12390,"Dar":12391,"Sandy":12392,"Ter":12393,"ao":12394,"itavam":12395,"rington":12396,"Ġcobri":12397,"remos":12398,"enciar":12399,"haw":12400,"Ġbul":12401,"Ġbone":12402,"ilÃ£o":12403,"ĠatraÃ§Ã£o":12404,"Ġinsegu":12405,"ĠpeÃ§o":12406,"Ġacesa":12407,"ĠRece":12408,"Ġentrara":12409,"ĠLat":12410,"Ġsemi":12411,"ceramente":12412,"Ġcartu":12413,"Ġficha":12414,"Ġlutou":12415,"Ġfreneticamente":12416,"Ġclima":12417,"Ġacabando":12418,"Ġenfure":12419,"ĠpareÃ§a":12420,"ĠmÃ¡rm":12421,"Ġchamados":12422,"ĠDanforth":12423,"feitura":12424,"Ġdesaparecimento":12425,"Ġarrancando":12426,"Ġfuncionou":12427,"ĠCala":12428,"Ġadiant":12429,"Ġreunidos":12430,"portÃ¡vel":12431,"Ġidentific":12432,"Ġcontorcendo":12433,"Ġconcentrar":12434,"Ġadormec":12435,"ĠÃģrvor":12436,"Pode":12437,"ĠmÃ¡scaras":12438,"Ġconsulta":12439,"Ġsangrar":12440,"lanche":12441,"Ġnervosismo":12442,"Ġcastanhos":12443,"Ġcircuito":12444,"Ġcondenado":12445,"Ġmorcegos":12446,"ĠcocÃ´":12447,"Ġinexplic":12448,"Ġdesastre":12449,"Ġcompartil":12450,"Ġvislumbre":12451,"OB":12452,"ant":12453,"josa":12454,"zas":12455,"ĠÃŃamos":12456,"Ġei":12457,"ere":12458,"ĠtivÃ©ssemos":12459,"Ġfia":12460,"ĠAnde":12461,"ĠSinger":12462,"ÃŃlio":12463,"Ġcaf":12464,"ĠCaiu":12465,"ĠPier":12466,"omas":12467,"cap":12468,"gais":12469,"Ġpreparou":12470,"ĠpodÃŃamos":12471,"Ãºlt":12472,"rugem":12473,"ĠIS":12474,"Ġsubiam":12475,"ĠNove":12476,"Ġleves":12477,"iosas":12478,"dure":12479,"Ġgostavam":12480,"Ġolhado":12481,"Ġsalada":12482,"ĠsaÃŃrem":12483,"Ġquatrocentos":12484,"ĠRee":12485,"Ġrelato":12486,"oldura":12487,"Ã³rb":12488,"Ġdesconcer":12489,"ĠexplosÃµes":12490,"ĠVejo":12491,"ĠAnders":12492,"Ġselvagens":12493,"Ġsobreviventes":12494,"Ġguardando":12495,"Ġfornalha":12496,"Ġlascas":12497,"Ġtabuleiro":12498,"Ġconstrang":12499,"Ġdesligado":12500,"ĠLembrava":12501,"Ġbelis":12502,"ĠadvertÃªncia":12503,"ĠSapadores":12504,"Ġcaipira":12505,"Par":12506,"Pass":12507,"gica":12508,"Ġauras":12509,"tamb":12510,"Ġsecamente":12511,"alhos":12512,"eland":12513,"ilos":12514,"ĠCro":12515,"Ġconchas":12516,"ĠVEN":12517,"Ġapito":12518,"ĠFrit":12519,"Ġsobra":12520,"Ġmorando":12521,"Ġalgema":12522,"Ġmene":12523,"Ġchate":12524,"Ġintim":12525,"box":12526,"Ġimpres":12527,"Ġimpresso":12528,"Ġnegar":12529,"lhado":12530,"Ġposse":12531,"utenÃ§Ã£o":12532,"Ġvistos":12533,"Ġcalibre":12534,"ĠEntende":12535,"Ġbolhas":12536,"Ġtirara":12537,"Ġsenhorita":12538,"orreu":12539,"Ġloura":12540,"Ġorla":12541,"Ġrastros":12542,"Ġagarrado":12543,"ĠStevens":12544,"Ġgote":12545,"ĠcÃ¡qui":12546,"Ġamante":12547,"Ġconcluir":12548,"Ġburra":12549,"ÃŃsticas":12550,"Ġadmitiu":12551,"Ġpublicado":12552,"Ġdivertindo":12553,"ĠeletrÃ´nica":12554,"Ġencerrado":12555,"Ġbiscoito":12556,"Ġsepultura":12557,"Contudo":12558,"Ġobedeceu":12559,"ĠUnderwood":12560,"Ġauxiliar":12561,"ĠcerimÃ´nia":12562,"Ġpersonalidade":12563,"Ġmilharal":12564,"Ġmaconha":12565,"UU":12566,"cÃªncia":12567,"cinhas":12568,"nell":12569,"Ġax":12570,"Ġpira":12571,"Ġviciado":12572,"imli":12573,"ĠcaÃ§am":12574,"mados":12575,"Ġfachada":12576,"Ġinco":12577,"ĠVir":12578,"ĠHon":12579,"Ġexcesso":12580,"Ġhosp":12581,"Ãºrb":12582,"Ġrodar":12583,"eraÃ§Ã£o":12584,"Ġnascido":12585,"posas":12586,"Ġapontava":12587,"Ġaparelhos":12588,"Ġcomplexo":12589,"RAS":12590,"ĠDodge":12591,"Ġtreme":12592,"nteiras":12593,"Ġsumindo":12594,"Ġinclinando":12595,"ĠHallow":12596,"Ġsurgiram":12597,"Ġdefesa":12598,"ĠconstruÃŃdo":12599,"Ġiluminada":12600,"ĠGuizos":12601,"Ġazule":12602,"ĠgravaÃ§Ã£o":12603,"Ġderrubando":12604,"Ġprojetando":12605,"Ġenganar":12606,"Ġdelicadeza":12607,"ĠresistÃªncia":12608,"Ġmonstruosa":12609,"emorial":12610,"Ġcauteloso":12611,"Ġcoisinha":12612,"Ġangust":12613,"ĠmÃ¡rmore":12614,"UR":12615,"cru":12616,"Ġmob":12617,"elson":12618,"ĠStra":12619,"olhos":12620,"ĠPE":12621,"ĠBurt":12622,"idor":12623,"ĠRy":12624,"ĠJerry":12625,"Ġlente":12626,"mokey":12627,"ĠiP":12628,"Ġassente":12629,"ĠforÃ§ou":12630,"chester":12631,"child":12632,"Ġramo":12633,"ĠcomeÃ§aria":12634,"Ġcorreta":12635,"Ġbarcos":12636,"Ġconfid":12637,"ĠHarlow":12638,"ĠPerlmutter":12639,"ĠSteven":12640,"Ġviviam":12641,"AND":12642,"Ġocupada":12643,"Ġcurvado":12644,"Ġarregalaram":12645,"ĠediÃ§Ã£o":12646,"Ġavisos":12647,"cidental":12648,"ĠSEU":12649,"ĠTak":12650,"Ġgeneral":12651,"ĠVovÃ´":12652,"Ġmusgo":12653,"Ġrosnou":12654,"Clint":12655,"Ġprogramas":12656,"Ġembalagem":12657,"Ġnojento":12658,"ĠPassei":12659,"Ġfuriosamente":12660,"Ġdistinguir":12661,"ĠjuÃŃzo":12662,"ĠHalloween":12663,"Sil":12664,"Sub":12665,"ab":12666,"pÃ¡":12667,"vana":12668,"raz":12669,"Ġdebil":12670,"Ġbi":12671,"Ġgiz":12672,"Ġsutil":12673,"ĠCran":12674,"Ġdespa":12675,"Ġdesori":12676,"ĠBor":12677,"Ġvere":12678,"ĠLittle":12679,"Ġcarrinhos":12680,"Ġsentando":12681,"ĠforÃ§ado":12682,"itadas":12683,"ĠUS":12684,"Ġmordendo":12685,"Ġcomparec":12686,"estÃ¡":12687,"ĠAllie":12688,"Ġsolene":12689,"Ġtenente":12690,"Ġsonhou":12691,"Ġtrancar":12692,"Ġincendi":12693,"ĠsalÃ¡rio":12694,"anapo":12695,"ĠÃºnicas":12696,"Ġ193":12697,"Ġapertada":12698,"Ġplanta":12699,"Ġpartindo":12700,"Ġespectadores":12701,"ĠSue":12702,"Ġempurrado":12703,"Ġretirar":12704,"Ġbocas":12705,"Ġengano":12706,"Ġabafada":12707,"Ġmarcava":12708,"Ġpreocupava":12709,"Ġsacana":12710,"ĠMalu":12711,"Ġalameda":12712,"ĠFlint":12713,"Ġpercebendo":12714,"Ġdanado":12715,"ieson":12716,"Ġtossir":12717,"Ġesvaz":12718,"ĠAvenue":12719,"Ġinconfund":12720,"ĠdeterminaÃ§Ã£o":12721,"Ġboquiaberto":12722,"ĠWatson":12723,"Embora":12724,"ĠAparentemente":12725,"Pouco":12726,"ĠWeizak":12727,"Ei":12728,"Pela":12729,"VER":12730,"cent":12731,"ninho":12732,"nome":12733,"pÃ³":12734,"raqu":12735,"Ġmens":12736,"ĠmÃ³rb":12737,"tavelmente":12738,"entaria":12739,"Ġligo":12740,"ĠAtrav":12741,"Ġcatar":12742,"ĠNessa":12743,"omy":12744,"ĠBlo":12745,"Ġinunda":12746,"Ġcorpu":12747,"Ġmoviam":12748,"Ġcasual":12749,"Ġpensam":12750,"vora":12751,"ĠtraÃ§o":12752,"ĠWater":12753,"Ġestam":12754,"ĠKay":12755,"ĠcriaÃ§Ã£o":12756,"Ġguer":12757,"elhada":12758,"Ġviajando":12759,"edic":12760,"Ġdormentes":12761,"Ġtrono":12762,"ĠtocÃ¡":12763,"Ġrecua":12764,"Ġfechava":12765,"RADA":12766,"ĠvestÃŃbulo":12767,"ĠDescob":12768,"Ġdistint":12769,"Ġsonolento":12770,"ĠDugan":12771,"Ġcrescia":12772,"Ġ90":12773,"Ġenrolar":12774,"Ġsocial":12775,"Ġexterna":12776,"Ġgirava":12777,"Ġdescobrira":12778,"suce":12779,"Ġmonstruoso":12780,"ĠautomÃ¡tico":12781,"ĠexcitaÃ§Ã£o":12782,"ĠigniÃ§Ã£o":12783,"IDADE":12784,"ĠAmbos":12785,"Ġgrunhiu":12786,"Ġsupondo":12787,"Ġhorrenda":12788,"Ġadequado":12789,"ĠAudrey":12790,"ĠHorace":12791,"Ġlacrim":12792,"ĠBolton":12793,"ĠconexÃ£o":12794,"Fiz":12795,"Jessie":12796,"Mo":12797,"gindo":12798,"lcho":12799,"ow":12800,"tinhas":12801,"orld":12802,"Ġsecas":12803,"Ġlob":12804,"Ã³la":12805,"ĠestÃ©":12806,"Ġelemento":12807,"Ġrezar":12808,"ĠDam":12809,"ĠTell":12810,"Ġcarpete":12811,"tase":12812,"Ã¢mbio":12813,"illian":12814,"Ġentrevis":12815,"ket":12816,"diante":12817,"Ġpup":12818,"Ġantena":12819,"Ġespeta":12820,"Ġcontinuam":12821,"ĠMant":12822,"ĠMach":12823,"Ġbonitas":12824,"Ġdezoito":12825,"ĠarmaÃ§Ã£o":12826,"Ġdesaparecendo":12827,"Ġhumanidade":12828,"Ġgrudado":12829,"Ġacolcho":12830,"Ġsignificar":12831,"Ġarrastado":12832,"Ġurina":12833,"Ġartific":12834,"Ġgemendo":12835,"Ġespalhadas":12836,"Ġduplas":12837,"ĠDiabo":12838,"Ġprofundos":12839,"Ġcolocava":12840,"Ġexperimentar":12841,"Ġescolheu":12842,"ĠexaustÃ£o":12843,"ĠdivÃ³rcio":12844,"ĠfantÃ¡stica":12845,"ĠJenny":12846,"Ġdecepcion":12847,"Ġenxugou":12848,"Ġvampiro":12849,"Ġatropelado":12850,"ĠfarmÃ¡cia":12851,"Ġhospe":12852,"?...":12853,"Oi":12854,"Pat":12855,"jamento":12856,"rr":12857,"Ġcesto":12858,"umento":12859,"entam":12860,"ĠEric":12861,"ĠAaron":12862,"Ġmaquia":12863,"ĠRai":12864,"ĠRiver":12865,"Ġproposta":12866,"ĠlaÃ§o":12867,"ĠLamento":12868,"ĠestÃ¡bulo":12869,"Ġamendo":12870,"idem":12871,"Ġdireta":12872,"Ġrobus":12873,"neve":12874,"Ġobt":12875,"badas":12876,"Ġafl":12877,"Ġgostoso":12878,"assim":12879,"Ġcontinuei":12880,"ĠTown":12881,"Ġerguidas":12882,"Ã´nicos":12883,"Ġvidrados":12884,"ĠApro":12885,"ĠMorton":12886,"rianÃ§as":12887,"gnado":12888,"Ġconstruir":12889,"ustin":12890,"ĠblÃ¡":12891,"Ġansiosa":12892,"ĠMcCa":12893,"Ġprojetava":12894,"Ġassombro":12895,"ĠIrma":12896,"Ġguardanapo":12897,"ĠAcabou":12898,"Ġextrema":12899,"ĠLeydecker":12900,"Ġharmon":12901,"ĠhipÃ³tese":12902,"ĠnÃ¡degas":12903,"Deu":12904,"ciso":12905,"ugh":12906,"arde":12907,"escente":12908,"vadas":12909,"guia":12910,"ĠOlhando":12911,"Ġalfa":12912,"ĠDec":12913,"ĠMolly":12914,"Ġcorrim":12915,"Ġcartola":12916,"Ġrachado":12917,"ĠmanutenÃ§Ã£o":12918,"Ġencontrada":12919,"chau":12920,"ĠbalanÃ§":12921,"Ġsalt":12922,"tice":12923,"Ġagl":12924,"ĠHop":12925,"Ġrecru":12926,"ĠChina":12927,"ĠChrist":12928,"Ġarrancada":12929,"Ġagulhas":12930,"ĠBlake":12931,"Ġconvenceu":12932,"Ġrisos":12933,"Ġmergulhar":12934,"Peguei":12935,"Ġavisar":12936,"ĠPuxou":12937,"Ġdesistiu":12938,"ĠHanlon":12939,"ĠridÃŃcula":12940,"Ġrumores":12941,"ĠPerguntei":12942,"Ġcompartilha":12943,"Ġmedic":12944,"Ġmasculino":12945,"Ġordenou":12946,"grima":12947,"ĠRodovia":12948,"Rose":12949,"nut":12950,"xar":12951,"isÃµes":12952,"inara":12953,"anless":12954,"Ã¡ter":12955,"ĠbÃªn":12956,"Ġparano":12957,"ĠSur":12958,"Ã³tica":12959,"Ġalt":12960,"Ġaler":12961,"ĠrÃ³":12962,"Ġfatia":12963,"Ġmudando":12964,"Ġpapa":12965,"Ġfalasse":12966,"ĠEscola":12967,"orrindo":12968,"Ġentretanto":12969,"ĠgarotÃ£o":12970,"ĠKit":12971,"Ġinterfer":12972,"Ġchamara":12973,"Ġruivo":12974,"Ġgravidade":12975,"ĠconhecÃª":12976,"Ġcontinuaria":12977,"ĠFranc":12978,"Ġfarol":12979,"ĠespÃ©c":12980,"Ġrosada":12981,"Ġexistiam":12982,"Ġdiversos":12983,"Ġevent":12984,"Ã³lico":12985,"Ġdesenhar":12986,"Ġacompanhando":12987,"Ġenfermeiras":12988,"Ġabandonou":12989,"Ġflorestas":12990,"Ġdiscutindo":12991,"Ġmanchada":12992,"ĠMiller":12993,"ĠmiserÃ¡vel":12994,"Ġadesiva":12995,"Ġfrutas":12996,"ĠVermelho":12997,"Ġespiral":12998,"Ġdecad":12999,"knock":13000,"ĠTwitch":13001,"ibodeau":13002,"ĠvinganÃ§a":13003,"tambÃ©m":13004,"Cal":13005,"PAR":13006,"RES":13007,"dica":13008,"rice":13009,"sinho":13010,"tilo":13011,"Ġida":13012,"Ġira":13013,"Ġdepo":13014,"Ġfro":13015,"ĠSanto":13016,"Ġmura":13017,"atÃ©":13018,"Ġsobrado":13019,"Ġamizade":13020,"Ġtera":13021,"ĠEstado":13022,"iorgio":13023,"Ġcolunas":13024,"Ġbares":13025,"Ġpairava":13026,"ĠPotter":13027,"Ġenfraqu":13028,"ĠToomy":13029,"ĠpuxÃ¡":13030,"ĠsÃ©culos":13031,"Ġterminasse":13032,"ĠNebras":13033,"Ġdecid":13034,"Ġprovoc":13035,"ecessÃ¡rias":13036,"Ġsumiram":13037,"ĠquestÃµes":13038,"Ġcinzentas":13039,"Ġandavam":13040,"Ġcheirando":13041,"Ġanimada":13042,"Ġremoto":13043,"Ġroncando":13044,"ĠKings":13045,"Ġadvogados":13046,"ĠsessÃ£o":13047,"Ġflutuar":13048,"ĠpopulaÃ§Ã£o":13049,"Ġesgoto":13050,"ĠfantÃ¡stico":13051,"ĠDoug":13052,"Ġsinton":13053,"ĠinfecÃ§Ã£o":13054,"Ġetique":13055,"ĠdestroÃ§os":13056,"ĠAndolini":13057,"Ġresfriado":13058,"Ġcautelosamente":13059,"xto":13060,"Ġdevas":13061,"esou":13062,"Ġfrias":13063,"reta":13064,"cow":13065,"Ġcalada":13066,"Ġastu":13067,"Ġrepre":13068,"Ġdif":13069,"ĠTio":13070,"Ġconvin":13071,"Ġparto":13072,"ĠFletcher":13073,"Ġartic":13074,"logos":13075,"Ġpav":13076,"Ġamis":13077,"Ġboatos":13078,"grade":13079,"Ġvaci":13080,"Ġcolcha":13081,"Ġaves":13082,"ticut":13083,"Ġcontinue":13084,"Ġexata":13085,"ulava":13086,"ĠConnec":13087,"ificando":13088,"fora":13089,"ĠfeijÃ£o":13090,"Ġsumira":13091,"Ġencora":13092,"ĠconstruÃ§Ãµes":13093,"Ġesperei":13094,"ĠdestruiÃ§Ã£o":13095,"Ġdificilmente":13096,"Ġcausou":13097,"Ġterremo":13098,"Ġadulta":13099,"Ġhedi":13100,"Ġintensamente":13101,"Ġrespondera":13102,"Ġnovidade":13103,"Ġdesbotada":13104,"ĠBethany":13105,"Donna":13106,"Ġrumor":13107,"Ġdesajeitado":13108,"Ġoscilando":13109,"Ġmisterioso":13110,"ĠpreguiÃ§os":13111,"Entretanto":13112,"Ġindescri":13113,"ĠepisÃ³dio":13114,"illage":13115,"ĠBillingsley":13116,"Ġvassoura":13117,"Ġdinamite":13118,"La":13119,"Ãļ":13120,"Ġsite":13121,"organ":13122,"Ġsela":13123,"role":13124,"alina":13125,"cox":13126,"ÃŃmetro":13127,"Ġalvor":13128,"ĠMister":13129,"dosa":13130,"ĠJess":13131,"Ġespiri":13132,"urrou":13133,"Ġsegurei":13134,"Ġmortes":13135,"Ġimpass":13136,"Ġmandei":13137,"Ġdireitinho":13138,"Ġrotina":13139,"Ġfechei":13140,"Ġtax":13141,"Ġbolinhas":13142,"Ġesquiv":13143,"ionar":13144,"vidamente":13145,"pare":13146,"Ġconheciam":13147,"lend":13148,"ulante":13149,"Ġprinci":13150,"gueiras":13151,"ĠConf":13152,"ĠescavaÃ§Ã£o":13153,"Ġterminei":13154,"Ġtrezentos":13155,"Ġestacionou":13156,"ĠMonte":13157,"ĠPatty":13158,"Ġapresentou":13159,"Ġhesitar":13160,"ĠCONT":13161,"Ġdobrar":13162,"ĠjustiÃ§a":13163,"Ġprosseguir":13164,"ĠdetÃª":13165,"ĠFinli":13166,"ĠRespon":13167,"Ġassumiu":13168,"Ġesmagado":13169,"Ġdemonstrar":13170,"Ġfuzil":13171,"ĠalÃ§apÃ£o":13172,"Ġtranquilamente":13173,"Ġreconfor":13174,"Ġdilace":13175,"Ġcolarinho":13176,"ĠÃªxtase":13177,"Ġcidad":13178,"ĠdobradiÃ§as":13179,"Ġmaquiagem":13180,"ĠConnecticut":13181,"feliz":13182,"ln":13183,"quice":13184,"Ġnotei":13185,"Ġmatara":13186,"Ġrural":13187,"ĠTanto":13188,"idores":13189,"Ġiniciais":13190,"ĠJuro":13191,"garo":13192,"Ġprontamente":13193,"Ġtempor":13194,"ĠhÃ£":13195,"Ġang":13196,"Ġandei":13197,"ĠLib":13198,"Ġcortador":13199,"Ġmontado":13200,"ĠIns":13201,"estic":13202,"Ġrepuls":13203,"ĠNoon":13204,"Ġjuntamente":13205,"ĠDeuses":13206,"ĠsanitÃ¡rio":13207,"ĠSauber":13208,"Ġimaginado":13209,"Ġpuxei":13210,"Ġcele":13211,"Ġhumanas":13212,"Ġcaptar":13213,"ĠmÃ©dia":13214,"oneses":13215,"Ġsilhu":13216,"Ġindicar":13217,"Ġpendiam":13218,"Ġfeitic":13219,"Ġberros":13220,"enove":13221,"Ġencostada":13222,"Ġgastar":13223,"Ġmortais":13224,"Ġartif":13225,"ĠalmoÃ§ar":13226,"Ġenrolada":13227,"Ġvizinh":13228,"Ġarrogante":13229,"Ġsuperiores":13230,"Ġdoloroso":13231,"Ġpesadamente":13232,"Ġperderam":13233,"Ġatorm":13234,"Ġorgulh":13235,"Ġbobagem":13236,"Ġequiva":13237,"ĠtendÃªncia":13238,"Ġradiante":13239,"ĠIrmÃ£":13240,"ĠlunÃ¡tico":13241,"Ġsurpreendentemente":13242,"ĠsÃŃmbolo":13243,"Ġgaivo":13244,"ĠSaubers":13245,"Ġsilhueta":13246,"TER":13247,"hrens":13248,"rÃ³":13249,"Ġsib":13250,"Ġmig":13251,"Ġmentais":13252,"arÃ£o":13253,"Ġfan":13254,"real":13255,"Ġnadar":13256,"Ġmagra":13257,"ĠNOS":13258,"ĠOU":13259,"ĠMur":13260,"magem":13261,"Ġpere":13262,"ĠJulho":13263,"Ġprojeto":13264,"ĠFicar":13265,"Ġcontasse":13266,"Ġfazemos":13267,"Ġseren":13268,"Ġassinat":13269,"Ġsobrevi":13270,"Ġcomprara":13271,"Ġcomprom":13272,"Ġfalo":13273,"udÃŃvel":13274,"Ġprimo":13275,"Ġroch":13276,"ĠestarÃ£o":13277,"derou":13278,"Ġsubconsciente":13279,"Ġinsignifica":13280,"vios":13281,"pressa":13282,"lyn":13283,"parei":13284,"Ġconhecera":13285,"Ġtrocaram":13286,"Ġferrugem":13287,"ĠRoda":13288,"Ġrasgando":13289,"Ġrasgada":13290,"Ġbordas":13291,"Ġextingu":13292,"heita":13293,"ĠnecessÃ¡ria":13294,"Ġcintilando":13295,"Ġatravessado":13296,"Ġclaras":13297,"Ġsoprar":13298,"Ġquisessem":13299,"Ġinsistia":13300,"Ġfascinante":13301,"Ġviolento":13302,"ĠrecuperaÃ§Ã£o":13303,"Ġgeng":13304,"ĠThibodeau":13305,"ĠOlhava":13306,"Ġacostuma":13307,"Ġdesfila":13308,"ĠDolores":13309,"ĠFechou":13310,"Ġzangado":13311,"grÃ¡fica":13312,"Ġpreferia":13313,"ĠchefÃ£o":13314,"Ġgordura":13315,"Ġpedacinhos":13316,"ĠbagunÃ§a":13317,"ĠAkeley":13318,"Ġmaxilar":13319,"Eram":13320,"JA":13321,"jis":13322,"Ġvice":13323,"imi":13324,"ĠlÃ£":13325,"Ġesticando":13326,"ĠcatÃ³":13327,"Ġdesat":13328,"maticamente":13329,"idou":13330,"Ġinstitu":13331,"Ġinchada":13332,"Ġacerta":13333,"ĠRho":13334,"ĠmuitÃŃssimo":13335,"ĠVillage":13336,"ĠterÃŃamos":13337,"Ġlevam":13338,"Ġprotu":13339,"Ġcontaria":13340,"ĠLimp":13341,"Ġabismos":13342,"Ġpratic":13343,"Ġpostura":13344,"Ġbarran":13345,"nsmouth":13346,"apro":13347,"ĠruÃŃna":13348,"Ġbolsas":13349,"ĠFoda":13350,"Ġacreditam":13351,"house":13352,"Ġ194":13353,"ĠArlette":13354,"Ġesperavam":13355,"Ġrefres":13356,"biri":13357,"ĠFala":13358,"Ġindist":13359,"Ġabrira":13360,"Ġlatejar":13361,"ĠGarth":13362,"Ġpermanente":13363,"loresta":13364,"ĠColheita":13365,"Ġpintar":13366,"ĠmaÃ§Ã£s":13367,"ĠEmbaixo":13368,"Ġdespeda":13369,"Ġimpuls":13370,"Ġconfiante":13371,"Ġrosnando":13372,"incoln":13373,"Ġperguntasse":13374,"Ġprodutos":13375,"ĠcÃ³digo":13376,"Ġmenininho":13377,"ĠdesconfianÃ§a":13378,"Ġpiorar":13379,"Ġciclo":13380,"ĠvidraÃ§as":13381,"ĠAconteceu":13382,"Ġencrenca":13383,"Ġhumilde":13384,"Ġprostitu":13385,"ĠimplacÃ¡vel":13386,"childt":13387,"Ġprincipais":13388,"hrenschildt":13389,"LO":13390,"blÃ¡":13391,"dres":13392,"jaram":13393,"tz":13394,"tin":13395,"osidade":13396,"inÃ¡ria":13397,"dale":13398,"entasse":13399,"Ġby":13400,"ĠNelson":13401,"Ġeletro":13402,"Ġditado":13403,"Ġsaf":13404,"ĠBert":13405,"Ġproced":13406,"Ġpregado":13407,"Ġescra":13408,"ĠlÃ¡grima":13409,"neta":13410,"ĠKent":13411,"Ã¢nia":13412,"ĠvagÃ£o":13413,"ĠtaÃ§a":13414,"ĠMarie":13415,"Ġcurtos":13416,"ĠprecisÃ£o":13417,"Ãºmero":13418,"ĠConheÃ§o":13419,"ĠfamÃŃlias":13420,"ĠMuita":13421,"Ã©rcio":13422,"chuva":13423,"ĠserviÃ§os":13424,"Ġobservado":13425,"ĠobservaÃ§Ã£o":13426,"ĠautÃªnt":13427,"Ġirregulares":13428,"Ġdivertida":13429,"Ġemitir":13430,"runwald":13431,"ĠOrd":13432,"Ġmudaram":13433,"Ġquieta":13434,"Ġtecn":13435,"Ġproduto":13436,"Ġprotesto":13437,"Ġenfileira":13438,"Ġconsiderou":13439,"Ġcicl":13440,"Ġamedrontado":13441,"Ġintervalos":13442,"ĠAudra":13443,"Ġprobabilidade":13444,"ĠNoonan":13445,"Am":13446,"ni":13447,"rÃŃvel":13448,"vura":13449,"wlie":13450,"reg":13451,"Ġesgan":13452,"dalha":13453,"Ã¡r":13454,"Ã§amento":13455,"Ġbif":13456,"all":13457,"guarda":13458,"ĠAR":13459,"ĠSat":13460,"Ġcale":13461,"ĠOficina":13462,"Ġmetra":13463,"ĠRiv":13464,"itÃ¡rios":13465,"ĠLincoln":13466,"Ġarca":13467,"ĠestÃ¡tica":13468,"Ġtrag":13469,"idinho":13470,"Ġdiagon":13471,"cionou":13472,"chava":13473,"Ġconhecidos":13474,"Ġfratura":13475,"RAM":13476,"Ġapagada":13477,"Ġprovocado":13478,"ĠInn":13479,"ĠBach":13480,"Ġrecolher":13481,"ĠmandÃ¡":13482,"Ġsuprim":13483,"Ġperturbada":13484,"Ġcuriosamente":13485,"Ġgarantia":13486,"Ġadivinhar":13487,"andante":13488,"Ġtossindo":13489,"ĠFicava":13490,"Ġconvidado":13491,"ĠShannon":13492,"Ġsolenemente":13493,"Ġesqueleto":13494,"ĠMÃ©xico":13495,"ĠsutiÃ£":13496,"ĠcorrimÃ£o":13497,"Jim":13498,"VOR":13499,"ceiro":13500,"ĠaÃ§ou":13501,"Ġvemos":13502,"ĠEye":13503,"Ġdobro":13504,"ecos":13505,"Ã³ticos":13506,"Ġmagre":13507,"Ġcaos":13508,"ĠMara":13509,"ĠTornou":13510,"Ġdesvio":13511,"Ġfabrica":13512,"Ġlatido":13513,"Ġlabiri":13514,"Ġabelha":13515,"Ġaboto":13516,"Ġcamas":13517,"Ġchic":13518,"Ġvier":13519,"Ġmarcar":13520,"Ġencontrando":13521,"ĠKir":13522,"Ġbombe":13523,"carou":13524,"Ġgravemente":13525,"ĠAnn":13526,"Ġchocal":13527,"Ġconhecemos":13528,"ĠMarsh":13529,"Ġapoiando":13530,"Ġesquecendo":13531,"Ġdesapo":13532,"Ġgovern":13533,"ĠInnsmouth":13534,"ĠcinturÃ£o":13535,"ĠexperiÃªncias":13536,"Ġpintada":13537,"ĠWilcox":13538,"ĠOhio":13539,"ĠGuarda":13540,"ĠSouth":13541,"Ġfluido":13542,"Ġfizessem":13543,"ĠBurnside":13544,"Ġcrip":13545,"Ġsugerir":13546,"ĠameaÃ§ado":13547,"Ġcrimes":13548,"Ġbombinha":13549,"ĠvitÃ³ria":13550,"Ġajoelhado":13551,"Ġconfirmar":13552,"Ġesconderijo":13553,"Ġreduzido":13554,"Ġrebel":13555,"Apesar":13556,"Ġcavernas":13557,"Ġdescontro":13558,"Ġtravessa":13559,"Ġinimigo":13560,"ĠacusaÃ§Ã£o":13561,"Ġfraqueza":13562,"ĠinacreditÃ¡vel":13563,"Ġcalafrio":13564,"Ġflecha":13565,"Ġnuclear":13566,"ĠcÃ³sm":13567,"ĠcaÃ§amba":13568,"!]":13569,"CK":13570,"Virou":13571,"ete":13572,"fres":13573,"tru":13574,"tidos":13575,"uado":13576,"Ġy":13577,"queiros":13578,"ĠfÃ³rm":13579,"ĠEis":13580,"Ġlide":13581,"americ":13582,"ocra":13583,"ÃŃso":13584,"Ġreman":13585,"ĠOcorreu":13586,"ĠCAS":13587,"ĠCÃ¢mbio":13588,"ĠDeci":13589,"ĠMis":13590,"uns":13591,"ĠfaÃŃs":13592,"ĠRoc":13593,"ĠHome":13594,"Ġexas":13595,"itoral":13596,"ĠLua":13597,"ĠcarÃ¡ter":13598,"itam":13599,"Ġtrist":13600,"Ġtrinco":13601,"Ġcometer":13602,"Ġaquecimento":13603,"ĠImp":13604,"ĠIota":13605,"Ġtorcida":13606,"ĠComitÃª":13607,"ĠexposiÃ§Ã£o":13608,"Ġlevada":13609,"rimeiro":13610,"ĠAnci":13611,"ionado":13612,"Ġferimentos":13613,"Ġlargas":13614,"ĠArran":13615,"ĠFair":13616,"renes":13617,"Ġassobia":13618,"Ġdourados":13619,"Ġenvolvia":13620,"Ġenvolveu":13621,"Ġreconhecido":13622,"Ġriscos":13623,"Ġprateada":13624,"Ġpegasse":13625,"ĠcomunicaÃ§Ã£o":13626,"Ġmatinal":13627,"Ġjardins":13628,"Ġproduziu":13629,"ĠgenuÃŃ":13630,"ĠpainÃ©is":13631,"ĠpadrÃµes":13632,"ĠConseguiu":13633,"Ġpercorreu":13634,"Ġenviado":13635,"Ġglobo":13636,"ĠCobrador":13637,"Ġfeminina":13638,"Ġinchados":13639,"ĠexercÃŃcio":13640,"Ġtelepatia":13641,"ĠconvicÃ§Ã£o":13642,"ĠÃģrvore":13643,"Certo":13644,"EF":13645,"Tr":13646,"bador":13647,"duais":13648,"hinha":13649,"udas":13650,"vinha":13651,"Ġcum":13652,"doria":13653,"assada":13654,"Ġoco":13655,"Ġcoleira":13656,"escura":13657,"ingue":13658,"Ġfase":13659,"ĠAham":13660,"ĠAfas":13661,"Ġgestos":13662,"Ġredes":13663,"Ġalo":13664,"ĠPÃºb":13665,"ĠMinhas":13666,"Ġdirige":13667,"Ġdesmo":13668,"Ġinjus":13669,"ĠRÃ¡":13670,"ĠVI":13671,"Ġletal":13672,"Ġsuaves":13673,"Ġabelhas":13674,"ĠsÃ³lido":13675,"Ġfalha":13676,"Ġlembravam":13677,"Ġtentaram":13678,"Ġbainha":13679,"apos":13680,"Ġsangra":13681,"Ġsals":13682,"ĠCoates":13683,"ĠMarcha":13684,"Ġtroco":13685,"Ġmostrador":13686,"Ġapartamentos":13687,"Ġprecise":13688,"ĠBarkovitch":13689,"Ġcompletou":13690,"ĠsÃ©rios":13691,"ĠPerto":13692,"Ġligeiro":13693,"Ġcobertores":13694,"Ġaproximaram":13695,"Ġadianta":13696,"ĠClayton":13697,"ĠconvencÃª":13698,"Ġcolete":13699,"Ġcartazes":13700,"ĠLemke":13701,"ĠOlive":13702,"ĠJamieson":13703,"ĠcentÃŃmetro":13704,"Ġagradeceu":13705,"Ġadormecida":13706,"Ġproduzindo":13707,"ĠFinn":13708,"Ġtruques":13709,"Ã¢ntico":13710,"Ġsuspeita":13711,"Ġretirado":13712,"Ġausente":13713,"Ġoscilou":13714,"Ġtravess":13715,"Ġciganos":13716,"ĠpÃ©ssimo":13717,"ĠBlue":13718,"Ġjuntaram":13719,"Ġlampejo":13720,"ĠpÃªnis":13721,"todista":13722,"ĠMounta":13723,"Ġassemb":13724,"Ġodeio":13725,"Ġalternativa":13726,"Ġpropaganda":13727,"Fec":13728,"Jul":13729,"ceira":13730,"gÃ¢ncia":13731,"zendo":13732,"ery":13733,"Ġcomece":13734,"Ġcompac":13735,"Ã©ias":13736,"Ġparara":13737,"ĠgÃ©":13738,"Ġmele":13739,"vela":13740,"ĠÃļ":13741,"Ġmastig":13742,"Ġdesci":13743,"Ġdesinte":13744,"Ġjap":13745,"Ġencom":13746,"ĠBeson":13747,"Ġpoei":13748,"Ġacesas":13749,"ĠRand":13750,"Ġchegue":13751,"ĠmansÃ£o":13752,"Ġouvisse":13753,"Ġpositivo":13754,"Ġexpressa":13755,"Ġcalcul":13756,"Ġrepleto":13757,"Ġunidade":13758,"Ġimun":13759,"Ġfiel":13760,"Ġtrom":13761,"alhada":13762,"Ġpuxava":13763,"Ġfavorita":13764,"Ġvestia":13765,"ĠcomeÃ§arem":13766,"Ġnecessariamente":13767,"ĠvirÃ¡":13768,"ggie":13769,"Ġhorrip":13770,"Ġencolher":13771,"Ġirritada":13772,"Ġaproximavam":13773,"Ġaproximadamente":13774,"Ġadormeceu":13775,"Ġaprendi":13776,"Todd":13777,"Ġalaranja":13778,"Ġcalcinhas":13779,"Ġabsurdamente":13780,"Ġdesciam":13781,"Ġrastejar":13782,"Ġderrame":13783,"Ġacharia":13784,"zyck":13785,"Ġrelaxou":13786,"liday":13787,"Voltou":13788,"Ġtrouxera":13789,"ĠfenÃ´meno":13790,"ĠWisconsin":13791,"lite":13792,"minha":13793,"Ġafer":13794,"erou":13795,"asp":13796,"ese":13797,"Ġfumo":13798,"rett":13799,"enter":13800,"del":13801,"guar":13802,"Ġnava":13803,"Ġmate":13804,"Ġmaleta":13805,"ondas":13806,"ĠNana":13807,"ĠPul":13808,"ĠouÃ§a":13809,"ĠTire":13810,"Ġenri":13811,"Ġfagu":13812,"savam":13813,"Ġprocla":13814,"Ġtola":13815,"Ġhavendo":13816,"Ġservido":13817,"Ġseriedade":13818,"ĠGiorgio":13819,"Ġmodes":13820,"izza":13821,"Ġcasco":13822,"Ġsabido":13823,"Ġpousar":13824,"Ġinten":13825,"Ġgritaria":13826,"negro":13827,"Ġtome":13828,"Ã¢nda":13829,"Ġrubor":13830,"Ġesperan":13831,"ionou":13832,"ĠaprovaÃ§Ã£o":13833,"Ġapertava":13834,"ipper":13835,"ĠLeandro":13836,"ĠEnnis":13837,"ĠCondado":13838,"ĠsensaÃ§Ãµes":13839,"ĠMejis":13840,"ĠProvid":13841,"Ġfede":13842,"foi":13843,"Ġfrancamente":13844,"Ġhorrorizado":13845,"Ġrecordava":13846,"Ġvigiando":13847,"Ġcelulares":13848,"Ġregistradora":13849,"Ġderrubado":13850,"Ġinterrompido":13851,"pleton":13852,"Ġplanejado":13853,"Ġdivertir":13854,"uralmente":13855,"Ġrepug":13856,"ĠrevelaÃ§Ã£o":13857,"Ġexcess":13858,"Ġfingir":13859,"Ġprogresso":13860,"ĠMAIS":13861,"ĠCanal":13862,"Ġrecinto":13863,"ĠBall":13864,"Ġesvazia":13865,"ĠBasta":13866,"Ġirradia":13867,"Ġirracional":13868,"Ġpiscadela":13869,"Ġhipnotizado":13870,"ĠApontou":13871,"Ġesguic":13872,"ĠPequeno":13873,"Ġencarregado":13874,"Ġeconom":13875,"Ġatrasado":13876,"ĠinconfundÃŃvel":13877,"25":13878,"oeste":13879,"pint":13880,"Ġeva":13881,"arts":13882,"Ġoper":13883,"Ġcolhei":13884,"Ġcogum":13885,"estou":13886,"Ġnacional":13887,"olho":13888,"Ġporto":13889,"Ġassem":13890,"Ġdesord":13891,"Ġfat":13892,"Ġfof":13893,"Ġfontes":13894,"Ġacendendo":13895,"ĠRem":13896,"ĠRela":13897,"ĠRudy":13898,"Ġverso":13899,"ursos":13900,"Ġtoalhas":13901,"ator":13902,"Ġprece":13903,"ĠGood":13904,"Ġtraga":13905,"Ġtortas":13906,"Ġvoltam":13907,"ĠvisÃŃveis":13908,"turais":13909,"Ġencontram":13910,"Ġtensa":13911,"Ġescritos":13912,"ĠHarley":13913,"Ġmostravam":13914,"Ġescrevera":13915,"ĠArlen":13916,"Ġdesafio":13917,"ĠRota":13918,"ĠFale":13919,"ĠespaÃ§os":13920,"Ġsuspeito":13921,"Ġfranco":13922,"Ali":13923,"ĠPense":13924,"Ġmachucou":13925,"ĠESC":13926,"Ġdissip":13927,"Ġsoubessem":13928,"Ġespalhado":13929,"Ġindiv":13930,"Ġmocinha":13931,"Ġpenetrante":13932,"Ġnoturna":13933,"ĠGinny":13934,"Ouviu":13935,"Ġaplaud":13936,"Ġocupava":13937,"Ġinstrumento":13938,"ĠradiaÃ§Ã£o":13939,"____":13940,"Ġindefin":13941,"Ġenvergonhado":13942,"Ġtubos":13943,"Ġmonitor":13944,"ĠHeming":13945,"Ġghouls":13946,"ĠNebraska":13947,"Jun":13948,"haria":13949,"mei":13950,"ovan":13951,"okey":13952,"uar":13953,"wie":13954,"Ġento":13955,"Ġpic":13956,"Ġsard":13957,"Ġcova":13958,"homem":13959,"ĠAP":13960,"amen":13961,"ĠNei":13962,"ĠNecessÃ¡rias":13963,"ĠOlhos":13964,"ĠMic":13965,"vey":13966,"Ġsau":13967,"maha":13968,"ĠRick":13969,"Ġprosa":13970,"Ġespon":13971,"urg":13972,"Ġamig":13973,"Ġchato":13974,"Ġcomprei":13975,"ĠSear":13976,"boto":13977,"ĠEsf":13978,"Ġcalcu":13979,"Ġmartel":13980,"Ġerva":13981,"Ġtardes":13982,"Ġrude":13983,"Ġpassagens":13984,"Ġmantido":13985,"Ġvestiu":13986,"Ġafasta":13987,"Ġrasgar":13988,"Ġassustar":13989,"ĠempurrÃ£o":13990,"ansy":13991,"vidou":13992,"Este":13993,"Ġcostume":13994,"Ġrosado":13995,"ÃŃaca":13996,"Ġensinou":13997,"Ġfugido":13998,"Ġevento":13999,"ĠopÃ§Ãµes":14000,
[...]
